{
  "version": "1.0",
  "truncation": null,
  "padding": null,
  "added_tokens": [
    {
      "id": 0,
      "content": "[UNK]",
      "single_word": false,
      "lstrip": false,
      "rstrip": false,
      "normalized": false,
      "special": true
    },
    {
      "id": 1,
      "content": "[CLS]",
      "single_word": false,
      "lstrip": false,
      "rstrip": false,
      "normalized": false,
      "special": true
    },
    {
      "id": 2,
      "content": "[SEP]",
      "single_word": false,
      "lstrip": false,
      "rstrip": false,
      "normalized": false,
      "special": true
    },
    {
      "id": 3,
      "content": "[PAD]",
      "single_word": false,
      "lstrip": false,
      "rstrip": false,
      "normalized": false,
      "special": true
    },
    {
      "id": 4,
      "content": "[MASK]",
      "single_word": false,
      "lstrip": false,
      "rstrip": false,
      "normalized": false,
      "special": true
    }
  ],
  "normalizer": null,
  "pre_tokenizer": {
    "type": "ByteLevel",
    "add_prefix_space": false,
    "trim_offsets": true,
    "use_regex": true
  },
  "post_processor": null,
  "decoder": null,
  "model": {
    "type": "BPE",
    "dropout": null,
    "unk_token": "[UNK]",
    "continuing_subword_prefix": null,
    "end_of_word_suffix": null,
    "fuse_unk": false,
    "byte_fallback": false,
    "ignore_merges": false,
    "vocab": {
      "[UNK]": 0,
      "[CLS]": 1,
      "[SEP]": 2,
      "[PAD]": 3,
      "[MASK]": 4,
      "!": 5,
      "\"": 6,
      "#": 7,
      "$": 8,
      "%": 9,
      "&": 10,
      "'": 11,
      "(": 12,
      ")": 13,
      "*": 14,
      "+": 15,
      ",": 16,
      "-": 17,
      ".": 18,
      "/": 19,
      "0": 20,
      "1": 21,
      "2": 22,
      "3": 23,
      "4": 24,
      "5": 25,
      "6": 26,
      "7": 27,
      "8": 28,
      "9": 29,
      ":": 30,
      ";": 31,
      "<": 32,
      ">": 33,
      "?": 34,
      "A": 35,
      "B": 36,
      "C": 37,
      "D": 38,
      "E": 39,
      "F": 40,
      "G": 41,
      "H": 42,
      "I": 43,
      "J": 44,
      "K": 45,
      "L": 46,
      "M": 47,
      "N": 48,
      "O": 49,
      "P": 50,
      "Q": 51,
      "R": 52,
      "S": 53,
      "T": 54,
      "U": 55,
      "V": 56,
      "W": 57,
      "X": 58,
      "Y": 59,
      "Z": 60,
      "\\": 61,
      "^": 62,
      "`": 63,
      "a": 64,
      "b": 65,
      "c": 66,
      "d": 67,
      "e": 68,
      "f": 69,
      "g": 70,
      "h": 71,
      "i": 72,
      "j": 73,
      "k": 74,
      "l": 75,
      "m": 76,
      "n": 77,
      "o": 78,
      "p": 79,
      "q": 80,
      "r": 81,
      "s": 82,
      "t": 83,
      "u": 84,
      "v": 85,
      "w": 86,
      "x": 87,
      "y": 88,
      "z": 89,
      "}": 90,
      "~": 91,
      "¡": 92,
      "¢": 93,
      "£": 94,
      "¤": 95,
      "¥": 96,
      "¦": 97,
      "§": 98,
      "¨": 99,
      "©": 100,
      "ª": 101,
      "«": 102,
      "¬": 103,
      "®": 104,
      "¯": 105,
      "°": 106,
      "±": 107,
      "²": 108,
      "³": 109,
      "´": 110,
      "µ": 111,
      "¶": 112,
      "·": 113,
      "¸": 114,
      "¹": 115,
      "º": 116,
      "»": 117,
      "¼": 118,
      "½": 119,
      "¾": 120,
      "¿": 121,
      "Â": 122,
      "Ã": 123,
      "Ä": 124,
      "Å": 125,
      "Æ": 126,
      "Ç": 127,
      "È": 128,
      "É": 129,
      "Ê": 130,
      "Ë": 131,
      "Ì": 132,
      "Í": 133,
      "Î": 134,
      "Ï": 135,
      "Ð": 136,
      "Ñ": 137,
      "Ò": 138,
      "Ó": 139,
      "Ô": 140,
      "Õ": 141,
      "Ö": 142,
      "×": 143,
      "Ø": 144,
      "Ù": 145,
      "Ú": 146,
      "Û": 147,
      "Ü": 148,
      "Þ": 149,
      "ß": 150,
      "à": 151,
      "á": 152,
      "â": 153,
      "ã": 154,
      "ä": 155,
      "å": 156,
      "æ": 157,
      "ç": 158,
      "è": 159,
      "é": 160,
      "ê": 161,
      "ë": 162,
      "ì": 163,
      "í": 164,
      "î": 165,
      "ï": 166,
      "ð": 167,
      "ó": 168,
      "ô": 169,
      "ĉ": 170,
      "Ċ": 171,
      "Ġ": 172,
      "ġ": 173,
      "Ģ": 174,
      "ģ": 175,
      "Ĥ": 176,
      "ĥ": 177,
      "Ħ": 178,
      "ħ": 179,
      "Ĩ": 180,
      "ĩ": 181,
      "Ī": 182,
      "ī": 183,
      "Ĭ": 184,
      "ĭ": 185,
      "Į": 186,
      "į": 187,
      "İ": 188,
      "ı": 189,
      "Ĳ": 190,
      "ĳ": 191,
      "Ĵ": 192,
      "ĵ": 193,
      "Ķ": 194,
      "ķ": 195,
      "ĸ": 196,
      "Ĺ": 197,
      "ĺ": 198,
      "Ļ": 199,
      "ļ": 200,
      "Ľ": 201,
      "ľ": 202,
      "Ŀ": 203,
      "ŀ": 204,
      "Ł": 205,
      "ł": 206,
      "Ń": 207,
      "ï¼": 208,
      "ä¸": 209,
      "ãĢ": 210,
      "ï¼Į": 211,
      "äº": 212,
      "çļ": 213,
      "çļĦ": 214,
      "ãĢĤ": 215,
      "æľ": 216,
      "åı": 217,
      "åħ": 218,
      "å¹": 219,
      "ä»": 220,
      "å¤": 221,
      "åľ": 222,
      "åĲ": 223,
      "åĪ": 224,
      "å¹´": 225,
      "å®": 226,
      "åĽ": 227,
      "çĶ": 228,
      "ä½": 229,
      "åį": 230,
      "æĹ": 231,
      "å°": 232,
      "æĸ": 233,
      "ãĢģ": 234,
      "æĺ": 235,
      "ä¹": 236,
      "è¿": 237,
      "ç»": 238,
      "åŃ": 239,
      "Ġ*": 240,
      "æĪ": 241,
      "åľ¨": 242,
      "ä¸Ģ": 243,
      "ï¼Ī": 244,
      "ï¼ī": 245,
      "ä¸º": 246,
      "ä¼": 247,
      "å¸": 248,
      "åĬ": 249,
      "åĮ": 250,
      "åĨ": 251,
      "æĿ": 252,
      "è¯": 253,
      "ä¸Ń": 254,
      "å·": 255,
      "æĺ¯": 256,
      "çī": 257,
      "è®": 258,
      "å¾": 259,
      "åĽ½": 260,
      "å¼": 261,
      "åº": 262,
      "éĩ": 263,
      "çº": 264,
      "å¤§": 265,
      "äºº": 266,
      "ç§": 267,
      "äºİ": 268,
      "å±": 269,
      "åĩ": 270,
      "æī": 271,
      "20": 272,
      "éĥ": 273,
      "æľī": 274,
      "è¡": 275,
      "éĢ": 276,
      "åİ": 277,
      "èµ": 278,
      "åĴ": 279,
      "æŃ": 280,
      "æľĪ": 281,
      "å¥": 282,
      "åĴĮ": 283,
      "å½": 284,
      "éĻ": 285,
      "èĢ": 286,
      "çİ": 287,
      "æķ": 288,
      "çĽ": 289,
      "æĶ": 290,
      "19": 291,
      "æĹ¥": 292,
      "éĺ": 293,
      "å¯": 294,
      "æĭ": 295,
      "èĩ": 296,
      "âĢ": 297,
      "æł": 298,
      "åĲİ": 299,
      "æ°": 300,
      "åŃ¦": 301,
      "æ²": 302,
      "æ³": 303,
      "ç«": 304,
      "ä»¥": 305,
      "æµ": 306,
      "è§": 307,
      "åĳ": 308,
      "äºĨ": 309,
      "ï¼ļ": 310,
      "çĲ": 311,
      "æĹ¶": 312,
      "è½": 313,
      "åī": 314,
      "è´": 315,
      "æĪĲ": 316,
      "åľ°": 317,
      "è¾": 318,
      "æĸ¯": 319,
      "åŁ": 320,
      "éĹ": 321,
      "ä¸Ĭ": 322,
      "æĢ": 323,
      "ç¬": 324,
      "åĩº": 325,
      "ä¼ļ": 326,
      "ä»ĸ": 327,
      "æ¯": 328,
      "çĶŁ": 329,
      "ä¸ª": 330,
      "æ´": 331,
      "éĥ¨": 332,
      "ãĢĭ": 333,
      "ãĢĬ": 334,
      "éķ": 335,
      "æŀ": 336,
      "æĽ": 337,
      "Â·": 338,
      "æ¸": 339,
      "ä¸į": 340,
      "ä¸İ": 341,
      "ä½ľ": 342,
      "ä¹ĭ": 343,
      "éĿ": 344,
      "ç¬¬": 345,
      "éģ": 346,
      "èĥ": 347,
      "æĬ": 348,
      "åĲį": 349,
      "åħ¬": 350,
      "è¡Į": 351,
      "å°Ķ": 352,
      "ä¿": 353,
      "ä¸»": 354,
      "å®¶": 355,
      "åĮº": 356,
      "è¥": 357,
      "æİ": 358,
      "ç½": 359,
      "è¥¿": 360,
      "åħ¶": 361,
      "åĪĨ": 362,
      "è¢": 363,
      "åıĳ": 364,
      "éĽ": 365,
      "åŃĲ": 366,
      "å¿": 367,
      "è·": 368,
      "çŃ": 369,
      "æ±": 370,
      "æ¬": 371,
      "æľ¬": 372,
      "åĨĽ": 373,
      "å»": 374,
      "ç¾": 375,
      "é¦": 376,
      "çĶ¨": 377,
      "åĪ°": 378,
      "åĵ": 379,
      "è¢«": 380,
      "å§": 381,
      "ä¾": 382,
      "èĭ": 383,
      "å¹¶": 384,
      "åįĹ": 385,
      "é¢": 386,
      "èģ": 387,
      "èĢĮ": 388,
      "é©": 389,
      "éķ¿": 390,
      "ä¸ĭ": 391,
      "èī": 392,
      "çī¹": 393,
      "çľ": 394,
      "åıĬ": 395,
      "ç±": 396,
      "çĶ±": 397,
      "ä½į": 398,
      "å¸Ĥ": 399,
      "ä¸ī": 400,
      "æĮ": 401,
      "201": 402,
      "ä¸ľ": 403,
      "æĿ¥": 404,
      "èµĽ": 405,
      "å¾·": 406,
      "æľĢ": 407,
      "åħĭ": 408,
      "åĲĮ": 409,
      "èİ": 410,
      "æ³ķ": 411,
      "é«": 412,
      "åĮĹ": 413,
      "éĩĮ": 414,
      "å¼Ģ": 415,
      "æĸ¹": 416,
      "åı¯": 417,
      "å£": 418,
      "éģĵ": 419,
      "å¤ļ": 420,
      "æĻ": 421,
      "å²": 422,
      "é«ĺ": 423,
      "çŁ": 424,
      "æĸ°": 425,
      "çĶµ": 426,
      "ãĥ": 427,
      "çī©": 428,
      "äºļ": 429,
      "ç¥": 430,
      "åīį": 431,
      "åĿ": 432,
      "è¿Ļ": 433,
      "èĩª": 434,
      "äºĮ": 435,
      "åĳĺ": 436,
      "çĲĥ": 437,
      "åĬł": 438,
      "æĸĩ": 439,
      "200": 440,
      "å¯¹": 441,
      "åĬ¨": 442,
      "ä»»": 443,
      "è·¯": 444,
      "åĪ©": 445,
      "è½¦": 446,
      "èĪ": 447,
      "ä¸ĸ": 448,
      "èĬ": 449,
      "å±±": 450,
      "å»º": 451,
      "å¾Ĺ": 452,
      "ç¾İ": 453,
      "å¦": 454,
      "èĩ³": 455,
      "ãģ": 456,
      "åįģ": 457,
      "æµ·": 458,
      "æīĢ": 459,
      "æ¼": 460,
      "ç©": 461,
      "å°ı": 462,
      "çİ°": 463,
      "ä»£": 464,
      "é¡": 465,
      "åĽł": 466,
      "äºĭ": 467,
      "é©¬": 468,
      "æľº": 469,
      "èĲ": 470,
      "æĪĺ": 471,
      "¦ģ": 472,
      "éĹ´": 473,
      "æĭī": 474,
      "åħ¥": 475,
      "è¿Ľ": 476,
      "åĨħ": 477,
      "éĺŁ": 478,
      "çķ": 479,
      "ä¹Ł": 480,
      "ç»ı": 481,
      "è°": 482,
      "çĪ": 483,
      "éļ": 484,
      "è¿ĩ": 485,
      "ãĢį": 486,
      "ãĢĮ": 487,
      "æķĻ": 488,
      "éĵ": 489,
      "å¤©": 490,
      "åľº": 491,
      "å°Ĩ": 492,
      "âĢľ": 493,
      "æŃ¤": 494,
      "âĢĿ": 495,
      "è¶": 496,
      "è¦ģ": 497,
      "èĤ": 498,
      "åĲĪ": 499,
      "çŃī": 500,
      "æĶ¿": 501,
      "çĻ": 502,
      "åı°": 503,
      "å·¥": 504,
      "çº¿": 505,
      "å¹³": 506,
      "ä½ĵ": 507,
      "ç¤": 508,
      "å·ŀ": 509,
      "æľŁ": 510,
      "çİĭ": 511,
      "èĥ½": 512,
      "çĲĨ": 513,
      "é£": 514,
      "æĥ": 515,
      "åĪ¶": 516,
      "ç«Ļ": 517,
      "ä¸ļ": 518,
      "éĢļ": 519,
      "æ¬¡": 520,
      "ãĤ": 521,
      "è®¾": 522,
      "ç®": 523,
      "ç«ĭ": 524,
      "æ¼Ķ": 525,
      "å½ĵ": 526,
      "å¤ĸ": 527,
      "ç§ĳ": 528,
      "æ°ĳ": 529,
      "æĦ": 530,
      "åº¦": 531,
      "åĮĸ": 532,
      "ç½Ĺ": 533,
      "ä½Ĩ": 534,
      "å¸ĥ": 535,
      "ç§į": 536,
      "éŁ": 537,
      "éĿ¢": 538,
      "ä½¿": 539,
      "å®ī": 540,
      "ï¼īï¼Į": 541,
      "åı·": 542,
      "èģĶ": 543,
      "æı": 544,
      "10": 545,
      "èĢħ": 546,
      "å®ļ": 547,
      "ç³": 548,
      "æŁ": 549,
      "æģ": 550,
      "åħ¨": 551,
      "ç§°": 552,
      "ç¼": 553,
      "åİŁ": 554,
      "æ¯Ķ": 555,
      "é»": 556,
      "åŁİ": 557,
      "éĻ¢": 558,
      "ç¦": 559,
      "è¡¨": 560,
      "éĤ": 561,
      "éĩį": 562,
      "çł": 563,
      "æ¡": 564,
      "è¯¥": 565,
      "æĢ§": 566,
      "ï¼Ľ": 567,
      "éĩĳ": 568,
      "ä¸¤": 569,
      "çĤ": 570,
      "åı¸": 571,
      "éĥ½": 572,
      "å£«": 573,
      "åİ¿": 574,
      "ä¸Ģä¸ª": 575,
      "åĬĽ": 576,
      "æį": 577,
      "åĽĽ": 578,
      "æĺİ": 579,
      "å¥³": 580,
      "çĽ¸": 581,
      "çľģ": 582,
      "æ°´": 583,
      "æł¼": 584,
      "éħ": 585,
      "å¼ı": 586,
      "å¢": 587,
      "çģ": 588,
      "å½±": 589,
      "èį": 590,
      "åı²": 591,
      "ç¨": 592,
      "åŁº": 593,
      "èĳ": 594,
      "ç³»": 595,
      "å¡": 596,
      "åħ°": 597,
      "er": 598,
      "æŃ£": 599,
      "å°¼": 600,
      "åŀ": 601,
      "ç±³": 602,
      "çº¦": 603,
      "éĺ¿": 604,
      "çĽ®": 605,
      "åħĥ": 606,
      "æ£": 607,
      "åģ": 608,
      "ç»Ħ": 609,
      "èĭ±": 610,
      "æ®": 611,
      "è¾¾": 612,
      "ä¹Ĳ": 613,
      "æķ°": 614,
      "èī²": 615,
      "è¿Ĳ": 616,
      "18": 617,
      "åĪĹ": 618,
      "an": 619,
      "æ²»": 620,
      "åħ³": 621,
      "æ¹": 622,
      "èµ·": 623,
      "é¦ĸ": 624,
      "ä¸ŃåĽ½": 625,
      "éĢī": 626,
      "åĶ": 627,
      "00": 628,
      "æĪĸ": 629,
      "æĢ»": 630,
      "Ġ19": 631,
      "æĶ¹": 632,
      "æŀĹ": 633,
      "çĦ": 634,
      "ä»¬": 635,
      "å¨": 636,
      "è®¡": 637,
      "é¥": 638,
      "æīĭ": 639,
      "åħ±": 640,
      "åı£": 641,
      "å±ŀ": 642,
      "åİĨ": 643,
      "ä»İ": 644,
      "å¿ĥ": 645,
      "é¾": 646,
      "æ¸¯": 647,
      "æ¶": 648,
      "å¸¸": 649,
      "è§Ĩ": 650,
      "è£": 651,
      "åĲĳ": 652,
      "åĢ": 653,
      "éĶ": 654,
      "æĿĳ": 655,
      "æ²³": 656,
      "æĹł": 657,
      "12": 658,
      "æ·": 659,
      "éľ": 660,
      "on": 661,
      "ç´": 662,
      "äº§": 663,
      "åł": 664,
      "éŁ³": 665,
      "åī§": 666,
      "æ¢": 667,
      "ä¹¦": 668,
      "å·´": 669,
      "åįİ": 670,
      "å¦Ĥ": 671,
      "äº¤": 672,
      "æİ¥": 673,
      "ç»Ł": 674,
      "ç»ĵ": 675,
      "æıĲ": 676,
      "éĽĨ": 677,
      "çº§": 678,
      "çķĮ": 679,
      "åĵģ": 680,
      "in": 681,
      "éĹ¨": 682,
      "å¹¿": 683,
      "æĴ": 684,
      "å¤ª": 685,
      "çĦ¶": 686,
      "åŀĭ": 687,
      "åĭ": 688,
      "éĴ": 689,
      "è¯Ń": 690,
      "èİ·": 691,
      "æĽ²": 692,
      "éª": 693,
      "ä¿Ŀ": 694,
      "ç±»": 695,
      "åį¡": 696,
      "æĺŁ": 697,
      "å¤«": 698,
      "éĩı": 699,
      "äºĶ": 700,
      "åıĤ": 701,
      "æĽ¾": 702,
      "è¯´": 703,
      "å½¢": 704,
      "ç»´": 705,
      "éĵģ": 706,
      "å®ŀ": 707,
      "èº": 708,
      "æł¡": 709,
      "çĽ´": 710,
      "çĭ": 711,
      "åĬ¡": 712,
      "æº": 713,
      "é¾Ļ": 714,
      "åĮħ": 715,
      "åºľ": 716,
      "å§ĭ": 717,
      "æĦı": 718,
      "çĥ": 719,
      "é¦Ļ": 720,
      "åĽ¢": 721,
      "å°±": 722,
      "ä¼ł": 723,
      "ç¥ŀ": 724,
      "æ±Ł": 725,
      "ar": 726,
      "11": 727,
      "æµģ": 728,
      "ç¾İåĽ½": 729,
      "èĮ": 730,
      "å¸Ī": 731,
      "ä¸ĩ": 732,
      "èº«": 733,
      "åı¤": 734,
      "å²Ľ": 735,
      "åıĹ": 736,
      "åįķ": 737,
      "ç¨ĭ": 738,
      "å¯¼": 739,
      "çŁ³": 740,
      "åħ¬åı¸": 741,
      "ä¹ī": 742,
      "åĽŀ": 743,
      "é²": 744,
      "çĹ": 745,
      "çı": 746,
      "çºª": 747,
      "å¤§åŃ¦": 748,
      "ç©º": 749,
      "èĻ": 750,
      "å¥¥": 751,
      "çĤ¹": 752,
      "åĪĻ": 753,
      "æ»": 754,
      "æ¸¸": 755,
      "ç®¡": 756,
      "å·²": 757,
      "æľ¯": 758,
      "çĿ": 759,
      "é¥°": 760,
      "æĥħ": 761,
      "å¥ĸ": 762,
      "å¤Ħ": 763,
      "ä½įäºİ": 764,
      "é¢Ĩ": 765,
      "èĳĹ": 766,
      "è®®": 767,
      "èĬĤ": 768,
      "ç¤¾": 769,
      "en": 770,
      "ĠãĢĬ": 771,
      "æľĿ": 772,
      "å®ĺ": 773,
      "ç¿": 774,
      "Ġ201": 775,
      "15": 776,
      "èĦ": 777,
      "æĮĩ": 778,
      "ç²": 779,
      "éĢł": 780,
      "çĶ°": 781,
      "äº¬": 782,
      "åħī": 783,
      "çĬ": 784,
      "èĴ": 785,
      "åºĶ": 786,
      "ï¼īãĢĤ": 787,
      "åĸ": 788,
      "è§Ĵ": 789,
      "199": 790,
      "çĻ½": 791,
      "åĩ»": 792,
      "çīĩ": 793,
      "å¼ł": 794,
      "æĪĲä¸º": 795,
      "éķĩ": 796,
      "å±ķ": 797,
      "çº³": 798,
      "âĢĶ": 799,
      "å°ĳ": 800,
      "å¥¹": 801,
      "æĽ´": 802,
      "åĪ«": 803,
      "å¤´": 804,
      "æĹ¥æľ¬": 805,
      "åŃĹ": 806,
      "äºĽ": 807,
      "åķ": 808,
      "èĭı": 809,
      "æŃ¦": 810,
      "æ´²": 811,
      "çĸ": 812,
      "çłĶ": 813,
      "ç¼ĸ": 814,
      "åŃ£": 815,
      "ç¬¬ä¸Ģ": 816,
      "ä¼Ĭ": 817,
      "è®¤": 818,
      "ä¿¡": 819,
      "è¿ĺ": 820,
      "åıĺ": 821,
      "çĵ": 822,
      "æĳ": 823,
      "æĿİ": 824,
      "æ´»": 825,
      "èģĮ": 826,
      "Ġ(": 827,
      "æ³¢": 828,
      "è½¬": 829,
      "åıª": 830,
      "åĳ½": 831,
      "è¿ĳ": 832,
      "çīĪ": 833,
      "åħµ": 834,
      "èµĦ": 835,
      "å±Ģ": 836,
      "æĮģ": 837,
      "å¸¦": 838,
      "åħŃ": 839,
      "æŃĮ": 840,
      "åıĸ": 841,
      "æīĵ": 842,
      "åĳ¨": 843,
      "æĻ®": 844,
      "è¶³": 845,
      "ç¡": 846,
      "é¦Ļæ¸¯": 847,
      "åĽ¾": 848,
      "é£İ": 849,
      "or": 850,
      "al": 851,
      "çĪ±": 852,
      "è¿ŀ": 853,
      "åĲĦ": 854,
      "éĻħ": 855,
      "æĶ¶": 856,
      "æ¨": 857,
      "åĽ½å®¶": 858,
      "å¼Ģå§ĭ": 859,
      "çŁ¥": 860,
      "å®ĥ": 861,
      "èı": 862,
      "ä¸¾": 863,
      "åİ»": 864,
      "ä¸ĵ": 865,
      "ä½¿çĶ¨": 866,
      "è®°": 867,
      "åıĪ": 868,
      "æ²¡": 869,
      "æĹı": 870,
      "èĹ": 871,
      "åı¯ä»¥": 872,
      "åľ°åĮº": 873,
      "åĪĿ": 874,
      "åľ£": 875,
      "æ¸ħ": 876,
      "16": 877,
      "æ®µ": 878,
      "æį®": 879,
      "è±": 880,
      "æĶ¯": 881,
      "åĦ": 882,
      "äº²": 883,
      "å§Ķ": 884,
      "æłĩ": 885,
      "å¸Ŀ": 886,
      "çĳ": 887,
      "åħĪ": 888,
      "ç©¶": 889,
      "ç¦ı": 890,
      "çļĦä¸Ģ": 891,
      "åĨ³": 892,
      "æ°Ķ": 893,
      "ä¸ĸçķĮ": 894,
      "éĿŀ": 895,
      "èĬ±": 896,
      "åĻ": 897,
      "éĺ³": 898,
      "17": 899,
      "æĿ¡": 900,
      "æĭ¬": 901,
      "ĠS": 902,
      "å®Ĺ": 903,
      "çłĶç©¶": 904,
      "åıį": 905,
      "åİĨåı²": 906,
      "åº§": 907,
      "çĶµå½±": 908,
      "è§£": 909,
      "æĶ¾": 910,
      "åĽŃ": 911,
      "çĮ": 912,
      "ä¸»è¦ģ": 913,
      "åĪĽ": 914,
      "åĮħæĭ¬": 915,
      "at": 916,
      "åķĨ": 917,
      "å¾Ģ": 918,
      "åĨį": 919,
      "ä»Ĭ": 920,
      "Ġ-": 921,
      "æŃ»": 922,
      "è¿Ľè¡Į": 923,
      "åħ«": 924,
      "ç¦»": 925,
      "æł¹": 926,
      "åĦ¿": 927,
      "æľª": 928,
      "æŀĦ": 929,
      "æŀľ": 930,
      "å¤į": 931,
      "çĪ¶": 932,
      "å®Į": 933,
      "æĪı": 934,
      "é¦Ĩ": 935,
      "es": 936,
      "å·Ŀ": 937,
      "æĴŃ": 938,
      "çĶ»": 939,
      "æ¥": 940,
      "é»Ħ": 941,
      "ä»¥åıĬ": 942,
      "åĲī": 943,
      "å¡Ķ": 944,
      "æ¯į": 945,
      "åį«": 946,
      "æ´Ľ": 947,
      "åĨł": 948,
      "è£ħ": 949,
      "å¨ģ": 950,
      "åĻ¨": 951,
      "è®º": 952,
      "åĪĴ": 953,
      "é¸": 954,
      "åį³": 955,
      "æ¬§": 956,
      "Ġ200": 957,
      "ç¬¬äºĮ": 958,
      "çĶµè§Ĩ": 959,
      "æĬ¥": 960,
      "èħ": 961,
      "å½ķ": 962,
      "ç½®": 963,
      "åįļ": 964,
      "èĤ²": 965,
      "è§Ĥ": 966,
      "ç»Ī": 967,
      "ĠC": 968,
      "21": 969,
      "èĲ¥": 970,
      "åľŁ": 971,
      "æ¹¾": 972,
      "å¥½": 973,
      "éĽ·": 974,
      "ç¤º": 975,
      "è¶ħ": 976,
      "èİ·å¾Ĺ": 977,
      "è´¨": 978,
      "åħ¶ä»ĸ": 979,
      "è§ģ": 980,
      "éĥ¨åĪĨ": 981,
      "éĢŁ": 982,
      "èĲ¨": 983,
      "å¼º": 984,
      "é¡¹": 985,
      "ä¼¯": 986,
      "æķħ": 987,
      "ä»ĸä»¬": 988,
      "æ±ī": 989,
      "åįĩ": 990,
      "198": 991,
      "æ¯ı": 992,
      "å±ħ": 993,
      "éŃ": 994,
      "éļı": 995,
      "è¾¹": 996,
      "çļĩ": 997,
      "æ²¡æľī": 998,
      "éĿĴ": 999,
      "åĵĪ": 1000,
      "14": 1001,
      "çĵ¦": 1002,
      "å¸Į": 1003,
      "ä¿®": 1004,
      "ä»¶": 1005,
      "ç»Ļ": 1006,
      "ç»Ń": 1007,
      "ä»¤": 1008,
      "è°ĥ": 1009,
      "çģ«": 1010,
      "æĺ¯ä¸Ģ": 1011,
      "is": 1012,
      "æĬķ": 1013,
      "çĹħ": 1014,
      "åĬŁ": 1015,
      "è¾ĥ": 1016,
      "ä¸ĥ": 1017,
      "èīº": 1018,
      "æºĲ": 1019,
      "æľ¨": 1020,
      "éĻĨ": 1021,
      "ä¼¦": 1022,
      "ic": 1023,
      "ä¹Ŀ": 1024,
      "åŃĺ": 1025,
      "åĬ©": 1026,
      "çĶ·": 1027,
      "æĶ»": 1028,
      "éº": 1029,
      "äº¦": 1030,
      "æ°ı": 1031,
      "åĬŀ": 1032,
      "åħ·": 1033,
      "æĿĥ": 1034,
      "åĮ»": 1035,
      "Ġåľ¨": 1036,
      "æļ": 1037,
      "13": 1038,
      "å®¢": 1039,
      "å²ģ": 1040,
      "çŃĳ": 1041,
      "æľį": 1042,
      "ä¸Ķ": 1043,
      "å¼ķ": 1044,
      "æĬ¤": 1045,
      "åĥ": 1046,
      "åŃ¦éĻ¢": 1047,
      "åħļ": 1048,
      "é£ŀ": 1049,
      "äºī": 1050,
      "ä¾ĭ": 1051,
      "è®¸": 1052,
      "çª": 1053,
      "åħ¶ä¸Ń": 1054,
      "å¾Ī": 1055,
      "èĥľ": 1056,
      "å·±": 1057,
      "éħį": 1058,
      "é¢ĺ": 1059,
      "éĻ¤": 1060,
      "å®¤": 1061,
      "å¡ŀ": 1062,
      "èĪª": 1063,
      "é²ģ": 1064,
      "æĭħ": 1065,
      "åĭĴ": 1066,
      "ï¼į": 1067,
      "22": 1068,
      "å¿Ĺ": 1069,
      "åłĤ": 1070,
      "æ´¾": 1071,
      "è½¦ç«Ļ": 1072,
      "ä»½": 1073,
      "çľŁ": 1074,
      "çº¢": 1075,
      "çĶ²": 1076,
      "æ£®": 1077,
      "è¯º": 1078,
      "åįı": 1079,
      "æĹ©": 1080,
      "çĶ±äºİ": 1081,
      "åħ´": 1082,
      "æĬĢ": 1083,
      "æ¹ĸ": 1084,
      "èĢģ": 1085,
      "é£Ł": 1086,
      "æĿĢ": 1087,
      "æ¡¥": 1088,
      "åºĦ": 1089,
      "çİ¯": 1090,
      "30": 1091,
      "æ²Ļ": 1092,
      "éĻĪ": 1093,
      "æĪĳ": 1094,
      "é»ĳ": 1095,
      "å¥ĩ": 1096,
      "el": 1097,
      "è¯Ħ": 1098,
      "è¡Ĺ": 1099,
      "å¤ĩ": 1100,
      "çıŃ": 1101,
      "è§Ħ": 1102,
      "ĠM": 1103,
      "çİĩ": 1104,
      "åĺ": 1105,
      "äººæ°ĳ": 1106,
      "åĽ½éĻħ": 1107,
      "éĥ¡": 1108,
      "ï¼īãĢģ": 1109,
      "éĤ£": 1110,
      "èĩ´": 1111,
      "çĻ¾": 1112,
      "èİ±": 1113,
      "ä»ĸçļĦ": 1114,
      "ç¢": 1115,
      "æĶ¿åºľ": 1116,
      "åıĮ": 1117,
      "çĬ¶": 1118,
      "æŁ¥": 1119,
      "å±Ĥ": 1120,
      "æīĺ": 1121,
      "æĤ": 1122,
      "åı¦": 1123,
      "è®¤ä¸º": 1124,
      "èĲ½": 1125,
      "ãĢĭï¼Ī": 1126,
      "åŁŁ": 1127,
      "å¢ĥ": 1128,
      "ç§¯": 1129,
      "ä¹ĭåĲİ": 1130,
      "ä¹¡": 1131,
      "åĪĺ": 1132,
      "è¨": 1133,
      "è¯ķ": 1134,
      "æł·": 1135,
      "åĽ´": 1136,
      "å®£": 1137,
      "å®¹": 1138,
      "è¨Ģ": 1139,
      "æ¦": 1140,
      "ç»§": 1141,
      "åĽłä¸º": 1142,
      "æĺĵ": 1143,
      "åį°": 1144,
      "çĽŁ": 1145,
      "æİ¨": 1146,
      "å¤±": 1147,
      "ä¸Ńå¿ĥ": 1148,
      "åĵ¥": 1149,
      "èĩªå·±": 1150,
      "å»ºçŃĳ": 1151,
      "ä¸ŃçļĦ": 1152,
      "æģ©": 1153,
      "æ¸¸æĪı": 1154,
      "åĩĨ": 1155,
      "åĽłæŃ¤": 1156,
      "Ġé¥°": 1157,
      "æĻ¯": 1158,
      "25": 1159,
      "éĻĲ": 1160,
      "æµİ": 1161,
      "å°Ħ": 1162,
      "ä½ľä¸º": 1163,
      "å¢ŀ": 1164,
      "æ·±": 1165,
      "éĩİ": 1166,
      "æĽ¼": 1167,
      "å§Ĩ": 1168,
      "å·¥ä½ľ": 1169,
      "it": 1170,
      "å¯Ĩ": 1171,
      "æ½": 1172,
      "æĦŁ": 1173,
      "ä¾Ľ": 1174,
      "å´": 1175,
      "åıĳçİ°": 1176,
      "åįĬ": 1177,
      "æ³ķåĽ½": 1178,
      "çĻ»": 1179,
      "è´Ŀ": 1180,
      "æ¨¡": 1181,
      "æħ": 1182,
      "ĠA": 1183,
      "é¡¿": 1184,
      "å®«": 1185,
      "æİĴ": 1186,
      "å©": 1187,
      "ä¹ĭä¸Ģ": 1188,
      "æĸ½": 1189,
      "å£°": 1190,
      "ç¾¤": 1191,
      "åī¯": 1192,
      "çħ": 1193,
      "æ¤": 1194,
      "éĹ®": 1195,
      "äºĳ": 1196,
      "è®¾è®¡": 1197,
      "éĵģè·¯": 1198,
      "é¹": 1199,
      "åŃ¦æł¡": 1200,
      "åı¯èĥ½": 1201,
      "è´¥": 1202,
      "æķ´": 1203,
      "æ¯ĶèµĽ": 1204,
      "ä¼Ĺ": 1205,
      "éŁ³ä¹Ĳ": 1206,
      "ç½ĳ": 1207,
      "åĿĩ": 1208,
      "èĢĥ": 1209,
      "ä½³": 1210,
      "ĠB": 1211,
      "åĲĮæĹ¶": 1212,
      "çĭ¬": 1213,
      "ä½ľåĵģ": 1214,
      "åįĥ": 1215,
      "ç¥ĸ": 1216,
      "æ±Ĥ": 1217,
      "åıĭ": 1218,
      "åŁĥ": 1219,
      "åĥı": 1220,
      "è¿ª": 1221,
      "å½ĵæĹ¶": 1222,
      "è¶Ĭ": 1223,
      "åĵį": 1224,
      "æ¥¼": 1225,
      "åº·": 1226,
      "æ³°": 1227,
      "197": 1228,
      "ä½ı": 1229,
      "ä¿Ħ": 1230,
      "æĭħä»»": 1231,
      "é±": 1232,
      "å¾ģ": 1233,
      "å®ģ": 1234,
      "il": 1235,
      "am": 1236,
      "ä¾§": 1237,
      "åĨłåĨĽ": 1238,
      "éĺ²": 1239,
      "é±¼": 1240,
      "us": 1241,
      "å®Ī": 1242,
      "åħ¸": 1243,
      "æĪ¿": 1244,
      "å¤ı": 1245,
      "è¿ĲåĬ¨": 1246,
      "å§Ķåĳĺ": 1247,
      "èĭ±åĽ½": 1248,
      "æĥ³": 1249,
      "åĳĬ": 1250,
      "åºĵ": 1251,
      "æŃ¥": 1252,
      "æĹ¶éĹ´": 1253,
      "è¯ģ": 1254,
      "çĥŃ": 1255,
      "è®©": 1256,
      "ä¸½": 1257,
      "ä½ķ": 1258,
      "ç´¢": 1259,
      "ä»£è¡¨": 1260,
      "195": 1261,
      "å±Ĭ": 1262,
      "å¯Ł": 1263,
      "æİĪ": 1264,
      "23": 1265,
      "è±¡": 1266,
      "ĠP": 1267,
      "ç§°ä¸º": 1268,
      "çķĻ": 1269,
      "éĩĩ": 1270,
      "æīį": 1271,
      "æ´ĭ": 1272,
      "æĸĻ": 1273,
      "æ¾": 1274,
      "åĨĻ": 1275,
      "æŃ¢": 1276,
      "èĪ°": 1277,
      "æķĪ": 1278,
      "ol": 1279,
      "è¶³çĲĥ": 1280,
      "è´¹": 1281,
      "Ġ20": 1282,
      "åı°æ¹¾": 1283,
      "çīĻ": 1284,
      "åĶ±": 1285,
      "çĳŀ": 1286,
      "èĮĥ": 1287,
      "å¸Ń": 1288,
      "éĵ¶": 1289,
      "é½": 1290,
      "éĢļè¿ĩ": 1291,
      "æ¸©": 1292,
      "éľĢ": 1293,
      "ç´ł": 1294,
      "ä¸ĸçºª": 1295,
      "çľĭ": 1296,
      "196": 1297,
      "ç»ĩ": 1298,
      "åįł": 1299,
      "çĿĢ": 1300,
      "èĽ": 1301,
      "194": 1302,
      "ç«ł": 1303,
      "éĥİ": 1304,
      "as": 1305,
      "ç®Ģ": 1306,
      "ä¾¿": 1307,
      "å·¦": 1308,
      "çĽĳ": 1309,
      "æ¡Ī": 1310,
      "ç»Ĩ": 1311,
      "åĺī": 1312,
      "å¼Ł": 1313,
      "æĪĲç«ĭ": 1314,
      "æŀģ": 1315,
      "çĶº": 1316,
      "åıĳå±ķ": 1317,
      "ä¸ģ": 1318,
      "å®Ŀ": 1319,
      "ä½Ľ": 1320,
      "éĻį": 1321,
      "ch": 1322,
      "å°ģ": 1323,
      "åł¡": 1324,
      "å±ŀäºİ": 1325,
      "åı¶": 1326,
      "éĻĦ": 1327,
      "æĪ·": 1328,
      "è¯Ŀ": 1329,
      "ç³»ç»Ł": 1330,
      "æĿ¾": 1331,
      "æī¿": 1332,
      "ĠT": 1333,
      "æ°¸": 1334,
      "èģĶèµĽ": 1335,
      "æľĢåĲİ": 1336,
      "èĴĻ": 1337,
      "ä¸įåĲĮ": 1338,
      "ä»į": 1339,
      "çīĮ": 1340,
      "ä¸¹": 1341,
      "çĿ£": 1342,
      "ä¹Į": 1343,
      "åĶĲ": 1344,
      "å¹²": 1345,
      "åİħ": 1346,
      "è¯į": 1347,
      "âĢĿãĢĤ": 1348,
      "re": 1349,
      "çĨ": 1350,
      "è¿ľ": 1351,
      "è½½": 1352,
      "å¯Į": 1353,
      "åĩł": 1354,
      "æµĭ": 1355,
      "åĪ¶ä½ľ": 1356,
      "ä½İ": 1357,
      "æĶ¿æ²»": 1358,
      "ãĢĢ": 1359,
      "åı³": 1360,
      "ä»ħ": 1361,
      "è¿°": 1362,
      "ç²¾": 1363,
      "å³": 1364,
      "ç¤¼": 1365,
      "ä»·": 1366,
      "äººåı£": 1367,
      "æĸĩåĮĸ": 1368,
      "åĲİæĿ¥": 1369,
      "ä½Ļ": 1370,
      "è´Ł": 1371,
      "èĪ¹": 1372,
      "æĿ¯": 1373,
      "æĢģ": 1374,
      "28": 1375,
      "ç§»": 1376,
      "åºĹ": 1377,
      "Ġç¬¬": 1378,
      "å¹´çļĦ": 1379,
      "æĬĬ": 1380,
      "åĩºçİ°": 1381,
      "å¿µ": 1382,
      "éļĨ": 1383,
      "å¯º": 1384,
      "å·¥ç¨ĭ": 1385,
      "24": 1386,
      "æ³¨": 1387,
      "æĭ¿": 1388,
      "åħ¬éĩĮ": 1389,
      "å¾ĭ": 1390,
      "éĢĢ": 1391,
      "éħĴ": 1392,
      "åĲįä¸º": 1393,
      "èĹı": 1394,
      "et": 1395,
      "åģľ": 1396,
      "æĹħ": 1397,
      "æĺ¾": 1398,
      "ç®¡çĲĨ": 1399,
      "ç¡®": 1400,
      "æ»¡": 1401,
      "åºķ": 1402,
      "æĺ¥": 1403,
      "èİ«": 1404,
      "åĨľ": 1405,
      "åºĨ": 1406,
      "ä¹ħ": 1407,
      "æĢĿ": 1408,
      "å¼Ĺ": 1409,
      "æĿ°": 1410,
      "ç»ĥ": 1411,
      "è¿Ļä¸ª": 1412,
      "æİ§": 1413,
      "ãĢĭï¼Į": 1414,
      "ç¥¨": 1415,
      "å¹´ä»£": 1416,
      "æľŁéĹ´": 1417,
      "ion": 1418,
      "å¼¹": 1419,
      "çĲĥéĺŁ": 1420,
      "ĠçĶŁ": 1421,
      "åĿ¦": 1422,
      "ro": 1423,
      "æĸĹ": 1424,
      "he": 1425,
      "èµ°": 1426,
      "æľĽ": 1427,
      "éĽĦ": 1428,
      "åĪ©äºļ": 1429,
      "èĴĤ": 1430,
      "ĠL": 1431,
      "è½®": 1432,
      "æŃ£å¼ı": 1433,
      "è´£": 1434,
      "èľ": 1435,
      "ãĢįï¼Į": 1436,
      "é¢Ħ": 1437,
      "æ¢ħ": 1438,
      "è¾ĳ": 1439,
      "ä¼ĺ": 1440,
      "æĵ": 1441,
      "çļ®": 1442,
      "ç§Ģ": 1443,
      "æĹ§": 1444,
      "æľĢç»Ī": 1445,
      "ä¸ĬçļĦ": 1446,
      "æī§": 1447,
      "éģĹ": 1448,
      "æ¶Ī": 1449,
      "åĢĻ": 1450,
      "å¿«": 1451,
      "åį´": 1452,
      "çŁŃ": 1453,
      "ä¹ĭéĹ´": 1454,
      "le": 1455,
      "å°¾": 1456,
      "éªĮ": 1457,
      "å°ļ": 1458,
      "è¿ĻäºĽ": 1459,
      "å½±åĵį": 1460,
      "ä¹Łæĺ¯": 1461,
      "ç¤¾ä¼ļ": 1462,
      "èįī": 1463,
      "ĠH": 1464,
      "æĲ": 1465,
      "å»¶": 1466,
      "çł´": 1467,
      "èī¾": 1468,
      "çģµ": 1469,
      "èį¯": 1470,
      "åıĤåĬł": 1471,
      "èį£": 1472,
      "æī¹": 1473,
      "ĠåİĨåı²": 1474,
      "æ¾³": 1475,
      "åıĳçĶŁ": 1476,
      "ĠĊ": 1477,
      "éº¦": 1478,
      "æīĢæľī": 1479,
      "åŃĻ": 1480,
      "ç¯": 1481,
      "è°·": 1482,
      "ĠR": 1483,
      "50": 1484,
      "å½¹": 1485,
      "ãĢĭãĢģ": 1486,
      "ä¼¼": 1487,
      "è¡Ģ": 1488,
      "è¿Ľåħ¥": 1489,
      "æłĳ": 1490,
      "çħ§": 1491,
      "çİĽ": 1492,
      "èĬĤçĽ®": 1493,
      "çļĦä¸Ģä¸ª": 1494,
      "ur": 1495,
      "æł¹æį®": 1496,
      "äººçļĦ": 1497,
      "èĵ": 1498,
      "åŁİå¸Ĥ": 1499,
      "èŃ": 1500,
      "æ²¹": 1501,
      "ç»ıæµİ": 1502,
      "âĢĿï¼Į": 1503,
      "è®¡åĪĴ": 1504,
      "å¤®": 1505,
      "ç¬¬ä¸ī": 1506,
      "ĠG": 1507,
      "åĲ«": 1508,
      "ä¸´": 1509,
      "å¤§çļĦ": 1510,
      "æĿ¨": 1511,
      "åĮĹäº¬": 1512,
      "26": 1513,
      "æĻĭ": 1514,
      "å§Ķåĳĺä¼ļ": 1515,
      "ç½Ĺæĸ¯": 1516,
      "äººçī©": 1517,
      "èĥĮ": 1518,
      "ç»Ħç»ĩ": 1519,
      "æľĹ": 1520,
      "é¼": 1521,
      "èŃ¦": 1522,
      "é¡º": 1523,
      "å¾·åĽ½": 1524,
      "ä¸Ĭæµ·": 1525,
      "åĨµ": 1526,
      "å½Ĵ": 1527,
      "ç«¯": 1528,
      "éĺµ": 1529,
      "åģļ": 1530,
      "è¯·": 1531,
      "éĽħ": 1532,
      "éĤ¦": 1533,
      "æĸŃ": 1534,
      "ä¼¤": 1535,
      "çªģ": 1536,
      "èĢ¶": 1537,
      "äº¡": 1538,
      "æĹ¶æľŁ": 1539,
      "ä¾Ŀ": 1540,
      "æģ¯": 1541,
      "åĸľ": 1542,
      "å°¼äºļ": 1543,
      "ãĢįãĢĤ": 1544,
      "æĳ©": 1545,
      "ĠD": 1546,
      "æ´¥": 1547,
      "é³": 1548,
      "æ¤į": 1549,
      "èĤ¡": 1550,
      "æķĻèĤ²": 1551,
      "æľĢä½³": 1552,
      "åħ±åĴĮ": 1553,
      "èı²": 1554,
      "å¼Ĥ": 1555,
      "æĳĦ": 1556,
      "åºŃ": 1557,
      "å®ĭ": 1558,
      "éļ¾": 1559,
      "åį¢": 1560,
      "éĹ»": 1561,
      "èĻ½": 1562,
      "27": 1563,
      "ä¸¤ä¸ª": 1564,
      "æĭ¥": 1565,
      "Ġ199": 1566,
      "æĬĢæľ¯": 1567,
      "æĪĲåĳĺ": 1568,
      "ç®Ĺ": 1569,
      "éŁ©": 1570,
      "åİĤ": 1571,
      "æľ«": 1572,
      "åŃ¦å®¶": 1573,
      "ĠF": 1574,
      "è¡ĮæĶ¿": 1575,
      "çĶŁæ´»": 1576,
      "åĲ´": 1577,
      "åĩºçīĪ": 1578,
      "æľīä¸Ģ": 1579,
      "åĬ¿": 1580,
      "åĪĩ": 1581,
      "ãĥ¼": 1582,
      "ç³»åĪĹ": 1583,
      "åıĳè¡Į": 1584,
      "è¯»": 1585,
      "æıĲä¾Ľ": 1586,
      "éĿ¢ç§¯": 1587,
      "èĪ¬": 1588,
      "om": 1589,
      "ãĥ»": 1590,
      "ãĢĭãĢģãĢĬ": 1591,
      "æŀ¶": 1592,
      "ä¸Ńå¤®": 1593,
      "æ¼Ķåĳĺ": 1594,
      "un": 1595,
      "åİĭ": 1596,
      "èī¯": 1597,
      "åĪĹè½¦": 1598,
      "é¡¶": 1599,
      "ä»ĭ": 1600,
      "äºĮåįģ": 1601,
      "èīºæľ¯": 1602,
      "âĢĶâĢĶ": 1603,
      "å·²ç»ı": 1604,
      "è¾ĸ": 1605,
      "ä¹ł": 1606,
      "æ¯Ľ": 1607,
      "æį¢": 1608,
      "æ´»åĬ¨": 1609,
      "æ²¿": 1610,
      "æ¿": 1611,
      "ãģ®": 1612,
      "æĪĺäºī": 1613,
      "æĸ¯çī¹": 1614,
      "èµ«": 1615,
      "éª¨": 1616,
      "éĿ©": 1617,
      "è¡¨ç¤º": 1618,
      "éĴŁ": 1619,
      "ä¸°": 1620,
      "è®¸å¤ļ": 1621,
      "å©ļ": 1622,
      "è¯Ĺ": 1623,
      "äºĨä¸Ģ": 1624,
      "èĩ£": 1625,
      "èĭ¥": 1626,
      "æ¬§æ´²": 1627,
      "å²¸": 1628,
      "åħ»": 1629,
      "éĽĨåĽ¢": 1630,
      "ac": 1631,
      "è½»": 1632,
      "Ġå¤§": 1633,
      "çĩ": 1634,
      "ä¸»ä¹ī": 1635,
      "ä½Ĩæĺ¯": 1636,
      "é¸Ł": 1637,
      "éĩįè¦ģ": 1638,
      "åħ±åĴĮåĽ½": 1639,
      "29": 1640,
      "ä¸»æķĻ": 1641,
      "è´µ": 1642,
      "å²©": 1643,
      "åĶ®": 1644,
      "Ġï¼Ī": 1645,
      "è¯Ĩ": 1646,
      "æľ±": 1647,
      "å¿ħ": 1648,
      "ä¸ºäºĨ": 1649,
      "è¿½": 1650,
      "æĿ¿": 1651,
      "å®ĮæĪĲ": 1652,
      "ing": 1653,
      "æķħäºĭ": 1654,
      "æ¢ģ": 1655,
      "ä¿ĿæĬ¤": 1656,
      "193": 1657,
      "000": 1658,
      "æ¯ķ": 1659,
      "åĪ°äºĨ": 1660,
      "åħ³ç³»": 1661,
      "æ¯Ĵ": 1662,
      "æĻļ": 1663,
      "ä½Ĳ": 1664,
      "ç»Ŀ": 1665,
      "åĩºçĶŁ": 1666,
      "æľįåĬ¡": 1667,
      "èģĶçĽŁ": 1668,
      "è¯ĳ": 1669,
      "åĢ¼": 1670,
      "ĠçĶŁå¹³": 1671,
      "éĢģ": 1672,
      "å¸ķ": 1673,
      "æľīéĻĲ": 1674,
      "çº½": 1675,
      "çĪµ": 1676,
      "æĺł": 1677,
      "of": 1678,
      "åĲ¯": 1679,
      "æĭį": 1680,
      "é½Ĳ": 1681,
      "çĽĸ": 1682,
      "åįģäºĮ": 1683,
      "ç£": 1684,
      "å±ĭ": 1685,
      "çĽ®åīį": 1686,
      "æĬĹ": 1687,
      "éļ¶": 1688,
      "æĪĲåĬŁ": 1689,
      "åħ¹": 1690,
      "åīįå¾Ģ": 1691,
      "å¾¡": 1692,
      "éªĳ": 1693,
      "æł¸": 1694,
      "de": 1695,
      "äºķ": 1696,
      "è§Ĵèī²": 1697,
      "åħ¼": 1698,
      "åĤ": 1699,
      "æĿŁ": 1700,
      "åĨ³å®ļ": 1701,
      "èĪŀ": 1702,
      "åĸĦ": 1703,
      "åĪĨå¸ĥ": 1704,
      "ä¹ĺ": 1705,
      "å¨ľ": 1706,
      "çļĦäºº": 1707,
      "æĹĹ": 1708,
      "èĥ¡": 1709,
      "éħ¸": 1710,
      "æ³½": 1711,
      "ä»ĸåľ¨": 1712,
      "æĭ¥æľī": 1713,
      "40": 1714,
      "ç»ĦæĪĲ": 1715,
      "èŀ": 1716,
      "åį·": 1717,
      "os": 1718,
      "ç»ĵæŀĦ": 1719,
      "åĪĨåĪ«": 1720,
      "åħ¨åĽ½": 1721,
      "çİī": 1722,
      "åĩ¯": 1723,
      "ä¸¾è¡Į": 1724,
      "åĨ²": 1725,
      "±ä¹Ĳ": 1726,
      "äº¤éĢļ": 1727,
      "éŃĶ": 1728,
      "ä»ģ": 1729,
      "èģĶåĲĪ": 1730,
      "çłģ": 1731,
      "åĲĽ": 1732,
      "å¸Ĥéķĩ": 1733,
      "ĠI": 1734,
      "èĻ½çĦ¶": 1735,
      "è¿ģ": 1736,
      "ï¼īï¼ļ": 1737,
      "æĿĤ": 1738,
      "å¾®": 1739,
      "çķ¥": 1740,
      "çİ©": 1741,
      "éĢļå¸¸": 1742,
      "åı·çº¿": 1743,
      "çļĦåľ°": 1744,
      "and": 1745,
      "èĪªç©º": 1746,
      "è®Ń": 1747,
      "éĢĲ": 1748,
      "åĬłåħ¥": 1749,
      "æķ£": 1750,
      "èĸ": 1751,
      "âĢĵ": 1752,
      "ç¿°": 1753,
      "ä¸¥": 1754,
      "é»İ": 1755,
      "è½¨": 1756,
      "åıĤä¸İ": 1757,
      "æĺĮ": 1758,
      "éĹ®é¢ĺ": 1759,
      "å®¾": 1760,
      "é¡»": 1761,
      "åĪ¤": 1762,
      "çĪ¶äº²": 1763,
      "å¦»": 1764,
      "å¤º": 1765,
      "çīĽ": 1766,
      "åĬ¨çī©": 1767,
      "éľĢè¦ģ": 1768,
      "æĻº": 1769,
      "æĺ¯åľ¨": 1770,
      "åį°åº¦": 1771,
      "åĮĹéĥ¨": 1772,
      "å°½": 1773,
      "2010": 1774,
      "åĪº": 1775,
      "äº¿": 1776,
      "éĶ¦": 1777,
      "ĠE": 1778,
      "æ²ĥ": 1779,
      "ä¿Ħç½Ĺæĸ¯": 1780,
      "åħĦ": 1781,
      "å»ºç«ĭ": 1782,
      "å¤ľ": 1783,
      "åŃĺåľ¨": 1784,
      "å®£å¸ĥ": 1785,
      "æľĢé«ĺ": 1786,
      "æĿľ": 1787,
      "çļĦå¤§": 1788,
      "ä¹Ķ": 1789,
      "æ¶¯": 1790,
      "å°ĨåĨĽ": 1791,
      "ä¸Ńåįİ": 1792,
      "ãĥ³": 1793,
      "è¡¥": 1794,
      "å®ĩ": 1795,
      "å½ĵåľ°": 1796,
      "ä»Ģ": 1797,
      "æĹ¶ä»£": 1798,
      "çŃ¾": 1799,
      "Ġæľ¬": 1800,
      "å¹¶ä¸Ķ": 1801,
      "æĿ¥èĩª": 1802,
      "ç§ĳåŃ¦": 1803,
      "ra": 1804,
      "åĲĮå¹´": 1805,
      "ĠW": 1806,
      "ç±į": 1807,
      "åĬ³": 1808,
      "èĥŀ": 1809,
      "èģļ": 1810,
      "æĿĲ": 1811,
      "æķĮ": 1812,
      "çĶ¨äºİ": 1813,
      "æķĳ": 1814,
      "éĺ¶": 1815,
      "è¾ĵ": 1816,
      "æŀª": 1817,
      "å¹³æĸ¹": 1818,
      "åľĨ": 1819,
      "çĭ¬ç«ĭ": 1820,
      "ä»ª": 1821,
      "å¼Ģåıĳ": 1822,
      "éĻ©": 1823,
      "èİī": 1824,
      "è·Ŀ": 1825,
      "æºª": 1826,
      "60": 1827,
      "ä¼ģ": 1828,
      "æ¬¢": 1829,
      "éŃı": 1830,
      "éģŃ": 1831,
      "æ£Ģ": 1832,
      "å·¨": 1833,
      "é¢ĳ": 1834,
      "é¡¹çĽ®": 1835,
      "æĭľ": 1836,
      "é¦ĸæ¬¡": 1837,
      "éĥĳ": 1838,
      "ĠN": 1839,
      "çŃĸ": 1840,
      "åħį": 1841,
      "ä¸ĢèĪ¬": 1842,
      "çĽĽ": 1843,
      "æĸ¹éĿ¢": 1844,
      "çľ¼": 1845,
      "ä¸Ŀ": 1846,
      "å·®": 1847,
      "çĶŁäº§": 1848,
      "ri": 1849,
      "ç«¥": 1850,
      "åħ·æľī": 1851,
      "åŃ¦çĶŁ": 1852,
      "åħ¬åĽŃ": 1853,
      "éĶĢ": 1854,
      "èª": 1855,
      "èĹ¤": 1856,
      "æł¼åħ°": 1857,
      "æĮī": 1858,
      "Ġof": 1859,
      "çĸĹ": 1860,
      "å½¢æĪĲ": 1861,
      "è´Ń": 1862,
      "æĮ¥": 1863,
      "ç»©": 1864,
      "è´Łè´£": 1865,
      "é©»": 1866,
      "ç½Ĺé©¬": 1867,
      "è´¢": 1868,
      "è°¢": 1869,
      "å»·": 1870,
      "æŃĮæĽ²": 1871,
      "æµ·åĨĽ": 1872,
      "èµµ": 1873,
      "å°ıè¯´": 1874,
      "åºı": 1875,
      "äºĪ": 1876,
      "ä¸ĢäºĽ": 1877,
      "éĽª": 1878,
      "ãĢĭãĢĤ": 1879,
      "æİ¢": 1880,
      "åª": 1881,
      "çĥĪ": 1882,
      "éĢĶ": 1883,
      "èĵĿ": 1884,
      "è¯¸": 1885,
      "å·¡": 1886,
      "åįķä½į": 1887,
      "å¯¼èĩ´": 1888,
      "çĽ¸åħ³": 1889,
      "çĲĥåĳĺ": 1890,
      "åĨ³èµĽ": 1891,
      "äº§çĶŁ": 1892,
      "çĪĨ": 1893,
      "è´§": 1894,
      "èį·": 1895,
      "ĠK": 1896,
      "åģĩ": 1897,
      "åįĹéĥ¨": 1898,
      "éĩĩçĶ¨": 1899,
      "è¥¿äºļ": 1900,
      "èģĮä¸ļ": 1901,
      "ç«¹": 1902,
      "ä¸ĵè¾ĳ": 1903,
      "å®½": 1904,
      "æľīéĻĲåħ¬åı¸": 1905,
      "äºĭä»¶": 1906,
      "åĿĢ": 1907,
      "çī¹åĪ«": 1908,
      "æĸ¹å¼ı": 1909,
      "åĲĪä½ľ": 1910,
      "å¹´èĩ³": 1911,
      "ter": 1912,
      "æ··": 1913,
      "æĥħåĨµ": 1914,
      "ed": 1915,
      "å®³": 1916,
      "çĦ¶èĢĮ": 1917,
      "çĶŁæ¶¯": 1918,
      "å¿ł": 1919,
      "ç»ĵæĿŁ": 1920,
      "ç½²": 1921,
      "æľºè½¦": 1922,
      "Ġ198": 1923,
      "åĩı": 1924,
      "æ¦Ĥ": 1925,
      "è®²": 1926,
      "åĨĪ": 1927,
      "2012": 1928,
      "åĪ»": 1929,
      "å¹¶åľ¨": 1930,
      "ä½ł": 1931,
      "ç§ĺ": 1932,
      "å¸ĿåĽ½": 1933,
      "éģĩ": 1934,
      "è®¾æľī": 1935,
      "2011": 1936,
      "ä¼ĳ": 1937,
      ")ï¼Į": 1938,
      "å³°": 1939,
      "éĩĬ": 1940,
      "æ¬¾": 1941,
      "åħ¬è·¯": 1942,
      "100": 1943,
      "å¥ı": 1944,
      "çĶŁçī©": 1945,
      "ä¾ĭå¦Ĥ": 1946,
      "ad": 1947,
      "31": 1948,
      "è¿Ļç§į": 1949,
      "æ®¿": 1950,
      "2008": 1951,
      "åºŁ": 1952,
      "éĤ»": 1953,
      "æ¯ķä¸ļ": 1954,
      "æ¼«": 1955,
      "éľį": 1956,
      "å¤§åĪ©": 1957,
      "æīĢä»¥": 1958,
      "è·Ł": 1959,
      "Ð°": 1960,
      "æıı": 1961,
      "çļĦæĺ¯": 1962,
      "ia": 1963,
      "ä¾¯": 1964,
      "æ³ī": 1965,
      "2009": 1966,
      "å¸®": 1967,
      "ç§ĭ": 1968,
      "2013": 1969,
      "ä¸ªäºº": 1970,
      "äºĴ": 1971,
      "çĶļ": 1972,
      "éŁ¦": 1973,
      "èĶ": 1974,
      "åıĸå¾Ĺ": 1975,
      "å«": 1976,
      "é¥°æ¼Ķ": 1977,
      "2016": 1978,
      "ul": 1979,
      "æľºåľº": 1980,
      "åģ¥": 1981,
      "æ£Ĵ": 1982,
      "æķ¦": 1983,
      "èĩªå·±çļĦ": 1984,
      "éĻĦè¿ĳ": 1985,
      "è§ī": 1986,
      "ä¸ŃåŃ¦": 1987,
      "ç»ıè¿ĩ": 1988,
      "ç»¿": 1989,
      "åıĹåĪ°": 1990,
      "çİ°åľ¨": 1991,
      "æĶ¯æĮģ": 1992,
      "å»ºè®¾": 1993,
      "ä¸įè¿ĩ": 1994,
      "çĮ®": 1995,
      "ä¸īå¹´": 1996,
      "åĿ¡": 1997,
      "çĹĩ": 1998,
      "ç¾½": 1999,
      "ç©Ĩ": 2000,
      "2014": 2001,
      "2015": 2002,
      "åĲ¸": 2003,
      "æİ§åĪ¶": 2004,
      "æĺ¯ä¸Ģä¸ª": 2005,
      "2006": 2006,
      "æĽ¿": 2007,
      "éľ²": 2008,
      "ä½ĵèĤ²": 2009,
      "åħĭæĸ¯": 2010,
      "å¯¼æ¼Ķ": 2011,
      "2007": 2012,
      "å°º": 2013,
      "th": 2014,
      "2019": 2015,
      "èĨ": 2016,
      "ä¼ļè®®": 2017,
      "ç«ŀ": 2018,
      "æī¾": 2019,
      "ï¼ļâĢľ": 2020,
      "æľºæŀĦ": 2021,
      "æ¨ª": 2022,
      "çĲ´": 2023,
      "éĨ": 2024,
      "éĢĤ": 2025,
      "èµĽåŃ£": 2026,
      "å°±æĺ¯": 2027,
      "éĺ¿å°Ķ": 2028,
      "ä½©": 2029,
      "2017": 2030,
      "åĽ½çİĭ": 2031,
      "è¿Ļä¸Ģ": 2032,
      "äººåĳĺ": 2033,
      "åŃ©": 2034,
      "åºĻ": 2035,
      "åĲĪå¹¶": 2036,
      "æĹłæ³ķ": 2037,
      "èĳĹåĲį": 2038,
      "å¤§éĻĨ": 2039,
      "éĵ¶è¡Į": 2040,
      "ay": 2041,
      "èªī": 2042,
      "å¥Ī": 2043,
      "å¦¹": 2044,
      "ä¸ĢçĽ´": 2045,
      "åħħ": 2046,
      "è¾Ĩ": 2047,
      "éĢĥ": 2048,
      "æŁĵ": 2049,
      "æĺŃ": 2050,
      "å®¶æĹı": 2051,
      "ent": 2052,
      "2018": 2053,
      "ä¸Ģèµ·": 2054,
      "åıªæľī": 2055,
      "å¹ķ": 2056,
      "ç¯ĩ": 2057,
      "å¾Ħ": 2058,
      "æ¢¦": 2059,
      "æ¤įçī©": 2060,
      "å®¡": 2061,
      "st": 2062,
      "ç»Ĩèĥŀ": 2063,
      "éĿŀå¸¸": 2064,
      "å·¥ä¸ļ": 2065,
      "ç©¿": 2066,
      "80": 2067,
      "ä½įç½®": 2068,
      "å¾Ĳ": 2069,
      "çĽĺ": 2070,
      "èµĽäºĭ": 2071,
      "å¹´åº¦": 2072,
      "èĦļ": 2073,
      "æ¸Ĳ": 2074,
      "çĤ®": 2075,
      "éĢı": 2076,
      "å¾ĹåĪ°": 2077,
      "åīĳ": 2078,
      "éĻµ": 2079,
      "éĢłæĪĲ": 2080,
      "åĽº": 2081,
      "ç»§ç»Ń": 2082,
      "åĮºåŁŁ": 2083,
      "èĢ³": 2084,
      "èĿ": 2085,
      "éĢīæĭ": 2086,
      "çİ¯å¢ĥ": 2087,
      "70": 2088,
      "è¿ĩç¨ĭ": 2089,
      "æĿ¥çļĦ": 2090,
      "ä¼łç»Ł": 2091,
      "æ£ĭ": 2092,
      "åĢŁ": 2093,
      "um": 2094,
      "ir": 2095,
      "é¢Ŀ": 2096,
      "ation": 2097,
      "èĬ¬": 2098,
      "å¾Ĵ": 2099,
      "ig": 2100,
      "æĢĢ": 2101,
      "ç½ª": 2102,
      "åĨ°": 2103,
      "é²ľ": 2104,
      "Ġt": 2105,
      "æī©": 2106,
      "èĭıèģĶ": 2107,
      "åįļçī©": 2108,
      "æŁı": 2109,
      "æĥł": 2110,
      "åĳĪ": 2111,
      "å¥ī": 2112,
      "ç¿¼": 2113,
      "æ´ª": 2114,
      "æ¼Ķåĩº": 2115,
      "èĮ¨": 2116,
      "å¥³åŃĲ": 2117,
      "ä¹±": 2118,
      "éĴ±": 2119,
      "ç»ĵæŀľ": 2120,
      "çģŃ": 2121,
      "å¢ŀåĬł": 2122,
      "åįģä¸Ģ": 2123,
      "å¤Ł": 2124,
      "åı¦å¤ĸ": 2125,
      "æĺ¯çĶ±": 2126,
      "èĩªçĶ±": 2127,
      "ä¹ĭåīį": 2128,
      "å¢ĵ": 2129,
      "æı´": 2130,
      "ãĢĤâĢĿ": 2131,
      "190": 2132,
      "ä¸»å¸Ń": 2133,
      "åĪļ": 2134,
      "å¹´éĹ´": 2135,
      "å®¶åºŃ": 2136,
      "2020": 2137,
      "æĪ´": 2138,
      "ä»¥ä¸ĭ": 2139,
      "æ¿Ģ": 2140,
      "éģĵè·¯": 2141,
      "åĶ¯": 2142,
      "è¾Ľ": 2143,
      "äºİæĺ¯": 2144,
      "åĮ»éĻ¢": 2145,
      "éĿł": 2146,
      "æĸ°éĹ»": 2147,
      "ç§ģ": 2148,
      "2000": 2149,
      "è¦ģæ±Ĥ": 2150,
      "åªĴ": 2151,
      "æŁĲ": 2152,
      "Ġ18": 2153,
      "æ¯«": 2154,
      "äº®": 2155,
      "ãĢįï¼Ī": 2156,
      "ï½": 2157,
      "è¶ħè¿ĩ": 2158,
      "å¯¹äºİ": 2159,
      "æļ´": 2160,
      "ç¼ĺ": 2161,
      "æķĻæİĪ": 2162,
      "ç¼º": 2163,
      "è¥¿çıŃ": 2164,
      "åı¦ä¸Ģ": 2165,
      "è¡£": 2166,
      "è¢Ń": 2167,
      "çº¦ç¿°": 2168,
      "id": 2169,
      "çºªå¿µ": 2170,
      "è¿Ķ": 2171,
      "è¥¿çıŃçīĻ": 2172,
      "ãĢı": 2173,
      "æŃ¤å¤ĸ": 2174,
      "ĠJ": 2175,
      "ãĢİ": 2176,
      "éķľ": 2177,
      "¤Ĳ": 2178,
      "ä¾į": 2179,
      "å¦Ĥæŀľ": 2180,
      "im": 2181,
      "35": 2182,
      "37": 2183,
      "æ±ł": 2184,
      "åĿĹ": 2185,
      "æµĻ": 2186,
      "ä¹Ļ": 2187,
      "çĽĬ": 2188,
      "èµŀ": 2189,
      "çļĨ": 2190,
      "åŃĶ": 2191,
      "éĽ¨": 2192,
      "ä¸ľäº¬": 2193,
      "åĦ¿åŃĲ": 2194,
      "ä»Ļ": 2195,
      "2005": 2196,
      "å°¤": 2197,
      "ç§¦": 2198,
      "èĦ±": 2199,
      "èĪį": 2200,
      "éĥ¨éĺŁ": 2201,
      "åĩºçļĦ": 2202,
      "ot": 2203,
      "åĲįç§°": 2204,
      "Ð¾": 2205,
      "èĻİ": 2206,
      "èĤī": 2207,
      "é«ĺéĢŁ": 2208,
      "éĩįæĸ°": 2209,
      "åĪĨä¸º": 2210,
      "æĮĩæĮ¥": 2211,
      "åĽĽå¹´": 2212,
      "90": 2213,
      "æİ¥åıĹ": 2214,
      "åıįåºĶ": 2215,
      "è¿Ľå£«": 2216,
      "åįļçī©é¦Ĩ": 2217,
      "æģ¶": 2218,
      "æĢ»ç»Ł": 2219,
      "ä¹İ": 2220,
      "åİ»ä¸ĸ": 2221,
      "æ¦ľ": 2222,
      "èĮĥåĽ´": 2223,
      "åĲ¬": 2224,
      "èħĬ": 2225,
      "èĥ½åĬĽ": 2226,
      "çŁ¿": 2227,
      "æĶ¹ä¸º": 2228,
      "çİ°ä»£": 2229,
      "ag": 2230,
      "ä¸ľåĮĹ": 2231,
      "45": 2232,
      "ä¿±ä¹Ĳ": 2233,
      "æ»¨": 2234,
      "æĽ¹": 2235,
      "éľĩ": 2236,
      "åľ°æĸ¹": 2237,
      "å§ĵ": 2238,
      "ä»»ä½ķ": 2239,
      "ä¿±ä¹Ĳéĥ¨": 2240,
      "èµı": 2241,
      "è®¨": 2242,
      "èĽĭ": 2243,
      "ç¬¬åĽĽ": 2244,
      "æ´ŀ": 2245,
      "æĪĺæĸĹ": 2246,
      "çĶµè§Ĩåī§": 2247,
      "é¡¾": 2248,
      "è°ĭ": 2249,
      "ç¦ģ": 2250,
      "èıĮ": 2251,
      "çºªå½ķ": 2252,
      "åĪĽä½ľ": 2253,
      "çĶĺ": 2254,
      "èŀį": 2255,
      "çĽ´åĪ°": 2256,
      "æįķ": 2257,
      "æ¡ĳ": 2258,
      "å¢¨": 2259,
      "âĢ¦": 2260,
      "åĨħçļĦ": 2261,
      "èĤ¯": 2262,
      "ä¼ģä¸ļ": 2263,
      "è¡¨çİ°": 2264,
      "48": 2265,
      "æĵį": 2266,
      "å¯¿": 2267,
      "ä¸ľåįĹ": 2268,
      "47": 2269,
      "åĨĽéĺŁ": 2270,
      "éĴ¢": 2271,
      "éĻ¤äºĨ": 2272,
      "æĪĲç»©": 2273,
      "åĨħå®¹": 2274,
      "ç¿»": 2275,
      "æ¯ģ": 2276,
      "ç»į": 2277,
      "æµ¦": 2278,
      "åįıä¼ļ": 2279,
      "æĢ¥": 2280,
      "46": 2281,
      "èķ": 2282,
      "åĲİçļĦ": 2283,
      "å¾ħ": 2284,
      "éĢīæĭ©": 2285,
      "æĪĪ": 2286,
      "åĪĬ": 2287,
      "åĨĽäºĭ": 2288,
      "è¿¹": 2289,
      "çĶµè§Ĩåı°": 2290,
      "å»ī": 2291,
      "ç»¼": 2292,
      "åĩ»è´¥": 2293,
      "è®¿": 2294,
      "åĪ©çĶ¨": 2295,
      "å°ıæĹ¶": 2296,
      "åĨ·": 2297,
      "å®ĥä»¬": 2298,
      "é¢ģ": 2299,
      "èĩªçĦ¶": 2300,
      "å¸ģ": 2301,
      "ï½ŀ": 2302,
      "è¸": 2303,
      "ä¸»é¢ĺ": 2304,
      "äººæ°ĳåħ±åĴĮåĽ½": 2305,
      "çīĪæľ¬": 2306,
      "ä¸»æĮģ": 2307,
      "2004": 2308,
      "è¯¾": 2309,
      "èĻ«": 2310,
      "è¯Ńè¨Ģ": 2311,
      "ĠæĿİ": 2312,
      "å°Ķæĸ¯": 2313,
      "å¹¸": 2314,
      "è¿ĲåĬ¨åĳĺ": 2315,
      "æĢ§çļĦ": 2316,
      "äºļæ´²": 2317,
      "æĭĽ": 2318,
      "éĢīä¸¾": 2319,
      "éĢĿ": 2320,
      "æĭįæĳĦ": 2321,
      "æ¯įäº²": 2322,
      "ä½ľçĶ¨": 2323,
      "é½¿": 2324,
      "æĸĩåŃ¦": 2325,
      "ĠO": 2326,
      "å½©": 2327,
      "æļĹ": 2328,
      "éº»": 2329,
      "çıł": 2330,
      "æ±ĩ": 2331,
      "åĳ³": 2332,
      "æĹĭ": 2333,
      "åĨįæ¬¡": 2334,
      "ï¼ļãĢĮ": 2335,
      "åĪ¶éĢł": 2336,
      "å¥¹çļĦ": 2337,
      "çº¿è·¯": 2338,
      "æ±½": 2339,
      "iv": 2340,
      "åŁ¹": 2341,
      "äººç±»": 2342,
      "çĶµåŃĲ": 2343,
      "éĥ½æĺ¯": 2344,
      "èİİ": 2345,
      "çĶ³": 2346,
      "åĩ¤": 2347,
      "çĴ": 2348,
      "åĬª": 2349,
      "æĹ¥åľ¨": 2350,
      "æĦıå¤§åĪ©": 2351,
      "æłĩåĩĨ": 2352,
      "éĺ´": 2353,
      "åĿļ": 2354,
      "ä¸īåįģ": 2355,
      "æľīåħ³": 2356,
      "ä¾µ": 2357,
      "å¯»": 2358,
      "æĸ¹æ³ķ": 2359,
      "è¿İ": 2360,
      "æ®ĸ": 2361,
      "ut": 2362,
      "æ¶²": 2363,
      "å¹¶ä¸į": 2364,
      "ä¹Łæľī": 2365,
      "è¾ħ": 2366,
      "ç»ľ": 2367,
      "åīĤ": 2368,
      "2021": 2369,
      "é»ĺ": 2370,
      "æģĲ": 2371,
      "æĺ¯ä¸Ģç§į": 2372,
      "58": 2373,
      "ĠV": 2374,
      "èģĶéĤ¦": 2375,
      "åħ±åĲĮ": 2376,
      "æ¸¡": 2377,
      "å¹¿ä¸ľ": 2378,
      "é¬": 2379,
      "ãĤ¹": 2380,
      "çĳŁ": 2381,
      "éļıåĲİ": 2382,
      "op": 2383,
      "çļĦæĹ¶": 2384,
      "éļĶ": 2385,
      "å¹´åľ¨": 2386,
      "ä¸»è§Ĵ": 2387,
      "æµĻæ±Ł": 2388,
      "Ġæĸ°": 2389,
      "çī©ç§į": 2390,
      "æĬµ": 2391,
      "æĤ£": 2392,
      "åĪĳ": 2393,
      "æī¬": 2394,
      "éħįéŁ³": 2395,
      "åĮ¹": 2396,
      "æĴ¤": 2397,
      "ĠÐ": 2398,
      "é³į": 2399,
      "æģĴ": 2400,
      "å®Įåħ¨": 2401,
      "è¥¿åįĹ": 2402,
      "éĩĮæĸ¯": 2403,
      "è¿·": 2404,
      "èµ¢": 2405,
      "åį±": 2406,
      "åĨ¬": 2407,
      "æĶ»åĩ»": 2408,
      "åĬ¨çĶ»": 2409,
      "å¤ªå¹³": 2410,
      "è®¾ç«ĭ": 2411,
      "å¹¼": 2412,
      "ï¼ĮãĢĬ": 2413,
      "ï¼Ł": 2414,
      "èĳ£": 2415,
      "éĿĻ": 2416,
      "æ¥ļ": 2417,
      "æĸ°çļĦ": 2418,
      "åįĪ": 2419,
      "æįŁ": 2420,
      "em": 2421,
      "åįļå£«": 2422,
      "ä¸Ńåįİäººæ°ĳåħ±åĴĮåĽ½": 2423,
      "æĭīæĸ¯": 2424,
      "åĳ¼": 2425,
      "Ġ3": 2426,
      "åħĥå¹´": 2427,
      "Ġéĺ¿": 2428,
      "ow": 2429,
      "å®ľ": 2430,
      "ä¸ĭçļĦ": 2431,
      "æ°§": 2432,
      "çĬ¯": 2433,
      "èĳ¡": 2434,
      "ç±»ä¼¼": 2435,
      "ä¹Ī": 2436,
      "å¸Ĥåľº": 2437,
      "çī¹å¾ģ": 2438,
      "æ½ľ": 2439,
      "å½¼": 2440,
      "æķ°éĩı": 2441,
      "è´¡": 2442,
      "å´ĩ": 2443,
      "çĽ´æİ¥": 2444,
      "èĦī": 2445,
      "æĽ¾ç»ı": 2446,
      "å±±ä¸ľ": 2447,
      "æľĢåĪĿ": 2448,
      "çĤ¸": 2449,
      "åĬłæĭ¿": 2450,
      "ç¾İåħĥ": 2451,
      "å®ŀéªĮ": 2452,
      "ä¹°": 2453,
      "ç¬¦": 2454,
      "ç¦»å¼Ģ": 2455,
      "è¿ĺæľī": 2456,
      "ä»»åĬ¡": 2457,
      "æıĲåĩº": 2458,
      "å®īåħ¨": 2459,
      "æīİ": 2460,
      "å¹¿æĴŃ": 2461,
      "åĮºçļĦ": 2462,
      "æĦ¿": 2463,
      "å¤§éĩı": 2464,
      "å§Ĳ": 2465,
      "åŃ¦ä¹ł": 2466,
      "åĮħåĲ«": 2467,
      "çİ©å®¶": 2468,
      "æ»ĳ": 2469,
      "ec": 2470,
      "ä¸Ģæ¬¡": 2471,
      "äº¨": 2472,
      "ä¼į": 2473,
      "æŃ»äº¡": 2474,
      "çº½çº¦": 2475,
      "ç»ĺ": 2476,
      "Ð¸": 2477,
      "2003": 2478,
      "è¾½": 2479,
      "å½¢å¼ı": 2480,
      "éĶ¦æłĩ": 2481,
      "Ġd": 2482,
      "æ²³åįĹ": 2483,
      "æĹ©æľŁ": 2484,
      "ä¸īä¸ª": 2485,
      "åĵ²": 2486,
      "é¢Ĩå¯¼": 2487,
      "çļĦå¥³": 2488,
      "åĳ½åĲį": 2489,
      "è¿Ļæĺ¯": 2490,
      "ãģĦ": 2491,
      "åĨĮ": 2492,
      "è±ª": 2493,
      "åĭĩ": 2494,
      "ä¸¾åĬŀ": 2495,
      "åı¬": 2496,
      "éŁ©åĽ½": 2497,
      "åı«": 2498,
      "éĵľ": 2499,
      "è®¾ç½®": 2500,
      "è¥¿åĮĹ": 2501,
      "çĶļèĩ³": 2502,
      "å¾½": 2503,
      "åŃĿ": 2504,
      "æ¨¡å¼ı": 2505,
      "Ġè¯¥": 2506,
      "å¹¶äºİ": 2507,
      "ä¸Ģç§į": 2508,
      "åĭĭ": 2509,
      "ä¼Ł": 2510,
      "åĲķ": 2511,
      "ä¸ĵä¸ļ": 2512,
      "äºĶå¹´": 2513,
      "å¿ħé¡»": 2514,
      "å´İ": 2515,
      "è¡ĮåĬ¨": 2516,
      "åħ±æľī": 2517,
      "è½¯": 2518,
      "ç¼©": 2519,
      "è°ĥæŁ¥": 2520,
      "Ġåľ°": 2521,
      "èĦĳ": 2522,
      "æŁ±": 2523,
      "å¼ĥ": 2524,
      "çĽĲ": 2525,
      "ä¸įèĥ½": 2526,
      "æ±¤": 2527,
      "æĪª": 2528,
      "éģ¿": 2529,
      "å¸ĮèħĬ": 2530,
      "ç³ĸ": 2531,
      "åŁºç¡": 2532,
      "çī§": 2533,
      "è¥¿éĥ¨": 2534,
      "å¹³åĿĩ": 2535,
      "è·Ŀç¦»": 2536,
      "æķı": 2537,
      "æ¯«ç±³": 2538,
      "èıľ": 2539,
      "æĴŃåĩº": 2540,
      "éĴĪ": 2541,
      "ï¼ģ": 2542,
      "æµª": 2543,
      "è½¨éģĵ": 2544,
      "æĸ¯åĿ¦": 2545,
      "åĪĨç±»": 2546,
      "od": 2547,
      "å·ŀå¸Ĥ": 2548,
      "è®¢": 2549,
      "è°Ī": 2550,
      "äºĮå¹´": 2551,
      "è®°è½½": 2552,
      "ie": 2553,
      "åĮĸåŃ¦": 2554,
      "èĲ§": 2555,
      "æķĻåłĤ": 2556,
      "æĬķèµĦ": 2557,
      "ĠSt": 2558,
      "é¢ľ": 2559,
      "çĸĳ": 2560,
      "oc": 2561,
      "75": 2562,
      "éĿĴå¹´": 2563,
      "çīł": 2564,
      "æģĭ": 2565,
      "æŀļ": 2566,
      "ç¹": 2567,
      "å¦ĩ": 2568,
      "åŁºç¡Ģ": 2569,
      "éĻ¶": 2570,
      "éĤ®": 2571,
      "æŃĮæīĭ": 2572,
      "åľĪ": 2573,
      "åĿı": 2574,
      "è´¤": 2575,
      "çĽ¸å½ĵ": 2576,
      "åķĨä¸ļ": 2577,
      "éĽķ": 2578,
      "å¦®": 2579,
      "Ġå¤©": 2580,
      "å¢Ļ": 2581,
      "åĶ¯ä¸Ģ": 2582,
      "ãĢī": 2583,
      "åĲ¦": 2584,
      "è¯¯": 2585,
      "ill": 2586,
      "å¥Ĺ": 2587,
      "æ©": 2588,
      "ãĢĪ": 2589,
      "åľ°ä¸ĭ": 2590,
      "å°Ĭ": 2591,
      "å±ħæ°ĳ": 2592,
      "éĺ»": 2593,
      "çĲĨè®º": 2594,
      "éĥŃ": 2595,
      "åĬłæĭ¿å¤§": 2596,
      "à¸": 2597,
      "æĸĩçī©": 2598,
      "é£ŀè¡Į": 2599,
      "ï¼ı": 2600,
      "åĽĽå·Ŀ": 2601,
      "åĿĲ": 2602,
      "36": 2603,
      "éĶ¡": 2604,
      "é¬¼": 2605,
      "å¹¿åľº": 2606,
      "ãĥ«": 2607,
      "è¢«ç§°ä¸º": 2608,
      "è£ģ": 2609,
      "è¿ŀç»Ń": 2610,
      "æĹ¶çļĦ": 2611,
      "55": 2612,
      "ä¸Ģæł·": 2613,
      "è´º": 2614,
      "èĭ±æł¼åħ°": 2615,
      "éļ¶å±ŀäºİ": 2616,
      "ä»Ķ": 2617,
      "ãĤ¤": 2618,
      "åĪĨéĴŁ": 2619,
      "å¸®åĬ©": 2620,
      "æ½®": 2621,
      "åħĦå¼Ł": 2622,
      "ou": 2623,
      "åħ³äºİ": 2624,
      "æııè¿°": 2625,
      "ap": 2626,
      "åħ¶åĲİ": 2627,
      "é£ŀæľº": 2628,
      "åįĸ": 2629,
      "ä»ĵ": 2630,
      "æİĮ": 2631,
      "å¤ļæķ°": 2632,
      "ä¼Ĳ": 2633,
      "ä¸ºP": 2634,
      "ç¬¬ä¸Ģæ¬¡": 2635,
      "æĺ¾ç¤º": 2636,
      "æĸ¹åĲĳ": 2637,
      "æķ°æį®": 2638,
      "æ¡ĥ": 2639,
      "è¶ħçº§": 2640,
      "Ġé¥°æ¼Ķ": 2641,
      "38": 2642,
      "è¯ī": 2643,
      "æļĤ": 2644,
      "2002": 2645,
      "Ġ1": 2646,
      "Ġä¸Ń": 2647,
      "åĲįåŃĹ": 2648,
      "ä»ĺ": 2649,
      "å®¿": 2650,
      "éĹŃ": 2651,
      "ä¹ĭéĹ´çļĦ": 2652,
      "èµ¤": 2653,
      "åįĹäº¬": 2654,
      "Ġé©¬": 2655,
      "ä¸¤äºº": 2656,
      "éĻ·": 2657,
      "ç´§": 2658,
      "é©±": 2659,
      "éĥ¨éķ¿": 2660,
      "èĥ½å¤Ł": 2661,
      "ard": 2662,
      "äº«": 2663,
      "æ²ī": 2664,
      "å»ºéĢł": 2665,
      "è¿«": 2666,
      "Ðµ": 2667,
      "æ³Ľ": 2668,
      "æŀĲ": 2669,
      "è£Ĥ": 2670,
      "æī§è¡Į": 2671,
      "Ġçİĭ": 2672,
      "è®¯": 2673,
      "èĲĦ": 2674,
      "èĳ¡èĲĦ": 2675,
      "è¿ŀæİ¥": 2676,
      "èĢĮä¸Ķ": 2677,
      "ä¸ĺ": 2678,
      "å¹»": 2679,
      "2022": 2680,
      "åįķæĽ²": 2681,
      "è¡Įä¸º": 2682,
      "ç¹ģ": 2683,
      "åī§æĥħ": 2684,
      "çģ°": 2685,
      "Ġ2": 2686,
      "é£İæł¼": 2687,
      "æĪĺå½¹": 2688,
      "ï¼ļãĢĬ": 2689,
      "78": 2690,
      "ä¹ĥ": 2691,
      "av": 2692,
      "çĶ·åŃĲ": 2693,
      "è®¾æĸ½": 2694,
      "è·¨": 2695,
      "åĢĴ": 2696,
      "åıĳå¸ĥ": 2697,
      "è§ĦåĪĴ": 2698,
      "éĺģ": 2699,
      "è®Ńç»ĥ": 2700,
      "ç¬Ķ": 2701,
      "ä½ľæĽ²": 2702,
      "ä¿Ĺ": 2703,
      "æ¼«çĶ»": 2704,
      "æĭĶ": 2705,
      "å®ª": 2706,
      "ä¸»ä»»": 2707,
      "å¤ªéĺ³": 2708,
      "æĺĨ": 2709,
      "å®ŀéĻħ": 2710,
      "æĪĳä»¬": 2711,
      "ä¸Ģä¸ĸ": 2712,
      "çĩķ": 2713,
      "åĲĦç§į": 2714,
      "33": 2715,
      "äº§åĵģ": 2716,
      "å¸ĮæľĽ": 2717,
      "Ġé«ĺ": 2718,
      "æ²Ī": 2719,
      "æĮ¯": 2720,
      "éĿĸ": 2721,
      "åĿĳ": 2722,
      "è§¦": 2723,
      "åŁºçĿ£": 2724,
      "åħ¨çĲĥ": 2725,
      "æĺĤ": 2726,
      "èµĸ": 2727,
      "ç´«": 2728,
      "äºĮä¸ĸ": 2729,
      "è·ĳ": 2730,
      "äºĭåĬ¡": 2731,
      "Ġä¸ŃåĽ½": 2732,
      "ers": 2733,
      "åħ¬å¼Ģ": 2734,
      "ç¥Ń": 2735,
      "2001": 2736,
      "å£¤": 2737,
      "çļĩå¸Ŀ": 2738,
      "å¤§æĪĺ": 2739,
      "è£Ķ": 2740,
      "åĬŁèĥ½": 2741,
      "ä¸įæĺ¯": 2742,
      "çĨĻ": 2743,
      "æĢª": 2744,
      "åİŁåĽł": 2745,
      "ä¸»æ¼Ķ": 2746,
      "è®®ä¼ļ": 2747,
      "ç©ºéĹ´": 2748,
      "æŁ´": 2749,
      "åıĳè¡¨": 2750,
      "åģı": 2751,
      "çĸ«": 2752,
      "éĢīæīĭ": 2753,
      "ä¸ľéĥ¨": 2754,
      "åħŃå¹´": 2755,
      "æĺİæľĿ": 2756,
      "Ð½": 2757,
      "çĸ¾": 2758,
      "è´¸": 2759,
      "èļ": 2760,
      "åªĴä½ĵ": 2761,
      "Ġ:": 2762,
      "æķ¬": 2763,
      "ä¸įä¹ħ": 2764,
      "é¢Ĺ": 2765,
      "ç§Ł": 2766,
      "çº¹": 2767,
      "éĶĭ": 2768,
      "ell": 2769,
      "éĢĬ": 2770,
      "åľ°éĵģ": 2771,
      "åħ½": 2772,
      "çº¯": 2773,
      "ak": 2774,
      "ä½ľå®¶": 2775,
      "ov": 2776,
      "å¢ĥåĨħ": 2777,
      "æľĪåı°": 2778,
      "é¹¿": 2779,
      "è¾ŀ": 2780,
      "çº¸": 2781,
      "åŃ¦åĲį": 2782,
      "èĳ¬": 2783,
      "åħ¨éĥ¨": 2784,
      "æ²»çĸĹ": 2785,
      "æİĴåĲį": 2786,
      "èĩªæ²»": 2787,
      "çĽ¸åĲĮ": 2788,
      "èĴĻåı¤": 2789,
      "é¤Ĳ": 2790,
      "ä»ĸä»¬çļĦ": 2791,
      "ä»¥æĿ¥": 2792,
      "è´Ŀå°Ķ": 2793,
      "èµ¢å¾Ĺ": 2794,
      "ä»įçĦ¶": 2795,
      "ç¤¾åĮº": 2796,
      "ä¼¦æķ¦": 2797,
      "åŁºæľ¬": 2798,
      "å¾Īå¤ļ": 2799,
      "å®ļçļĦ": 2800,
      "ç´¯": 2801,
      "çĲ³": 2802,
      "çıį": 2803,
      "å£ģ": 2804,
      "è®¡ç®Ĺ": 2805,
      "æķĻç»ĥ": 2806,
      "åľ¨æŃ¤": 2807,
      "39": 2808,
      "æ°ĳæĹı": 2809,
      "Ġå°ı": 2810,
      "æŁ¯": 2811,
      "éĵģéģĵ": 2812,
      "æĸ¯ç§ĳ": 2813,
      "ç¡¬": 2814,
      "æ¼ĶåĶ±": 2815,
      "âĢĿï¼Ī": 2816,
      "åıĪç§°": 2817,
      "ç²ī": 2818,
      "49": 2819,
      "ä¸ĢåĲį": 2820,
      "ä¼¸": 2821,
      "åľ°çĲĥ": 2822,
      "ä¼´": 2823,
      "è·³": 2824,
      "çĲĥä¼ļ": 2825,
      "ä¿Ĭ": 2826,
      "è¾¾åĪ°": 2827,
      "å¼ĺ": 2828,
      "65": 2829,
      "ä¸įåĲĮçļĦ": 2830,
      "èĭ±è¯Ń": 2831,
      "å»ºäºİ": 2832,
      "ÑĢ": 2833,
      "ãĢĤãĢį": 2834,
      "The": 2835,
      "ç»Łæ²»": 2836,
      "Ġs": 2837,
      "ä¸ºä¸»": 2838,
      "Ġde": 2839,
      "è§Ī": 2840,
      "ç»¼åĲĪ": 2841,
      "çĮİ": 2842,
      "åŃŁ": 2843,
      "ab": 2844,
      "æľĭ": 2845,
      "é©¬æĿ¥": 2846,
      "çĤİ": 2847,
      "éļľ": 2848,
      "çĬ¹": 2849,
      "èµł": 2850,
      "çĥ§": 2851,
      "æłĸ": 2852,
      "è¾ī": 2853,
      "ç»§æī¿": 2854,
      "èį£èªī": 2855,
      "åĩºçĶŁäºİ": 2856,
      "è´¾": 2857,
      "åİļ": 2858,
      "æģ¢": 2859,
      "Ñģ": 2860,
      "æ¢°": 2861,
      "ä¼ı": 2862,
      "ist": 2863,
      "åħĭåħ°": 2864,
      "å°½ç®¡": 2865,
      "189": 2866,
      "å¦»åŃĲ": 2867,
      "å¤ĦçĲĨ": 2868,
      "çļĦç¬¬": 2869,
      "åĪĢ": 2870,
      "èĮ¶": 2871,
      "å¹´åĲİ": 2872,
      "çĦ¶åĲİ": 2873,
      "éĢŁåº¦": 2874,
      "åģ¶": 2875,
      "å±ŀçļĦ": 2876,
      "éļĲ": 2877,
      "ä¿¡æģ¯": 2878,
      "è¡Ĺéģĵ": 2879,
      "åŃ¦ä½į": 2880,
      "32": 2881,
      "ä½Ĩåľ¨": 2882,
      "èĽĩ": 2883,
      "æĶ¹ç¼ĸ": 2884,
      "å¼ĢæĶ¾": 2885,
      "è¿Ī": 2886,
      "æĻ¶": 2887,
      "Ġå¼ł": 2888,
      "æĹģ": 2889,
      "é¾Ħ": 2890,
      "Ã©": 2891,
      "åĽ°": 2892,
      "çĨĬ": 2893,
      "ine": 2894,
      "çŃīäºº": 2895,
      "ç¨³": 2896,
      "å°ĳå¹´": 2897,
      "è¯Ħä»·": 2898,
      "åıĺåĮĸ": 2899,
      "é¼ĵ": 2900,
      "34": 2901,
      "Ġéĩĳ": 2902,
      "æľĢæĹ©": 2903,
      "æ®ĭ": 2904,
      "æį·": 2905,
      "åŁĶ": 2906,
      "è°±": 2907,
      "ä½¿å¾Ĺ": 2908,
      "ä¸ļåĬ¡": 2909,
      "æħķ": 2910,
      "åħ¬åħ±": 2911,
      "ä¸Ĭæĺł": 2912,
      "ç®Ģç§°": 2913,
      "Ġ4": 2914,
      "çī©çĲĨ": 2915,
      "å·´é»İ": 2916,
      "éĶĻ": 2917,
      "æ®Ĭ": 2918,
      "Ġä¸İ": 2919,
      "çģ¯": 2920,
      "èĳĽ": 2921,
      "ç»ıèĲ¥": 2922,
      "ç»ıå¸¸": 2923,
      "å®ħ": 2924,
      "åĽŀåĪ°": 2925,
      "å¨ģå»ī": 2926,
      "èĥĮæĻ¯": 2927,
      "åĹ": 2928,
      "Ġm": 2929,
      "éĺ¶æ®µ": 2930,
      "èµĦæĸĻ": 2931,
      "èİ²": 2932,
      "çķª": 2933,
      "ç¦ıå»º": 2934,
      "æľĢå¤§": 2935,
      "ĠCh": 2936,
      "ç®Ń": 2937,
      "æ°ĳä¸»": 2938,
      "ãģĹ": 2939,
      "TC": 2940,
      "ç¾¤å²Ľ": 2941,
      "æ¡£": 2942,
      "çļĦå°ı": 2943,
      "æŁ³": 2944,
      "éĢĿä¸ĸ": 2945,
      "åĬŀåħ¬": 2946,
      "åİ¦": 2947,
      "ce": 2948,
      "Ġ2016": 2949,
      "ä¸¥éĩį": 2950,
      "ä¹³": 2951,
      "æģ¢å¤į": 2952,
      "è½´": 2953,
      "å¤©æ´¥": 2954,
      "çİĦ": 2955,
      "åĩºäºĨ": 2956,
      "æ¯Ķäºļ": 2957,
      "çİĭåĽ½": 2958,
      "åħ¬å°º": 2959,
      "çĩĥ": 2960,
      "St": 2961,
      "éĥ¨éĹ¨": 2962,
      "è¿ĲèĲ¥": 2963,
      "åĽ¾ä¹¦": 2964,
      "é¢ĳéģĵ": 2965,
      "ä¼°": 2966,
      "è¡¨æ¼Ķ": 2967,
      "çļĦæĸ°": 2968,
      "å¹¿å·ŀ": 2969,
      "åıĳåĬ¨": 2970,
      "ç¾İæ´²": 2971,
      "å·¦åı³": 2972,
      "åĽ½æ°ĳ": 2973,
      "èį·åħ°": 2974,
      "è¡ĮæĶ¿åĮº": 2975,
      "éŀ": 2976,
      "æĬĺ": 2977,
      "åĲĥ": 2978,
      "å°Ķå¾·": 2979,
      "ãĥĪ": 2980,
      "éĻķ": 2981,
      "èĢħçļĦ": 2982,
      "æĮĳ": 2983,
      "æĿī": 2984,
      "1999": 2985,
      "Ġ2018": 2986,
      "Ġ2010": 2987,
      "çĮª": 2988,
      "çºµ": 2989,
      "éĶ¦æłĩèµĽ": 2990,
      "åŁºåľ°": 2991,
      "æ¶ī": 2992,
      "Ġ2017": 2993,
      "æķ´ä¸ª": 2994,
      "Ch": 2995,
      "è§Ħæ¨¡": 2996,
      "æĬļ": 2997,
      "çĽ®æłĩ": 2998,
      "å®ĺæĸ¹": 2999,
      "èī²çļĦ": 3000,
      "æµģè¡Į": 3001,
      "è®®åĳĺ": 3002,
      "76": 3003,
      "ç¯®": 3004,
      "å°Ĩåħ¶": 3005,
      "æ±Ĺ": 3006,
      "æĴĴ": 3007,
      "Ġè¥¿": 3008,
      "Ġc": 3009,
      "Ġp": 3010,
      "åŀĴ": 3011,
      "è¿Ļæł·": 3012,
      "èº«ä»½": 3013,
      "çļĩå®¶": 3014,
      "ç¢ĳ": 3015,
      "éĽ¶": 3016,
      "åĩ¡": 3017,
      "çŃīåľ°": 3018,
      "å¥´": 3019,
      "å¡ŀå°Ķ": 3020,
      "çĮ«": 3021,
      "æ¶ħ": 3022,
      "ä¸ŃåĽ½å¤§éĻĨ": 3023,
      "ĠU": 3024,
      "ç¦Ħ": 3025,
      "èĭĹ": 3026,
      "ãĥ©": 3027,
      "èīĩ": 3028,
      "éķ¿çļĦ": 3029,
      "II": 3030,
      "åŃĲçļĦ": 3031,
      "å¹´èµ·": 3032,
      "æĪĸèĢħ": 3033,
      "ç§ĳæĬĢ": 3034,
      "æķĻåĮº": 3035,
      "åĨ¯": 3036,
      "01": 3037,
      "æ³ķå¾ĭ": 3038,
      "Ġ2014": 3039,
      "éĢĲæ¸Ĳ": 3040,
      "ĠéĻĪ": 3041,
      "1990": 3042,
      "åĪĹè¡¨": 3043,
      "æľĢå¤§çļĦ": 3044,
      "åľŁåľ°": 3045,
      "éĤĢ": 3046,
      "åħ¬ä¸»": 3047,
      "56": 3048,
      "è¦": 3049,
      "å²Ń": 3050,
      "ç¼ĸçłģ": 3051,
      "Ġ2013": 3052,
      "åį¿": 3053,
      "æľĿé²ľ": 3054,
      "åŃ¦èĢħ": 3055,
      "å¤§éĥ¨åĪĨ": 3056,
      "ĠãĢĮ": 3057,
      "çĭ±": 3058,
      "Ġä¸ī": 3059,
      "æħĪ": 3060,
      "è¿Ĳè¡Į": 3061,
      "æ¾³éĹ¨": 3062,
      "ç»ıåİĨ": 3063,
      "éĺ¿æĭī": 3064,
      "Ġ2015": 3065,
      "1998": 3066,
      "è½¦è¾Ĩ": 3067,
      "ä¸Ńæĸĩ": 3068,
      "æĶ¿æ²»äººçī©": 3069,
      "çĲĥåľº": 3070,
      "æĭĨ": 3071,
      "å±ħä½ı": 3072,
      "æ±½è½¦": 3073,
      "ç¬¬äºĮæ¬¡": 3074,
      "çļĦé«ĺ": 3075,
      "ç»ª": 3076,
      "åĪĨæŀĲ": 3077,
      "44": 3078,
      "çĹħæ¯Ĵ": 3079,
      "åĪĻæĺ¯": 3080,
      "åıĽ": 3081,
      "çļĦä¸»è¦ģ": 3082,
      "æĿĤå¿Ĺ": 3083,
      "è¿ĩåİ»": 3084,
      "Ġ2019": 3085,
      "åıĻ": 3086,
      "ãĢįãĢģ": 3087,
      "çŃĶ": 3088,
      "ä»¥ä¸Ĭ": 3089,
      "Ġ2012": 3090,
      "éĥ¨ä»½": 3091,
      "æ¯Ķè¾ĥ": 3092,
      "ç½ĳç»ľ": 3093,
      "og": 3094,
      "èĽĭçĻ½": 3095,
      "æķĪåĬĽ": 3096,
      "ä»»åĳ½": 3097,
      "åĴ¸": 3098,
      "ĠĠ": 3099,
      "all": 3100,
      "å¥³æĢ§": 3101,
      "çĶŁäºİ": 3102,
      "è¢«è®¤ä¸º": 3103,
      "èħ¹": 3104,
      "æĮģç»Ń": 3105,
      "å¤ļçļĦ": 3106,
      "å°ĸ": 3107,
      "è®°å½ķ": 3108,
      "ç¾Ĭ": 3109,
      "è¯Ĭ": 3110,
      "ä¸įä¼ļ": 3111,
      "Ġthe": 3112,
      "æĸ¯çļĦ": 3113,
      "è¡Ķ": 3114,
      "è¿ĽæĶ»": 3115,
      "ä½ĵçļĦ": 3116,
      "èĹ©": 3117,
      "ç¬¬äºĶ": 3118,
      "82": 3119,
      "èĻļ": 3120,
      "æ²Ł": 3121,
      "åĪĨå¸ĥäºİ": 3122,
      "åºĶçĶ¨": 3123,
      "è¡¡": 3124,
      "åħĪåĲİ": 3125,
      "å¥ĸé¡¹": 3126,
      "å°ļä¹¦": 3127,
      "æ½ĺ": 3128,
      "æĶ¹åĪ¶": 3129,
      "äº¤æĺĵ": 3130,
      "è´¯": 3131,
      "ç¥ĸçĪ¶": 3132,
      "æħ¢": 3133,
      "æĹłçº¿": 3134,
      "åįıåĬ©": 3135,
      "éĿ©åĳ½": 3136,
      "èīĺ": 3137,
      "çĺ": 3138,
      "èİ·å¾ĹäºĨ": 3139,
      "å¤§çº¦": 3140,
      "ç¥¥": 3141,
      "è¿Ĳè¾ĵ": 3142,
      "åŀĭçļĦ": 3143,
      "éĺŁçļĦ": 3144,
      "é¥®": 3145,
      "æĭĴ": 3146,
      "çģ¾": 3147,
      "æ±Łèĭı": 3148,
      "åıįå¯¹": 3149,
      "åĶ±çīĩ": 3150,
      "å¼±": 3151,
      "art": 3152,
      "åĬłåĿ¡": 3153,
      "éĻĨåĨĽ": 3154,
      "åħģ": 3155,
      "è¯Ħè®º": 3156,
      "æŃ¦åĻ¨": 3157,
      "å°ī": 3158,
      "æĬ¥åĳĬ": 3159,
      "ber": 3160,
      "å¹ħ": 3161,
      "å¾·éĩĮ": 3162,
      "ï¼ĮâĢľ": 3163,
      "æ¡Ĥ": 3164,
      "æ³ķéĻ¢": 3165,
      "ang": 3166,
      "èĶ¡": 3167,
      "çĽĹ": 3168,
      "ç»´å°Ķ": 3169,
      "ãĥª": 3170,
      "æĺİæ²»": 3171,
      "åĦ¿ç«¥": 3172,
      "è§£æĶ¾": 3173,
      "ĠåįĹ": 3174,
      "åľ³": 3175,
      "å»ºæĪĲ": 3176,
      "æĸĳ": 3177,
      "Ġ2011": 3178,
      "ãĤ¯": 3179,
      "å¥¥è¿Ĳ": 3180,
      "å¤§éģĵ": 3181,
      "ne": 3182,
      "Ġä¸ľ": 3183,
      "äººä»¬": 3184,
      "çłĶç©¶æīĢ": 3185,
      "è¿ĺæĺ¯": 3186,
      "çĨŁ": 3187,
      "æľºä¼ļ": 3188,
      "åĿĽ": 3189,
      "å¹´è½»": 3190,
      "è´ŀ": 3191,
      "ä½ľæĪĺ": 3192,
      "Ġ2020": 3193,
      "æĲŃ": 3194,
      "ç»ķ": 3195,
      "å¥¥æĸ¯": 3196,
      "è®¾å¤ĩ": 3197,
      "ph": 3198,
      "Âł": 3199,
      "68": 3200,
      "è©": 3201,
      "åĩºä»»": 3202,
      "åı°åĮĹ": 3203,
      "å®ĹæķĻ": 3204,
      "æĻ®éĢļ": 3205,
      "ãģĭ": 3206,
      "åİĺ": 3207,
      "ãĤ¢": 3208,
      "æĥĬ": 3209,
      "åıĶ": 3210,
      "æĿ¥æºĲ": 3211,
      "Ġf": 3212,
      "åĲĮæł·": 3213,
      "æ§": 3214,
      "çĹĽ": 3215,
      "åĬłçĽŁ": 3216,
      "åĨľä¸ļ": 3217,
      "çļĦåīį": 3218,
      "åİŁæľ¬": 3219,
      "æĿĲæĸĻ": 3220,
      "ãģª": 3221,
      "ç»ĵå©ļ": 3222,
      "å½±çīĩ": 3223,
      "é©¶": 3224,
      "å¤§èĩ£": 3225,
      "Ġè½¦ç«Ļ": 3226,
      "ï¼īï¼Ī": 3227,
      "ä¿ĿæĮģ": 3228,
      "ç¨İ": 3229,
      "åĪĿæľŁ": 3230,
      "èĳĹä½ľ": 3231,
      "1997": 3232,
      "ant": 3233,
      "ä¸Ńéĥ¨": 3234,
      "èĬĿ": 3235,
      "çº²": 3236,
      "Ġï¼Į": 3237,
      "è·¯æĺĵ": 3238,
      "èµĦæł¼": 3239,
      "åı¸ä»¤": 3240,
      "çīłä»¬": 3241,
      "è©¹": 3242,
      "æĴŀ": 3243,
      "åı¸é©¬": 3244,
      "åĽ¢ä½ĵ": 3245,
      "åľ°åĮºçļĦ": 3246,
      "æĿ¡ä»¶": 3247,
      "âĨ": 3248,
      "ç²Ĵ": 3249,
      "éģ£": 3250,
      "est": 3251,
      "åħ¬å¸ĥ": 3252,
      "çĥŁ": 3253,
      "åĸľæ¬¢": 3254,
      "æľĭåıĭ": 3255,
      "è´¸æĺĵ": 3256,
      "ï¼īï¼Ľ": 3257,
      "42": 3258,
      "ä¸Ģä½į": 3259,
      "æķĻä¼ļ": 3260,
      "è¯ļ": 3261,
      "åıĳå°Ħ": 3262,
      "æ¹ĸåįĹ": 3263,
      "å¼ķèµ·": 3264,
      "çİĭæľĿ": 3265,
      "åĤ¨": 3266,
      "Ð¾Ð": 3267,
      "çĬ¶æĢģ": 3268,
      "IN": 3269,
      "ãĤĵ": 3270,
      "åŁİåĮº": 3271,
      "èĭ¦": 3272,
      "æľīçļĦ": 3273,
      "æ¢¯": 3274,
      "åıĤèµĽ": 3275,
      "èº«ä½ĵ": 3276,
      "ä¸ĥå¹´": 3277,
      "éģĤ": 3278,
      "å¹´è¢«": 3279,
      "ãĥĥ": 3280,
      "ä¹¾": 3281,
      "æīĢåľ¨": 3282,
      "ãģ¨": 3283,
      "Ġ9": 3284,
      "å°ıåŃ¦": 3285,
      "åį¡å°Ķ": 3286,
      "æľīæĹ¶": 3287,
      "é©¾": 3288,
      "Ġå®ī": 3289,
      "æİ¨åĩº": 3290,
      "èĬ³": 3291,
      "å¤©ä¸»æķĻ": 3292,
      "ãģŁ": 3293,
      "åĲįåįķ": 3294,
      "UTC": 3295,
      "é«ĺçŃī": 3296,
      "Ġ5": 3297,
      "æĹħæ¸¸": 3298,
      "79": 3299,
      "èĩªåĬ¨": 3300,
      "äº¤æµģ": 3301,
      "çļĦä¸Ģç§į": 3302,
      "ich": 3303,
      "éħĴåºĹ": 3304,
      "æľºæ¢°": 3305,
      "Ġ2009": 3306,
      "åĩłä¹İ": 3307,
      "æĶ¶å½ķ": 3308,
      "é¢ĨåŁŁ": 3309,
      "æ¯ĶèµĽä¸Ń": 3310,
      "64": 3311,
      "åı¥": 3312,
      "è§Ĥä¼Ĺ": 3313,
      "æµ®": 3314,
      "çŀ": 3315,
      "æ·¡": 3316,
      "Ġåħ¶ä»ĸ": 3317,
      "çĶµåĬĽ": 3318,
      "éģĹåĿĢ": 3319,
      "æĶ¹åıĺ": 3320,
      "å¤§ä¼ļ": 3321,
      "æĽ¾åľ¨": 3322,
      "å¹³æĸ¹ç±³": 3323,
      "èĮĤ": 3324,
      "æ¾³å¤§": 3325,
      "å¥½çļĦ": 3326,
      "ä¸Ģå¹´": 3327,
      "æ£®æŀĹ": 3328,
      "éī": 3329,
      "èĭ±éĽĦ": 3330,
      "å®ĥçļĦ": 3331,
      "åıĸä»£": 3332,
      "ä¹Ŀå¹´": 3333,
      "ç»ĦåĲĪ": 3334,
      "äºĳåįĹ": 3335,
      "æĶ¿çŃĸ": 3336,
      "åĿĬ": 3337,
      "æİī": 3338,
      "ç¬ĳ": 3339,
      "è¦Ĩ": 3340,
      "..": 3341,
      "ãĢĤï¼Ī": 3342,
      "æŃ¤åĲİ": 3343,
      "åĢį": 3344,
      "èĭ±æĸĩ": 3345,
      "å½¦": 3346,
      "å³¡": 3347,
      "çĥŃå¸¦": 3348,
      "ç®Ģä»ĭ": 3349,
      "èµĲ": 3350,
      "èµĦæºĲ": 3351,
      "å¤ªå¹³æ´ĭ": 3352,
      "ub": 3353,
      "ĠåĪĺ": 3354,
      "å¾¡åı²": 3355,
      "çīµ": 3356,
      "åĮĸçŁ³": 3357,
      "å»ºè®®": 3358,
      "éģį": 3359,
      "æĺ¯ä¸ŃåĽ½": 3360,
      "ãĢĤãĢĬ": 3361,
      "ip": 3362,
      "ä¹Įåħĭåħ°": 3363,
      "å¹³åı°": 3364,
      "åºĬ": 3365,
      "å±±è¥¿": 3366,
      "åħ«å¹´": 3367,
      "å¤«äºº": 3368,
      "éĿ¢çļĦ": 3369,
      "ian": 3370,
      "æµ©": 3371,
      "èĥ¶": 3372,
      "çľģä»½": 3373,
      "ç»´äºļ": 3374,
      "TV": 3375,
      "å¤ļæ¬¡": 3376,
      "æµħ": 3377,
      "åĨħéĥ¨": 3378,
      "éĥ½ä¼ļ": 3379,
      "é¸¡": 3380,
      "è·¯çº¿": 3381,
      "1996": 3382,
      "éĻķè¥¿": 3383,
      "å´Ķ": 3384,
      "å¨ģå°Ķ": 3385,
      "æ³ķåħ°": 3386,
      "66": 3387,
      "å¿«éĢŁ": 3388,
      "ä¿ĥ": 3389,
      "èĩ³ä»Ĭ": 3390,
      "æĸ¯åŁº": 3391,
      "åħ¬åħĥ": 3392,
      "éĤĵ": 3393,
      "å¹¶åħ¥": 3394,
      "è¶ĬåįĹ": 3395,
      "Ġ2008": 3396,
      "äºĨä¸Ģä¸ª": 3397,
      "å¹³æĸ¹åħ¬éĩĮ": 3398,
      "500": 3399,
      "éĶ®": 3400,
      "Ġé¦Ļæ¸¯": 3401,
      "åįģåĪĨ": 3402,
      "ç»´å¥ĩ": 3403,
      "å½Ń": 3404,
      "åħ¥åı£": 3405,
      "éĩįè¦ģçļĦ": 3406,
      "ãĢįãĢģãĢĮ": 3407,
      "åĽ½å®¶éĺŁ": 3408,
      "æĭĵ": 3409,
      "ĠãĢĤ": 3410,
      "çļĦä¸Ģéĥ¨åĪĨ": 3411,
      "ä¾ł": 3412,
      "å²³": 3413,
      "æ¾³å¤§åĪ©äºļ": 3414,
      "åĩıå°ĳ": 3415,
      "77": 3416,
      "ä¼łè¯´": 3417,
      "å¦ĥ": 3418,
      "åĩĨå¤ĩ": 3419,
      "ç½ķ": 3420,
      "æŀ¢": 3421,
      "ç¾İæľ¯": 3422,
      "è¯ŀ": 3423,
      "å¨±ä¹Ĳ": 3424,
      "Ġ2021": 3425,
      "å¡ĺ": 3426,
      "å¸¸è§ģ": 3427,
      "åĮ»åŃ¦": 3428,
      "æ°§åĮĸ": 3429,
      "èĢĮåľ¨": 3430,
      "éĩįçĤ¹": 3431,
      "ran": 3432,
      "ç¼ĸåī§": 3433,
      "ä¹Ķæ²»": 3434,
      "çļĦä¸»": 3435,
      "çī¹æ®Ĭ": 3436,
      "ä»²": 3437,
      "çĪĨåıĳ": 3438,
      "æĽ´åĲįä¸º": 3439,
      "æĭŁ": 3440,
      "åİĦ": 3441,
      "Ðº": 3442,
      "ä¸ºä¸Ģ": 3443,
      "åĪºåı²": 3444,
      "1994": 3445,
      "æ¯ıå¹´": 3446,
      "åĮºä¸º": 3447,
      "æĺ¯æĮĩ": 3448,
      "å¤§åŀĭ": 3449,
      "41": 3450,
      "1995": 3451,
      "å¹¿æ³Ľ": 3452,
      "å·´è¥¿": 3453,
      "ä¸ľè¥¿": 3454,
      "188": 3455,
      "59": 3456,
      "çĻ»åľº": 3457,
      "æĸ°åĬłåĿ¡": 3458,
      "äºŃ": 3459,
      "ä¼¯çī¹": 3460,
      "ä¹¦è®°": 3461,
      "çļĦæĹ¶åĢĻ": 3462,
      "åĽ½çļĦ": 3463,
      "é©¬æĿ¥è¥¿äºļ": 3464,
      "åĭ¤": 3465,
      "ç²¾ç¥ŀ": 3466,
      "åĲįçļĦ": 3467,
      "ãĤĬ": 3468,
      "ĠçĶ±äºİ": 3469,
      "ä¹ĲåĽ¢": 3470,
      "çĭ®": 3471,
      "çĵľ": 3472,
      "æ·±åľ³": 3473,
      "æĺŁæľŁ": 3474,
      "å·ŀçļĦ": 3475,
      "åŁºéĩĳ": 3476,
      "åįģä¸ī": 3477,
      "çĵ¦å°Ķ": 3478,
      "åĭĥ": 3479,
      "æ³¢åħ°": 3480,
      "éĢıè¿ĩ": 3481,
      "åĪĨåŃĲ": 3482,
      "å®ļä¹ī": 3483,
      "é«ĺéĢŁåħ¬è·¯": 3484,
      "å¹´åı·": 3485,
      "å¤ļä¸ª": 3486,
      "çī©è´¨": 3487,
      "èĨľ": 3488,
      "è¶£": 3489,
      "çŁ¥éģĵ": 3490,
      "æĥħåĨµä¸ĭ": 3491,
      "ess": 3492,
      "èĤ¡ä»½": 3493,
      "æĮĩåĩº": 3494,
      "43": 3495,
      "æĿŃ": 3496,
      "å°¼æĸ¯": 3497,
      "å½ĵä¸Ń": 3498,
      "ä¸ªæľĪ": 3499,
      "åĩºæĪĺ": 3500,
      "å½¼å¾Ĺ": 3501,
      "äºļåİĨ": 3502,
      "åĽ¾ä¹¦é¦Ĩ": 3503,
      "é¹°": 3504,
      "æİ¥å£¤": 3505,
      "Ġä¸»è¦ģ": 3506,
      "æ±Łè¥¿": 3507,
      "69": 3508,
      "ç£ģ": 3509,
      "ä»·åĢ¼": 3510,
      "è¯¦": 3511,
      "åįĴ": 3512,
      "åįĵ": 3513,
      "å¯¹æīĭ": 3514,
      "au": 3515,
      "æ¬²": 3516,
      "67": 3517,
      "å½°": 3518,
      "ens": 3519,
      "å®ı": 3520,
      "æĮĤ": 3521,
      "ç§Ĵ": 3522,
      "ç©ºåĨĽ": 3523,
      "çĽ¸å¯¹": 3524,
      "æ³¥": 3525,
      "æĶ¹åĪ¶ä¸º": 3526,
      "åĩºèº«": 3527,
      "éĩĮçļĦ": 3528,
      "âĨĴ": 3529,
      "Ġå¹´": 3530,
      "ä»°": 3531,
      "åıĺæĪĲ": 3532,
      "ä¼ļåľ¨": 3533,
      "æµĵ": 3534,
      "ä¸ĸçķĮæĿ¯": 3535,
      "åĪ¸": 3536,
      "å®ŀæĸ½": 3537,
      "æ³³": 3538,
      "èĪ°éĺŁ": 3539,
      "ĠåĮĹ": 3540,
      "å®Ļ": 3541,
      "ç§»åĬ¨": 3542,
      "ä¹ĭå¤ĸ": 3543,
      "æľªèĥ½": 3544,
      "éĩįå»º": 3545,
      "ev": 3546,
      "éķ¿æľŁ": 3547,
      "ä¼Ĭæĸ¯": 3548,
      "åıĬåħ¶": 3549,
      "æĻĵ": 3550,
      "é«ĺçº§": 3551,
      "62": 3552,
      "åĿİ": 3553,
      "æº¶": 3554,
      "57": 3555,
      "éī´": 3556,
      "å½ĵéĢī": 3557,
      "ä¹ĭåŃĲ": 3558,
      "éģŃåĪ°": 3559,
      "èĻĳ": 3560,
      "çĻ½èī²": 3561,
      "åĬĽéĩı": 3562,
      "åĪ°è¾¾": 3563,
      "åįģå¹´": 3564,
      "ä¹¾éļĨ": 3565,
      "éĦ": 3566,
      "çº¢èī²": 3567,
      "1992": 3568,
      "ĠçļĦ": 3569,
      "Ġé»Ħ": 3570,
      "ä¸įåı¯": 3571,
      "å¡ĳ": 3572,
      "åľ¨è¿Ļ": 3573,
      "åĪ¶åº¦": 3574,
      "NA": 3575,
      "åħ¥éĢī": 3576,
      "ry": 3577,
      "æĺŃåĴĮ": 3578,
      "å¤©æĸĩ": 3579,
      "ĠæĽ¾": 3580,
      "Ġåľ£": 3581,
      "ä¸Ī": 3582,
      "å¤ªåŃĲ": 3583,
      "åħĪçĶŁ": 3584,
      "æĸ¹çļĦ": 3585,
      "çĲĥåŃ£": 3586,
      "åĬłä¸Ĭ": 3587,
      "å§Ĩæĸ¯": 3588,
      "ãĥ¼ãĥ": 3589,
      "1993": 3590,
      "è§Ħå®ļ": 3591,
      "ä»¥åĲİ": 3592,
      "02": 3593,
      "æħ§": 3594,
      "1980": 3595,
      "å¤ĸäº¤": 3596,
      "çļĦé¦ĸ": 3597,
      "èĤĥ": 3598,
      "é«ĺä¸Ń": 3599,
      "åĩºçīĪç¤¾": 3600,
      "æİ¥è¿ĳ": 3601,
      "ĠåıĤ": 3602,
      "éĺª": 3603,
      "çº¿çļĦ": 3604,
      "åĲ¨": 3605,
      "è¿ĶåĽŀ": 3606,
      "ç»ĵåĲĪ": 3607,
      "ç¡®å®ļ": 3608,
      "Ġ2007": 3609,
      "æ´Ĺ": 3610,
      "61": 3611,
      "ç¼ĸçłģä¸ºP": 3612,
      "è¡ĮæĺŁ": 3613,
      "Ġ2022": 3614,
      "æĺİæĺ¾": 3615,
      ")ãĢĤ": 3616,
      "æĭĴç»Ŀ": 3617,
      "ge": 3618,
      "æī¹åĩĨ": 3619,
      "51": 3620,
      "ä¸ĢåĲĮ": 3621,
      "è£ķ": 3622,
      "çļĩåĲİ": 3623,
      "çĽĳçĿ£": 3624,
      "èĥľåĪ©": 3625,
      "Ġ10": 3626,
      "çĳŀåħ¸": 3627,
      "å±¯": 3628,
      "çŃ¹": 3629,
      "ä¸ĢæŃ¥": 3630,
      "æĶ¹éĿ©": 3631,
      "ue": 3632,
      "Ġb": 3633,
      "éĿŀæ´²": 3634,
      "54": 3635,
      "è¿Ľè¡ĮäºĨ": 3636,
      "ãģĨ": 3637,
      "æ¯ıä¸ª": 3638,
      "ç¡ķ": 3639,
      "æĹ¥èĩ³": 3640,
      "åĲĦåľ°": 3641,
      "æľªæĿ¥": 3642,
      "52": 3643,
      "åĽłèĢĮ": 3644,
      "èĳ£äºĭ": 3645,
      "io": 3646,
      "èµ·æĿ¥": 3647,
      "å¤ºå¾Ĺ": 3648,
      "åı¯èĥ½æĺ¯": 3649,
      "ç²¤": 3650,
      "åŃ©åŃĲ": 3651,
      "æŀĿ": 3652,
      "æĢ»éĥ¨": 3653,
      "çĶ¨æĿ¥": 3654,
      "53": 3655,
      "æ²³åĮĹ": 3656,
      "æĦŁæŁĵ": 3657,
      "éļ§": 3658,
      "åĮĪ": 3659,
      "åħ´å»º": 3660,
      "ĠIn": 3661,
      "æł¡éķ¿": 3662,
      "%ãĢĤ": 3663,
      "æ¦Ĥå¿µ": 3664,
      "1991": 3665,
      "å¼¥": 3666,
      "ÑĤ": 3667,
      "è¹": 3668,
      "æĪĺåĲİ": 3669,
      "ãĤĭ": 3670,
      "Ġåľ°çĲĨ": 3671,
      "å±ķå¼Ģ": 3672,
      "æľīäºĽ": 3673,
      "æĹ¥èµ·": 3674,
      "å±ı": 3675,
      "Ġ2006": 3676,
      "An": 3677,
      "å®ĺåĳĺ": 3678,
      "éľ¸": 3679,
      "ç»Łè®¡": 3680,
      "åĸ·": 3681,
      "ong": 3682,
      "Ġæł¹æį®": 3683,
      "å¹¶æ²¡æľī": 3684,
      "åİĺç±³": 3685,
      "éĩĳå±ŀ": 3686,
      "å®ŀçİ°": 3687,
      "æľīæķĪ": 3688,
      "è¾¹çķĮ": 3689,
      "èŃ¦å¯Ł": 3690,
      "å¹´å¼Ģå§ĭ": 3691,
      "ä¸ĸçķĮå¤§æĪĺ": 3692,
      "éŃĤ": 3693,
      "æıĴ": 3694,
      "ä¸įå°ĳ": 3695,
      "çĸı": 3696,
      "åĲĪçī©": 3697,
      "äº§ä¸ļ": 3698,
      "åĩºæ¼Ķ": 3699,
      "oh": 3700,
      "åįłé¢Ĩ": 3701,
      "ç¬¬ä¸Ģä¸ª": 3702,
      "ãģ¾": 3703,
      "çļĦåľ°æĸ¹": 3704,
      "å¤§æ¥¼": 3705,
      "é¼ł": 3706,
      "åĲ¯çĶ¨": 3707,
      "ç®±": 3708,
      "ç¼ĵ": 3709,
      "ik": 3710,
      "åŃ¦ç§ĳ": 3711,
      "æıĲåĲį": 3712,
      "å°ĶçļĦ": 3713,
      "ç«Ļåı°": 3714,
      "åĩºåı£": 3715,
      "å·ŀåĪºåı²": 3716,
      "63": 3717,
      "å¸ĥé²ģ": 3718,
      "ĠåĪ¶ä½ľ": 3719,
      "ç¼ĸåı·": 3720,
      "è¡¨éĿ¢": 3721,
      "çļĦå½±åĵį": 3722,
      "éĥ½æľī": 3723,
      "åŁºåĽł": 3724,
      "å¤§èĩ´": 3725,
      "æĩ": 3726,
      "ä»ĸæĺ¯": 3727,
      "çİĽä¸½": 3728,
      "æ¸ħæľĿ": 3729,
      "ä¸įæĸŃ": 3730,
      "åħĭæĭī": 3731,
      "æī§å¯¼": 3732,
      "72": 3733,
      "å·§": 3734,
      "%ï¼Į": 3735,
      "Ġl": 3736,
      "è¯¾ç¨ĭ": 3737,
      "Ġäºİ": 3738,
      "ä»İäºĭ": 3739,
      "if": 3740,
      "ç¬¼": 3741,
      "åĩºåľº": 3742,
      "å¹¿åĳĬ": 3743,
      "åıªæĺ¯": 3744,
      "å¤±åİ»": 3745,
      "è²": 3746,
      "ä¼ĺç§Ģ": 3747,
      "æĺ¯ä¸ĢåĲį": 3748,
      "ä¸§": 3749,
      "çĶŁåĳ½": 3750,
      "ĠæŃ¤": 3751,
      "æ¬£": 3752,
      "up": 3753,
      "èĤ¥": 3754,
      "éĶģ": 3755,
      "ãĢģâĢľ": 3756,
      "é£Łçī©": 3757,
      "è¿ĲåĬ¨ä¼ļ": 3758,
      "å°Ķåħ°": 3759,
      "æ¹¿": 3760,
      "å¹´åīį": 3761,
      "æĶ¶åħ¥": 3762,
      "88": 3763,
      "åįĹåĮĹ": 3764,
      "æ·®": 3765,
      "èį¯çī©": 3766,
      "èĥ¸": 3767,
      "ç¬¬åħŃ": 3768,
      "åįģåħŃ": 3769,
      "è¿ħ": 3770,
      "åĬ²": 3771,
      "è°ĵ": 3772,
      "å¸ĤçļĦ": 3773,
      "å¥³åĦ¿": 3774,
      "é¥Ń": 3775,
      "è±Ĩ": 3776,
      "è§Ĩä¸º": 3777,
      "å¦Ī": 3778,
      "çł´åĿı": 3779,
      "ç»Łä¸Ģ": 3780,
      "åĩŃ": 3781,
      "åľ¨ç¾İåĽ½": 3782,
      "çĽ¸ä¼¼": 3783,
      "å¢¨è¥¿": 3784,
      "é¢ģå¥ĸ": 3785,
      "ob": 3786,
      "åĽ½åĨħ": 3787,
      "ĠåİŁ": 3788,
      "99": 3789,
      "äº¨åĪ©": 3790,
      "æĹħå®¢": 3791,
      "ok": 3792,
      "æŃ£åľ¨": 3793,
      "ä¸ĩåİĨ": 3794,
      "æ³Ĭ": 3795,
      "æµ·å²¸": 3796,
      "çĬ¬": 3797,
      "åĪĽç«ĭ": 3798,
      "èĪĴ": 3799,
      "è´¨éĩı": 3800,
      "å¸ħ": 3801,
      "ah": 3802,
      "å¨ĺ": 3803,
      "ç¢³": 3804,
      "ĠY": 3805,
      "éĩįåºĨ": 3806,
      "å°ĳå¥³": 3807,
      "éļıçĿĢ": 3808,
      "ain": 3809,
      "éļ§éģĵ": 3810,
      "ä¿ĿçķĻ": 3811,
      "æŀĦæĪĲ": 3812,
      "çĽ´èĩ³": 3813,
      "åĳ¨è¾¹": 3814,
      "æŁĶ": 3815,
      "æĽ¾ä»»": 3816,
      "æĪĲä¸ºäºĨ": 3817,
      "73": 3818,
      "å¼ĢéĢļ": 3819,
      "åįĬå²Ľ": 3820,
      "åĬ¨åĬĽ": 3821,
      "å§Ķä¼ļ": 3822,
      "çļĦçłĶç©¶": 3823,
      "äºĭä¸ļ": 3824,
      "Ġ/": 3825,
      "ä¸Ļ": 3826,
      "çł²": 3827,
      "ç¥ŀç»ı": 3828,
      "äºļåİĨå±±": 3829,
      "æĭ³": 3830,
      "71": 3831,
      "æĸĩçī©ä¿ĿæĬ¤": 3832,
      "å°¸": 3833,
      "åŁºäºİ": 3834,
      "éªĳå£«": 3835,
      "åĲı": 3836,
      "æĪĸæĺ¯": 3837,
      "éħ¶": 3838,
      "ç¾½æ¯Ľ": 3839,
      "åį«çĶŁ": 3840,
      "èĳĹåĲįçļĦ": 3841,
      "æĤ¬": 3842,
      "ä»ĳ": 3843,
      "çľĭåĪ°": 3844,
      "ĠæĹ¥æľ¬": 3845,
      "çī¹çļĦ": 3846,
      "åĮ»çĶŁ": 3847,
      "ä¹ĭæĪĺ": 3848,
      "æĴ°": 3849,
      "é¸£": 3850,
      "åı¯åīįå¾Ģ": 3851,
      "èĭıæł¼åħ°": 3852,
      "çĸ¾çĹħ": 3853,
      "Ġ6": 3854,
      "åĮĸçļĦ": 3855,
      "BA": 3856,
      "èįĴ": 3857,
      "æ´ģ": 3858,
      "è¢ģ": 3859,
      "åĿĤ": 3860,
      "é«ĺçļĦ": 3861,
      "æī®": 3862,
      "å¤ıåŃ£": 3863,
      "æĬķç¥¨": 3864,
      "åľ°éľĩ": 3865,
      "é¾Ł": 3866,
      "éĥ½å¸Ĥ": 3867,
      "æ¬¢è¿İ": 3868,
      "åĩ½": 3869,
      "èµ°åĲĳ": 3870,
      "çĭĤ": 3871,
      "å¿Ĩ": 3872,
      "å£®": 3873,
      "åĢ¾": 3874,
      "æ¾³æ´²": 3875,
      "Ġéķ¿": 3876,
      "Ġä¼Ĭ": 3877,
      "èĢĮæĪĲ": 3878,
      "çĶ¨çļĦ": 3879,
      "çĬ¹å¤ª": 3880,
      "æĸľ": 3881,
      "å¢¨è¥¿åĵ¥": 3882,
      "åĴĮå¹³": 3883,
      "éĤĢè¯·": 3884,
      "æ®ĸæ°ĳ": 3885,
      "ĠæľĢä½³": 3886,
      "å£«åħµ": 3887,
      "çĶµåı°": 3888,
      "äº²çİĭ": 3889,
      "è¿ĩç¨ĭä¸Ń": 3890,
      "åĺīéĿĸ": 3891,
      "Ġand": 3892,
      "è·ĥ": 3893,
      "è®·": 3894,
      "å·¥åİĤ": 3895,
      "äººåľ¨": 3896,
      "éķ¿çº¦": 3897,
      "å©Ĩ": 3898,
      "è§£éĩĬ": 3899,
      "è§Ĥå¯Ł": 3900,
      "å¤§èµĽ": 3901,
      "èģĮæ£Ĵ": 3902,
      "åħ¬çĪµ": 3903,
      "æĬķåħ¥": 3904,
      "çĪ±å°Ķåħ°": 3905,
      "æĲ¬": 3906,
      "åŀĤ": 3907,
      "æĳĦå½±": 3908,
      "éĶĢåĶ®": 3909,
      "éĽĨä¸Ń": 3910,
      "å°Ķçī¹": 3911,
      "æĮĳæĪĺ": 3912,
      "è®°èĢħ": 3913,
      "éĥĬ": 3914,
      "âĶ": 3915,
      "å¤§åĮº": 3916,
      "å®¢è¿Ĳ": 3917,
      "åŃ¦ä¼ļ": 3918,
      "uc": 3919,
      "çİ»": 3920,
      "äºīè®®": 3921,
      "èĳ¡èĲĦçīĻ": 3922,
      "åįµ": 3923,
      "Ġv": 3924,
      "æĿĢæŃ»": 3925,
      "ä½ľèĢħ": 3926,
      "åŁĥåıĬ": 3927,
      "çĭ¼": 3928,
      "çĶŁéķ¿": 3929,
      "1950": 3930,
      "æĪĴ": 3931,
      "è§£åĨ³": 3932,
      "SE": 3933,
      "è½°": 3934,
      "éĽĢ": 3935,
      "å®ĩå®Ļ": 3936,
      "åį«æĺŁ": 3937,
      "éĵĥ": 3938,
      "äººå£«": 3939,
      "äºļåĨĽ": 3940,
      "1988": 3941,
      "300": 3942,
      "æ°ĶåĢĻ": 3943,
      "æĻ¨": 3944,
      "å¤§æ¡¥": 3945,
      "éĺħ": 3946,
      "åī²": 3947,
      "éļıèĳĹ": 3948,
      "æŃ¤æĹ¶": 3949,
      "å«ģ": 3950,
      "è¾°": 3951,
      "åıªèĥ½": 3952,
      "74": 3953,
      "ç¥Ŀ": 3954,
      "ä¸¸": 3955,
      "æĢĴ": 3956,
      "Ġ2005": 3957,
      "åįıè®®": 3958,
      "åŃ¤": 3959,
      "ä¸įåĨį": 3960,
      "ä¸ĩäºº": 3961,
      "åı¤ä»£": 3962,
      "å¤©çļĩ": 3963,
      "è®®éĻ¢": 3964,
      "ä½¿çĶ¨çļĦ": 3965,
      "Ġ8": 3966,
      "è¯ģæĺİ": 3967,
      "150": 3968,
      "é²į": 3969,
      "è¯ķåĽ¾": 3970,
      "æ°´å¹³": 3971,
      "åº¦çļĦ": 3972,
      "åĨĴ": 3973,
      "æĢ»çĿ£": 3974,
      "è§ĦåĪĻ": 3975,
      "éĢĨ": 3976,
      "åĩī": 3977,
      "ity": 3978,
      "ä¸²": 3979,
      "æĸĩçī©ä¿ĿæĬ¤åįķä½į": 3980,
      "åıĮæĸ¹": 3981,
      "åĨįåº¦": 3982,
      "åĩĮ": 3983,
      "çĽ®çļĦ": 3984,
      "å½»": 3985,
      "çıĬ": 3986,
      "åĲĪå¹¶ä¸º": 3987,
      "ãģ«": 3988,
      "åĹ£": 3989,
      "æĹ¦": 3990,
      "å§¬": 3991,
      "èµ´": 3992,
      "ä»ĭç»į": 3993,
      "ä¸ľæĸ¹": 3994,
      "æľĢåĲİä¸Ģ": 3995,
      "åįģåŃĹ": 3996,
      "çĭĦ": 3997,
      "çļĦç¬¬ä¸Ģ": 3998,
      "åįģäºĶ": 3999,
      "åĽ¢éĺŁ": 4000,
      "æŃ¥åħµ": 4001,
      "æĿ¥åĪ°": 4002,
      "1989": 4003,
      "å¿į": 4004,
      "éĽĮ": 4005,
      "çŁ¥åİ¿": 4006,
      "åģ¥åº·": 4007,
      "çĦ¦": 4008,
      "è¯ı": 4009,
      "ãģ¿": 4010,
      "å¤·": 4011,
      "ä¸¾äºº": 4012,
      "ä¹ı": 4013,
      "åľ°åĪ©": 4014,
      "ãĤ·": 4015,
      "åĪĹä¸º": 4016,
      "éĢĢå½¹": 4017,
      "ä½ĽæķĻ": 4018,
      "åĬĽçļĦ": 4019,
      "ç®¡è¾ĸ": 4020,
      "åĤħ": 4021,
      "å¾ª": 4022,
      "æ¶¦": 4023,
      "åħĥç´ł": 4024,
      "é©¬åħĭ": 4025,
      "Ġè¿Ļ": 4026,
      "Al": 4027,
      "ä¿Ŀç½Ĺ": 4028,
      "ç½ĳç«Ļ": 4029,
      "ud": 4030,
      "ç²®": 4031,
      "ä¸ĭè¾ĸ": 4032,
      "åĽĽä¸ª": 4033,
      "åĬ±": 4034,
      "åĪĽåĬŀ": 4035,
      "åģľæŃ¢": 4036,
      "åĬ¨ä½ľ": 4037,
      "éĻĲåĪ¶": 4038,
      "ç§ĺä¹¦": 4039,
      "ort": 4040,
      "æĺ¯ç¾İåĽ½": 4041,
      "ä¸¤ç§į": 4042,
      "èģļèĲ½": 4043,
      "å¨ĥ": 4044,
      "å¤±è´¥": 4045,
      "å°±è¯»": 4046,
      "å²Ĺ": 4047,
      "æĶ¶è´Ń": 4048,
      "åĵģçīĮ": 4049,
      "å£³": 4050,
      "æ¯ķä¸ļäºİ": 4051,
      "Ġä¸Ģ": 4052,
      "âĢ¦âĢ¦": 4053,
      "æłª": 4054,
      "ä¸Ĭéĺµ": 4055,
      "çĭĹ": 4056,
      "æĶ¶è§Ĩ": 4057,
      "ä»İèĢĮ": 4058,
      "é¦ĸéĥ½": 4059,
      "ãģķ": 4060,
      "åĭĭç«ł": 4061,
      "è°ĥæķ´": 4062,
      "eg": 4063,
      "æĸ¹æ¡Ī": 4064,
      "ey": 4065,
      "æµĭè¯ķ": 4066,
      "åĺ´": 4067,
      "éĩĮäºļ": 4068,
      "æĢ»çĲĨ": 4069,
      "ä»¥åīį": 4070,
      "å°ıç»Ħ": 4071,
      "éĩĳèŀį": 4072,
      "å¿ĥçĲĨ": 4073,
      "ç¿»è¯ĳ": 4074,
      "å®īå¾½": 4075,
      "æĺ¯æĹ¥æľ¬": 4076,
      "è¡į": 4077,
      "åı°ä¸Ń": 4078,
      "çªĹ": 4079,
      "æĿĨ": 4080,
      "æľīä¸Ģä¸ª": 4081,
      "è¿Ľä¸ĢæŃ¥": 4082,
      "èĢĢ": 4083,
      "çĪ¶æ¯į": 4084,
      "é¸¿": 4085,
      "æĲľ": 4086,
      "åĥ§": 4087,
      "åħ¥ä¾µ": 4088,
      "æĭīä¸ģ": 4089,
      "1970": 4090,
      "åĲĮä¸Ģ": 4091,
      "å°¤åħ¶": 4092,
      "æµ·æĭĶ": 4093,
      "çļĦæķħäºĭ": 4094,
      "éĵ¾": 4095,
      "Ġç½Ĺ": 4096,
      "å¥ĳ": 4097,
      "æĹº": 4098,
      "å¤§å¤ļæķ°": 4099,
      "å¯Ĵ": 4100,
      "man": 4101,
      "89": 4102,
      "çĶ¸": 4103,
      "èĦĬ": 4104,
      "æľ¬ç«Ļ": 4105,
      "äºĭæķħ": 4106,
      "ç¿ģ": 4107,
      "éĻĢ": 4108,
      "å¹¿è¥¿": 4109,
      "çİ°è±¡": 4110,
      "åħ±äº§": 4111,
      "å¼¦": 4112,
      "çİĩé¢Ĩ": 4113,
      "ä½ľè¯į": 4114,
      "åįģåĽĽ": 4115,
      "ç¢İ": 4116,
      "åıī": 4117,
      "æĺ¯æ³ķåĽ½": 4118,
      "æĪĲç«ĭäºİ": 4119,
      "1986": 4120,
      "ãģį": 4121,
      "åħ¶å®ĥ": 4122,
      "ç¢į": 4123,
      "æłĸæģ¯": 4124,
      "èĢĮè¢«": 4125,
      "âĢĿãĢģâĢľ": 4126,
      "å¥¥æŀĹ": 4127,
      "éĤ®æĶ¿": 4128,
      "é»ĳèī²": 4129,
      "å¦ĤæŃ¤": 4130,
      "Ð»": 4131,
      "ãĥ¬": 4132,
      "å¤ªç©º": 4133,
      "èĥİ": 4134,
      "èĦı": 4135,
      "ä¸įå¾Ĺ": 4136,
      "åĩºçİ°åľ¨": 4137,
      "è£ħç½®": 4138,
      "å¸ĤåĮº": 4139,
      "éĺ¿æĭīä¼¯": 4140,
      "æ¹ĸåĮĹ": 4141,
      "ä¾¦": 4142,
      "Ġåīį": 4143,
      "æĺ¯ä½įäºİ": 4144,
      "æ¯ĶåĪ©": 4145,
      "Ġç¾İåĽ½": 4146,
      "å¸ĥæĭī": 4147,
      "æķĻåŃ¦": 4148,
      "æĪıåī§": 4149,
      "åĪĽéĢł": 4150,
      "æĪªèĩ³": 4151,
      "åŃ¦æľ¯": 4152,
      "åĮ»çĸĹ": 4153,
      "å¤§å¥ĸ": 4154,
      "æ°´åºĵ": 4155,
      "èĤĮ": 4156,
      "ĠâĢľ": 4157,
      "æĺ¯åĲ¦": 4158,
      "å¥¥åľ°åĪ©": 4159,
      "æĺ¯ä¸Ģä½į": 4160,
      "ä¸īä¸ĸ": 4161,
      "å»¶ä¼¸": 4162,
      "å®¶çļĦ": 4163,
      "çĳŀå£«": 4164,
      "ä»¿": 4165,
      "èĦĤ": 4166,
      "æ²³æµģ": 4167,
      "æĹ¥çļĦ": 4168,
      "ä¼Ļ": 4169,
      "æĶ¹éĢł": 4170,
      "Ġ7": 4171,
      "Ġç¬¬ä¸Ģ": 4172,
      "å®£ä¼ł": 4173,
      "ãĤī": 4174,
      "ç½ļ": 4175,
      "Ġåī§æĥħ": 4176,
      "åİĨä»»": 4177,
      "åĬŀåħ¬å®¤": 4178,
      "å¡«": 4179,
      "Ġæ¼Ķåĳĺ": 4180,
      "åī§æľ¬": 4181,
      "1985": 4182,
      "ä¸ŃéĹ´": 4183,
      "åįģåħ«": 4184,
      "çļĦåİŁ": 4185,
      "æķĻå¸Ī": 4186,
      "ç¿ł": 4187,
      "åİĨåı²ä¸Ĭ": 4188,
      "æĮĩå¯¼": 4189,
      "çŁ¶": 4190,
      "æ»©": 4191,
      "æıĲé«ĺ": 4192,
      "æĸ¯åħĭ": 4193,
      "æĿ¥è¯´": 4194,
      "åī©": 4195,
      "BS": 4196,
      "ç±³å°Ķ": 4197,
      "è·¯åı£": 4198,
      "Ġç¬¬äºĮ": 4199,
      "å¥¶": 4200,
      "ãĤ¿": 4201,
      "è¯´æ³ķ": 4202,
      "åįľ": 4203,
      "çľģçº§": 4204,
      "é¼»": 4205,
      "åľ°ä½į": 4206,
      "1987": 4207,
      "æĽ°": 4208,
      "å®īå¾·": 4209,
      "éĢļè½¦": 4210,
      "ç¼ħ": 4211,
      "çĽ¾": 4212,
      "æĹ¢": 4213,
      "ä»¥å¤ĸ": 4214,
      "åºĶè¯¥": 4215,
      "å¤§ä½¿": 4216,
      "ãĤ¸": 4217,
      "ãĥŀ": 4218,
      "ä¿¡åı·": 4219,
      "æĸ¯å¡Ķ": 4220,
      "æĶ¿æĿĥ": 4221,
      "ä»ªå¼ı": 4222,
      "åĳ½åĲįä¸º": 4223,
      "è¸ª": 4224,
      "é«ĺåº¦": 4225,
      "åıĸæ¶Ī": 4226,
      "æĴŃæĶ¾": 4227,
      "å½ĵæĹ¶çļĦ": 4228,
      "ä¸Ģå¸¦": 4229,
      "èħ¾": 4230,
      "Ġæ¦Ĥ": 4231,
      "çħ¤": 4232,
      "åĲĮæĦı": 4233,
      "1960": 4234,
      "ast": 4235,
      "ãĥŃ": 4236,
      "IS": 4237,
      "å°ıçļĦ": 4238,
      "å¤Ħäºİ": 4239,
      "ç²Ĺ": 4240,
      "ä¹Łä¼ļ": 4241,
      "è¢«è®¤ä¸ºæĺ¯": 4242,
      "åıĪåĲį": 4243,
      "åħ¶ä½Ļ": 4244,
      "å»Ĭ": 4245,
      "Ġæµ·": 4246,
      "æ·ĺ": 4247,
      "Ġäººåı£": 4248,
      "èĩ³å°ĳ": 4249,
      "çļĦå¤ĸ": 4250,
      "èĥģ": 4251,
      "åĸĢ": 4252,
      "å±±èĦī": 4253,
      "ç¨³å®ļ": 4254,
      "éĤ£éĩĮ": 4255,
      "å®¹æĺĵ": 4256,
      "ä¸¹éº¦": 4257,
      "åİĿ": 4258,
      "èľĤ": 4259,
      "çļĦçī¹": 4260,
      "çİ°æĹ¶": 4261,
      "åİ¿äºº": 4262,
      "æī¹è¯Ħ": 4263,
      "çĻĮ": 4264,
      "æŁ´æ²¹": 4265,
      "å¥¥æŀĹåĮ¹": 4266,
      "å¯Ħ": 4267,
      "æŃ¦æ±ī": 4268,
      "æİĪäºĪ": 4269,
      "æĹ¨": 4270,
      "ä¸Ģå®¶": 4271,
      "äº¿åħĥ": 4272,
      "æ³¨æĦı": 4273,
      "é¹¤": 4274,
      "æĺ¯ä»¥": 4275,
      "æķ°åŃ¦": 4276,
      "ç»´æĮģ": 4277,
      "å§Ĭ": 4278,
      "ä¸īè§Ĵ": 4279,
      "æŃ»åĲİ": 4280,
      "ĠçĶµå½±": 4281,
      "åĲİæľŁ": 4282,
      "èĸĽ": 4283,
      "çģ«ç®Ń": 4284,
      "åĩĿ": 4285,
      "è¡°": 4286,
      "æ°¢": 4287,
      "åıĳåĶ®": 4288,
      "æ¸Ķ": 4289,
      "æľĪåįĩ": 4290,
      "å¤§åİ¦": 4291,
      "ç¥¨æĪ¿": 4292,
      "åĩºæĿ¥": 4293,
      "çŁ¥åĲį": 4294,
      "ä¹Łè¢«": 4295,
      "çĴĥ": 4296,
      "BC": 4297,
      "çĸĨ": 4298,
      "çļĦä¸Ģåº§": 4299,
      "æľīäºº": 4300,
      "å®īæİĴ": 4301,
      "é¾ĻçļĦ": 4302,
      "å²ģçļĦ": 4303,
      "éĴ¦": 4304,
      "æ½Ń": 4305,
      "ä»ĩ": 4306,
      "ä¾įéĥİ": 4307,
      "è²Į": 4308,
      "'s": 4309,
      "æľ¬åľ°åĮº": 4310,
      "Ġ12": 4311,
      "æİ¥è§¦": 4312,
      "ep": 4313,
      "å¹´çĶ±": 4314,
      "our": 4315,
      "è£ħçĶ²": 4316,
      "çģ«å±±": 4317,
      "åĩĢ": 4318,
      "åģ·": 4319,
      "å¯®": 4320,
      "åµ": 4321,
      "çļĦæĦı": 4322,
      "èİ«æĸ¯ç§ĳ": 4323,
      "ç¬¬ä¸ĥ": 4324,
      "èĩªè¡Į": 4325,
      "æµ·éģĵ": 4326,
      "è®²è¿°": 4327,
      "èĬ±åĽŃ": 4328,
      "è§£æĶ¾åĨĽ": 4329,
      "åĳ½ä»¤": 4330,
      "ĠåĴĮ": 4331,
      "éĩĳæĽ²": 4332,
      "98": 4333,
      "ç§ĳåŃ¦éĻ¢": 4334,
      "åľŁèĢ³": 4335,
      "æķĪæŀľ": 4336,
      "å®Įæķ´": 4337,
      "æ¤İ": 4338,
      "å²ģæĹ¶": 4339,
      "Ġ2004": 4340,
      "æķ°åŃĹ": 4341,
      "æĹ©å¹´": 4342,
      "æ»ļ": 4343,
      "äººåĴĮ": 4344,
      "ç¼ĸæĽ²": 4345,
      "åħĭéĩĮæĸ¯": 4346,
      "ãģĬ": 4347,
      "åľŁèĢ³åħ¶": 4348,
      "äººæķ°": 4349,
      "å¾Ĺä»¥": 4350,
      "ew": 4351,
      "è¿Ŀ": 4352,
      "èµ¶": 4353,
      "ç§įåŃĲ": 4354,
      "å±¿": 4355,
      "ãģ¡": 4356,
      "èķ¾": 4357,
      "æľ´": 4358,
      "å¦Ĥä¸ĭ": 4359,
      "åĿĿ": 4360,
      "æŁĲäºĽ": 4361,
      "èįĲ": 4362,
      "è¢Ńåĩ»": 4363,
      "çİĭåŃĲ": 4364,
      "æĶ¾å¼ĥ": 4365,
      "èĪŀåı°": 4366,
      "ĠãĢİ": 4367,
      "ark": 4368,
      "âĶĢ": 4369,
      "åĽ½ä¼ļ": 4370,
      "æ¨¡åŀĭ": 4371,
      "igh": 4372,
      "åľ°çļĦ": 4373,
      "ä¸´æĹ¶": 4374,
      "ä»Ģä¹Ī": 4375,
      "åŁİåł¡": 4376,
      "æŁıæŀĹ": 4377,
      "è´¡çĮ®": 4378,
      "è¾Ĳ": 4379,
      "åįģäºĮå¹´": 4380,
      "åħ¬åı¸çļĦ": 4381,
      "ç±»åŀĭ": 4382,
      "æľĪèĩ³": 4383,
      "å§ļ": 4384,
      "æłĩå¿Ĺ": 4385,
      "çľģéģĵ": 4386,
      "éĿ¢å¯¹": 4387,
      "1984": 4388,
      "è¢ĸ": 4389,
      "åĽ½éĺ²": 4390,
      "åıĹä¼¤": 4391,
      "çĶ·æĢ§": 4392,
      "åħģè®¸": 4393,
      "æįĲ": 4394,
      "çģĮ": 4395,
      "èŁ": 4396,
      "æ¬¡å¹´": 4397,
      "éģĹäº§": 4398,
      "æĦŁåĪ°": 4399,
      "çİ°åľº": 4400,
      "åī§åľº": 4401,
      "Ġå®¶æĹı": 4402,
      "æ··åĲĪ": 4403,
      "åĽĽåįģ": 4404,
      "æĭīå¤«": 4405,
      "åĲİèĢħ": 4406,
      "èĢĥèĻĳ": 4407,
      "åĮĹäº¬å¸Ĥ": 4408,
      "äººæ°ĳæĶ¿åºľ": 4409,
      "åĨĽçļĦ": 4410,
      "æģĴæĺŁ": 4411,
      "1945": 4412,
      "ãĥ³ãĥ": 4413,
      "æĳĩ": 4414,
      "son": 4415,
      "éĵº": 4416,
      "é©±éĢĲ": 4417,
      "ç°": 4418,
      "ä¸ŀ": 4419,
      "éĺŁä¼į": 4420,
      "çĹĩçĬ¶": 4421,
      "ä¸Ģåº¦": 4422,
      "è¯¥åºĦ": 4423,
      "ä¿ĿåŃĺ": 4424,
      "æ±¡": 4425,
      "ï¼ĮãĢĮ": 4426,
      "åĽ½åĬ¡": 4427,
      "å°ĳæķ°": 4428,
      "å½¢æĢģ": 4429,
      "çĬ¶åĨµ": 4430,
      "åĲĪæĪĲ": 4431,
      "æºĲäºİ": 4432,
      "ç»ıåħ¸": 4433,
      "ä¹¡è¯ķ": 4434,
      "æ³°åĽ½": 4435,
      "çŁŃæľŁ": 4436,
      "èĬĤåº¦": 4437,
      "è¯ķéªĮ": 4438,
      "èľľ": 4439,
      "ç£¨": 4440,
      "ĠçĻ½": 4441,
      "é£Łåĵģ": 4442,
      "ä¹ĭä¸Ń": 4443,
      "é¡µ": 4444,
      "éªĳåħµ": 4445,
      "éģ¿åħį": 4446,
      "çļĦæµ·": 4447,
      "é¢ľèī²": 4448,
      "æĦıä¸º": 4449,
      "æīĵåĩ»": 4450,
      "ric": 4451,
      "åº·çĨĻ": 4452,
      "æī°": 4453,
      "æĬ¥éģĵ": 4454,
      "è´¢æĶ¿": 4455,
      "èĢĮæĺ¯": 4456,
      "oun": 4457,
      "å¤§å¤«": 4458,
      "æĢĿæĥ³": 4459,
      "ç»ĵæĿŁåĲİ": 4460,
      "ãĤ«": 4461,
      "Ġåį¡": 4462,
      "åĽ½ç«ĭ": 4463,
      "èĲ¨åħĭ": 4464,
      "æĬ½": 4465,
      "ĠæŀĹ": 4466,
      "ä¹ĭä¸ĭ": 4467,
      "æłĩæľ¬": 4468,
      "ç«ŀäºī": 4469,
      "çİ°ä»»": 4470,
      "åĿ¦åħĭ": 4471,
      "å§ľ": 4472,
      "åŁºçĿ£æķĻ": 4473,
      "èĸĦ": 4474,
      "åħ¬åĪĨ": 4475,
      "Ġä»İ": 4476,
      "ai": 4477,
      "éĤĳ": 4478,
      "åī§éĻ¢": 4479,
      "å¹½": 4480,
      "ãģı": 4481,
      "è£ħå¤ĩ": 4482,
      "åĳ¨åĽ´": 4483,
      "åĲĲ": 4484,
      "éķ¿åº¦": 4485,
      "æĦĪ": 4486,
      "æĹ¥æ²»": 4487,
      "è¥¿æ´ĭ": 4488,
      "ä¸įè¶³": 4489,
      "å°Ŀ": 4490,
      "åħ¸ç¤¼": 4491,
      "å¤ļç§į": 4492,
      "åĵĪå°Ķ": 4493,
      "æĺİæĺŁ": 4494,
      "åľ°çĤ¹": 4495,
      "èī²åĪĹ": 4496,
      "å¤ķ": 4497,
      "ä¸ĢæĿ¡": 4498,
      "Â°": 4499,
      "åŁĥå°Ķ": 4500,
      "æŃ¦å¸Ŀ": 4501,
      "ä¸Īå¤«": 4502,
      "æİĺ": 4503,
      "ç¨ĭåº¦": 4504,
      "ä¸ĳ": 4505,
      "è¿Ł": 4506,
      "è´«": 4507,
      "æ¨±": 4508,
      "åĲ¸å¼ķ": 4509,
      "åİŁåĲį": 4510,
      "éļĭ": 4511,
      "æĬµè¾¾": 4512,
      "çīµå¼ķ": 4513,
      "æĸ¤": 4514,
      "æĻ®éģį": 4515,
      "åĴĮåħ¶ä»ĸ": 4516,
      "äºļåİĨå±±å¤§": 4517,
      "ä¹Łåı¯ä»¥": 4518,
      "æģŃ": 4519,
      "ack": 4520,
      "æĬĳ": 4521,
      "å¯»æī¾": 4522,
      "æĸ°å¢ŀ": 4523,
      "åºŀ": 4524,
      "äº¦æľī": 4525,
      "Ġèĩª": 4526,
      "å¼Łå¼Ł": 4527,
      "çĶ±æŃ¤": 4528,
      "ont": 4529,
      "æīįèĥ½": 4530,
      "AT": 4531,
      "æĬ¢": 4532,
      "ĠæĶ¿æ²»": 4533,
      "æĿ¡çº¦": 4534,
      "æį¢ä¹ĺ": 4535,
      "èĭĳ": 4536,
      "åħ¨éķ¿": 4537,
      "èĬ¬åħ°": 4538,
      "æľ¬èº«": 4539,
      "å¥Ķ": 4540,
      "èŀº": 4541,
      "Ġå·´": 4542,
      "Ġä»ĸ": 4543,
      "2023": 4544,
      "å¥¥æŀĹåĮ¹åħĭ": 4545,
      "åĵ²åŃ¦": 4546,
      "Ġin": 4547,
      "çĲī": 4548,
      "çļĦä¸ī": 4549,
      "å¹¶éĿŀ": 4550,
      "In": 4551,
      "å¤ªéĥİ": 4552,
      "äºĮäºº": 4553,
      "ord": 4554,
      "èħº": 4555,
      "æ¸©åº¦": 4556,
      "çº§èģĶèµĽ": 4557,
      "ass": 4558,
      "å±ķç¤º": 4559,
      "ç¨¿": 4560,
      "ä¸ĵå®¶": 4561,
      "å½¢è±¡": 4562,
      "åĦĴ": 4563,
      "ä¸Ńå±±": 4564,
      "èĤł": 4565,
      "ä¸ĩåħĥ": 4566,
      "æĮª": 4567,
      "æĿ°åħĭ": 4568,
      "åįģæľĪ": 4569,
      "ç¥Ģ": 4570,
      "æł¡åĮº": 4571,
      "å¸¦é¢Ĩ": 4572,
      "æª": 4573,
      "çŁ¥è¯Ĩ": 4574,
      "çĶ³è¯·": 4575,
      "ç¡ķå£«": 4576,
      "éĹª": 4577,
      "1983": 4578,
      "å¯ŁéĻ¢": 4579,
      "æ±°": 4580,
      "å¾ĹçŁ¥": 4581,
      "ä¸ĵéĹ¨": 4582,
      "æł¸å¿ĥ": 4583,
      "ä¸Ģåº§": 4584,
      "éĢļéģĵ": 4585,
      "æŃ¦è£ħ": 4586,
      "çļĦæĸ¹å¼ı": 4587,
      "ĠâĢĵ": 4588,
      "æĭīåħĭ": 4589,
      "è¤Ĳ": 4590,
      "ä¿ĺ": 4591,
      "çº·": 4592,
      "æľĿå»·": 4593,
      "è¡¨æĺİ": 4594,
      "èı²å¾ĭ": 4595,
      "ä¹Łåľ¨": 4596,
      "åįİçĽĽ": 4597,
      "èı²å¾ĭå®¾": 4598,
      "åı¦ä¸Ģä¸ª": 4599,
      "éĺ²å¾¡": 4600,
      "å¦Ļ": 4601,
      "æıĲåįĩ": 4602,
      "åŃ¦å£«": 4603,
      "çĶµæ°Ķ": 4604,
      "éĿĴå²Ľ": 4605,
      "ç»ıçĲĨ": 4606,
      "æŃ¢äºİ": 4607,
      "ãģ¯": 4608,
      "å¾·åįİ": 4609,
      "æī¾åĪ°": 4610,
      "95": 4611,
      "çļĦä½ľåĵģ": 4612,
      "å¥İ": 4613,
      "è¦ĨçĽĸ": 4614,
      "è½¬ä¼ļ": 4615,
      "ç¿Ķ": 4616,
      "éĢ¢": 4617,
      "çĪ±æĥħ": 4618,
      "å¾Īå¿«": 4619,
      "ä¹ĲéĺŁ": 4620,
      "æľºåħ³": 4621,
      "åĩºåħ¥åı£": 4622,
      "ç¼ĸè¾ĳ": 4623,
      "Ġç®Ģä»ĭ": 4624,
      "æ£ĺ": 4625,
      "çĢ": 4626,
      "åįİçĽĽé¡¿": 4627,
      "Ġæ°´": 4628,
      "ä»ĸè¢«": 4629,
      "æĤī": 4630,
      "ç¼ºä¹ı": 4631,
      "AR": 4632,
      "åłĨ": 4633,
      "çĲĨäºĭ": 4634,
      "è¯¢": 4635,
      "æĺ¯ä¸Ģéĥ¨": 4636,
      "qu": 4637,
      "æĤ£èĢħ": 4638,
      "æĮīçħ§": 4639,
      "1982": 4640,
      "å®ŀéªĮå®¤": 4641,
      "åľ°éĿ¢": 4642,
      "ãģ¦": 4643,
      "ä½ıå®ħ": 4644,
      "æ³¨åĨĮ": 4645,
      "ä¸Ĭæµ·å¸Ĥ": 4646,
      "Ġå±±": 4647,
      "åħĨ": 4648,
      "å®ļä¸º": 4649,
      "ç¯®çĲĥ": 4650,
      "çĽĨ": 4651,
      "æĹĹä¸ĭ": 4652,
      "åī§éĽĨ": 4653,
      "ä¸ĩç¾İåħĥ": 4654,
      "ä»¥èī²åĪĹ": 4655,
      "å¥¹åľ¨": 4656,
      "æī®æ¼Ķ": 4657,
      "èĴ¸": 4658,
      "ä¸»é¢ĺæĽ²": 4659,
      "é©¬å°Ķ": 4660,
      "åĵ¥ä¼¦": 4661,
      "æ¹ĺ": 4662,
      "åħĭéĩĮ": 4663,
      "ä¼°è®¡": 4664,
      "æľºåĻ¨": 4665,
      "æĢ§è´¨": 4666,
      "åĶĲæľĿ": 4667,
      "é»Ħèī²": 4668,
      "ä¸Ńæľī": 4669,
      "æĶ¹åĲįä¸º": 4670,
      "å°Ĩä¼ļ": 4671,
      "åĿª": 4672,
      "åĬ©çĲĨ": 4673,
      "æīĢå±ŀçļĦ": 4674,
      "éĺĶ": 4675,
      "Ġä¸Ĭ": 4676,
      "å®ŀéĻħä¸Ĭ": 4677,
      "Ġäº¤éĢļ": 4678,
      "è´µæĹı": 4679,
      "æī¿è®¤": 4680,
      "åıĳçĶµ": 4681,
      "ä»Ĩ": 4682,
      "ä»ķ": 4683,
      "åı°åįĹ": 4684,
      "å¹´é¾Ħ": 4685,
      "åĲ¾": 4686,
      "å¹¶æľª": 4687,
      "ä¼Ĭæĸ¯åħ°": 4688,
      "çĲ¼": 4689,
      "çªģçĦ¶": 4690,
      "åħĭèİ±": 4691,
      "çļĦäºĭ": 4692,
      "ER": 4693,
      "åıł": 4694,
      "ä¸»åľº": 4695,
      "km": 4696,
      "ãĢĭï¼ļ": 4697,
      "åĨħéĺģ": 4698,
      "85": 4699,
      "æµ·æ´ĭ": 4700,
      "Ġãĥ": 4701,
      "åľ°å¸¦": 4702,
      "ç»¿èī²": 4703,
      "éĺŁéķ¿": 4704,
      "æĸĭ": 4705,
      "å¥¥å°Ķ": 4706,
      "é»Ħéĩĳ": 4707,
      "éĥ¨çļĦ": 4708,
      "az": 4709,
      "éŁµ": 4710,
      "å·¢": 4711,
      "æĹ¥åĨĽ": 4712,
      "éĻ¢éķ¿": 4713,
      "ä¿¡ä»°": 4714,
      "æıŃ": 4715,
      "åįĥç±³": 4716,
      "å¸ĪèĮĥ": 4717,
      "çĶ¨ä½ľ": 4718,
      "æĵİ": 4719,
      "ä¸ĭæĿ¥": 4720,
      "éĻĦè¿ĳçļĦ": 4721,
      "æĻĭçº§": 4722,
      "è¡ĮæĶ¿åĮºåĪĴ": 4723,
      "400": 4724,
      "ä¼ļçļĦ": 4725,
      "çĶ¨éĢĶ": 4726,
      "ãĢĢãĢĢ": 4727,
      "åĲĪçº¦": 4728,
      "æ¼Ķå¥ı": 4729,
      "å½ĵå¹´": 4730,
      "çĶŁçļĦ": 4731,
      "è¯ģåĪ¸": 4732,
      "çĮĽ": 4733,
      "å¼Ģè®¾": 4734,
      "å¼¯": 4735,
      "å·ŀåºľ": 4736,
      "å¯¸": 4737,
      "arl": 4738,
      "é¢Ī": 4739,
      "æŃĩ": 4740,
      "180": 4741,
      "Ġ2003": 4742,
      "éĻįä½İ": 4743,
      "éĨĴ": 4744,
      "aw": 4745,
      "Ġåı°æ¹¾": 4746,
      "ç»ĻäºĪ": 4747,
      "Ġæľī": 4748,
      "å¦Ĥä½ķ": 4749,
      "åĨ²çªģ": 4750,
      "ç§»æ°ĳ": 4751,
      "è¾¾æĪĲ": 4752,
      "ãģĤ": 4753,
      "çłĤ": 4754,
      "1000": 4755,
      "æ±Ŀ": 4756,
      "åįĳ": 4757,
      "èīºäºº": 4758,
      "å°¹": 4759,
      "ä¼ļéķ¿": 4760,
      "ç§ĺå¯Ĩ": 4761,
      "ĠéŁ³ä¹Ĳ": 4762,
      "åħ¬äº¤": 4763,
      "æľĢè¿ĳ": 4764,
      "åħīç»ª": 4765,
      "å¯¨": 4766,
      "ç»Īäºİ": 4767,
      "åĬłåĪ©": 4768,
      "çļĦéĩįè¦ģ": 4769,
      "åľ¨åħ¶": 4770,
      "éĵŃ": 4771,
      "æĸ©": 4772,
      "èµĭ": 4773,
      "è´Ńä¹°": 4774,
      "è®¿éĹ®": 4775,
      "è¶³çĲĥè¿ĲåĬ¨åĳĺ": 4776,
      "å¨ģèĥģ": 4777,
      "éĥ¨å°ļä¹¦": 4778,
      "ä¸ŃåĽ½äººæ°ĳ": 4779,
      "é©¾é©¶": 4780,
      "æ·ĺæ±°": 4781,
      "oy": 4782,
      "äººåı£æķ°éĩı": 4783,
      "ä¸¾è¡ĮçļĦ": 4784,
      "å®īè£ħ": 4785,
      "è¯·æ±Ĥ": 4786,
      "ä¸¤æ¬¡": 4787,
      "èĤº": 4788,
      "1920": 4789,
      "æŃ£æľĪ": 4790,
      "è±¡å¾ģ": 4791,
      "éĢĴ": 4792,
      "æĪĲéĥ½": 4793,
      "å¸ĥèİ±": 4794,
      "å¹¶å°Ĩ": 4795,
      "è¥Ħ": 4796,
      "æ±Ģ": 4797,
      "è´´": 4798,
      "ä¸Ĭæľī": 4799,
      "èģĶç³»": 4800,
      "ate": 4801,
      "è§Ĥæµĭ": 4802,
      "é³ŀ": 4803,
      "ton": 4804,
      "ä¸Ľ": 4805,
      "é³Ħ": 4806,
      "è¿ħéĢŁ": 4807,
      "è¡¨è¾¾": 4808,
      "çļĦåĲĮ": 4809,
      "å½±è§Ĩ": 4810,
      "ä¼łæĴŃ": 4811,
      "åľ°çĲĨ": 4812,
      "åİĭåĬĽ": 4813,
      "ç¤¾ä¼ļä¸»ä¹ī": 4814,
      "å¤įæĿĤ": 4815,
      "ĠæĿ¨": 4816,
      "åħ¨çº¿": 4817,
      "ç¾½æ¯ĽçĲĥ": 4818,
      "å¤§å¸Ī": 4819,
      "å£°éŁ³": 4820,
      "èĢĹ": 4821,
      "äºĮæľĪ": 4822,
      "Ġåĳ¨": 4823,
      "æłĹ": 4824,
      "åľ°è´¨": 4825,
      "èģĺ": 4826,
      "å¤§åŃĹ": 4827,
      "è°Ń": 4828,
      "æ·»": 4829,
      "éĨĩ": 4830,
      "åľĨå½¢": 4831,
      "é©¬æĭī": 4832,
      "æłı": 4833,
      "æ¢¨": 4834,
      ")ãĢģ": 4835,
      "ç¨į": 4836,
      "æĸĩåŃĹ": 4837,
      "ä¼¯çĪµ": 4838,
      "èĬĤåº¦ä½¿": 4839,
      "å±ķè§Ī": 4840,
      "èĲ¨æĸ¯": 4841,
      "åľ¨ä¸ŃåĽ½": 4842,
      "å¹¿ä¸ľçľģ": 4843,
      "Ġå½ĵ": 4844,
      "èľ¥": 4845,
      "çĶŁæĢģ": 4846,
      "åįĹæĸ¹": 4847,
      "å±±åĮº": 4848,
      "åľºæ¯ĶèµĽ": 4849,
      "èĥ½éĩı": 4850,
      "ina": 4851,
      "è£ħé¥°": 4852,
      "åĪ·": 4853,
      "ãģĮ": 4854,
      "åĩłä¸ª": 4855,
      "æĦıä¹ī": 4856,
      "è¾ĥä¸º": 4857,
      "çļĦæ°´": 4858,
      "å°±ä¼ļ": 4859,
      "æĪĳçļĦ": 4860,
      "è®¨è®º": 4861,
      "æĸĲ": 4862,
      "åĬĿ": 4863,
      "æĹ¶ä»»": 4864,
      "æĹħè¡Į": 4865,
      "ä»ĸä¸İ": 4866,
      "éĢĢä¼ĳ": 4867,
      "åľ¨è¯¥": 4868,
      "åľ¨ä¸Ģ": 4869,
      "ç¥ł": 4870,
      "èģĮä¸ļçĶŁæ¶¯": 4871,
      "sh": 4872,
      "ä¸Ĭå¸Ĥ": 4873,
      "ç®Ģåįķ": 4874,
      "åłª": 4875,
      "èģĶåĲĪåĽ½": 4876,
      "te": 4877,
      "å§»": 4878,
      "ç¨ĭåºı": 4879,
      "åŁİéķĩ": 4880,
      "ç»ıéªĮ": 4881,
      "ç©ºæ°Ķ": 4882,
      "å¼ķæĵİ": 4883,
      "åį¡æĭī": 4884,
      "åįģå¤§": 4885,
      "åľŃ": 4886,
      "åĬ«": 4887,
      "å¦ĸ": 4888,
      "åįģä¸Ģå¹´": 4889,
      "çķĶ": 4890,
      "èĲ¥è¿Ĳ": 4891,
      "åıĺå¾Ĺ": 4892,
      "ib": 4893,
      "é¸Łç±»": 4894,
      "ãģĵ": 4895,
      "æ´Ľåħĭ": 4896,
      "æ£ĴçĲĥ": 4897,
      "éĻĦå±ŀ": 4898,
      "äºĶæľĪ": 4899,
      "ç¡«": 4900,
      "éĴĪå¯¹": 4901,
      "åĬłå·ŀ": 4902,
      "é¸Ń": 4903,
      "èĢĥåı¤": 4904,
      "ç¢§": 4905,
      "åįłåľ°": 4906,
      "æĹłçº¿çĶµè§Ĩ": 4907,
      "èĴĭ": 4908,
      "åĽ½éģĵ": 4909,
      "å·«": 4910,
      "ç¬¬åħ«": 4911,
      "æĥŁ": 4912,
      "ä¸Ģçº§": 4913,
      "åĽłç´ł": 4914,
      "èĬĴ": 4915,
      "æ°¨": 4916,
      "æŃ£å¸¸": 4917,
      "åĸľåī§": 4918,
      "åľ¨å¤§": 4919,
      "çļĦåĦ¿åŃĲ": 4920,
      "åıĳçİ°äºĨ": 4921,
      "1979": 4922,
      "æĹ¥æľŁ": 4923,
      "åħ³æ³¨": 4924,
      "ä¸ĭåįĪ": 4925,
      "çĵ¶": 4926,
      "å®°": 4927,
      "æĵįä½ľ": 4928,
      "æī¶": 4929,
      "æĸĩçĮ®": 4930,
      "è¤": 4931,
      "éĹ´çļĦ": 4932,
      "æĤ²": 4933,
      "ug": 4934,
      "æ³¡": 4935,
      "èįĨ": 4936,
      "æ¶Īæģ¯": 4937,
      "åĴĸ": 4938,
      "çľŁæŃ£": 4939,
      "åĪĹåħ¥": 4940,
      "çī¹èī²": 4941,
      "ç»ĻäºĨ": 4942,
      "Ġè¡ĮæĶ¿": 4943,
      "ĠAn": 4944,
      "å¾ĭå¸Ī": 4945,
      "à¤": 4946,
      "ï¼ħ": 4947,
      "å¤ļå¹´": 4948,
      "Ġäºļ": 4949,
      "åİ¢": 4950,
      "æ´ĽæĿī": 4951,
      "åıĤåĬłäºĨ": 4952,
      "éĥ¨èĲ½": 4953,
      "æ¶Ĥ": 4954,
      "ä¸ºæŃ¢": 4955,
      "Ġ2000": 4956,
      "èĤ¢": 4957,
      "èĤ¤": 4958,
      "æ¸Ĭ": 4959,
      "å¯¹æĬĹ": 4960,
      "åıĳåĬ¨æľº": 4961,
      "åħ¶å®ŀ": 4962,
      "å°ıåŀĭ": 4963,
      "åĪ¶çļĦ": 4964,
      "æĮªå¨ģ": 4965,
      "åīįçļĦ": 4966,
      "åĢĻéĢī": 4967,
      "é¡¾éĹ®": 4968,
      "åı¯èĥ½ä¼ļ": 4969,
      "éº¦åħĭ": 4970,
      "é¢Ĩè¢ĸ": 4971,
      "ä»·æł¼": 4972,
      "æģĲé¾Ļ": 4973,
      "ç¥ŀè¯Ŀ": 4974,
      "æ³¢æĸ¯": 4975,
      "æĺİæľĿæĶ¿æ²»äººçī©": 4976,
      "æ´ĽæĿīçŁ¶": 4977,
      "è¾½å®ģ": 4978,
      "å¼ķåıĳ": 4979,
      "è½¬ç§»": 4980,
      "åı²ä¸Ĭ": 4981,
      "åħ³éĹŃ": 4982,
      "çī¹éĩĮ": 4983,
      "ç»Ħå»º": 4984,
      "æĦıè¯Ĩ": 4985,
      "end": 4986,
      "96": 4987,
      "è¥¿æĸ¹": 4988,
      "æ¬§åħĥ": 4989,
      "åĢº": 4990,
      "åĽºå®ļ": 4991,
      "è´µå·ŀ": 4992,
      "ç»ĦæĪĲçļĦ": 4993,
      "åĬłæĭī": 4994,
      "ind": 4995,
      "çľģéģĵåı°": 4996,
      "è´£ä»»": 4997,
      "120": 4998,
      "ä¸İåħ¶ä»ĸ": 4999,
      "1981": 5000,
      "åĽĽæľĪ": 5001,
      "èĢĲ": 5002,
      "åľ°åĽ¾": 5003,
      "ä¹ĺå®¢": 5004,
      "å¹´åºķ": 5005,
      "æĪĺå£«": 5006,
      "æľĢå¤ļ": 5007,
      "å»¶éķ¿": 5008,
      "æİª": 5009,
      "è¿Ļæ¬¡": 5010,
      "è½¬åĲĳ": 5011,
      "1978": 5012,
      "ä¼ª": 5013,
      "å¯¹æĸ¹": 5014,
      "æĶ¿åħļ": 5015,
      "å¤ĸåĽ½": 5016,
      "åĨ¢": 5017,
      "Ġ17": 5018,
      "ary": 5019,
      "Ġåı¤": 5020,
      "ç©´": 5021,
      "æ²¿éĿ©": 5022,
      "ä¸¤ä¾§": 5023,
      "ãĤŃ": 5024,
      "çĽ¸æ¯Ķ": 5025,
      "æ£ķ": 5026,
      "åĪĨç¦»": 5027,
      "IC": 5028,
      "Ġæĺ¯": 5029,
      "ohn": 5030,
      "ä¹īå¤§åĪ©": 5031,
      "ç¦ħ": 5032,
      "èµĦäº§": 5033,
      "èº«ä¸º": 5034,
      "æłĭ": 5035,
      "çº¤": 5036,
      "ä¿®å»º": 5037,
      "çīĻåĪ©": 5038,
      "çľģçļĦä¸Ģä¸ª": 5039,
      "ust": 5040,
      "è°¦": 5041,
      "çıĢ": 5042,
      "åĮĪçīĻåĪ©": 5043,
      "ç¡®è®¤": 5044,
      "eb": 5045,
      "çļĦä¸Ń": 5046,
      "çİ²": 5047,
      "éĽį": 5048,
      "éĽĩ": 5049,
      "åı¯è¾¾": 5050,
      "éºŁ": 5051,
      "è¢ĭ": 5052,
      "ä¸°å¯Į": 5053,
      "çĪµå£«": 5054,
      "ç»ĪçĤ¹": 5055,
      "åĨ¬åŃ£": 5056,
      "æ¼ĶåĶ±ä¼ļ": 5057,
      "çĶŁåŃĺ": 5058,
      "æĬķéĻį": 5059,
      "çļĦå¥³åĦ¿": 5060,
      "çŃīçŃī": 5061,
      "æĪĺéĺŁ": 5062,
      "åħ´è¶£": 5063,
      "å¹´æĹ¶": 5064,
      "è¿¦": 5065,
      "éļ¶å±ŀ": 5066,
      "åıĹæ¬¢è¿İ": 5067,
      "çľŁå®ŀ": 5068,
      "ff": 5069,
      "èħĶ": 5070,
      "å¹³åİŁ": 5071,
      "çļĦåĲİ": 5072,
      "èģĮåĬ¡": 5073,
      "éŃĶæ³ķ": 5074,
      "ä½įäºİæ³ķåĽ½": 5075,
      "æĶ¯æı´": 5076,
      "ç¨»": 5077,
      "æĦıå¤ĸ": 5078,
      "å§ĳ": 5079,
      "èĤĸ": 5080,
      "èĻ¹": 5081,
      "å¸ĥå°Ķ": 5082,
      "æĽ´åĬł": 5083,
      "æĽ´å¤ļ": 5084,
      "åĽ½åĬ¡éĻ¢": 5085,
      "æķ¢": 5086,
      "æĸĩç«ł": 5087,
      "å°¼äºļå·ŀ": 5088,
      "ä»»åĳ½ä¸º": 5089,
      "æ°ĳéĹ´": 5090,
      "æĶ¶èĹı": 5091,
      "Ġ2002": 5092,
      "Ð²": 5093,
      "æŀĦéĢł": 5094,
      "éķ¿åŃĲ": 5095,
      "åħ¬æ°ĳ": 5096,
      "æĮĸ": 5097,
      "çģ«æĺŁ": 5098,
      "ath": 5099,
      "å±Ī": 5100,
      "éĤª": 5101,
      "æĪĺçķ¥": 5102,
      "å¹¶ä»¥": 5103,
      "å¼ĹæľĹ": 5104,
      "æľīæīĢ": 5105,
      "åįģä¹Ŀ": 5106,
      "èĩªæĿĢ": 5107,
      "å¤§éĺª": 5108,
      "èĵĿèī²": 5109,
      "åīª": 5110,
      "é¦ĸåħĪ": 5111,
      "ç§ģäºº": 5112,
      "è©¹å§Ĩæĸ¯": 5113,
      "å°¼å°Ķ": 5114,
      "è¯ģæį®": 5115,
      "åĲ¹": 5116,
      "ç¨£": 5117,
      "æĽ²çĽ®": 5118,
      "ĠåĲ´": 5119,
      "è¯±": 5120,
      "åıĳæĺİ": 5121,
      "Ġä¸º": 5122,
      "ä»¥ä¸º": 5123,
      "æ°¯": 5124,
      "86": 5125,
      "é¢ĨåľŁ": 5126,
      "çłĸ": 5127,
      "èħ¿": 5128,
      "ĠAl": 5129,
      "ä¸İåħ¶": 5130,
      "åĳĬè¯ī": 5131,
      "ä¸ĭéĻį": 5132,
      "å½ķéŁ³": 5133,
      "çĶľ": 5134,
      "äº¦æĺ¯": 5135,
      "æµĭéĩı": 5136,
      "å®ĺèĩ³": 5137,
      "ä¼½": 5138,
      "çŃ¾çº¦": 5139,
      "ç§ĳåŃ¦å®¶": 5140,
      "æĬ±": 5141,
      "æĻ®æŁ¥": 5142,
      "éĩĳçīĮ": 5143,
      "å¯¹è±¡": 5144,
      "ä¸Ģæ®µ": 5145,
      "åħ«æľĪ": 5146,
      "åį³ä½¿": 5147,
      "åĪ¶çīĩ": 5148,
      "å¹´åĪ°": 5149,
      "åĲŀ": 5150,
      "éĹ²": 5151,
      "Ġ11": 5152,
      "åĲ§": 5153,
      "åĽĽå·Ŀçľģ": 5154,
      "å¿§": 5155,
      "åĳ¨å¹´": 5156,
      "çĽ¸äºĴ": 5157,
      "åĪ©æĸ¯": 5158,
      "çĽ¸ä¿¡": 5159,
      "1958": 5160,
      "ä¸»æĮģäºº": 5161,
      "èĢ¶ç¨£": 5162,
      "ãĤª": 5163,
      "çĿ¡": 5164,
      "åį«è§Ĩ": 5165,
      "åĲĽä¸»": 5166,
      "åħĭç½Ĺ": 5167,
      "åĨĽåĽ¢": 5168,
      "AC": 5169,
      "æ¯Ķä¾ĭ": 5170,
      "ç¬¬äºĮæ¬¡ä¸ĸçķĮå¤§æĪĺ": 5171,
      "ãĤ¨": 5172,
      "Ġä¸ªäºº": 5173,
      "å°¿": 5174,
      "çŁŃæľŁå¤§åŃ¦": 5175,
      "èģª": 5176,
      "çĪ·": 5177,
      "åĮĹæĸ¹": 5178,
      "åĽĬ": 5179,
      "èĤ¿": 5180,
      "ç¦ģæŃ¢": 5181,
      "æĸ¯é¡¿": 5182,
      "çľģåĴĮ": 5183,
      "åĪĽå»º": 5184,
      "åĵ¥ä¼¦æ¯Ķäºļ": 5185,
      "å¼ĵ": 5186,
      "è´¼": 5187,
      "èĢģå¸Ī": 5188,
      "Ġèį£èªī": 5189,
      "éľĢæ±Ĥ": 5190,
      "å¼Ģå·¥": 5191,
      "åŃĹæ¯į": 5192,
      "çº¦ä¸º": 5193,
      "åħŃæľĪ": 5194,
      "ect": 5195,
      "çİ°åľ¨çļĦ": 5196,
      "ä»ĬæĹ¥": 5197,
      "ach": 5198,
      "éģµ": 5199,
      "æķĻå®Ĺ": 5200,
      "çŃ¾ç½²": 5201,
      "ä¸ĥæľĪ": 5202,
      "çİ»çĴĥ": 5203,
      "ä½ĵèĤ²åľº": 5204,
      "ãĤ³": 5205,
      "æ±ª": 5206,
      "ä¸īæľĪ": 5207,
      "ä¹¡éģĵ": 5208,
      "å¯ĵ": 5209,
      "æı¡": 5210,
      "ĠäºĮ": 5211,
      "äºĨè§£": 5212,
      "èĪŁ": 5213,
      "è®¤è¯Ĩ": 5214,
      "æĵħ": 5215,
      "æĢķ": 5216,
      "çķĻä¸ĭ": 5217,
      "åįģäºĮæľĪ": 5218,
      "å¤©çļĦ": 5219,
      "èľĢ": 5220,
      "èħĵ": 5221,
      "æķ´ä½ĵ": 5222,
      "å·®å¼Ĥ": 5223,
      "åħ¬æĸ¤": 5224,
      "åķ¡": 5225,
      "æī«": 5226,
      "ç¥Ĳ": 5227,
      "çĶ«": 5228,
      "å·¥äºº": 5229,
      "HK": 5230,
      "åıĳåĩº": 5231,
      "å¾ĹåĲį": 5232,
      "ä¿ĥè¿Ľ": 5233,
      "å®ĥæĺ¯": 5234,
      "å¼ºçĥĪ": 5235,
      "éĴ»": 5236,
      "çļĦéģĵè·¯": 5237,
      "ä¹ĭå¥³": 5238,
      "ä¹¦ç±į": 5239,
      "éĺ³å¸Ĥ": 5240,
      "èµĦéĩĳ": 5241,
      "1955": 5242,
      "é¦ĸæĴŃ": 5243,
      "æĴ¤éĶĢ": 5244,
      "åħ¬ä¼Ĺ": 5245,
      "åįĩä¸º": 5246,
      "ann": 5247,
      "ä¸Ńè¢«": 5248,
      "è°¥": 5249,
      "92": 5250,
      "ä»»èģĮ": 5251,
      "èĩªæ²»åĮº": 5252,
      "ä¸įæķĮ": 5253,
      "æ¡ĵ": 5254,
      "çŁ¢": 5255,
      "ãĤĮ": 5256,
      "çļĦä¸¤": 5257,
      "Ø§": 5258,
      "æŁ¥çĲĨ": 5259,
      "å·¥åħ·": 5260,
      "ĠåĲİ": 5261,
      "ç²¹": 5262,
      "æĬķæīĭ": 5263,
      "ä»ĸäºİ": 5264,
      "åĽ½éĻħæľºåľº": 5265,
      "æĹ§å¸Ĥéķĩ": 5266,
      "è¾ĸåĮº": 5267,
      "æĸ¹è¨Ģ": 5268,
      "éģĵåħī": 5269,
      "çĶ»å®¶": 5270,
      "èĭıä¸¹": 5271,
      "æĻļä¸Ĭ": 5272,
      "ĠæĹ¥": 5273,
      "çļĦåħ³ç³»": 5274,
      "çĶµèĦĳ": 5275,
      "çĤ¼": 5276,
      "ä¸Ģå®ļ": 5277,
      "ä½ĨçĶ±äºİ": 5278,
      "æ¶µ": 5279,
      "ä¼ĺåĬ¿": 5280,
      "åŁĭ": 5281,
      "éĦĤ": 5282,
      "éĢĢåĩº": 5283,
      "è®¡ç®Ĺæľº": 5284,
      "è·¯æ®µ": 5285,
      "Ġæķħäºĭ": 5286,
      "ier": 5287,
      "æĭ±": 5288,
      "èĸĩ": 5289,
      "åĲįä¹ī": 5290,
      "çĶĺèĤĥ": 5291,
      "è¿ĲçĶ¨": 5292,
      "ä¸ĸçķĮä¸Ĭ": 5293,
      "ct": 5294,
      "çĶµåĬĽæľºè½¦": 5295,
      "ĠçŁ³": 5296,
      "é¢ĩ": 5297,
      "æľįå½¹": 5298,
      "å¤©ä¸ĭ": 5299,
      "å±ł": 5300,
      "æĳĨ": 5301,
      "ĠçĽ¸åħ³": 5302,
      "çĲª": 5303,
      "çļĦå·¥ä½ľ": 5304,
      "ond": 5305,
      "ĠSh": 5306,
      "éĽ¾": 5307,
      "83": 5308,
      "éļľç¢į": 5309,
      "åħ¬åħĥåīį": 5310,
      "è¾©": 5311,
      "å¯¹å¤ĸ": 5312,
      "äºĭå®ŀ": 5313,
      "Ġ2001": 5314,
      "çļĦå¸Ĥéķĩ": 5315,
      "äº¿ç¾İåħĥ": 5316,
      "ç²¤è¯Ń": 5317,
      "å¸¦æľī": 5318,
      "å¥¥è¿Ĳä¼ļ": 5319,
      "æĬĵ": 5320,
      "æ¯ķä¸ļåĲİ": 5321,
      "æĸ½å·¥": 5322,
      "å¹¶æŃ¢äºİ": 5323,
      "çĪĨçĤ¸": 5324,
      "æ°ĳä¸»åħļ": 5325,
      "é¤Ĳåİħ": 5326,
      "å¤©çĦ¶": 5327,
      "å®¶äºº": 5328,
      "èĿ¶": 5329,
      "é£İéĻ©": 5330,
      "æ²³åįĹçľģ": 5331,
      "Ġä»¥ä¸ĭ": 5332,
      "ä»¥åĮĹ": 5333,
      "åıĤè°ĭ": 5334,
      "èĤĿ": 5335,
      "ä¸ºäºº": 5336,
      "è¾¾å°Ķ": 5337,
      "ç§°åı·": 5338,
      "å¯¼å¼¹": 5339,
      "éĢ¸": 5340,
      "1949": 5341,
      "ĠåĲī": 5342,
      "ç¦»åŃĲ": 5343,
      "æĸĩä»¶": 5344,
      "éĹ¸": 5345,
      "è¥¿å®ī": 5346,
      "èĥĨ": 5347,
      "ÃĹ": 5348,
      "éĢ¼": 5349,
      "åĮĸåĲĪçī©": 5350,
      "éħįåĲĪ": 5351,
      "æµĻæ±Łçľģ": 5352,
      "ç»´åŁĥ": 5353,
      "åĬ¿åĬĽ": 5354,
      "è°Ĭ": 5355,
      "çļĦåİĨåı²": 5356,
      "å¹´åĪĿ": 5357,
      "æ¼ĶåĮĸ": 5358,
      "æ³¢ç½Ĺ": 5359,
      "è½¯ä»¶": 5360,
      "1956": 5361,
      "æł¹å»·": 5362,
      "å¤ıä»¤": 5363,
      "éĥİä¸Ń": 5364,
      "çĺ¤": 5365,
      "éŃģ": 5366,
      "å°¼åħĭ": 5367,
      "Ġ0": 5368,
      "ç»³": 5369,
      "SEE": 5370,
      "ä¸ºæ³ķåĽ½": 5371,
      "AM": 5372,
      "ä¸īåĽ½": 5373,
      "åįķåħĥ": 5374,
      "æ¶īåıĬ": 5375,
      "åį³ä½į": 5376,
      "ational": 5377,
      "Ar": 5378,
      "åįģä¸ĥ": 5379,
      "ive": 5380,
      "åį°å°¼": 5381,
      "ç½ĳçĲĥ": 5382,
      "585": 5383,
      "åĮĹéŃı": 5384,
      "ĠAr": 5385,
      "å¸Ĩ": 5386,
      "Î±": 5387,
      "å·¡åĽŀ": 5388,
      "å®īä¸ľ": 5389,
      "éĥ¨çĶµå½±": 5390,
      "è§ĤçĤ¹": 5391,
      "çĪ±å¾·åįİ": 5392,
      "å®ªæ³ķ": 5393,
      "æĿŃå·ŀ": 5394,
      "JR": 5395,
      "ä¹ĿæľĪ": 5396,
      "å¼ķåħ¥": 5397,
      "åĬ³åĬ¨": 5398,
      "é¦ĸä¸ª": 5399,
      "å½¢çĬ¶": 5400,
      "é¼İ": 5401,
      "iz": 5402,
      "Ġg": 5403,
      "å±±åİ¿": 5404,
      "æİ¨è¿Ľ": 5405,
      "å¤§å¤ļ": 5406,
      "æ´¾éģ£": 5407,
      "éģ¥": 5408,
      "åį±æľº": 5409,
      "ç«ĭæ³ķ": 5410,
      "æ£ĢæŁ¥": 5411,
      "åĲįäºº": 5412,
      "å¤§èģĶçĽŁ": 5413,
      "çļĦæĥħåĨµä¸ĭ": 5414,
      "æ²¼": 5415,
      "å¿ĺ": 5416,
      "çĶ¨æĪ·": 5417,
      "éķ¿æ±Ł": 5418,
      "è¾¹ç¼ĺ": 5419,
      "çº¬": 5420,
      "æıĲåĪ°": 5421,
      "æīĵç®Ĺ": 5422,
      "AS": 5423,
      "è¿ĻéĩĮ": 5424,
      "çİ°ä»Ĭ": 5425,
      "æ¶Īå¤±": 5426,
      "åħ±äº§åħļ": 5427,
      "è·Łéļı": 5428,
      "çļĦæĹ¶éĹ´": 5429,
      "é¾Ļç§ĳ": 5430,
      "ĠåĪĨç±»": 5431,
      "æ±Łèĭıçľģ": 5432,
      "å®Ľ": 5433,
      "è¥¿åħ°": 5434,
      "è®ºæĸĩ": 5435,
      "97": 5436,
      "ãģ§": 5437,
      "æĢĸ": 5438,
      "ç´¯è®¡": 5439,
      "è·ĭ": 5440,
      "çļĦæĪĲåĳĺ": 5441,
      "éĢĤåĲĪ": 5442,
      "ç¥¯": 5443,
      "æĥ¯": 5444,
      "è¹Ī": 5445,
      "Ġå¥¥": 5446,
      "çĭŃ": 5447,
      "åİŁåŃĲ": 5448,
      "Ġèī¾": 5449,
      "åĪĨéħį": 5450,
      "ä¸įä»ħ": 5451,
      "ç¿Į": 5452,
      "æħķå®¹": 5453,
      "ÑĮ": 5454,
      "INSEE": 5455,
      "ä¼ļåĳĺ": 5456,
      "èĲ¨å°Ķ": 5457,
      "é©¬æĸ¯": 5458,
      "æº¯": 5459,
      "å¤©åłĤ": 5460,
      "æīĭæľ¯": 5461,
      "Ġåħ¨": 5462,
      "é£ŁçĶ¨": 5463,
      "èĴĻçī¹": 5464,
      "CD": 5465,
      "çº¿è·¯åı£": 5466,
      "ä¸»äºĭ": 5467,
      "èīºæľ¯å®¶": 5468,
      "çŁ³æ²¹": 5469,
      "å¾·å°Ķ": 5470,
      "æľŃ": 5471,
      "çĪª": 5472,
      "å¾·çļĦ": 5473,
      "æĶ¹åĸĦ": 5474,
      "å°ļæľª": 5475,
      "æĿĥåĬĽ": 5476,
      "éĤ£äºĽ": 5477,
      "éĩĬæĶ¾": 5478,
      "å©´": 5479,
      "1975": 5480,
      "Ġå®¶åºŃ": 5481,
      "åĮºéĹ´": 5482,
      "æ¿ĳ": 5483,
      "ç¡®è¯Ĭ": 5484,
      "å¤§åį«": 5485,
      "èĪ±": 5486,
      "æ¸¸æ³³": 5487,
      "éĴ¢çĲ´": 5488,
      "1940": 5489,
      "å¢ŀéķ¿": 5490,
      "ä¸įæĺİ": 5491,
      "çļĦçĶµå½±": 5492,
      "ç»´æĸ¯": 5493,
      "äº¬éĥ½": 5494,
      "çķĻåľ¨": 5495,
      "625": 5496,
      "è¾¨": 5497,
      "ä¸»è¦ģæĺ¯": 5498,
      "åı¤åħ¸": 5499,
      "èĤ¡ä»½æľīéĻĲåħ¬åı¸": 5500,
      "æ¯ħ": 5501,
      "åĿĩä¸º": 5502,
      "æ¼ł": 5503,
      "ä½Ľç½Ĺ": 5504,
      "è¢«è¿«": 5505,
      "å°Ĩé¢Ĩ": 5506,
      "281": 5507,
      "éĺµå®¹": 5508,
      "Ġ\"": 5509,
      "å¤§åŃ¦çļĦ": 5510,
      ")ï¼ļ": 5511,
      "åĮĹæµ·éģĵ": 5512,
      "ä½ĵç³»": 5513,
      "æĹ¶æľŁçļĦ": 5514,
      "æĻ´": 5515,
      "1082": 5516,
      "87": 5517,
      "ç§¯æŀģ": 5518,
      "èĥº": 5519,
      "å¸¦æĿ¥": 5520,
      "ãĤ£": 5521,
      "ä¹Ŀé¾Ļ": 5522,
      "æ¡Īä»¶": 5523,
      "éĵİ": 5524,
      "çĽ´å¾Ħ": 5525,
      "åįĩçº§": 5526,
      "å¤¹": 5527,
      "é¦ĸå¸Ń": 5528,
      "å£«é¡¿": 5529,
      "æµ·å¤ĸ": 5530,
      "å¹´åĴĮ": 5531,
      "å®ł": 5532,
      "æ¯ĶåĪ©æĹ¶": 5533,
      "æĭĸ": 5534,
      "åĴĸåķ¡": 5535,
      "èĢĮè¨Ģ": 5536,
      "æ·ĳ": 5537,
      "è¥¿æĸ¯": 5538,
      "èĭ¯": 5539,
      "æĪĲå°±": 5540,
      "å¸Ĥéķ¿": 5541,
      "å¾·æĭī": 5542,
      "å¯¹åºĶ": 5543,
      "ãģ£": 5544,
      "åĳĺå·¥": 5545,
      "éĩįéĩı": 5546,
      "çļĦåıĳå±ķ": 5547,
      "ĠSch": 5548,
      "å®ŀè¡Į": 5549,
      "åºŁéĻ¤": 5550,
      "çŃīçº§": 5551,
      "èĥľåĩº": 5552,
      "æĿĢå®³": 5553,
      "æįŁå¤±": 5554,
      "èĮħ": 5555,
      "é¢Ĩåľ°": 5556,
      "ç§ĳå¤«": 5557,
      "Ġéĥĳ": 5558,
      "ä¸įåĪ°": 5559,
      "æ»¡è¶³": 5560,
      "åħ¥çĲĥ": 5561,
      "ä»£çĲĨ": 5562,
      "çī¹æĭī": 5563,
      "åŃķ": 5564,
      "æĽ´ä¸º": 5565,
      "å¤įåħ´": 5566,
      "çĬ¯ç½ª": 5567,
      "ä¹¦éĻ¢": 5568,
      "åİŁå§ĭ": 5569,
      "ĠThe": 5570,
      "Ġn": 5571,
      "éĤ»è¿ĳ": 5572,
      "æĺ¯é¦Ļæ¸¯": 5573,
      "å¤ªå®Ī": 5574,
      "åĪĨåĪ«ä¸º": 5575,
      "éĢīä¸º": 5576,
      "ish": 5577,
      "çļĦè®¾è®¡": 5578,
      "ç§°ä½ľ": 5579,
      "å©ļå§»": 5580,
      "ore": 5581,
      "å®ļå±ħ": 5582,
      "æĹłäºº": 5583,
      "æĬ«": 5584,
      "åĲ»": 5585,
      "å¼ĹéĩĮ": 5586,
      "éĥģ": 5587,
      "Ġ16": 5588,
      "ä¸Ńåħ±": 5589,
      "ãĤĴ": 5590,
      "è®¾å®ļ": 5591,
      "å±Ģéķ¿": 5592,
      "å»ºçŃĳçī©": 5593,
      "çŃ¾è®¢": 5594,
      "æĲº": 5595,
      "ç¿ħ": 5596,
      "æī©å¤§": 5597,
      "ç¼ħçĶ¸": 5598,
      "Ð´": 5599,
      "åĩºåĶ®": 5600,
      "84": 5601,
      "93": 5602,
      "ä¸Ĭä¸ĭ": 5603,
      "374": 5604,
      "å°Ŀè¯ķ": 5605,
      "ç±»çļĦ": 5606,
      "å²Ľå±¿": 5607,
      "å·²è¢«": 5608,
      "600": 5609,
      "æµ·å³¡": 5610,
      "é¢Ħè®¡": 5611,
      "éĺ®": 5612,
      "é£ŁæĢ§": 5613,
      "åº¶": 5614,
      "è¶³åįı": 5615,
      "åį¡æĸ¯": 5616,
      "å±±ä¸ľçľģ": 5617,
      "81": 5618,
      "åħ¬å¼ĢèµĽ": 5619,
      "åį¢çĵ¦å°Ķ": 5620,
      "å·²æľī": 5621,
      "å°ĳå°Ĩ": 5622,
      "éĽ·æĸ¯": 5623,
      "å¸ĥæĶ¿": 5624,
      "çī¹åħ°": 5625,
      "åĬŀäºĭ": 5626,
      "åħĭå°Ķ": 5627,
      "å´©": 5628,
      "ãĢľ": 5629,
      "Mar": 5630,
      "å¯¹éĺµ": 5631,
      "æĺ¯ä¸ª": 5632,
      "åĲ«æľī": 5633,
      "åħĭçļĦ": 5634,
      "åĩ¶": 5635,
      "æķĮäºº": 5636,
      "1972": 5637,
      "èĥĮé³į": 5638,
      "åľ¨æĹ¥æľ¬": 5639,
      "è¥¿ä¾§": 5640,
      "èħĲ": 5641,
      "ä¾ĿçĦ¶": 5642,
      "Ġåħĥ": 5643,
      "ãĢĭ(": 5644,
      "äººåı£æķ°éĩıä¸ºP": 5645,
      "åĪĨæĶ¯": 5646,
      "å¥³çİĭ": 5647,
      "èıĬ": 5648,
      "åıĳèµ·": 5649,
      "æģĲæĢĸ": 5650,
      "åĩ½æķ°": 5651,
      "BN": 5652,
      "é¡·": 5653,
      "ç£·": 5654,
      "ç½¢": 5655,
      "ĠCom": 5656,
      "æĥħæĬ¥": 5657,
      "è§£æķ£": 5658,
      "ä»¤äºº": 5659,
      "åŃ£åĲİ": 5660,
      "Sh": 5661,
      "æĦıå¿Ĺ": 5662,
      "AN": 5663,
      "mer": 5664,
      "ãĤĤ": 5665,
      "å¥³ä¸»è§Ĵ": 5666,
      "æºĲèĩª": 5667,
      "éľŀ": 5668,
      "æ¸ł": 5669,
      "æĪ¿å±ĭ": 5670,
      "æĸĩèīº": 5671,
      "ç«Ł": 5672,
      "åĳ¨æľŁ": 5673,
      "ith": 5674,
      "ies": 5675,
      "çĽĳåĪ¶": 5676,
      "åħ¼ä»»": 5677,
      "é¥¼": 5678,
      "å§¿": 5679,
      "åĪĻä¸º": 5680,
      "å¦¹å¦¹": 5681,
      "éĩĩåıĸ": 5682,
      "Ġæľ¬é±¼": 5683,
      "è½°çĤ¸": 5684,
      "Ġå¾·": 5685,
      "æĭ¼": 5686,
      "Ġæ¸¸æĪı": 5687,
      "çĽ¸éĤ»": 5688,
      "ä¹Łä¸į": 5689,
      "æīĢæľīçļĦ": 5690,
      "é²¸": 5691,
      "åį±éĻ©": 5692,
      "å°Ķå¤«": 5693,
      "éĺ»æŃ¢": 5694,
      "æİ¥å£¤çļĦå¸Ĥéķĩ": 5695,
      "æİĴè¡Į": 5696,
      "VD": 5697,
      "Ġç¥ŀ": 5698,
      "ç¬¦åĲĪ": 5699,
      "ãĥķ": 5700,
      "èĩĤ": 5701,
      "ä¼łåªĴ": 5702,
      "1976": 5703,
      "ç¹ģæ®ĸ": 5704,
      "è¤Ĳèī²": 5705,
      "1973": 5706,
      "å¾ªçİ¯": 5707,
      "å·¥ç¨ĭå¸Ī": 5708,
      "çļĦçĪ¶äº²": 5709,
      "ä½įäºİä¸ŃåĽ½": 5710,
      "çĤī": 5711,
      "æ·³": 5712,
      "å¤§è¡Ĺ": 5713,
      "é£İæļ´": 5714,
      "å¤ıä»¤æĹ¶": 5715,
      "å¿½": 5716,
      "ä¸ľä¾§": 5717,
      "åĮĹç¾İ": 5718,
      "èĪŀè¹Ī": 5719,
      "è¯´æĺİ": 5720,
      "å®ģæ³¢": 5721,
      "ä¸ŃæľŁ": 5722,
      "èĥ½æºĲ": 5723,
      "ee": 5724,
      "Ġæĭī": 5725,
      "bert": 5726,
      "æ¡Ĳ": 5727,
      "ON": 5728,
      "å¹³éĿ¢": 5729,
      "çĻ»éĻĨ": 5730,
      "ç§įæ¤į": 5731,
      "2046": 5732,
      "ly": 5733,
      "æĹ¶æ®µ": 5734,
      "è¿ĽçĲĥ": 5735,
      "éĥ½çĿ£": 5736,
      "ĠUn": 5737,
      "æ¦Ħ": 5738,
      "94": 5739,
      "æĪĲæľ¬": 5740,
      "åı¯ä»¥åľ¨": 5741,
      "æģ°": 5742,
      "å¹¶ä¸İ": 5743,
      "è¥¿åĮĹéĥ¨": 5744,
      "å®¶ä¸Ń": 5745,
      "æ¯Ķå¦Ĥ": 5746,
      "æĪĲçļĦ": 5747,
      "åŁ¹åħ»": 5748,
      "ox": 5749,
      "å¤§å°ı": 5750,
      "ä¸ĬäºĨ": 5751,
      "æĮīå¯Ł": 5752,
      "Ġæ°¸": 5753,
      "å¯Ĩåº¦": 5754,
      "åĽ°éļ¾": 5755,
      "æİ§èĤ¡": 5756,
      "äº«å¹´": 5757,
      "å¸¸è§ģçļĦ": 5758,
      "æĢ¡": 5759,
      "æĸĩæĺİ": 5760,
      "å¨¶": 5761,
      "èı©": 5762,
      "Ġç¬¬ä¸ī": 5763,
      "ç¾İåĨĽ": 5764,
      "éļıåį³": 5765,
      "åģľéĿł": 5766,
      "åĨķ": 5767,
      "æ¸¯åı£": 5768,
      "å¥ĭ": 5769,
      "æĪĲäºĨ": 5770,
      "å·¡æĬļ": 5771,
      "çļĦä½įç½®": 5772,
      "åľ¨äºİ": 5773,
      "ĠåĽ½éĻħ": 5774,
      "åħ¨éĿ¢": 5775,
      "èĦ¸": 5776,
      "å¡ŀçº³": 5777,
      "åł¤": 5778,
      "åĮºä¸ºUTC": 5779,
      "éĢīåĮº": 5780,
      "08": 5781,
      "éĺ¿æł¹å»·": 5782,
      "05": 5783,
      "åľ¨ä¸Ģèµ·": 5784,
      "é©¬éĩĮ": 5785,
      "æĪĲå¹´": 5786,
      "1974": 5787,
      "çļĦæĹ¶åĮºä¸ºUTC": 5788,
      "Ġä¸ĭ": 5789,
      "çº¦çĳŁ": 5790,
      "åľ¨ä»ĸ": 5791,
      "ä¼ĬæľĹ": 5792,
      "07": 5793,
      "åĩºéģĵ": 5794,
      "INSEEå¸Ĥéķĩ": 5795,
      "è¯ºå¤«": 5796,
      "ial": 5797,
      "å··": 5798,
      "èĹ»": 5799,
      "1968": 5800,
      "æĬ¥å¯¼": 5801,
      "ung": 5802,
      "INSEEå¸Ĥéķĩç¼ĸçłģä¸ºP": 5803,
      "çĶµè½¦": 5804,
      "ä¸»è¦ģçļĦ": 5805,
      "âĢ§": 5806,
      "è´§çī©": 5807,
      "91": 5808,
      "éĤ®æĶ¿ç¼ĸçłģä¸ºP": 5809,
      "èĢĮä¸į": 5810,
      "1954": 5811,
      "ãĥĨ": 5812,
      "æł¼æĭī": 5813,
      "æļĸ": 5814,
      "å¸ĥæľĹ": 5815,
      "1963": 5816,
      "éĤµ": 5817,
      "åİ¿çļĦ": 5818,
      "è±«": 5819,
      "åģľè½¦": 5820,
      "04": 5821,
      "äº¤æį¢": 5822,
      "èİ·å¥ĸ": 5823,
      "åĨĴéĻ©": 5824,
      "1965": 5825,
      "èĩĢ": 5826,
      "éĢļä¿¡": 5827,
      "åİ¿éģĵ": 5828,
      "çļ®èĤ¤": 5829,
      "ãģĻ": 5830,
      "1964": 5831,
      "1946": 5832,
      "Ġé»ĳ": 5833,
      "æľµ": 5834,
      "æµ·åŁŁ": 5835,
      "èĬĿåĬł": 5836,
      "åĽŀå½Ĵ": 5837,
      "å¤©ä½¿": 5838,
      "éĩıçļĦ": 5839,
      "å¯Įå£«": 5840,
      "ä»ĸè¿ĺ": 5841,
      "å®Įå·¥": 5842,
      "èĬĿåĬłåĵ¥": 5843,
      "ĠZ": 5844,
      "1944": 5845,
      "çħ§çīĩ": 5846,
      "æĹ¶çļĦäººåı£æķ°éĩıä¸ºP": 5847,
      "éļ¾ä»¥": 5848,
      "ä¸»æķĻç»ĥ": 5849,
      "1941": 5850,
      "one": 5851,
      "éĿ¢ç§¯P": 5852,
      "ĠçĶ±": 5853,
      "åĬ¨è½¦": 5854,
      "ä¿ĿéĻ©": 5855,
      "06": 5856,
      "æĹ¶åĢĻ": 5857,
      "çİ°å®ŀ": 5858,
      "1930": 5859,
      "æĭĨéĻ¤": 5860,
      "æħİ": 5861,
      "ç¨Ģ": 5862,
      "ç®¡çĲĨå±Ģ": 5863,
      "æľ¬åľ°": 5864,
      "Ñĥ": 5865,
      "æ»ķ": 5866,
      "é¢ģåıĳ": 5867,
      "ç±³åħ°": 5868,
      "åģ¿": 5869,
      "äººæ°ĳå¸ģ": 5870,
      "æĤ¦": 5871,
      "è±¹": 5872,
      "09": 5873,
      "1959": 5874,
      "åĪĽå§ĭ": 5875,
      "åĲīå°Ķ": 5876,
      "1977": 5877,
      "éĵ¸": 5878,
      "æĮģæľī": 5879,
      "åľ¨é¦Ļæ¸¯": 5880,
      "ä¸įæ»¡": 5881,
      "å¾Ģå¾Ģ": 5882,
      "æĭ¿ä¸ĭ": 5883,
      "åī¯ä½¿": 5884,
      "è½©": 5885,
      "å²©çŁ³": 5886,
      "per": 5887,
      "å¤§å°ĨåĨĽ": 5888,
      "æĬ¼": 5889,
      "éĻ¢å£«": 5890,
      "Ġh": 5891,
      "çļĦç¬¬äºĮ": 5892,
      "æĪĸæĹ§å¸Ĥéķĩ": 5893,
      "å·´å°Ķ": 5894,
      "éĹ½": 5895,
      "æ½ľèīĩ": 5896,
      "ä¿®å¤į": 5897,
      "è¶³çĲĥèģĶèµĽ": 5898,
      "æľīèĳĹ": 5899,
      "è¶³çĲĥéĺŁ": 5900,
      "è¯Ĺäºº": 5901,
      "ä½Ĩä»ĸ": 5902,
      "æĶ¶éĽĨ": 5903,
      "éĩįå¤§": 5904,
      "1952": 5905,
      "åı¯è§ģ": 5906,
      "äº§çĶŁçļĦ": 5907,
      "çĽ´éļ¶": 5908,
      "ick": 5909,
      "åĬłå¼º": 5910,
      "åľºæĻ¯": 5911,
      "ä¼Ĺå¤ļ": 5912,
      "éĢĶä¸Ń": 5913,
      "å®´": 5914,
      "Ġä¸»": 5915,
      "åĬªåĬĽ": 5916,
      "ae": 5917,
      "èİ·èĥľ": 5918,
      "æĻ®é²ģ": 5919,
      "ï¼īï¼į": 5920,
      "çĲĨå·¥": 5921,
      "åı¸èģĮ": 5922,
      "èĬ¦": 5923,
      "åķĨåĵģ": 5924,
      "1962": 5925,
      "å¸Ĥæ°ĳ": 5926,
      "éĢīåĮºä¸º": 5927,
      "å¤ªåĲİ": 5928,
      "å¦ĩå¥³": 5929,
      "æĪĲç«ĭçļĦ": 5930,
      "ĠåıĤèĢĥ": 5931,
      "1969": 5932,
      "ä¸ĢåĪĩ": 5933,
      "å¸½": 5934,
      "é¹ħ": 5935,
      "ix": 5936,
      "ç§įæĹı": 5937,
      "å»ºçŃĳå¸Ī": 5938,
      "ç±³çļĦ": 5939,
      "åŁ¹è®Ń": 5940,
      "åĪĨåĪ«æĺ¯": 5941,
      "æīĢå±ŀçļĦçľģçº§": 5942,
      "æīĢå±ŀçļĦçľģçº§éĢīåĮºä¸º": 5943,
      "å¿Ļ": 5944,
      "æľºåĪ¶": 5945,
      "è°ģ": 5946,
      "è¯¥çľģä»½": 5947,
      "èĮµ": 5948,
      "land": 5949,
      "æ£Ģæµĭ": 5950,
      "èĬĻ": 5951,
      "mm": 5952,
      "æľīæľº": 5953,
      "ern": 5954,
      "å¹´ç¾İåĽ½": 5955,
      "åĵ¥åĵ¥": 5956,
      "æ»¨æµ·": 5957,
      "è¿Ļåº§": 5958,
      "æĥľ": 5959,
      "ace": 5960,
      "ES": 5961,
      "ĠæŃ£": 5962,
      "1961": 5963,
      "ç¼ĸåħ¥": 5964,
      "Ġå¯¹": 5965,
      "éĶĲ": 5966,
      "æĺ¯ä¸Ģåº§": 5967,
      "çľģçļĦä¸Ģä¸ªå¸Ĥéķĩ": 5968,
      "ãĥī": 5969,
      "èĴ²": 5970,
      "ĠåŃĲ": 5971,
      "åįİäºº": 5972,
      "ç¤ģ": 5973,
      "iss": 5974,
      "åįļå£«åŃ¦ä½į": 5975,
      "åĲĪåĲĮ": 5976,
      "éħįç½®": 5977,
      "åºĦä¸º": 5978,
      "1971": 5979,
      "åĲİè¢«": 5980,
      "å±±å¸Ĥ": 5981,
      "æ´Ľå¤«": 5982,
      "çŁ¥åºľ": 5983,
      "ãĥ£": 5984,
      "ç«ŀèµĽ": 5985,
      "æľ«æľŁ": 5986,
      "áĢ": 5987,
      "çļĦç¥ŀ": 5988,
      "AP": 5989,
      "æĸ¯æĭīå¤«": 5990,
      "ä¼łæķĻ": 5991,
      "æľ¬ä½ľ": 5992,
      "äº¤çķĮ": 5993,
      "åı¤èĢģ": 5994,
      "åĲ¸æĶ¶": 5995,
      "æ²³çķĶ": 5996,
      "ç¢Ł": 5997,
      "ĠæĽ¾ç¥ĸ": 5998,
      "å¤§è¥¿æ´ĭ": 5999,
      "rit": 6000,
      "ä¸ľåĮĹéĥ¨": 6001,
      "çĶµè¯Ŀ": 6002,
      "ä½ľåĩº": 6003,
      "äº§åľ°": 6004,
      "Ð¹": 6005,
      "åĿł": 6006,
      "ä¸ŃæľĢ": 6007,
      "äººå·¥": 6008,
      "èĮİ": 6009,
      "è¶³çĲĥä¿±ä¹Ĳéĥ¨": 6010,
      "und": 6011,
      "æ¢µ": 6012,
      "ock": 6013,
      "æŁĦ": 6014,
      "æ£Ģå¯ŁéĻ¢": 6015,
      "æ°Ķè±¡": 6016,
      "att": 6017,
      "èĿł": 6018,
      "åŁİçļĦ": 6019,
      "èĢķ": 6020,
      "è£ģåĪ¤": 6021,
      "æĪĲéķ¿": 6022,
      "èĩªèº«": 6023,
      "è½¨éģĵäº¤éĢļ": 6024,
      "éĶĢéĩı": 6025,
      "æĹ¬": 6026,
      "ä¿®éģĵ": 6027,
      "æĶ»æīĵ": 6028,
      "Ġèĭı": 6029,
      "ĠåŃ¦æł¡": 6030,
      "çľł": 6031,
      "ss": 6032,
      "Ġ1999": 6033,
      "çļĦåĽ½å®¶": 6034,
      "äºĶåįģ": 6035,
      "æŃ»äºİ": 6036,
      "Ġ15": 6037,
      "èģĮä½į": 6038,
      "æīģ": 6039,
      "æĹ¥äºİ": 6040,
      "ä¾ĽåºĶ": 6041,
      "çĪ¸": 6042,
      "ç¢°": 6043,
      "æ¾Ħ": 6044,
      "æīĢå±ŀ": 6045,
      "çŁ®": 6046,
      "çļĦè¯Ŀ": 6047,
      "è½¦éģĵ": 6048,
      "å¤ļå°Ķ": 6049,
      "ç«ĭåį³": 6050,
      "åĲĳåįĹ": 6051,
      "åĲĪåĶ±": 6052,
      "é¢ģå¥ĸåħ¸ç¤¼": 6053,
      "å»ºç«ĭäºĨ": 6054,
      "ç»´å¤ļ": 6055,
      "æľ¬åľŁ": 6056,
      "åĽĽä¸ĸ": 6057,
      "æīĳ": 6058,
      "å®īæīĵ": 6059,
      "ç¢±": 6060,
      "åĲĮçĽŁ": 6061,
      "è¿Ĳä½ľ": 6062,
      "ood": 6063,
      "çļĦæĥħ": 6064,
      "çļĦåĲįåŃĹ": 6065,
      "åĮĹä¾§": 6066,
      "æĢ§æł¼": 6067,
      "ç©ºä¸Ń": 6068,
      "è´©": 6069,
      "èĪªå¤©": 6070,
      "ï¼İ": 6071,
      "åĨĽå®ĺ": 6072,
      "çİ°åŃĺ": 6073,
      "éģĩåĪ°": 6074,
      "åįģä¸ĢæľĪ": 6075,
      "å´ĸ": 6076,
      "aur": 6077,
      "ĠçĪ±": 6078,
      "ä¾ĭåŃĲ": 6079,
      "çī¹åĪ«æĺ¯": 6080,
      "äº²èĩª": 6081,
      "CO": 6082,
      "åĪĨè£Ĥ": 6083,
      "çŃĴ": 6084,
      "èµĦè®¯": 6085,
      "åĳĪçİ°": 6086,
      "é¢Į": 6087,
      "çīĻé½¿": 6088,
      "ure": 6089,
      "æĺ¥ç§ĭ": 6090,
      "ĠåĽĽ": 6091,
      "åľ£ç»ı": 6092,
      "å¼ĹéĽ·": 6093,
      "Ã¡": 6094,
      "éķ¿è¾¾": 6095,
      "èĢĥè¯ķ": 6096,
      "çĸ«æĥħ": 6097,
      "æ±ŁæĪ·": 6098,
      "å¹¶çĶ±": 6099,
      "äºļç§į": 6100,
      "è¯¥çľģä»½ä¸ºæ³ķåĽ½": 6101,
      "ĠæľĪ": 6102,
      "åıĤèĢĥ": 6103,
      "æł¡åĽŃ": 6104,
      "æĪĲçĨŁ": 6105,
      "åĲĦèĩª": 6106,
      "ãĢıï¼Ī": 6107,
      "ç©·": 6108,
      "ĠèĻ½çĦ¶": 6109,
      "çŁ©": 6110,
      "è¾Ĳå°Ħ": 6111,
      "ä¸ºåħ¶": 6112,
      "Cl": 6113,
      "ãĢĭï¼ī": 6114,
      "ä¸»åĬĽ": 6115,
      "ä¸Ģåľº": 6116,
      "çļĦè§Ĵèī²": 6117,
      "æµĨ": 6118,
      "ä¸¤å¹´": 6119,
      "æ¶Į": 6120,
      "ç¬¬ä¹Ŀ": 6121,
      "çłģå¤´": 6122,
      "Ġè¯Ħä»·": 6123,
      "1966": 6124,
      "ex": 6125,
      "ä»¥åįĹ": 6126,
      "ä¼¼ä¹İ": 6127,
      "å¾ĹåĪ°äºĨ": 6128,
      "ç«Ļåİħ": 6129,
      "ä»İæŃ¤": 6130,
      "å¿Į": 6131,
      "æ²¿æµ·": 6132,
      "æ¯ıå¤©": 6133,
      "åħ³éĶ®": 6134,
      "å·²çŁ¥": 6135,
      "å®īå¨ľ": 6136,
      "æĿ¯åĨłåĨĽ": 6137,
      "åĬłåĪ©ç¦ı": 6138,
      "éĤ£ä¹Ī": 6139,
      "å°Ħåĩ»": 6140,
      "æĢ»è£ģ": 6141,
      "äºĴçĽ¸": 6142,
      "ä¿®æĶ¹": 6143,
      "Ġç»ıæµİ": 6144,
      "ãĢĤãĢĤ": 6145,
      "åĨĽåĮº": 6146,
      "ä¸ĭä»¤": 6147,
      "åĲ¯åĬ¨": 6148,
      "èħ°": 6149,
      "æİ¨èįĲ": 6150,
      "é¡ºåĪ©": 6151,
      "1943": 6152,
      "äººåı£æĻ®æŁ¥": 6153,
      "èĬŃ": 6154,
      "æľºçļĦ": 6155,
      "æĢ§èĥ½": 6156,
      "åıĮæīĵ": 6157,
      "æ´»è·ĥ": 6158,
      "æİł": 6159,
      "ĠæľĢ": 6160,
      "åĴ¨": 6161,
      "å¼Ģä¸ļ": 6162,
      "éĩĮåħĭ": 6163,
      "åĪ¶ä½ľäºº": 6164,
      "1953": 6165,
      "æĢ»çĽĳ": 6166,
      "ç©Ĩæĸ¯": 6167,
      "åŁİåİ¿": 6168,
      "å°¼è¥¿äºļ": 6169,
      "1957": 6170,
      "æĸ°äºº": 6171,
      "ä¹Łå°±æĺ¯": 6172,
      "åİ¨": 6173,
      "åī¯ä¸»å¸Ń": 6174,
      "1942": 6175,
      "ç«ĭæĸ¹": 6176,
      "old": 6177,
      "çĭĲ": 6178,
      "åıĳçĶŁåľ¨": 6179,
      "æĦıæĢĿ": 6180,
      "è´§è¿Ĳ": 6181,
      "ä¸īäºº": 6182,
      "èµĽä¸Ń": 6183,
      "é¾Ļæ±Ł": 6184,
      "æĶ¿æ²»å®¶": 6185,
      "ous": 6186,
      "ä¹Įæĸ¯": 6187,
      "é±¼ç±»": 6188,
      "æ¡ĥåĽŃ": 6189,
      "å£°ç§°": 6190,
      "äºĶä¸ª": 6191,
      "ä¸¤èĢħ": 6192,
      "ä¸ŃåĽ½äººæ°ĳè§£æĶ¾åĨĽ": 6193,
      "Ġä»¥": 6194,
      "å¤ĦçļĦ": 6195,
      "èµ·ä¹ī": 6196,
      "ice": 6197,
      "è¯ŃçļĦ": 6198,
      "èĭıç»´åŁĥ": 6199,
      "åĮ»åŃ¦éĻ¢": 6200,
      "æ¡¥æ¢ģ": 6201,
      "çĵ·": 6202,
      "èĩ³äºİ": 6203,
      "å·¥ä½ľå®¤": 6204,
      "è¡Įä¸ļ": 6205,
      "èµ·æºĲ": 6206,
      "æľ¬äºº": 6207,
      "æĳ§": 6208,
      "Ġæĺİ": 6209,
      "ä»ĸä¸º": 6210,
      "ãģ¤": 6211,
      "å°ıå§Ĳ": 6212,
      "çłĶåıĳ": 6213,
      "è¯ģå®ŀ": 6214,
      "çªģçł´": 6215,
      "åĤ¬": 6216,
      "åįĩä»»": 6217,
      "åĩºåıĳ": 6218,
      "åįĹä¾§": 6219,
      "Th": 6220,
      "æķĪåĬĽäºİ": 6221,
      "é¹ı": 6222,
      "1967": 6223,
      "èµĮ": 6224,
      "lay": 6225,
      "åħ¶ä¸ŃåĮħæĭ¬": 6226,
      "åĵģç§į": 6227,
      "èµĦæľ¬": 6228,
      "èĲĿ": 6229,
      "æĥ¨": 6230,
      "éĺ³åİ¿": 6231,
      "ä½ıåľ¨": 6232,
      "sk": 6233,
      "ä¸ľäº¬éĥ½": 6234,
      "ĠåĪĨå¸ĥ": 6235,
      "æĺ¯ä¸º": 6236,
      "éĶĻè¯¯": 6237,
      "èĤ©": 6238,
      "ä¸¤ä½į": 6239,
      "1939": 6240,
      "çļĦä¸ĢæĿ¡": 6241,
      "ĠåĶĲ": 6242,
      "ĠåŃĻ": 6243,
      "åİŁæĿ¥": 6244,
      "Ġèµµ": 6245,
      "åıĳçİ°çļĦ": 6246,
      "ĠçĶµè§Ĩåī§": 6247,
      "å¯ĩ": 6248,
      "ä¹ĲåĻ¨": 6249,
      "åĲīæŀĹ": 6250,
      "è¸¢": 6251,
      "Ġæ¸ħ": 6252,
      "æľ¬ç§ĳ": 6253,
      "ä¼łå¥ĩ": 6254,
      "å¤´éĥ¨": 6255,
      "æĪĺè½¦": 6256,
      "çļĦæīĭ": 6257,
      "è¾Ł": 6258,
      "ä¾¨": 6259,
      "çĥ·": 6260,
      "èĮĦ": 6261,
      "ç³»ç»ŁçļĦ": 6262,
      "çī©ç§įçļĦ": 6263,
      "å¤ĸçļĦ": 6264,
      "æĪĺèĥľ": 6265,
      "é©³": 6266,
      "ä¸¤åĲį": 6267,
      "åı·çļĦ": 6268,
      "æľīä¸ĢäºĽ": 6269,
      "æīĢåľ¨åľ°": 6270,
      "ight": 6271,
      "è¢«è§Ĩä¸º": 6272,
      "ä¸ľåįĹéĥ¨": 6273,
      "éĻ¨": 6274,
      "1947": 6275,
      "Ġçī¹": 6276,
      "åıĳæĮ¥": 6277,
      "ç¾İä¸½": 6278,
      "ä¿ĦåĽ½": 6279,
      "å¥³åŃ©": 6280,
      "éªı": 6281,
      "è¿½æº¯": 6282,
      "èĽĻ": 6283,
      "éķ¿å®ĺ": 6284,
      "åįĩæł¼": 6285,
      "çĮªç¬¼": 6286,
      "Ġçī¹å¾ģ": 6287,
      "å½ĵåľ°çļĦ": 6288,
      "800": 6289,
      "å°ĺ": 6290,
      "å¨ħ": 6291,
      "ä¸Ģèĩ´": 6292,
      "åķĨäºº": 6293,
      "Ġ1998": 6294,
      "åĬłåħ¥äºĨ": 6295,
      "è¿Ļæł·çļĦ": 6296,
      "ä¸Ńå¼ı": 6297,
      "çĶµåĬ¨": 6298,
      "åĭŁ": 6299,
      "ä¸»å¼ł": 6300,
      "çĮªç¬¼èįī": 6301,
      "ãĤ°": 6302,
      "1948": 6303,
      "é¢ĸ": 6304,
      "Ġw": 6305,
      "è¥¿éĩĮ": 6306,
      "éħ·": 6307,
      "æĪĺåĽ½": 6308,
      "åı°é£İ": 6309,
      "ãĤº": 6310,
      "éĩĳå±±": 6311,
      "ä¸´åºĬ": 6312,
      "ĠSp": 6313,
      "åį§": 6314,
      "é«ĺçŃīåŃ¦æł¡": 6315,
      "eam": 6316,
      "åĮħåĽ´": 6317,
      "æĺ¯åĽłä¸º": 6318,
      "æĹ¥æŃ£å¼ı": 6319,
      "Ġæ¦Ĥè¦ģ": 6320,
      "æĬĳåĪ¶": 6321,
      "Ġ&": 6322,
      "åĵĢ": 6323,
      "æºĥ": 6324,
      "Ġå¤ļ": 6325,
      "çļĦéŁ³ä¹Ĳ": 6326,
      "åĩºå¸Ń": 6327,
      "å¯¹æŃ¤": 6328,
      "çĪ¬": 6329,
      "æ£ī": 6330,
      "å®¤åĨħ": 6331,
      "çĮ´": 6332,
      "è§Ĩé¢ĳ": 6333,
      "1937": 6334,
      "åįĹéĿŀ": 6335,
      "æĦŁè§ī": 6336,
      "æĸ°ç«¹": 6337,
      "åľºåľ°": 6338,
      "çļĦéĥ¨åĪĨ": 6339,
      "æ³ķå®ĺ": 6340,
      "å²Ĳ": 6341,
      "ory": 6342,
      "åģ¶åĥı": 6343,
      "SA": 6344,
      "å°ģä¸º": 6345,
      "Ġå¤ĸ": 6346,
      "ĠåĵĪ": 6347,
      "èº«ä¸Ĭ": 6348,
      "å¥³æ¼Ķåĳĺ": 6349,
      "æĶ¹ç§°": 6350,
      "çĽĳå¯Ł": 6351,
      "çļĦéĹ®é¢ĺ": 6352,
      "å«Į": 6353,
      "ãĤµ": 6354,
      "éĿłè¿ĳ": 6355,
      "åħħæ»¡": 6356,
      "æĤł": 6357,
      "ç²¾çģµ": 6358,
      "æĴŀåĩ»": 6359,
      "éĻ·åħ¥": 6360,
      "æ³ķæ¡Ī": 6361,
      "ĠæĹ©å¹´": 6362,
      "äº©": 6363,
      "æĺ¯åı°æ¹¾": 6364,
      "åĲįè¿Ľå£«": 6365,
      "å¼łä¸ĵè¾ĳ": 6366,
      "tern": 6367,
      "Ġå¸ĥ": 6368,
      "è¸ı": 6369,
      "éĹ»åĲį": 6370,
      "æ³¢å£«é¡¿": 6371,
      "åīĬ": 6372,
      "æĢ§åĪ«": 6373,
      "å¿ĥèĦı": 6374,
      "å¹´èİ·": 6375,
      "è¶ĭ": 6376,
      "æľĢé«ĺçļĦ": 6377,
      "èĲ¥ä¸ļ": 6378,
      "æ´¾åĩº": 6379,
      "æ³ķåħ°åħĭ": 6380,
      "Ġç¦ı": 6381,
      "ä¸Ĭåįĩ": 6382,
      "æľįè£ħ": 6383,
      "ç½Ĺå¾·": 6384,
      "éĢ»": 6385,
      "ire": 6386,
      "æİ¢æµĭ": 6387,
      "å¤§çĲĨ": 6388,
      "ç½Ĺé©¬å°¼äºļ": 6389,
      "çĲĨæŁ¥": 6390,
      "å²Ľå¼ı": 6391,
      "Ġæľ±": 6392,
      "èĽĽ": 6393,
      "è¾ħåĬ©": 6394,
      "äº¥": 6395,
      "å·´åŁº": 6396,
      "ool": 6397,
      "çļĦæľĢ": 6398,
      "ment": 6399,
      "å¥¹ä»¬": 6400,
      "æĺŁç³»": 6401,
      "æµİåįĹ": 6402,
      "èĢĮéĿŀ": 6403,
      "å°Ķé¡¿": 6404,
      "éĤ±": 6405,
      "éĻª": 6406,
      "ä½ĵéĩį": 6407,
      "åĲĳåĮĹ": 6408,
      "æķĳæı´": 6409,
      "å°¤åħ¶æĺ¯": 6410,
      "è¿ĳå¹´": 6411,
      "ð«": 6412,
      "æĹŃ": 6413,
      "æĮĩå®ļ": 6414,
      "æ¶Īè´¹": 6415,
      "é«ĺè¾¾": 6416,
      "ä¸ĭä¸Ģ": 6417,
      "çķħ": 6418,
      "æ®·": 6419,
      "å¼ıçļĦ": 6420,
      "1938": 6421,
      "ä¼ļè¯ķ": 6422,
      "å¥½åıĭ": 6423,
      "æİªæĸ½": 6424,
      "å¤§æŃ£": 6425,
      "åĺīå®¾": 6426,
      "ä¸»ä½ĵ": 6427,
      "åĮĹèµ·": 6428,
      "äººæ°ĳæ£Ģå¯ŁéĻ¢": 6429,
      "çĻ¾ä¸ĩ": 6430,
      "æİ¨åĬ¨": 6431,
      "æıĲçĲ´": 6432,
      "æ¯ıæĹ¥": 6433,
      "è¡ĮçļĦ": 6434,
      "æĬµæĬĹ": 6435,
      "æ³ķåħ°è¥¿": 6436,
      "ä¸Ģäºº": 6437,
      "æķ²": 6438,
      "uk": 6439,
      "åŃ¦çļĦ": 6440,
      "é©±éĢĲèĪ°": 6441,
      "å¼Ħ": 6442,
      "enn": 6443,
      "ãĥĬ": 6444,
      "æģ¨": 6445,
      "é¦ĸä½į": 6446,
      "éķĳ": 6447,
      "ãĢĭãĢĬ": 6448,
      "çī¹å®ļ": 6449,
      "orm": 6450,
      "è·¯æĺĵæĸ¯": 6451,
      "Ġç§ĳ": 6452,
      "Ġç±³": 6453,
      "æł¼å°Ķ": 6454,
      "æµģæµª": 6455,
      "åľ£æ¯į": 6456,
      "ç¼©åĨĻ": 6457,
      "åıĺä¸º": 6458,
      "å¾Īå¤§": 6459,
      "åı¬å¼Ģ": 6460,
      "ä»Ĭå¤©": 6461,
      "Un": 6462,
      "çłĶç©¶éĻ¢": 6463,
      "çĽ¸åħ³çļĦ": 6464,
      "yl": 6465,
      "æ±ŁåįĹ": 6466,
      "åĢĻéĢīäºº": 6467,
      "æ©Ħ": 6468,
      "å¼Ģå±ķ": 6469,
      "çľ¼çĿ": 6470,
      "è¿ŀç»Ńåī§": 6471,
      "ä¸»åĬŀ": 6472,
      "åĬŁçİĩ": 6473,
      "æĻļæľŁ": 6474,
      "å¥¥æĸ¯åį¡": 6475,
      "åľ°ä¸Ĭ": 6476,
      "æĥ³è¦ģ": 6477,
      "æķĪåºĶ": 6478,
      "ç»¼èīº": 6479,
      "å¥¥æŀĹåĮ¹åħĭè¿ĲåĬ¨ä¼ļ": 6480,
      "å¸ĤæĶ¿": 6481,
      "èĪĮ": 6482,
      "æ°ĳä¼Ĺ": 6483,
      "ç¬¬ä¸Ģä½į": 6484,
      "ĠæŃ¦": 6485,
      "ĠçĽ®åīį": 6486,
      "èĲ½æĪĲ": 6487,
      "æł¼éĩĮ": 6488,
      "çĶ°æĿĳ": 6489,
      "Ġåħ¶": 6490,
      "Ġåįİ": 6491,
      "ç»µ": 6492,
      "ä¸Ĭè¿°": 6493,
      "çļĦæĢ»": 6494,
      "æĽ¾äºİ": 6495,
      "è¥¿åįĹéĥ¨": 6496,
      "æ³¢å°Ķ": 6497,
      "åħįè´¹": 6498,
      "ç»ĺçĶ»": 6499,
      "çľī": 6500,
      "OS": 6501,
      "éĢ®": 6502,
      "amp": 6503,
      "æ¹ĸåįĹçľģ": 6504,
      "åħĭæŀĹ": 6505,
      "æ®ĸæ°ĳåľ°": 6506,
      "ED": 6507,
      "å·¥èīº": 6508,
      "äº¤åıī": 6509,
      "åĸĻ": 6510,
      "çĪ±çļĦ": 6511,
      "æĨ": 6512,
      "çĶŁæĪĲ": 6513,
      "åĬŀäºĭå¤Ħ": 6514,
      "æł¼éĽ·": 6515,
      "åħ·ä½ĵ": 6516,
      "èĦ±ç¦»": 6517,
      "ç¼ĸç»Ħ": 6518,
      "å¹¶è¢«": 6519,
      "çŁĽ": 6520,
      "æī©å±ķ": 6521,
      "æĸ°å»º": 6522,
      "ä½ĵéķ¿": 6523,
      "æ¯Ĺ": 6524,
      "æ²³è°·": 6525,
      "éķ¿å®ī": 6526,
      "èĭ±éĩĮ": 6527,
      "ä¸Ńä¹¦": 6528,
      "é¢Ĥ": 6529,
      "äº¤åĵį": 6530,
      "åĽ½å®¶çļĦ": 6531,
      "èµ«å°Ķ": 6532,
      "Ð¸Ñ": 6533,
      "Ġé¾Ļ": 6534,
      "yn": 6535,
      "åĨħéĻĨ": 6536,
      "ax": 6537,
      "å·¨å¤§": 6538,
      "æĸĩåºĵ": 6539,
      "è¯¥çīĩ": 6540,
      "ĠTh": 6541,
      "ris": 6542,
      "æīĵçł´": 6543,
      "æĢĢçĸĳ": 6544,
      "çļĦåİŁåĽł": 6545,
      "ĠåĬł": 6546,
      "ä¸ĭäºĨ": 6547,
      "æĪĲåĪĨ": 6548,
      "å¾ĹåĪĨ": 6549,
      "æĥ§": 6550,
      "è¿ŀè½½": 6551,
      "è¯¥åħļ": 6552,
      "çİ°ä¸º": 6553,
      "çŁŃæļĤ": 6554,
      "ä¾Ŀæį®": 6555,
      "å¸Ĥä¸Ńå¿ĥ": 6556,
      "ä½¿åħ¶": 6557,
      "åºļ": 6558,
      "éĺ²æŃ¢": 6559,
      "æ©¡": 6560,
      "åĳĺå¤ĸ": 6561,
      "ç©Ĺ": 6562,
      "Ġç¾İ": 6563,
      "03": 6564,
      "è¯Ħä¼°": 6565,
      "èĻı": 6566,
      "æ©Ħæ¦Ħ": 6567,
      "çģŃç»Ŀ": 6568,
      "é©¹": 6569,
      "çİĭä½į": 6570,
      "æĶ¾åľ¨": 6571,
      "âĢĻ": 6572,
      "èĤ¾": 6573,
      "çļĦä¸ĢäºĽ": 6574,
      "çĹħä¾ĭ": 6575,
      "æ·±åº¦": 6576,
      "æĳ§æ¯ģ": 6577,
      "ç§°åĳ¼": 6578,
      "æĽ´æĸ°": 6579,
      "èļĢ": 6580,
      "åŁºéĩĳä¼ļ": 6581,
      "ç»ĳ": 6582,
      "ä»ĸåĴĮ": 6583,
      "åĩ°": 6584,
      "æµģåŁŁ": 6585,
      "æ¸¸å®¢": 6586,
      "ç¦ıå¾·": 6587,
      "ĠMar": 6588,
      "æĪĺåľº": 6589,
      "ä¾£": 6590,
      "orn": 6591,
      "å¡ŀå°Ķç»´äºļ": 6592,
      "ç»´å¤ļåĪ©äºļ": 6593,
      "ä¹ĭä¸º": 6594,
      "èĻ¾": 6595,
      "å¾ģæľį": 6596,
      "ä»¥ä¸ĬçļĦ": 6597,
      "å¼Ģå¹ķ": 6598,
      "çĽ´æĴŃ": 6599,
      "å¼Ĺæĭī": 6600,
      "ç¿°æŀĹ": 6601,
      "æĴ°åĨĻ": 6602,
      "èĥ¡åĲĮ": 6603,
      "ç½Ĺé©¬å¸ĿåĽ½": 6604,
      "ĠèĥĮæĻ¯": 6605,
      "è¯Ħä¸º": 6606,
      "å¹³è¡¡": 6607,
      "éĥ½åľ¨": 6608,
      "å±±åı£": 6609,
      "åı²å¯Ĩ": 6610,
      "åıªè¦ģ": 6611,
      "æ°Ķä½ĵ": 6612,
      "åĴı": 6613,
      "èģĶç»ľ": 6614,
      "å±Ĭåħ¨åĽ½": 6615,
      "çĶµå½±èĬĤ": 6616,
      "åĽŀåĲĪ": 6617,
      "å¥ĸç«ł": 6618,
      "å»ĸ": 6619,
      "æīĢè°ĵ": 6620,
      "ĠåĨħ": 6621,
      "åĲĬ": 6622,
      "åĲĦä¸ª": 6623,
      "ä¸ºæŃ¤": 6624,
      "ĠEn": 6625,
      "èµŀåĬ©": 6626,
      "æľ¬çº¿": 6627,
      "æĶ¹å»º": 6628,
      "æıĲä¾ĽäºĨ": 6629,
      "çĥ¯": 6630,
      "act": 6631,
      "æĸ¹ä¾¿": 6632,
      "åįķæīĵ": 6633,
      "èĭ±è¶ħ": 6634,
      "çº§åĪ«": 6635,
      "æĮ¡": 6636,
      "åľ°äº§": 6637,
      "æ¸¸æĪıçļĦ": 6638,
      "äºĨä»ĸçļĦ": 6639,
      "æĬĦ": 6640,
      "ç»ĩçĶ°": 6641,
      "ide": 6642,
      "è¿Ĳæ²³": 6643,
      "å¤§ä¼Ĺ": 6644,
      "ç§įç±»": 6645,
      "ica": 6646,
      "éĢļå¾Ģ": 6647,
      "ame": 6648,
      "MV": 6649,
      "æĸ¯åį¡": 6650,
      "åħ¬é¡·": 6651,
      "åĭĺ": 6652,
      "å´ĩç¥¯": 6653,
      "pe": 6654,
      "çº¤ç»´": 6655,
      "åħįçĸ«": 6656,
      "åŃ£åĲİèµĽ": 6657,
      "è¿ģèĩ³": 6658,
      "æľ¬çīĩ": 6659,
      "ä»ĸä¹Ł": 6660,
      "æİ¨å¹¿": 6661,
      "æľĪçļĦ": 6662,
      "åħĶ": 6663,
      "äºĮçº§": 6664,
      "èı²åĪ©": 6665,
      "å¼ºè°ĥ": 6666,
      "å°¼åı¤": 6667,
      "ä¸ļä½Ļ": 6668,
      "æĦ¤": 6669,
      "ost": 6670,
      "å±ĤçļĦ": 6671,
      "å¸ĥéĽ·": 6672,
      "ä¸¤åĽ½": 6673,
      "ä¼ļæľī": 6674,
      "ãĥł": 6675,
      "æŁ¥å°Ķæĸ¯": 6676,
      "Ð¾Ð²": 6677,
      "John": 6678,
      "age": 6679,
      "å»ºçŃĳéĿ¢ç§¯": 6680,
      "Ġå¹³": 6681,
      "å½ĵå±Ģ": 6682,
      "çªĦ": 6683,
      "åħ¶ä¸Ńä¸Ģä¸ª": 6684,
      "ç«£": 6685,
      "è½¦åİ¢": 6686,
      "éĩįè¿Ķ": 6687,
      "ä¹¦ä¸Ń": 6688,
      "åĮºåĨħ": 6689,
      "æĸ°è®¾": 6690,
      "å²Ľä¸Ĭ": 6691,
      "æļ¨": 6692,
      "iel": 6693,
      "çĶ·ä¸»è§Ĵ": 6694,
      "å¹ķåºľ": 6695,
      "éŀĭ": 6696,
      "æŀ¢çº½": 6697,
      "çĩĥæĸĻ": 6698,
      "é©¬ä¸ģ": 6699,
      "åĪĨå¸ĥåľ¨": 6700,
      "AK": 6701,
      "é«ĺéĽĦ": 6702,
      "ons": 6703,
      "çĥĤ": 6704,
      "æ´Ľéĺ³": 6705,
      "æµ·ä¸Ĭ": 6706,
      "èģĶèµĽåĨłåĨĽ": 6707,
      "ãĥĹ": 6708,
      "ä½ĳ": 6709,
      "éħ¿": 6710,
      "æĶ¹åĲį": 6711,
      "æ´Ľæĸ¯": 6712,
      "Ġ1997": 6713,
      "å¤§éĢī": 6714,
      "è¶³å¤Ł": 6715,
      "æ¼ı": 6716,
      "æī©å»º": 6717,
      "ä½ľæĽ²å®¶": 6718,
      "ä¿®éģĵéĻ¢": 6719,
      "åĪ¶ä½ľçļĦ": 6720,
      "åĶ¤": 6721,
      "æľĪåľ¨": 6722,
      "æĪĬ": 6723,
      "æĶ¯æµģ": 6724,
      "äº¤æµģéģĵ": 6725,
      "åľºæīĢ": 6726,
      "èį¡": 6727,
      "ä»ĸä»¬åľ¨": 6728,
      "åıįæĺł": 6729,
      "æĸ¯æ´Ľ": 6730,
      "1951": 6731,
      "OR": 6732,
      "äºĮæĪĺ": 6733,
      "æııç»ĺ": 6734,
      "éĢīç§Ģ": 6735,
      "é¦ĸçĽ¸": 6736,
      "ãĥĩ": 6737,
      "è·¯ç«Ļ": 6738,
      "èĢĮä¸įæĺ¯": 6739,
      "åĨłçĬ¶": 6740,
      "æ²³åĮĹçľģ": 6741,
      "èº«åĪĨ": 6742,
      "éĻĨç»Ń": 6743,
      "å¹´å¤ıåŃ£": 6744,
      "è¿Ļé¦ĸ": 6745,
      "å¤§åħ¬": 6746,
      "å²ĽçļĦ": 6747,
      "å¸Ĳ": 6748,
      "ä¸Ĭå¸Ŀ": 6749,
      "è¥¿èĹı": 6750,
      "æ²ª": 6751,
      "Ġä½ľåĵģ": 6752,
      "ç´§æĢ¥": 6753,
      "æ³ķè¯Ń": 6754,
      "çļĦæ¯ĶèµĽ": 6755,
      "å¹²çº¿": 6756,
      "çĲĨæĥ³": 6757,
      "ãĥģ": 6758,
      "è¾¹å¢ĥ": 6759,
      "éĨī": 6760,
      "ãĥŁ": 6761,
      "ĠäºĶ": 6762,
      "ä¿Ŀå®Ī": 6763,
      "æįī": 6764,
      "å¾Īå°ĳ": 6765,
      "åıĻè¿°": 6766,
      "åĪĽæĸ°": 6767,
      "åľ°åŁŁ": 6768,
      "åĨľæ°ĳ": 6769,
      "çĽ¸å½ĵäºİ": 6770,
      "Ġ1996": 6771,
      "110": 6772,
      "çļĦéķ¿": 6773,
      "éĥ½è¢«": 6774,
      "æĹłè®º": 6775,
      "å·´åŁºæĸ¯åĿ¦": 6776,
      "åĬłå°Ķ": 6777,
      "Ġäºº": 6778,
      "çļĦæĪĲç»©": 6779,
      "æŃ¥æŀª": 6780,
      "ley": 6781,
      "ä¼ļç¤¾": 6782,
      "å½°åĮĸ": 6783,
      "iam": 6784,
      "æŁ´æ²¹æľºè½¦": 6785,
      "è¾¹ä¸º": 6786,
      "ç©Ĩæĸ¯æŀĹ": 6787,
      "ä¸ĭåįĬ": 6788,
      "Ġçº¢": 6789,
      "æĦıè§ģ": 6790,
      "æŃĮè¯į": 6791,
      "ç«ŀæĬĢ": 6792,
      "æ±¡æŁĵ": 6793,
      "èµ·çĤ¹": 6794,
      "è½¬æį¢": 6795,
      "åĺīä¹ī": 6796,
      "ĠåĲĮ": 6797,
      "ames": 6798,
      "ensis": 6799,
      "Ġåħ³": 6800,
      "ä¸ĬåįĪ": 6801,
      "æĹ¶ä»£çļĦ": 6802,
      "Ġ2023": 6803,
      "ĠæĿ¾": 6804,
      "åĩºåľŁ": 6805,
      "å¤´è¡Ķ": 6806,
      "æł¼æŀĹ": 6807,
      "çº³ç²¹": 6808,
      "æĪ·éĥ¨": 6809,
      "æĸ°åŁİ": 6810,
      "åį¸": 6811,
      "çªĿ": 6812,
      "åı¸æ³ķ": 6813,
      "éĽķå¡ĳ": 6814,
      "å¹»æĥ³": 6815,
      "çĤŃ": 6816,
      "çĽĪ": 6817,
      "æĽ¹æĵį": 6818,
      "éĺ¿éĩĮ": 6819,
      "éĢĤåºĶ": 6820,
      "éĵĥæľ¨": 6821,
      "å¹´ä¸İ": 6822,
      "ãĤ¦": 6823,
      "åİŁä¸º": 6824,
      "æıĲåıĬ": 6825,
      "Ġå¥ĸé¡¹": 6826,
      "æĸ¯æīĺ": 6827,
      "æĿĥåĪ©": 6828,
      "æ»¡æ´²": 6829,
      "ĠæĢ»": 6830,
      "Ġæ±ī": 6831,
      "æİ¥æĽ¿": 6832,
      "ä»£çļĦ": 6833,
      "éħ®": 6834,
      "ĠCl": 6835,
      "æ°Ł": 6836,
      "å¤§è¿ŀ": 6837,
      "çĲĨè§£": 6838,
      "ãĤĦ": 6839,
      "è®°å¿Ĩ": 6840,
      "åĺīåºĨ": 6841,
      "é»Ľ": 6842,
      "ĠX": 6843,
      "èĭį": 6844,
      "çľ¼çĿĽ": 6845,
      "çļĦæ¯ĶèµĽä¸Ń": 6846,
      "éģĹä¼ł": 6847,
      "Ġ14": 6848,
      "åķĨåĬ¡": 6849,
      "ãģł": 6850,
      "åįķçĭ¬": 6851,
      "éĿĴå°ĳå¹´": 6852,
      "ä»¥æŃ¤": 6853,
      "æĬĽ": 6854,
      "ç¥Ī": 6855,
      "çļĦåŁºç¡Ģ": 6856,
      "ä¸Ńå°Ĩ": 6857,
      "åĪĨæł¡": 6858,
      "ä¹ĭå¤Ħ": 6859,
      "æĶ¯ä»ĺ": 6860,
      "ä¼ļè¢«": 6861,
      "Ġa": 6862,
      "äºĨä»ĸ": 6863,
      "åĳ¼åĲ¸": 6864,
      "åº§åłĤ": 6865,
      "åı¦æľī": 6866,
      "ç½Ĺä¼¯çī¹": 6867,
      "ç¦ıå»ºçľģ": 6868,
      "çļĦæĸ¹æ³ķ": 6869,
      "åĪ¶å®ļ": 6870,
      "åĴĴ": 6871,
      "å¸ĤæĶ¿åºľ": 6872,
      "ãĥ¥": 6873,
      "å¤«å¦ĩ": 6874,
      "åı²èĴĤ": 6875,
      "è£´": 6876,
      "äºĨä¸ĢäºĽ": 6877,
      "ä½ĵåŀĭ": 6878,
      "åĩ¤åĩ°": 6879,
      "çļĦå½¢å¼ı": 6880,
      "è¿ĽæŃ¥": 6881,
      "æİĴåĪĹ": 6882,
      "åĨĻä½ľ": 6883,
      "çİĩåĨĽ": 6884,
      "ï¼ĪãĢĬ": 6885,
      "è§īå¾Ĺ": 6886,
      "çļĦç¾İåĽ½": 6887,
      "æ¼Ĥ": 6888,
      "å¤§è§Ħæ¨¡": 6889,
      "åį¡ç½Ĺ": 6890,
      "è¿ĩçļĦ": 6891,
      "èĵĦ": 6892,
      "éĺ²å®Ī": 6893,
      "è´§å¸ģ": 6894,
      "æĪĺæĸĹæľº": 6895,
      "are": 6896,
      "å¤©åĲİ": 6897,
      "è§ĤéŁ³": 6898,
      "ä¸Ģè¯į": 6899,
      "è¯¥åħ¬åı¸": 6900,
      "çĽ´åįĩ": 6901,
      "ivers": 6902,
      "Ã¼": 6903,
      "æĺĶ": 6904,
      "è¾Ī": 6905,
      "æł¼åĭĴ": 6906,
      "èĵ¬": 6907,
      "æĺı": 6908,
      "éķ¿æ²Ļ": 6909,
      "éªĹ": 6910,
      "æ²Īéĺ³": 6911,
      "èĪªçıŃ": 6912,
      "ä»£æĽ¿": 6913,
      "é¦Ļæ¸¯éħįéŁ³": 6914,
      "Ġï¼ļ": 6915,
      "æ¸¯åħĥ": 6916,
      "åħ¶ä¸Ńä¸Ģ": 6917,
      "Ġæĸĩ": 6918,
      "è®¨ä¼Ĳ": 6919,
      "Ġ+": 6920,
      "äººå¤§": 6921,
      "ç«ĻçļĦ": 6922,
      "æĮĩæĮ¥å®ĺ": 6923,
      "æĳĶ": 6924,
      "ç§ĳå°Ķ": 6925,
      "éĿĴæĺ¥": 6926,
      "çļĦæĶ¯æĮģ": 6927,
      "å¢ŀå¼º": 6928,
      "æĸ¯èĴĤ": 6929,
      "é¢ħ": 6930,
      "æİ©": 6931,
      "æİ¢ç´¢": 6932,
      "ç±³äºļ": 6933,
      "å®ĪæĬ¤": 6934,
      "ä¸ĢçĻ¾": 6935,
      "åĩºçİ°äºĨ": 6936,
      "Ġå¾Ĳ": 6937,
      "åĽ½å°ı": 6938,
      "å¹³æĪĲ": 6939,
      "å¸Ńä½į": 6940,
      "åĬłéĢŁ": 6941,
      "å¹´ä»ĸ": 6942,
      "å¸¸å¸¸": 6943,
      "ver": 6944,
      "ä¹Ŀå·ŀ": 6945,
      "ä½¥": 6946,
      "ä¸ªä½ĵ": 6947,
      "åĵª": 6948,
      "ç¥ŀç¤¾": 6949,
      "æŃ£éĿ¢": 6950,
      "äºĭåĬ¡æīĢ": 6951,
      "åŀ£": 6952,
      "Ġæį®": 6953,
      "è§Ĩè§ī": 6954,
      "çļĦæĥħåĨµ": 6955,
      "NBA": 6956,
      "ä»»æľŁ": 6957,
      "å§Ĭå¦¹": 6958,
      "é¢ĳçİĩ": 6959,
      "ä¹ŀ": 6960,
      "æĳĩæ»ļ": 6961,
      "çī¹çĤ¹": 6962,
      "èĿĻ": 6963,
      "è¯¦ç»Ĩ": 6964,
      "éĶħ": 6965,
      "è§Ĥåħī": 6966,
      "å¡Ķå°Ķ": 6967,
      "åį³å°Ĩ": 6968,
      "èĿĻèĿł": 6969,
      "è®¾äºİ": 6970,
      "è¯¥åĽ½": 6971,
      "ç»ĨèıĮ": 6972,
      "çļĦæ¯įäº²": 6973,
      "èµ·åĪĿ": 6974,
      "ç«ĭéĻ¶": 6975,
      "ical": 6976,
      "èĪ¹åıª": 6977,
      "å®ĮæĪĲäºĨ": 6978,
      "èĽĭçĻ½è´¨": 6979,
      "Ġä¸į": 6980,
      "äººç§°": 6981,
      "æ°¸ä¹ħ": 6982,
      "çĽ¸è¿ŀ": 6983,
      "ä½ıæ°ĳ": 6984,
      "æ¶Ľ": 6985,
      "Ġå®ĭ": 6986,
      "æľĢä½İ": 6987,
      "ï¼īãĢģãĢĬ": 6988,
      "ä¸½èİİ": 6989,
      "å·¡æ´ĭ": 6990,
      "ÉĽ": 6991,
      "å·¨å¤§çļĦ": 6992,
      "åıĳè¡ĮçļĦ": 6993,
      "çłĶç©¶ä¸Ńå¿ĥ": 6994,
      "ĠCol": 6995,
      "å¯¹åħ¶": 6996,
      "äº¤ç»Ļ": 6997,
      "é¢ĨéĺŁ": 6998,
      "åĨ»": 6999,
      "åĲİåį«": 7000,
      "é¸¦": 7001,
      "çļĦåľ£": 7002,
      "æĶĢ": 7003,
      "å¤ªåİŁ": 7004,
      "ãĢĳ": 7005,
      "æĪĮ": 7006,
      "æµģä¼ł": 7007,
      "çĸ¯": 7008,
      "åıĽä¹±": 7009,
      "è¶ħè¶Ĭ": 7010,
      "åī¯ä¸»ä»»": 7011,
      "ãĢĲ": 7012,
      "å®īå¾½çľģ": 7013,
      "æľīè®¸å¤ļ": 7014,
      "ç¼Ŀ": 7015,
      "æ¡Į": 7016,
      "åıĻåĪ©äºļ": 7017,
      "äº¤æĺĵæīĢ": 7018,
      "å¥¸": 7019,
      "ãĥĭ": 7020,
      "Ġ1990": 7021,
      "åįģä¸īå¹´": 7022,
      "ç»ıçĶ±": 7023,
      "åīįéĶĭ": 7024,
      "èªĵ": 7025,
      "åĲĮæĹ¶ä¹Ł": 7026,
      "æ±¶": 7027,
      "åĲĮåĲį": 7028,
      "èı©èĲ¨": 7029,
      "éĽħåħ¸": 7030,
      "å¾·åĨĽ": 7031,
      "å®ļæľŁ": 7032,
      "ç«ĭéĻ¶å®Ľ": 7033,
      "éķĩåĮº": 7034,
      "Êģ": 7035,
      "ĠPro": 7036,
      "ãĥĵ": 7037,
      "åľ¨æĸ°": 7038,
      "Ġâ": 7039,
      "æİ¥èĳĹ": 7040,
      "æļĤæĹ¶": 7041,
      "åº¸": 7042,
      "ç¥ŀç§ĺ": 7043,
      "çªģåĩº": 7044,
      "åĩºèµĽ": 7045,
      "æīĵè´¥": 7046,
      "åĨłçĬ¶çĹħæ¯Ĵ": 7047,
      "çļĦå¤©": 7048,
      "çģ«è½¦": 7049,
      "ç«£å·¥": 7050,
      "èĬ½": 7051,
      "ç¥¸": 7052,
      "åİŁåħĪ": 7053,
      "åĽ½åħ¬": 7054,
      "åĩĨåĨ³èµĽ": 7055,
      "å¸ĥæĶ¿ä½¿": 7056,
      "éĢļè®¯": 7057,
      "è®©ä»ĸ": 7058,
      "éĺľ": 7059,
      "æĮĩæķ°": 7060,
      "åĽ¾æ¡Ī": 7061,
      "æ¤ħ": 7062,
      "æĻ®é²ģå£«": 7063,
      "PS": 7064,
      "åħĪè¿Ľ": 7065,
      "Sp": 7066,
      "Ġ13": 7067,
      "å¦Ĥä»Ĭ": 7068,
      "éĢłåŀĭ": 7069,
      "æĤŁ": 7070,
      "ite": 7071,
      "æĭ¨": 7072,
      "1936": 7073,
      "ä½ĨåĽł": 7074,
      "å·´æĭī": 7075,
      "Ph": 7076,
      "ãģĺ": 7077,
      "åĪĻåľ¨": 7078,
      "æĿ°åĩº": 7079,
      "å¤§æ°Ķ": 7080,
      "èĳĹæľī": 7081,
      "åŀĴæīĵ": 7082,
      "å¤§å¹ħ": 7083,
      "èŃ¦æĸ¹": 7084,
      "ä»»å¤©åłĤ": 7085,
      "åĲĳä¸ľ": 7086,
      "æİ¥æĶ¶": 7087,
      "çļĦä¸Ĭ": 7088,
      "è´·": 7089,
      "ä¿Ŀéļľ": 7090,
      "åºĦä¸ºéĤ»": 7091,
      "æĦıåĳ³": 7092,
      "çĶ²ç»Ħ": 7093,
      "æĶ¯çº¿": 7094,
      "å§Ķæīĺ": 7095,
      "åºĨç¥Ŀ": 7096,
      "DNA": 7097,
      "éĻĦåĬł": 7098,
      "æ²¿çº¿": 7099,
      "æī©å¼ł": 7100,
      "æīĩ": 7101,
      "åıĭè°Ĭ": 7102,
      "æĴ¤éĢĢ": 7103,
      "Ġè½¦ç«Ļç»ĵæŀĦ": 7104,
      "æĪ¿éĹ´": 7105,
      "åįıè°ĥ": 7106,
      "éĩĳåĪļ": 7107,
      "æľĢæĹ©çļĦ": 7108,
      "åİĮ": 7109,
      "å·²äºİ": 7110,
      "éĺŁåĳĺ": 7111,
      "è¾¹çļĦ": 7112,
      "æľīä¸ī": 7113,
      "åĲİäºİ": 7114,
      "åĩºèĩª": 7115,
      "Ġ1995": 7116,
      "çº¦çĳŁå¤«": 7117,
      "è®¾è®¡çļĦ": 7118,
      "æĹ¥å¼Ģå§ĭ": 7119,
      "é¥²": 7120,
      "ä½Ļäºº": 7121,
      "éĺŁåıĭ": 7122,
      "æī£": 7123,
      "æĵ¢": 7124,
      "çłĶç©¶çĶŁ": 7125,
      "æĶ¹ç¼ĸèĩª": 7126,
      "ä¹ĭå¹´åı·": 7127,
      "éĺħè¯»": 7128,
      "è¶ģ": 7129,
      "éķ¿å¤§": 7130,
      "çĽ¸åĲĮçļĦ": 7131,
      "æĸ¥": 7132,
      "å¾·æĸ¯": 7133,
      "éĢīåĩº": 7134,
      "è¾ŀèģĮ": 7135,
      "åķĨåºĹ": 7136,
      "è¡Įäºº": 7137,
      "æ¬¡åŃĲ": 7138,
      "ld": 7139,
      "åºµ": 7140,
      "åŁİå¢Ļ": 7141,
      "é¢ĨåħĪ": 7142,
      "æľĪçĲĥ": 7143,
      "å¤§éĩıçļĦ": 7144,
      "æħķå°¼": 7145,
      "æĹħå®¢éĵģéģĵ": 7146,
      "æĽ´å¤ļçļĦ": 7147,
      "è´¬": 7148,
      "é¢ł": 7149,
      "å°±åľ¨": 7150,
      "éħįéŁ³åĳĺ": 7151,
      "æħĪåĸĦ": 7152,
      "å·¡æ´ĭèĪ°": 7153,
      "ãĢģãĢĬ": 7154,
      "æĹ¥åĲİ": 7155,
      "æ¯Ķå°Ķ": 7156,
      "èĭ±éķĳ": 7157,
      "è¶ĬæĿ¥": 7158,
      "æĽ¾æĺ¯": 7159,
      "1909": 7160,
      "æĺİç¡®": 7161,
      "US": 7162,
      "å¹´èİ·å¾Ĺ": 7163,
      "ä¿Ĺç§°": 7164,
      "èĩªç§°": 7165,
      "æ¡Ĩ": 7166,
      "éĽķåĥı": 7167,
      "æĢ»ä¼ļ": 7168,
      "æ¨¡æĭŁ": 7169,
      "èī³": 7170,
      "æ»ĭ": 7171,
      "åħ¬ä¼ļ": 7172,
      "éĥ½å¾¡åı²": 7173,
      "Ġ1994": 7174,
      "Ġæ²Ļ": 7175,
      "èĳµ": 7176,
      "DVD": 7177,
      "å¸ĸ": 7178,
      "ç§ĳçļĦ": 7179,
      "æĪĲäºº": 7180,
      "åīįåĲİ": 7181,
      "éĢ®æįķ": 7182,
      "åĬ¾": 7183,
      "è¯Ħå®¡": 7184,
      "ĠçĶ°": 7185,
      "ç»´ä¹Ł": 7186,
      "ç»´æĬ¤": 7187,
      "åĪĳéĥ¨": 7188,
      "çļĦæĹ¥": 7189,
      "çĨĶ": 7190,
      "ä¸ĵçĶ¨": 7191,
      "çĭ¬ç«ĭçļĦ": 7192,
      "æĸ¯åł¡": 7193,
      "eth": 7194,
      "ook": 7195,
      "æ³ķçļĦ": 7196,
      "åı·ä¸º": 7197,
      "åĽ¾åĥı": 7198,
      "ÙĦ": 7199,
      "Ġç®Ģ": 7200,
      "æīĵè¿Ľ": 7201,
      "æ¿Ĵ": 7202,
      "æ³Ħ": 7203,
      "åĿļæĮģ": 7204,
      "åĩºå±Ģ": 7205,
      "åĩ¸": 7206,
      "æ²¿å²¸": 7207,
      "è¶ĬæĿ¥è¶Ĭ": 7208,
      "èĤ¡æĿĥ": 7209,
      "æĿı": 7210,
      "æĥħèĬĤ": 7211,
      "é©±åĬ¨": 7212,
      "æħķå°¼é»ĳ": 7213,
      "è®¾è®¡å¸Ī": 7214,
      "ä¸ĵç§ĳ": 7215,
      "ä»ħæľī": 7216,
      "å¾Ĺå¥ĸ": 7217,
      "æĪĺæľ¯": 7218,
      "å°Ĩåľ¨": 7219,
      "ä¸¾åĬŀçļĦ": 7220,
      "é¢Ĩäºĭ": 7221,
      "æ£±": 7222,
      "æĭĵè·ĭ": 7223,
      "å¤§å®¶": 7224,
      "çĶ·å¥³": 7225,
      "ä¸ĸçºªçļĦ": 7226,
      "å§ĭå»ºäºİ": 7227,
      "æµ¸": 7228,
      "éĢļçĶ¨": 7229,
      "å¥ĸæľĢä½³": 7230,
      "250": 7231,
      "ç¥ĸåħĪ": 7232,
      "ãĥĲ": 7233,
      "å¥ł": 7234,
      "æĶ¹è¿Ľ": 7235,
      "åĳİ": 7236,
      "åĸĿ": 7237,
      "çİ¯çĲĥ": 7238,
      "ien": 7239,
      "çī²": 7240,
      "åĽ½æľī": 7241,
      "ä»¥è¥¿": 7242,
      "å°¼å¥¥": 7243,
      "äºĶä¸ĸ": 7244,
      "æĺ¾èĳĹ": 7245,
      "ĠæĹł": 7246,
      "çİ°æľī": 7247,
      "èĥĥ": 7248,
      "èĻŀ": 7249,
      "çĻ»ä¸Ĭ": 7250,
      "æ¸©æ³ī": 7251,
      "é¾Ļç±»": 7252,
      "åŃĺåľ¨çļĦ": 7253,
      "å«©": 7254,
      "ĠèĬ±": 7255,
      "çĲĨåŃ¦": 7256,
      "æĸĮ": 7257,
      "ç§¯åĪĨ": 7258,
      "èĳ£äºĭéķ¿": 7259,
      "åŀĭçĶµåĬĽæľºè½¦": 7260,
      "çĻ¾å§ĵ": 7261,
      "å¤ļäºº": 7262,
      "è¯ĬæĸŃ": 7263,
      "gh": 7264,
      "ç¡®ä¿Ŀ": 7265,
      "è¿ªå£«": 7266,
      "ash": 7267,
      "èĢ¶å¤«": 7268,
      "Ġä½ķ": 7269,
      "çª¦": 7270,
      "åģļåĩº": 7271,
      "aul": 7272,
      "ĠèĳĹä½ľ": 7273,
      "è¢ľ": 7274,
      "èŀįåĲĪ": 7275,
      "æĿĳåºĦ": 7276,
      "ans": 7277,
      "ale": 7278,
      "æĿ¥èĩªäºİ": 7279,
      "åĽļ": 7280,
      "æŃ¤æ¬¡": 7281,
      "ç»ıæµİåŃ¦": 7282,
      "Ġå»ºçŃĳ": 7283,
      "å¸ĥéĩĮ": 7284,
      "åį«éĺŁ": 7285,
      "ä¼ļä¸Ĭ": 7286,
      "ium": 7287,
      "æĸ¹éĿ¢çļĦ": 7288,
      "çļĦéĺ¿": 7289,
      "éĴł": 7290,
      "æľ¬ä¹¦": 7291,
      "æīĭæľº": 7292,
      "çĶµè§ĨèĬĤçĽ®": 7293,
      "ç»´ä¹Łçº³": 7294,
      "ron": 7295,
      "è¢«æĿĢ": 7296,
      "ä¸įè¯¦": 7297,
      "æĹĭè½¬": 7298,
      "çļĦçĶŁæ´»": 7299,
      "ä¸ĢæľŁ": 7300,
      "ĠäºİP": 7301,
      "åıĳæİĺ": 7302,
      "åĲįä¸¾äºº": 7303,
      "æľĢä¸º": 7304,
      "è¿ªå£«å°¼": 7305,
      "ĠçļĦæĹ¶åĮºä¸ºUTC": 7306,
      "ĠæīĢå±ŀçļĦçľģçº§éĢīåĮºä¸º": 7307,
      "è¯ºæĽ¼": 7308,
      "Ġä¸İæİ¥å£¤çļĦå¸Ĥéķĩ": 7309,
      "ĠçļĦéĤ®æĶ¿ç¼ĸçłģä¸ºP": 7310,
      "çĮľ": 7311,
      "æĺĨèĻ«": 7312,
      "å±¥": 7313,
      "æĹ¥æĬ¥": 7314,
      "é»ĳæļĹ": 7315,
      "åĸī": 7316,
      "èĭıå·ŀ": 7317,
      "çĽĳçĭ±": 7318,
      "ãģĳ": 7319,
      "ç»´åħĭ": 7320,
      "æŀ«": 7321,
      "çºº": 7322,
      "èĭ±åĨĽ": 7323,
      "åľ¨éĤ£éĩĮ": 7324,
      "éģ®": 7325,
      "å¥½è¯Ħ": 7326,
      "åĨľåľº": 7327,
      "ĠRo": 7328,
      "çī©çļĦ": 7329,
      "çĹķ": 7330,
      "éħįè§Ĵ": 7331,
      "å¹´ä»»": 7332,
      "åİ¦éĹ¨": 7333,
      "åįĩæł¼ä¸º": 7334,
      "åĽłåħ¶": 7335,
      "åį°åĪ·": 7336,
      "éĢıéľ²": 7337,
      "ìĿ": 7338,
      "åŃĲå¥³": 7339,
      "é¢Ħå¤ĩ": 7340,
      "ä¸Ńæµ·": 7341,
      "åħĥå¸ħ": 7342,
      "ä½¿çĶ¨äºĨ": 7343,
      "Äģ": 7344,
      "æ¯ıåĳ¨": 7345,
      "éģŃéģĩ": 7346,
      "æİĪæĿĥ": 7347,
      "åĲĦåĽ½": 7348,
      "ĠLe": 7349,
      "ä¸ĢèģĮ": 7350,
      "æĸĩå¸Ŀ": 7351,
      "ä¸ĸçºªåĪĿ": 7352,
      "åĨħæľī": 7353,
      "çº§çļĦ": 7354,
      "è¾ĥå¤§": 7355,
      "å¤©åºľ": 7356,
      "åĮºåĪ«": 7357,
      "åĨħåľ°": 7358,
      "ãĥĸ": 7359,
      "ãĤĪ": 7360,
      "oph": 7361,
      "æĽ¿ä»£": 7362,
      "éķ°": 7363,
      "ãĥ¡": 7364,
      "èĭ±å°º": 7365,
      "åįķä¸Ģ": 7366,
      "ĠåŁĥ": 7367,
      "éĽĨçļĦ": 7368,
      "äºĭä¸Ń": 7369,
      "èĩĢé³į": 7370,
      "åľ°åĲį": 7371,
      "åĲĮæĹ¶ä¹Łæĺ¯": 7372,
      "éĩĮè¾¾": 7373,
      "ä¹¡æĿĳ": 7374,
      "èĹ¤åİŁ": 7375,
      "ara": 7376,
      "å°Ħåħ¥": 7377,
      "æĺİæ²»ä¸īåįģ": 7378,
      "åĨħæĪĺ": 7379,
      "å¹´ä¸ĸçķĮæĿ¯": 7380,
      "âĢĿï¼ī": 7381,
      "é»ĳé¾Ļæ±Ł": 7382,
      "ä¸įçŁ¥": 7383,
      "æĺŁçļĦ": 7384,
      "èĲ¥åħ»": 7385,
      "è¾ĵåħ¥": 7386,
      "ÐºÐ°": 7387,
      "Ð¼": 7388,
      "Ġä½¿çĶ¨": 7389,
      "æħ°": 7390,
      "éģĹè¿¹": 7391,
      "Ġæ¼Ķåĩº": 7392,
      "ĠåİĨä»»": 7393,
      "å¥ĸéĩĳ": 7394,
      "èı²å°Ķå¾·": 7395,
      "ID": 7396,
      "äººçĶŁ": 7397,
      "èĸª": 7398,
      "èĢ¶å¾ĭ": 7399,
      "åı¸ä»¤éĥ¨": 7400,
      "me": 7401,
      "ĠæŃ¤å¤ĸ": 7402,
      "ä¸Ĭæ¸¸": 7403,
      "åĽŀå¿Ĩ": 7404,
      "çļĦåĪĨ": 7405,
      "éĵ¶æ²³": 7406,
      "åĴ¨è¯¢": 7407,
      "ãĢĤâĢľ": 7408,
      "éķ¶": 7409,
      "åŁİéĻħ": 7410,
      "åĢ¡": 7411,
      "ä¿Ŀè¯ģ": 7412,
      "åįłæį®": 7413,
      "åľ¨ä¸Ń": 7414,
      "ä»¥ä¸ľ": 7415,
      "çº³å¾·": 7416,
      "ä¼łç»ŁçļĦ": 7417,
      "èĩªæĪĳ": 7418,
      "å¥³ç¥ŀ": 7419,
      "åŀĤçĽ´": 7420,
      "å¾·ç½Ĺ": 7421,
      "é¢Ĩå¯¼äºº": 7422,
      "co": 7423,
      "æĭħå½ĵ": 7424,
      "æ¢¦æĥ³": 7425,
      "Ġ1993": 7426,
      "ç«ŀéĢī": 7427,
      "èĲ¨æĭī": 7428,
      "é¼ĵåĬ±": 7429,
      "å·Ŀåİ¿": 7430,
      "åĭĴæĸ¯": 7431,
      "Ġèĭ¥": 7432,
      "å¼ķè¿Ľ": 7433,
      "åī§ä¸Ń": 7434,
      "èı±": 7435,
      "äºİæŃ¤": 7436,
      "åĵŃ": 7437,
      "å½ĵå¤©": 7438,
      "Ġçº¦ç¿°": 7439,
      "Ġk": 7440,
      "Ġèĥ¡": 7441,
      "æ¹ĸå¹¿": 7442,
      "åĶ¯ä¸ĢçļĦ": 7443,
      "å°¸ä½ĵ": 7444,
      "çĽ¸åºĶ": 7445,
      "ma": 7446,
      "ä¹¦åºĹ": 7447,
      "æĻ¯çĤ¹": 7448,
      "éĩİçĶŁ": 7449,
      "1933": 7450,
      "æĶ¶è´¹": 7451,
      "æĦŁæĥħ": 7452,
      "åĮł": 7453,
      "å±¡": 7454,
      "çªĳ": 7455,
      "åįĹèĩ³": 7456,
      "çĽ®çļĦæĺ¯": 7457,
      "åĲĦç±»": 7458,
      "è§Ĵåº¦": 7459,
      "se": 7460,
      "ä¸ľäºļ": 7461,
      "åįģåĽĽå¹´": 7462,
      "è¿ĳä»£": 7463,
      "çĶ·åŃ©": 7464,
      "å¿ħè¦ģ": 7465,
      "å½¢å®¹": 7466,
      "åĪĽå§ĭäºº": 7467,
      "é¥¶": 7468,
      "1935": 7469,
      "åľ¨èĭ±åĽ½": 7470,
      "æĶ¶è§Ĩçİĩ": 7471,
      "æŃ§": 7472,
      "èĢģæĿ¿": 7473,
      "é²¨": 7474,
      "æ¨¡çī¹": 7475,
      "la": 7476,
      "æ²īç§¯": 7477,
      "çĸ«èĭĹ": 7478,
      "å¹´æ¯ķä¸ļäºİ": 7479,
      "é«ĺæł¡": 7480,
      "åĪ©çļĦ": 7481,
      "çº¦æľī": 7482,
      "rist": 7483,
      "åı°åĮĹå¸Ĥ": 7484,
      "åŃ¦åĽŃ": 7485,
      "é©°": 7486,
      "æĢ»éĿ¢ç§¯": 7487,
      "åı¦ä¸Ģæĸ¹éĿ¢": 7488,
      "æµ·åįĹ": 7489,
      "å½ĵä»£": 7490,
      "æĭīå°Ķ": 7491,
      "çĽ¸åıį": 7492,
      "è½¯æĿ¡": 7493,
      "å®¹çº³": 7494,
      "ãģ²": 7495,
      "æ¬¡äºİ": 7496,
      "è¯¥æł¡": 7497,
      "æľªæľī": 7498,
      "æ§½": 7499,
      "Ġæ³ķ": 7500,
      "ä»¥ä¾¿": 7501,
      "åľ°äºļ": 7502,
      "ä¹Łåı¯": 7503,
      "æĬ¥çº¸": 7504,
      "åįĹæĺĮ": 7505,
      "åĬŀçĲĨ": 7506,
      "æĺ¯ä»İ": 7507,
      "æł¼é²ģ": 7508,
      "çĳ°": 7509,
      "å®¡åĪ¤": 7510,
      "ä¼Ĺè®®éĻ¢": 7511,
      "é¥®é£Ł": 7512,
      "IV": 7513,
      "æĳ©å°Ķ": 7514,
      "å¤ĸåĽ´": 7515,
      "ä¸¤æĿ¡": 7516,
      "åĽ½è¯Ń": 7517,
      "åłĢ": 7518,
      "æį·åħĭ": 7519,
      "å¼ºåº¦": 7520,
      "Le": 7521,
      "åĨħèĴĻåı¤": 7522,
      "èķĥ": 7523,
      "700": 7524,
      "åĮĸä¸º": 7525,
      "æĪĺäºīä¸Ń": 7526,
      "Ġè¡ĮæĶ¿åĮºåĪĴ": 7527,
      "è°Ĳ": 7528,
      "åĨľæĿĳ": 7529,
      "ä¸¥æł¼": 7530,
      "å¾·æĦıå¿Ĺ": 7531,
      "äºĮå±Ĥ": 7532,
      "åĪºæ¿Ģ": 7533,
      "Ġæ¢ģ": 7534,
      "åľ¨åĨħçļĦ": 7535,
      "æļĤåģľ": 7536,
      "äº¤æ±ĩ": 7537,
      "å®¢ä¸²": 7538,
      "èĪªçº¿": 7539,
      "æľĽè¿ľ": 7540,
      "çİ«": 7541,
      "åħ¥åĽ´": 7542,
      "åĪ¶æĪĲ": 7543,
      "ä¾Ħ": 7544,
      "æ·Ģ": 7545,
      "æ¬§çĽŁ": 7546,
      "æĵħéķ¿": 7547,
      "ä½İäºİ": 7548,
      "åĪ©çĽĬ": 7549,
      "Ġ1992": 7550,
      "è´¢åĬ¡": 7551,
      "çļĦé©¬": 7552,
      "å¸Įçī¹": 7553,
      "çĴĭ": 7554,
      "1934": 7555,
      "çļĦä¸ĸçķĮ": 7556,
      "ãģĪ": 7557,
      "è¶ħçº§èģĶèµĽ": 7558,
      "ä¸Ģéĥ¨": 7559,
      "åĲİåľ¨": 7560,
      "åħ¬å¯ĵ": 7561,
      "æĶ¹è®¾": 7562,
      "AL": 7563,
      "åĨĢ": 7564,
      "å¾·è¯Ń": 7565,
      "åĬłå·¥": 7566,
      "åºıåĪĹ": 7567,
      "sp": 7568,
      "èľĺ": 7569,
      "æ©Ļ": 7570,
      "æ¥ł": 7571,
      "æ¹ĸåĮĹçľģ": 7572,
      "åĩ¹": 7573,
      "ç§ĳè¿Ľå£«": 7574,
      "å®¢è½¦": 7575,
      "åİŁåĪĽ": 7576,
      "åīįèº«": 7577,
      "æŃĮåĶ±": 7578,
      "ä¸Ģéĥİ": 7579,
      "åĪĨä¹ĭä¸Ģ": 7580,
      "åĬłæĸ¯": 7581,
      "éĵģè·¯å±Ģ": 7582,
      "çļĦèĥ½åĬĽ": 7583,
      "å®ŀåĬĽ": 7584,
      "æĹ±": 7585,
      "ä¸Ńåľº": 7586,
      "åĪ°çļĦ": 7587,
      "çģ«è½¦ç«Ļ": 7588,
      "èĤĮèĤī": 7589,
      "æ³°åĭĴ": 7590,
      "åħĪåıĳ": 7591,
      "éĶ¥": 7592,
      "é£İæĻ¯": 7593,
      "åıĤä¸İäºĨ": 7594,
      "ä¸ŃåĽ½çļĦ": 7595,
      "æĢ¨": 7596,
      "æĭīå¾·": 7597,
      "Ġåħ«": 7598,
      "çĶ·äºº": 7599,
      "è¡Ģæ¶²": 7600,
      "ä¼ļè®®åĳĺ": 7601,
      "ä¸ªæĢ§": 7602,
      "èľĺèĽĽ": 7603,
      "éĩĩè®¿": 7604,
      "åħµéĥ¨": 7605,
      "åĳĺå¤ĸéĥİ": 7606,
      "åĮºåĪĨ": 7607,
      "åĻ¨çļĦ": 7608,
      "æĢģåº¦": 7609,
      "æŃ£ç¡®": 7610,
      "çĶ»éĿ¢": 7611,
      "å±ħå§Ķä¼ļ": 7612,
      "æ³ª": 7613,
      "å®¢æĪ·": 7614,
      "åĪĩå°Ķ": 7615,
      "èģĶåĲĪä¼ļ": 7616,
      "ãĥĥãĤ¯": 7617,
      "å±±è¥¿çľģ": 7618,
      "çľŁäºº": 7619,
      "ä¼¤å®³": 7620,
      "å¹¸ç¦ı": 7621,
      "æľĽè¿ľéķľ": 7622,
      "Ġæ²¿éĿ©": 7623,
      "æ²Ļæ¼ł": 7624,
      "çĽĨåľ°": 7625,
      "EN": 7626,
      "è¿Ļé¡¹": 7627,
      "çļĦåľ°åĮº": 7628,
      "èµĦåĬ©": 7629,
      "çľĭè§ģ": 7630,
      "NHK": 7631,
      "çļĦä¸į": 7632,
      "çī©åĵģ": 7633,
      "äºļç¾İ": 7634,
      "æĽ¾è¢«": 7635,
      "çºªå½ķçīĩ": 7636,
      "è¯ŀçĶŁ": 7637,
      "åĶĩ": 7638,
      "æİ¢éĻ©": 7639,
      "æĿĢäºº": 7640,
      "è¢«å¹¶åħ¥": 7641,
      "ç´¢æģ©": 7642,
      "ç©¿è¶Ĭ": 7643,
      "æĥĳ": 7644,
      "éĩįå¤į": 7645,
      "å®ĥä»¬çļĦ": 7646,
      "å¸¸åĬ¡": 7647,
      "åıĭå¥½": 7648,
      "ç¬ĥ": 7649,
      "èĢĮæĿ¥": 7650,
      "åĲĮåŃ¦": 7651,
      "res": 7652,
      "å°§": 7653,
      "åĿ¤": 7654,
      "Ġ,": 7655,
      "æ±ģ": 7656,
      "çİĭåĲİ": 7657,
      "çĽ´åįĩæľº": 7658,
      "ä¸įè¦ģ": 7659,
      "åħ¨åŀĴæīĵ": 7660,
      "å¤įæ´»": 7661,
      "èĢĥå¯Ł": 7662,
      "çģµéŃĤ": 7663,
      "rin": 7664,
      "å¹´æĪĲä¸º": 7665,
      "æ¸ħæ°´": 7666,
      "çħ§é¡¾": 7667,
      "å±ħä½ıåľ¨": 7668,
      "çĽ¸è¾ĥ": 7669,
      "é«ĺæŀ¶": 7670,
      "åĿŀ": 7671,
      "ç¿¡": 7672,
      "èĮĥåĽ´åĨħ": 7673,
      "ĠĠĠĠ": 7674,
      "ç¬¦åı·": 7675,
      "ä¸»äºº": 7676,
      "ä¸»åĶ±": 7677,
      "ç¼ĸåĪ¶": 7678,
      "çĶŁæ´»åľ¨": 7679,
      "âĢĺ": 7680,
      "ç»´ä¿®": 7681,
      "é¢ĺæĿĲ": 7682,
      "åħ¶ä¸º": 7683,
      "æ³ķåºŃ": 7684,
      "äºļçĽ®": 7685,
      "åĽŀåºĶ": 7686,
      "ç¾İæľ¯é¦Ĩ": 7687,
      "ä»»æķĻ": 7688,
      "ä¹Łæ²¡æľī": 7689,
      "ç³ķ": 7690,
      "ä¸ģçĽ®": 7691,
      "ä½įçļĦ": 7692,
      "æ¼Ķèīº": 7693,
      "Ġç¬¬åĽĽ": 7694,
      "æ¨¡å¼ıäº§åľ°": 7695,
      "IT": 7696,
      "å¾·å·Ŀ": 7697,
      "æ¶Īéĺ²": 7698,
      "Ġ1987": 7699,
      "æłªå¼ı": 7700,
      "åĬ¨è½¦ç»Ħ": 7701,
      "Ġå¥³": 7702,
      "ä¼Ļä¼´": 7703,
      "éŁ¶": 7704,
      "ç¦§": 7705,
      "ata": 7706,
      "çĶºæĿĳ": 7707,
      "èĻļæŀĦ": 7708,
      "æľīçĿĢ": 7709,
      "Ġæ³ķåĽ½": 7710,
      "å£¬": 7711,
      "ç¾İåĽ½çļĦ": 7712,
      "ett": 7713,
      "æķĻèĤ²éĥ¨": 7714,
      "è¡¥åħħ": 7715,
      "ä¸ľåįĹäºļ": 7716,
      "ys": 7717,
      "æŃ£å¾·": 7718,
      "1932": 7719,
      "Ġæľ¬ç«Ļ": 7720,
      "å½¢æĪĲçļĦ": 7721,
      "åĲĳè¥¿": 7722,
      "è´Ŀåħĭ": 7723,
      "åºĩ": 7724,
      "æĸ¯åĴĮ": 7725,
      "æłªå¼ıä¼ļç¤¾": 7726,
      "é©¬æģ©": 7727,
      "å¹³å®ļ": 7728,
      "ãĤ¬": 7729,
      "æĩ¿": 7730,
      "æ°®": 7731,
      "ãĤı": 7732,
      "ward": 7733,
      "å¸¸è§Ħ": 7734,
      "çĮ¿": 7735,
      "å¹´åĩºçīĪ": 7736,
      "å¼Ĥå¸¸": 7737,
      "CC": 7738,
      "è´¹çĶ¨": 7739,
      "éĿ¢ä¸´": 7740,
      "æ¸¸åĩ»": 7741,
      "å§Ĳå¦¹": 7742,
      "ram": 7743,
      "ç¯ĩå°ıè¯´": 7744,
      "çİĽä¸½äºļ": 7745,
      "der": 7746,
      "çļĦæīĢæľī": 7747,
      "åĽ½éĵģ": 7748,
      "äº®çĽ¸": 7749,
      "è°ĭæĿĢ": 7750,
      "éĻķè¥¿çľģ": 7751,
      "ear": 7752,
      "äºĨè®¸å¤ļ": 7753,
      "äºīå¤º": 7754,
      "å¾Ļ": 7755,
      "èį£èİ·": 7756,
      "è¡Ģç®¡": 7757,
      "ä»įåľ¨": 7758,
      "ii": 7759,
      "ç¬Ľ": 7760,
      "ä¸ĭæ¸¸": 7761,
      "è¯¥çī©ç§įçļĦ": 7762,
      "èī²å½©": 7763,
      "å¼ŁåŃĲ": 7764,
      "å¹¶æĹł": 7765,
      "è´¢äº§": 7766,
      "è½¦ä½ĵ": 7767,
      "å¤ıå¤©": 7768,
      "ä¸ĭæĸ¹": 7769,
      "ä¸ľæµ·": 7770,
      "æīĺé©¬æĸ¯": 7771,
      "éĽĨåĲĪ": 7772,
      "åľŁå£¤": 7773,
      "çļĦåĽĽ": 7774,
      "è¢«åıĳçİ°": 7775,
      "åı¤å±ĭ": 7776,
      "åķ¤": 7777,
      "æ³¢çī¹": 7778,
      "å¤§ä½¿é¦Ĩ": 7779,
      "æ¶¡": 7780,
      "åķĨåľº": 7781,
      "æĢİ": 7782,
      "åıĳèĤ²": 7783,
      "ç¿¡ç¿ł": 7784,
      "Ġæ¬§æ´²": 7785,
      "æķ·": 7786,
      "af": 7787,
      "åīįè¿Ľ": 7788,
      "åĬłåĪ©äºļ": 7789,
      "èİ±èĮµ": 7790,
      "oll": 7791,
      "å¤§åĨĽ": 7792,
      "åĿŁ": 7793,
      "âĦ": 7794,
      "èģĶåĨĽ": 7795,
      "éĽĨä½ĵ": 7796,
      "3000": 7797,
      "å¼ºçļĦ": 7798,
      "èĤĩ": 7799,
      "çºł": 7800,
      "æµ´": 7801,
      "å±±çļĦ": 7802,
      "éħĭ": 7803,
      "å¸ĥç½®": 7804,
      "çľģçļĦ": 7805,
      "æł¼æĭīæĸ¯": 7806,
      "æ¸ħæ¥ļ": 7807,
      "åĬ£": 7808,
      "åħ¶åŃĲ": 7809,
      "éģĵå¤«": 7810,
      "è¿Ļä¹Łæĺ¯": 7811,
      "çīŁ": 7812,
      "åı¯æĺ¯": 7813,
      "æİĴè¡Įæ¦ľ": 7814,
      "Ġåı¦": 7815,
      "ç¥ŀåľ£": 7816,
      "éħ¯": 7817,
      "æĴĳ": 7818,
      "æ¶ĪçģŃ": 7819,
      "ç¥·": 7820,
      "é¦ĸåº¦": 7821,
      "ä¼ŀ": 7822,
      "åºĦæĿĳ": 7823,
      "è¯»èĢħ": 7824,
      "æĪļ": 7825,
      "æ¬ł": 7826,
      "èº²": 7827,
      "ç»Ļäºĭä¸Ń": 7828,
      "ä¸Ģç³»åĪĹ": 7829,
      "å¦ĤåĲĮ": 7830,
      "æ·¡æ°´": 7831,
      "æīŃ": 7832,
      "åĢ¼å¾Ĺ": 7833,
      "èĤ¡ä¸ľ": 7834,
      "æ¦´": 7835,
      "åľ£æ®¿": 7836,
      "å®Įé¢ľ": 7837,
      "èĦĬæ¤İ": 7838,
      "ãĤģ": 7839,
      "è£¸": 7840,
      "å¸Įå°Ķ": 7841,
      "æİ¨æµĭ": 7842,
      "å±ķçİ°": 7843,
      "éĹ¯": 7844,
      "è®¤åı¯": 7845,
      "æ´¾çļĦ": 7846,
      "ius": 7847,
      "æĪĲç«ĭäºĨ": 7848,
      "ç¬¬ä¸Ģæ¬¡ä¸ĸçķĮå¤§æĪĺ": 7849,
      "éĻ¨çŁ³": 7850,
      "åĭĩå£«": 7851,
      "ä¸ºæľŁ": 7852,
      "å®¶ä¹¡": 7853,
      "å½Ĵç±»": 7854,
      "å·¨äºº": 7855,
      "çĶŁçī©åŃ¦": 7856,
      "è¿ĺåľ¨": 7857,
      "è¯ĳä¸º": 7858,
      "å¢ŀåĬłäºĨ": 7859,
      "Ġfor": 7860,
      "ä¸Ģå±Ĥ": 7861,
      "ä¹ĭä¹±": 7862,
      "è·Į": 7863,
      "è¾ĥä½İ": 7864,
      "é¦ĸåºľ": 7865,
      "æĶ¿åºľçļĦ": 7866,
      "åĽ´æ£ĭ": 7867,
      "é£ŀè¡Įåĳĺ": 7868,
      "åĲİæĿ¥çļĦ": 7869,
      "å®°çĽ¸": 7870,
      "Ġå¯¼æ¼Ķ": 7871,
      "æ³Į": 7872,
      "å¼ĢåĬŀ": 7873,
      "æŁĵèī²": 7874,
      "åŃŁåĬłæĭī": 7875,
      "èģĮåĳĺ": 7876,
      "å·¥éĥ¨": 7877,
      "Ġæ±Ł": 7878,
      "çķľ": 7879,
      "åİŁåĪĻ": 7880,
      "ited": 7881,
      "ä¿ĿæĬ¤åĮº": 7882,
      "ç©¿è¿ĩ": 7883,
      "åĽŀåĽ½": 7884,
      "è¿ģç§»": 7885,
      "ove": 7886,
      "ç¼´": 7887,
      "ç¦ıéŁ³": 7888,
      "å¹´ä»¥": 7889,
      "åľ¨ä¸Ģä¸ª": 7890,
      "éħįå¤ĩ": 7891,
      "è¾£": 7892,
      "æľĿæĹ¥": 7893,
      "çº±": 7894,
      "1918": 7895,
      "Ġä¸ĸçķĮ": 7896,
      "ç»Ħéķ¿": 7897,
      "ä¸Ĭæĸ¹": 7898,
      "æ£ļ": 7899,
      "Ġæ¢ħ": 7900,
      "ĠåĽ½å®¶éĺŁ": 7901,
      "è¶³æĢ»": 7902,
      "é¡ºæ²»": 7903,
      "ä½ĵèĤ²é¦Ĩ": 7904,
      "ä¸Ĭåľº": 7905,
      "å½¢çļĦ": 7906,
      "ç¦»å©ļ": 7907,
      "äºĮåįģåİħ": 7908,
      "UN": 7909,
      "éĵĿ": 7910,
      "èĪªç©ºåħ¬åı¸": 7911,
      "åĨĽäºº": 7912,
      "æĿĳæ°ĳ": 7913,
      "ä¼¦å¤ļ": 7914,
      "åħĭéĽ·": 7915,
      "åĨħäºļ": 7916,
      "çĲĥè¿·": 7917,
      "æģĭçĪ±": 7918,
      "å¯¼å¸Ī": 7919,
      "çĤ¸å¼¹": 7920,
      "é»ı": 7921,
      "ä¸»ä¹īèĢħ": 7922,
      "çŃĸçķ¥": 7923,
      "åĲįåı¤å±ĭ": 7924,
      "ä»İæľª": 7925,
      "èŃ¦åĳĬ": 7926,
      "Ġä½ľè¯į": 7927,
      "æŃĮåī§": 7928,
      "æī¿æĭħ": 7929,
      "å¤©æĸĩåı°": 7930,
      "ä¸ºé£Ł": 7931,
      "åİŁåŀĭ": 7932,
      "å½±è¯Ħ": 7933,
      "ÃŃ": 7934,
      "Ġåį¢": 7935,
      "æĺ¯ä¸ºäºĨ": 7936,
      "å¤§åĲĮ": 7937,
      "æĮĩç¤º": 7938,
      "Ġä¸Ĭæµ·": 7939,
      "ä¸ŃåįİèģĮæ£Ĵ": 7940,
      "ä¿±": 7941,
      "è¿Ľè¡ĮçļĦ": 7942,
      "ĠèĢĮ": 7943,
      "ä¸ºä¸ŃåĽ½": 7944,
      "é²ģæĸ¯": 7945,
      "æĵ¦": 7946,
      "æľĪèµ·": 7947,
      "åĽ½å®¶åħ¬åĽŃ": 7948,
      "åħĭåĬ³": 7949,
      "æĸ°åĮº": 7950,
      "åľ¨è¥¿": 7951,
      "ï¼ī-": 7952,
      "éĩįè§Ĩ": 7953,
      "åı°ä¸Ńå¸Ĥ": 7954,
      "äºĭå®ŀä¸Ĭ": 7955,
      "åĵĪå°Ķæ»¨": 7956,
      "Ġæ¬§": 7957,
      "ä¸ĢæĶ¯": 7958,
      "æĹ¥çĶ±": 7959,
      "æĺŁéĻħ": 7960,
      "æĥ³æ³ķ": 7961,
      "èµ¢å¾ĹäºĨ": 7962,
      "ä¸įå¾Ĺä¸į": 7963,
      "é¡ºåºı": 7964,
      "æĶ»åħ¥": 7965,
      "çī¹çĥĪ": 7966,
      "ç§ĺä¹¦éķ¿": 7967,
      "æ¯ıæ¬¡": 7968,
      "åĪĿå¹´": 7969,
      "ĠéĿĴ": 7970,
      "å¯¹ç§°": 7971,
      "åİŁä½ıæ°ĳ": 7972,
      "é¢Ħç®Ĺ": 7973,
      "è·µ": 7974,
      "ana": 7975,
      "eph": 7976,
      "å«¡": 7977,
      "æĮº": 7978,
      "èŀºæĹĭ": 7979,
      "ST": 7980,
      "ä¸»åĬ¨": 7981,
      "ãĥ§": 7982,
      "å¹¿å²Ľ": 7983,
      "ork": 7984,
      "çļĦè¥¿": 7985,
      "éªļ": 7986,
      "å¤§å¸Ŀ": 7987,
      "äººä¸º": 7988,
      "æµĳ": 7989,
      "æµģåĬ¨": 7990,
      "éĻ¤æŃ¤": 7991,
      "éĢłæĪĲçļĦ": 7992,
      "åįģäºĶå¹´": 7993,
      "åŃ£èĬĤ": 7994,
      "ä»£è¡¨å¤§ä¼ļ": 7995,
      "èĭ¹": 7996,
      "åį°è±¡": 7997,
      "my": 7998,
      "çĭ©": 7999,
      "ald": 8000,
      "èħĵçī¹çĥĪ": 8001,
      "çļĦæľºä¼ļ": 8002,
      "ä¸»ç®¡": 8003,
      "ç§ĳä¼ļè¯ķ": 8004,
      "è°ĪåĪ¤": 8005,
      "ail": 8006,
      "ä»ĸæĽ¾": 8007,
      "æŃ£ä¹ī": 8008,
      "æľºåĬ¨": 8009,
      "ä¸ľåĮº": 8010,
      "è¿Ļåľº": 8011,
      "åŀĭæľºè½¦": 8012,
      "çīĩå°¾": 8013,
      "MA": 8014,
      "ĠQ": 8015,
      "çĳ¶": 8016,
      "éĢģåĪ°": 8017,
      "æ²ĥå°Ķ": 8018,
      "ä¸Ģåıª": 8019,
      "åĴĮä»ĸçļĦ": 8020,
      "Ġå£°": 8021,
      "è´ª": 8022,
      "æ£ĭåŃĲ": 8023,
      "Ġæ³¨": 8024,
      "ä¸¢": 8025,
      "å¯ħ": 8026,
      "é©¬å¾·éĩĮ": 8027,
      "åķ¦": 8028,
      "ä¼Ĭæĭīåħĭ": 8029,
      "åĽŃåĮº": 8030,
      "Ġåħī": 8031,
      "ç¬¬åįģ": 8032,
      "eter": 8033,
      "ç¿Įå¹´": 8034,
      "éħ°": 8035,
      "åħ±è®¡": 8036,
      "éĥ¡çİĭ": 8037,
      "å·¦ç¿¼": 8038,
      "Ġ1991": 8039,
      "ç¥Ńç¥Ģ": 8040,
      "çĬ¹å¤ªäºº": 8041,
      "çģ°èī²": 8042,
      ")ï¼Ī": 8043,
      "éħ±": 8044,
      "ä¸Ģå¤©": 8045,
      "åĩºæĿ¥çļĦ": 8046,
      "å·¥åķĨ": 8047,
      "1500": 8048,
      "ä¹ĭéĻħ": 8049,
      "éķ¿æĺ¥": 8050,
      "å¤ļæł·": 8051,
      "å¸ĪèĮĥå¤§åŃ¦": 8052,
      "ĠĠĊ": 8053,
      "åĽ´ç»ķ": 8054,
      "ä¿ĿåĬłåĪ©äºļ": 8055,
      "çī§å¸Ī": 8056,
      "å¹´ä¸Ń": 8057,
      "åŃĲåħ¬åı¸": 8058,
      "ĠæĻ®": 8059,
      "åĢ¾åĲĳ": 8060,
      "è¿ĻæĹ¶": 8061,
      "æ¸¸æĪıä¸Ń": 8062,
      "è·¯ä¸Ĭ": 8063,
      "æĹ©æľŁçļĦ": 8064,
      "å¹´çĲĥåŃ£": 8065,
      "åı¸æľº": 8066,
      "æĹ§åĿĢ": 8067,
      "IP": 8068,
      "åĵº": 8069,
      "åľ£è¯ŀ": 8070,
      "åĩºçİ°çļĦ": 8071,
      "ä¸įåıĺ": 8072,
      "ä¹ĭåĲį": 8073,
      "å¨ģå°¼æĸ¯": 8074,
      "æľĶ": 8075,
      "æ°¸è¿ľ": 8076,
      "æī§æķĻ": 8077,
      "æ±¤å§Ĩ": 8078,
      "çĻ»è®°": 8079,
      "éĺ¶çº§": 8080,
      "æł½": 8081,
      "å¯»æ±Ĥ": 8082,
      "Ġèĭ±åĽ½": 8083,
      "å¤©æ°Ķ": 8084,
      "æĬĢå·§": 8085,
      "åĭ¾": 8086,
      "å¯Įæ±Ĺ": 8087,
      "éĩįç»Ħ": 8088,
      "å§ĭäºİ": 8089,
      "è§Ĥçľĭ": 8090,
      "æ¬º": 8091,
      "çĭ®åŃĲ": 8092,
      "æľīä¸¤ä¸ª": 8093,
      "èµĽé©¬": 8094,
      "å§Ķä¹¦è®°": 8095,
      "çº¿ä¸Ĭ": 8096,
      "æĴŃæĺł": 8097,
      "çħĮ": 8098,
      "å¹´æľŁéĹ´": 8099,
      "å¤©æ´¥å¸Ĥ": 8100,
      "çŃĭ": 8101,
      "çī¹å°Ķ": 8102,
      "èĬĤå¥ı": 8103,
      "æ¸ħä»£": 8104,
      "åħĭæĸ¯åĿ¦": 8105,
      "çĽĴ": 8106,
      "å¼Ģå§ĭåľ¨": 8107,
      "è´¹å°Ķ": 8108,
      "ç»Ŀå¯¹": 8109,
      "è¡įçĶŁ": 8110,
      "åı²å¯Ĩæĸ¯": 8111,
      "æĺ¯ä¸Ģå®¶": 8112,
      "å¥¹æĺ¯": 8113,
      "ä¾¦æİ¢": 8114,
      "ek": 8115,
      "åĪĨæĪĲ": 8116,
      "ä¸ľæ±ī": 8117,
      "éĢĶå¾Ħ": 8118,
      "ĠæĪĲ": 8119,
      "åĲįèªī": 8120,
      "åı¯åľ¨": 8121,
      "å½ķåĪ¶": 8122,
      "åį°ç¬¬": 8123,
      "ä¹ĭåľ°": 8124,
      "æĹ¥æľ¬çļĦ": 8125,
      "ress": 8126,
      "èµĽçļĦ": 8127,
      "æīĭä¸Ń": 8128,
      "åįģåħŃå¹´": 8129,
      "åĪ¶åĵģ": 8130,
      "æĢ»æķĻåĮº": 8131,
      "åħĪéĶĭ": 8132,
      "è¿ªäºļ": 8133,
      "å¥¥æĸ¯æĽ¼": 8134,
      "æľīä¸¤": 8135,
      "çĤ³": 8136,
      "æıĲè®®": 8137,
      "çĶ²çº§èģĶèµĽ": 8138,
      "åķ¤éħĴ": 8139,
      "è´¨çĸĳ": 8140,
      "é±¼éĽ·": 8141,
      "ä¼¦æĸ¯": 8142,
      "å½ķå½±": 8143,
      "ä¹łæĥ¯": 8144,
      "åĨ³èµĽä¸Ń": 8145,
      "æĢ§åĴĮ": 8146,
      "é¦ĸé¢Ĩ": 8147,
      "æĹ¥è¯Ń": 8148,
      "ĠåĪĿ": 8149,
      "éĩĮæĺĤ": 8150,
      "æĶ¿åįı": 8151,
      "ç¡ķå£«åŃ¦ä½į": 8152,
      "Ã¶": 8153,
      "å¥ķ": 8154,
      "çĶ±è¯¥": 8155,
      "æ¼Ĩ": 8156,
      "æĢ»å±Ģ": 8157,
      "ä¼łåĬ¨": 8158,
      "ank": 8159,
      "ĠæĪªèĩ³": 8160,
      "å¡Į": 8161,
      "è¡ĹåºĦ": 8162,
      "âĦĥ": 8163,
      "El": 8164,
      "ç»§ä»»": 8165,
      "ä¸»æķĻåº§åłĤ": 8166,
      "çī©çĲĨåŃ¦": 8167,
      "åħĭåĪ©": 8168,
      "è®¤è¯ģ": 8169,
      "Ñĸ": 8170,
      "èĽ®": 8171,
      "åĪĹåĩº": 8172,
      "æĽ´æį¢": 8173,
      "çłĶåĪ¶": 8174,
      "æııåĨĻ": 8175,
      "æĺ¯èĭ±åĽ½": 8176,
      "æ¢ĵ": 8177,
      "ä¼ĬåĪ©": 8178,
      "åĨįè½¬": 8179,
      "ä¼ĳæģ¯": 8180,
      "çĹħéĢĿ": 8181,
      "è®¸åı¯": 8182,
      "å¹²éĥ¨": 8183,
      "åºĲ": 8184,
      "åĸ»": 8185,
      "èĲĮ": 8186,
      "åĽ¢éķ¿": 8187,
      "ç§ģç«ĭ": 8188,
      "åĲİæĸ¹": 8189,
      "èĩ´åĬĽ": 8190,
      "åģĩè®¾": 8191,
      "æ·»åĬł": 8192,
      "åĩŃåĢŁ": 8193,
      "æĶ¾éĢģ": 8194,
      "Ġä½Ĳ": 8195,
      "è¿Ļéĥ¨": 8196,
      "ĠåıĮ": 8197,
      "ç§°ä¹ĭä¸º": 8198,
      "Î¿": 8199,
      "äºĳåįĹçľģ": 8200,
      "åľºçļĦ": 8201,
      "ä¹ĲåĽŃ": 8202,
      "å½Ĺ": 8203,
      "åĪĻæľī": 8204,
      "ru": 8205,
      "èĥĢ": 8206,
      "åį°ç¬¬å®ī": 8207,
      "ä¸ĢçŃī": 8208,
      "æĪĺä¸Ń": 8209,
      "å·ŀéķ¿": 8210,
      "ein": 8211,
      "Ġåĩ¯": 8212,
      "è¯Ľ": 8213,
      "1919": 8214,
      "çĲĨçĶ±": 8215,
      "åĲįåı«": 8216,
      "Ġå»º": 8217,
      "å»¿": 8218,
      "æŁľ": 8219,
      "å¤ºåıĸ": 8220,
      "æłĩé¢ĺ": 8221,
      "æĭľåįł": 8222,
      "éĢīæĭĶ": 8223,
      "å¹´ä¸Ĭæĺł": 8224,
      "æĭ¯": 8225,
      "éĽģ": 8226,
      "æīĺå°Ķ": 8227,
      "Ġ#": 8228,
      "è§ĦèĮĥ": 8229,
      "Ġåı¦å¤ĸ": 8230,
      "çĻ¸": 8231,
      "æ²³éģĵ": 8232,
      "å£°æĺİ": 8233,
      "æĹ¶éĴĪ": 8234,
      "na": 8235,
      "Ġä¸ĩ": 8236,
      "IR": 8237,
      "ä¸İæŃ¤": 8238,
      "ä½Ĩåį´": 8239,
      "Ġst": 8240,
      "æĶ¶åĪ°": 8241,
      "çĳľ": 8242,
      "èįīåİŁ": 8243,
      "åıĳçĶŁäºĨ": 8244,
      "ä¾Ŀèµĸ": 8245,
      "112": 8246,
      "åĲĮæĢ§": 8247,
      "æĸ¯åĽ¾": 8248,
      "åīįæĿ¥": 8249,
      "å±ĭé¡¶": 8250,
      "åıĤè°ĭéķ¿": 8251,
      "Ġåħ¬": 8252,
      "æĭħå¿ĥ": 8253,
      "ĠBl": 8254,
      "illiam": 8255,
      "Ġï¼ī": 8256,
      "ä¿¡å¾Ĵ": 8257,
      "ä¸ĵåĮº": 8258,
      "ä¼ģåĽ¾": 8259,
      "å®½åº¦": 8260,
      "è·ĳéģĵ": 8261,
      "åıĬåĲİ": 8262,
      "åĽĽå¤§": 8263,
      "å¤ĸè§Ĥ": 8264,
      "å½¼æŃ¤": 8265,
      "Ġå¤ı": 8266,
      "å°Ĩäºİ": 8267,
      "æķ°çļĦ": 8268,
      "èº«äº¡": 8269,
      "lex": 8270,
      "åĲıéĥ¨": 8271,
      "Ġåı¶": 8272,
      "ĠæĪĺåĲİ": 8273,
      "æĭ¿çł´": 8274,
      "æĦ¿æĦı": 8275,
      "ç¼Ķ": 8276,
      "çĦ°": 8277,
      "åıĳçİ°äºİ": 8278,
      "ç«ĻæĪ¿": 8279,
      "æĹ¨åľ¨": 8280,
      "æĹ¥åıĳè¡Į": 8281,
      "æĪĲæŀľ": 8282,
      "ä¸ľè·¯": 8283,
      "å¯ĨåĪĩ": 8284,
      "ç½ķé»ĺ": 8285,
      "EC": 8286,
      "çº³åħ¥": 8287,
      "æī§æĶ¿": 8288,
      "ç«ĭæĸ¹ç±³": 8289,
      "com": 8290,
      "å¹´æ¬§æ´²": 8291,
      "1929": 8292,
      "è°¨": 8293,
      "å¤¸": 8294,
      "ä¸ºæĸ°": 8295,
      "å¤ªç¥ĸ": 8296,
      "æīĵå¼Ģ": 8297,
      "ĠéĽ·": 8298,
      "ä¿¡éķ¿": 8299,
      "æĻºèĥ½": 8300,
      "ç±»ä¼¼çļĦ": 8301,
      "ount": 8302,
      "éĶ¯": 8303,
      "ç»ĵå±Ģ": 8304,
      "çŁ³å¤´": 8305,
      "å§Ķä»»": 8306,
      "æ¤Ń": 8307,
      "æĻºåĪ©": 8308,
      "åĨ·åį´": 8309,
      "çĶ¨ä»¥": 8310,
      "æ¹Ľ": 8311,
      "å¹¿å·ŀå¸Ĥ": 8312,
      "è½¬æĬķ": 8313,
      "å®Ĺå®¤": 8314,
      "å»¶ç»Ń": 8315,
      "å°±è¯»äºİ": 8316,
      "çŁ¿çī©": 8317,
      "ç¿°æŀĹéĻ¢": 8318,
      "è¿ŀç»ĵ": 8319,
      "å¹´æĪĲç«ĭ": 8320,
      "å½¬": 8321,
      "é«ĺåİŁ": 8322,
      "äºļå½ĵ": 8323,
      "è¯´æĺ¯": 8324,
      "å¨ģå¤·": 8325,
      "Ñı": 8326,
      "ç»Ħç»ĩçļĦ": 8327,
      "æľĢæľī": 8328,
      "åľ¨ä½į": 8329,
      "å°Ĩä»ĸ": 8330,
      "åľ¨ä»ĸçļĦ": 8331,
      "é©¬åĬĽ": 8332,
      "çļĦåľ°ä½į": 8333,
      "æ©ĺ": 8334,
      "æĺ¯ä¸Ńåįİäººæ°ĳåħ±åĴĮåĽ½": 8335,
      "è°ķ": 8336,
      "Ìĥ": 8337,
      "ç»¥": 8338,
      "åħ³èĬĤ": 8339,
      "ä½Ľç½ĹéĩĮè¾¾": 8340,
      "æķ°åįģ": 8341,
      "éª¨éª": 8342,
      "ä»ħæ¬¡äºİ": 8343,
      "è¯¥çī©ç§įçļĦæ¨¡å¼ıäº§åľ°": 8344,
      "åĸľçĪ±": 8345,
      "éĩĩçĶ¨äºĨ": 8346,
      "æĭ¿çł´ä»ĳ": 8347,
      "ãĥı": 8348,
      "å§Ĳå§Ĳ": 8349,
      "IG": 8350,
      "åıĸå¾ĹäºĨ": 8351,
      "è·¯å¾·": 8352,
      "æµģéĩı": 8353,
      "å¹´ä»¥æĿ¥": 8354,
      "å©ļç¤¼": 8355,
      "çļĦæĦıæĢĿ": 8356,
      "åľ¨åįĹ": 8357,
      "å¤±è¸ª": 8358,
      "1928": 8359,
      "éĵģè·¯è½¦ç«Ļ": 8360,
      "å¹´çĶµå½±": 8361,
      "å½±å±ķ": 8362,
      "Î²": 8363,
      "çĳļ": 8364,
      "å©·": 8365,
      "SP": 8366,
      "å¹¶æľī": 8367,
      "åıĤæĶ¿": 8368,
      "è¯ºè´Ŀå°Ķ": 8369,
      "åİī": 8370,
      "æĹ¥å¸¸": 8371,
      "æľºç»Ħ": 8372,
      "çĵ£": 8373,
      "ç»§ä½į": 8374,
      "çĩ¥": 8375,
      "Ġç»ıåİĨ": 8376,
      "çļĦåĲįç§°": 8377,
      "è¡Įé©¶": 8378,
      "åĲĮæŃ¥": 8379,
      "å¾Ĺä¸»": 8380,
      "èĤ¿çĺ¤": 8381,
      "1922": 8382,
      "æŃ¤äºĭ": 8383,
      "ãĤĨ": 8384,
      "åŀ©": 8385,
      "Ġæ³¢": 8386,
      "æĹ¥è¢«": 8387,
      "åİ¿çŁ¥åİ¿": 8388,
      "å®£ç§°": 8389,
      "çªģåĩ»": 8390,
      "åľ°ä¸Ńæµ·": 8391,
      "çº³æĸ¯": 8392,
      "éĵ¶çīĮ": 8393,
      "åŃ¦éĥ¨": 8394,
      "æŃ¤åī§": 8395,
      "ä¹ĭåĲİçļĦ": 8396,
      "æľºåĻ¨äºº": 8397,
      "è§Ĥèµı": 8398,
      "åĵĪåĪ©": 8399,
      "åĨ¥": 8400,
      "å¦Ĩ": 8401,
      "æ¬¡åĪĹè½¦": 8402,
      "å¼§": 8403,
      "ç²ĺ": 8404,
      "åĽ½ä¸Ń": 8405,
      "Ġæľ¨": 8406,
      "ç«ĸ": 8407,
      "ä¸ģåł¡": 8408,
      "eor": 8409,
      "çĥ¦": 8410,
      "çĤ¹çļĦ": 8411,
      "èģļéĽĨ": 8412,
      "æĻ¶ä½ĵ": 8413,
      "åĪĨåĮº": 8414,
      "ç©Ĩç½ķé»ĺ": 8415,
      "åģľè½¦åľº": 8416,
      "ä¸ĬéĿ¢": 8417,
      "æµªæ¼«": 8418,
      "è£Ķç¾İåĽ½": 8419,
      "åı¤èĢģçļĦ": 8420,
      "åħīè°±": 8421,
      "æł¹æľ¬": 8422,
      "è¿½æ±Ĥ": 8423,
      "åĿĲèĲ½": 8424,
      "æĽ¾ä¸º": 8425,
      "éĻĲå®ļ": 8426,
      "ç»ĥä¹ł": 8427,
      "Ġéĺ¿å°Ķ": 8428,
      "åĮĹå®ĭ": 8429,
      "åĮ»èį¯": 8430,
      "å·¥ä½ľäººåĳĺ": 8431,
      "å·´èµ«": 8432,
      "åĳ¨åĪĬ": 8433,
      "ç§ŁçķĮ": 8434,
      "FC": 8435,
      "åħ°å·ŀ": 8436,
      "äºīåıĸ": 8437,
      "äºĴåĬ¨": 8438,
      "å¦Īå¦Ī": 8439,
      "Fran": 8440,
      "èµĽåĨłåĨĽ": 8441,
      "è°¢å°Ķ": 8442,
      "çĽ²": 8443,
      "åīĮ": 8444,
      "åĬ¨å·¥": 8445,
      "olog": 8446,
      "å¿«ä¹Ĳ": 8447,
      "1931": 8448,
      "åĴ¸ä¸°": 8449,
      "è°£": 8450,
      "ä½Ĩä¸į": 8451,
      "ä¿®æŃ£": 8452,
      "é¢Ħæµĭ": 8453,
      "ä¼ĲåĪ©äºļ": 8454,
      "åħ¨åı°": 8455,
      "åŀĭåı·": 8456,
      "æĹıç¾¤": 8457,
      "æŃ»åİ»": 8458,
      "éĽĦæĢ§": 8459,
      "ç»ŃéĽĨ": 8460,
      "æĲºå¸¦": 8461,
      "çļĦå¦»åŃĲ": 8462,
      "èĩªæŃ¤": 8463,
      "å®ĥåľ¨": 8464,
      "ase": 8465,
      "ç§»å±ħ": 8466,
      "åĪĨè§£": 8467,
      "æµ·çĽĹ": 8468,
      "æ³ķä»¤": 8469,
      "è¾ĥé«ĺ": 8470,
      "Pro": 8471,
      "âĢ»": 8472,
      "å®¿èĪį": 8473,
      "ĠåİĨ": 8474,
      "å¤ļé¡¹": 8475,
      "æĹ©åľ¨": 8476,
      "åįģäºĮåİħ": 8477,
      "Ġä¹Į": 8478,
      "åĬłä»¥": 8479,
      "æĭĽçĶŁ": 8480,
      "åĨĽåľ¨": 8481,
      "éģĵå¾·": 8482,
      "âĢĶâĢĶãĢĬ": 8483,
      "è¯ĨåĪ«": 8484,
      "å½¢çĽ®": 8485,
      "ç¦ıå·ŀ": 8486,
      "Ġ1980": 8487,
      "ert": 8488,
      "æľºæŀª": 8489,
      "æĺİæĺ¾çļĦ": 8490,
      "ĠçľŁ": 8491,
      "åĬłåĭĴ": 8492,
      "åĲīä»ĸ": 8493,
      "ç¡¬æ£ĺ": 8494,
      "åĴĮå¤§": 8495,
      "Ġ1988": 8496,
      "åĪĽä½ľçļĦ": 8497,
      "æĹ¶åĪ»": 8498,
      "æĶ»åįł": 8499,
      "ç»°": 8500,
      "å½±åĥı": 8501,
      "è½¬ä¸º": 8502,
      "è®¤ä¸ºæĺ¯": 8503,
      "çİ°å·²": 8504,
      "ĠçĶŁæĢģ": 8505,
      "éģŃåıĹ": 8506,
      "å¹´äºİ": 8507,
      "åįĹå®ĭ": 8508,
      "ç»ıçºª": 8509,
      "1903": 8510,
      "å¹³å®ī": 8511,
      "ä»£çłģ": 8512,
      "ins": 8513,
      "çĻ¾å¹´": 8514,
      "çĭ¬çī¹çļĦ": 8515,
      "å¹¸åŃĺ": 8516,
      "æĺĨæĺİ": 8517,
      "çºĤ": 8518,
      "Ġä¿±ä¹Ĳéĥ¨": 8519,
      "çī¹æĢ§": 8520,
      "èı²åĪ©æĻ®": 8521,
      "Ñĭ": 8522,
      "åĩºèī²": 8523,
      "çī¹åĮº": 8524,
      "éĺŁåľ¨": 8525,
      "è¾½å®ģçľģ": 8526,
      "æĭľåįłåºŃ": 8527,
      "éĩĮéĿ¢": 8528,
      "åİ¿åŁİ": 8529,
      "æ´ĭåŁº": 8530,
      "éĥĳå·ŀ": 8531,
      "éķľå¤´": 8532,
      "ä¼Ĳåħĭ": 8533,
      "åĬĽåŃ¦": 8534,
      "é»Ħæ²³": 8535,
      "åĬłåĪ©ç¦ıå°¼äºļå·ŀ": 8536,
      "åĳ½è¿Ĳ": 8537,
      "å§ĵæ°ı": 8538,
      "Ã³": 8539,
      "åĪł": 8540,
      "æĹ¥ä¸¾è¡Į": 8541,
      "å¸ĥåħ°": 8542,
      "æĢ»ç»ıçĲĨ": 8543,
      "MS": 8544,
      "ãĥĳ": 8545,
      "åĲĹ": 8546,
      "å¥¥åı¤": 8547,
      "ĠåĮĹäº¬": 8548,
      "ä½£": 8549,
      "ãĤį": 8550,
      "å¼Ĺåħ°": 8551,
      "åŃĺåľ¨äºİ": 8552,
      "éĽĨåĽ¢æľīéĻĲåħ¬åı¸": 8553,
      "åİ»ä¸ĸåĲİ": 8554,
      "å¥ĸçīĮ": 8555,
      "äº§çĶŁäºĨ": 8556,
      "ĠåĽ½": 8557,
      "çī©ä½ĵ": 8558,
      "Ġäººçī©": 8559,
      "å¥´éļ¶": 8560,
      "çĲīçĲĥ": 8561,
      "ç¼¸": 8562,
      "æ»¤": 8563,
      "èĲ¨æĸ¯å·ŀ": 8564,
      "èĲ¨åħĭæ£®": 8565,
      "ç½©": 8566,
      "æĭīçļĦ": 8567,
      "è½¬åĲĳæŀ¶": 8568,
      "ve": 8569,
      "ç¬ł": 8570,
      "å°±ä»»": 8571,
      "eng": 8572,
      "ä¸Ģéĥ¨åĪĨ": 8573,
      "èį«": 8574,
      "ance": 8575,
      "æľ¬åĲį": 8576,
      "å¤ªå®Ĺ": 8577,
      "åģļä¸º": 8578,
      "å½»åºķ": 8579,
      "çļĦåĽ½éĻħ": 8580,
      "çģŃäº¡": 8581,
      "äºļç¾İå°¼äºļ": 8582,
      "æ´»æĢ§": 8583,
      "æ··åĩĿ": 8584,
      "ä¹ŁåĽłæŃ¤": 8585,
      "æ¬¡éĥİ": 8586,
      "ott": 8587,
      "Ġåıĳè¡Į": 8588,
      "ç§©": 8589,
      "åħ¶é¡¿": 8590,
      "å°ºå¯¸": 8591,
      "çļĦç»ĵæŀľ": 8592,
      "int": 8593,
      "ä¼Ĺäºº": 8594,
      "åĩºåĵģ": 8595,
      "åĪĨåī²": 8596,
      "æĺ¯ä¸į": 8597,
      "èµĶ": 8598,
      "æĪĺç»©": 8599,
      "åĸĩ": 8600,
      "sch": 8601,
      "äºĭæĥħ": 8602,
      "éĢļçŁ¥": 8603,
      "å¹´åº¦æľĢä½³": 8604,
      "ä¼ļè®¡": 8605,
      "æĳĺ": 8606,
      "ĠéĥŃ": 8607,
      "åĮĹå¸Ĥ": 8608,
      "ĠéĻ¤äºĨ": 8609,
      "ä¸īä½į": 8610,
      "éĺ¿å¯Įæ±Ĺ": 8611,
      "PC": 8612,
      "å®ļä½į": 8613,
      "æĶ¾å°Ħ": 8614,
      "è°ĥèĬĤ": 8615,
      "æĽ¿è¡¥": 8616,
      "ç²ĴåŃĲ": 8617,
      "è®¾åľ¨": 8618,
      "å®Įæķ´çļĦ": 8619,
      "åĽ¢çļĦ": 8620,
      "æĴŃåĩºçļĦ": 8621,
      "ä¼įå¾·": 8622,
      "And": 8623,
      "æłĸæģ¯åľ¨": 8624,
      "ĠåĽł": 8625,
      "ä¸Ģèĩ³": 8626,
      "çŃīå¾ħ": 8627,
      "äººæ°Ķ": 8628,
      "æīĢéľĢ": 8629,
      "å¹´è½»çļĦ": 8630,
      "çĶµæ°ĶåĮĸ": 8631,
      "ï¹": 8632,
      "Ġéº¦": 8633,
      "å©´åĦ¿": 8634,
      "å¼ºå¤§çļĦ": 8635,
      "é¥ŃåºĹ": 8636,
      "åĵ©": 8637,
      "å¤ļä¸º": 8638,
      "åĪĹå®ģ": 8639,
      "ç²®é£Ł": 8640,
      "ç§ī": 8641,
      "åħ·å¤ĩ": 8642,
      "æĲŀ": 8643,
      "éĴ¢éĵģ": 8644,
      "áŀ": 8645,
      "æ°ĶæĹĭ": 8646,
      "ĠMus": 8647,
      "è¯¸èĳĽ": 8648,
      "é«ĺäºİ": 8649,
      "å®Įç¾İ": 8650,
      "ä¼¯æł¼": 8651,
      "Com": 8652,
      "ä¸ĬåįĬ": 8653,
      "æı´åĬ©": 8654,
      "çİ«çĳ°": 8655,
      "é¦ĸå°Ķ": 8656,
      "é»İæĺİ": 8657,
      "æŀ¢æľº": 8658,
      "åŁł": 8659,
      "ä¸īæ¬¡": 8660,
      "éĤ¨": 8661,
      "ç°§": 8662,
      "éĤ¸": 8663,
      "Ġæ¯ı": 8664,
      "æĪĺè´¥": 8665,
      "å¢©": 8666,
      "åįĹè·¯": 8667,
      "åĪ©çī©": 8668,
      "èĩªè¡Įè½¦": 8669,
      "çļĦå±±": 8670,
      "æĹıèĩªæ²»": 8671,
      "pt": 8672,
      "éĽ¯": 8673,
      "é¦ĸæī¹": 8674,
      "å®«æ®¿": 8675,
      "æķĪçİĩ": 8676,
      "éĴ©": 8677,
      "èŁ¹": 8678,
      "åİĦå°Ķ": 8679,
      "èµ£": 8680,
      "è¯ĹæŃĮ": 8681,
      "æĽ´æĺ¯": 8682,
      "çĭ¸": 8683,
      "ĠèĲ¨": 8684,
      "çļĦåŃ¦çĶŁ": 8685,
      "å°±æľī": 8686,
      "è¯»ä¹¦": 8687,
      "ç§ŁåĢŁ": 8688,
      "æľ¬æĿ¥": 8689,
      "æĪĸç§°": 8690,
      "è®¼": 8691,
      "æİ¥ä»»": 8692,
      "çĽ´å±ŀ": 8693,
      "åĵºä¹³": 8694,
      "æ··åĩĿåľŁ": 8695,
      "æŃ¤åľ°": 8696,
      "ET": 8697,
      "åıĤè®®éĻ¢": 8698,
      "éĽ·è¾¾": 8699,
      "éħįä¹Ĳ": 8700,
      "è½¬ä»»": 8701,
      "è´¹åŁİ": 8702,
      "åĩłåĨħäºļ": 8703,
      "1900": 8704,
      "åĽłåŃĲ": 8705,
      "ç«Ļèĩ³": 8706,
      "äººæ°ĳæ³ķéĻ¢": 8707,
      "å§Ķåĳĺä¼ļå§Ķåĳĺ": 8708,
      "1927": 8709,
      "æīĭæŀª": 8710,
      "æ´ªæ°´": 8711,
      "ä»ĸå¯¹": 8712,
      "å¦¾": 8713,
      "éĥ½ä¸į": 8714,
      "æıĲåīį": 8715,
      "ä½¿èĢħ": 8716,
      "æĪ¿åŃĲ": 8717,
      "Ġ1989": 8718,
      "æ²³åı£": 8719,
      "æĸ¯åľ¨": 8720,
      "æĶ¹è£ħ": 8721,
      "ä¾Ľå¥ī": 8722,
      "æĿ¿åĿĹ": 8723,
      "1924": 8724,
      "éĩĮå¥¥": 8725,
      "è¾ĵåĩº": 8726,
      "è´Ńçī©": 8727,
      "å¹´åĬłåħ¥": 8728,
      "ä¸ºå¤§": 8729,
      "æľĪåºķ": 8730,
      "ç¬¬äºĮä¸ª": 8731,
      "åĥıæĺ¯": 8732,
      "å®Īå¤ĩ": 8733,
      "ä¹ĭæĹ¶": 8734,
      "åħīç¦Ħ": 8735,
      "ä¹ĭä¸Ĭ": 8736,
      "æĸ¹å½¢": 8737,
      "å¥³äºº": 8738,
      "è°ı": 8739,
      "æł¡èĪį": 8740,
      "å¤įä»ĩ": 8741,
      "Ġåı²": 8742,
      "ä¸ĸçķĮçļĦ": 8743,
      "ç¤ºèĮĥ": 8744,
      "æĻ¯è§Ĥ": 8745,
      "åįģä¸ĥå¹´": 8746,
      "éĹ¹": 8747,
      "åĬ²çĪĨ": 8748,
      "èģĶç½ĳ": 8749,
      "æľĢåĲİçļĦ": 8750,
      "æ¡£æ¡Ī": 8751,
      "ade": 8752,
      "åİŁä½ľ": 8753,
      "é¦ĸæĺł": 8754,
      "Ġè´Ŀ": 8755,
      "æ¯įèĪ°": 8756,
      "çİĭå®¤": 8757,
      "éºĵ": 8758,
      "æ·±åħ¥": 8759,
      "Ġèİ«": 8760,
      "éĿ¢åĲĳ": 8761,
      "cm": 8762,
      "Ġç»´": 8763,
      "éĢ¾": 8764,
      "åħŃä¸ª": 8765,
      "ä¸ĸçºªæľ«": 8766,
      "æ¼³": 8767,
      "ç¨½": 8768,
      "æĲŃæ¡£": 8769,
      "å®¦": 8770,
      "çĶµè·¯": 8771,
      "çĻ½åŀ©": 8772,
      "ä»¥åħ¶": 8773,
      "æ·ĭ": 8774,
      "çĩĥçĥ§": 8775,
      "æĢ»åĨ³èµĽ": 8776,
      "çĮ©": 8777,
      "è¿½æº¯åĪ°": 8778,
      "åŃ¢": 8779,
      "ä¸¥éĩįçļĦ": 8780,
      "æº¶æ¶²": 8781,
      "ĠâĨĴ": 8782,
      "çĽ¸ç»§": 8783,
      "çļĦå®¶": 8784,
      "itt": 8785,
      "éĥ¨ç½²": 8786,
      "å¢ħ": 8787,
      "ef": 8788,
      "éĻĩ": 8789,
      "éĢļå¸¸æĺ¯": 8790,
      "æļ´åĬĽ": 8791,
      "éĽįæŃ£": 8792,
      "åĮĹç¾İæ´²": 8793,
      "ä½ĵéªĮ": 8794,
      "æĿĳåĲĪå¹¶ä¸º": 8795,
      "æ´Ľä¼Ĭ": 8796,
      "åĪ©çī©æµ¦": 8797,
      "En": 8798,
      "çķı": 8799,
      "ç¦¾": 8800,
      "éŁ³ä¹Ĳä¼ļ": 8801,
      "ĠåĽ½å®¶": 8802,
      "çļĦç¬¬ä¸ī": 8803,
      "çīĽæ´¥": 8804,
      "åį¢çĵ¦å°Ķçľģ": 8805,
      "Bl": 8806,
      "Ã¤": 8807,
      "åľ°å½¢": 8808,
      "æĢ»äººåı£": 8809,
      "éľī": 8810,
      "ä½įäºİè¯¥": 8811,
      "ĠæĿľ": 8812,
      "å¼ĢåĲ¯": 8813,
      "æĭīå¤ļ": 8814,
      "æ°´åŁŁ": 8815,
      "æ±īè¯Ń": 8816,
      "æĸŃå±Ĥ": 8817,
      "èħ¹éĥ¨": 8818,
      "éĩįçĤ¹æĸĩçī©ä¿ĿæĬ¤åįķä½į": 8819,
      "åľ¨åīį": 8820,
      "æĹ©ä¸Ĭ": 8821,
      "ç©Ĩç½ķé»ĺå¾·": 8822,
      "çĶµæ±ł": 8823,
      "è¶¾": 8824,
      "anc": 8825,
      "130": 8826,
      "ç¤¼éĥ¨": 8827,
      "æİĮæı¡": 8828,
      "ler": 8829,
      "ĠæķĻèĤ²": 8830,
      "åĪ¶åĬ¨": 8831,
      "éĤ£ä¸ª": 8832,
      "éĽĨåĽ¢åĨĽ": 8833,
      "ä¸Ģå¼Ģå§ĭ": 8834,
      "è¿·ä½ł": 8835,
      "own": 8836,
      "Ġå¤©ä¸»æķĻ": 8837,
      "Ġçİ°": 8838,
      "éģĵçļĦ": 8839,
      "æĬĢèĥ½": 8840,
      "åĩ»è´¥äºĨ": 8841,
      "åľ¨å½ĵæĹ¶": 8842,
      "ä¸ĭæĿ¥çļĦ": 8843,
      "æĺ¯å¤§": 8844,
      "é¥¥": 8845,
      "å§Ķåĳĺä¼ļä¸»å¸Ń": 8846,
      "èī¯å¥½": 8847,
      "æıĲåĩºäºĨ": 8848,
      "æİĴåĲįç¬¬": 8849,
      "çļĦå»ºçŃĳ": 8850,
      "ä¸īå¤§": 8851,
      "ç½Ĺå¤«": 8852,
      "è°ľ": 8853,
      "çĪ½": 8854,
      "è¦ģå¡ŀ": 8855,
      "è¯¥åľ°åĮº": 8856,
      "æ±Łè¥¿çľģ": 8857,
      "ç¾İåĽ½æµ·åĨĽ": 8858,
      "çħ®": 8859,
      "éĺ²ç©º": 8860,
      "çĶŁäº§çļĦ": 8861,
      "åįĹæµ·": 8862,
      "éĵľçīĮ": 8863,
      "çĻĮçĹĩ": 8864,
      "ĠâĢĶ": 8865,
      "æ¸Ĳæ¸Ĳ": 8866,
      "äºĭè®°": 8867,
      "çļĦå¯¹": 8868,
      "æ²§": 8869,
      "åħ¬æ¼Ķ": 8870,
      "çľŁèıĮ": 8871,
      "æľĢå¤ļçļĦ": 8872,
      "ren": 8873,
      "æ°´ä¸Ń": 8874,
      "æĹłéĻĲ": 8875,
      "é²Ī": 8876,
      "åı¯ä»¥æĮĩ": 8877,
      "ä¼Ĭæĸ¯åħ°æķĻ": 8878,
      "åįłåľ°éĿ¢ç§¯": 8879,
      "ä¸ºåŁºç¡Ģ": 8880,
      "éĥ¨éĥ¨éķ¿": 8881,
      "å¤©ä½ĵ": 8882,
      "è¥¿è·¯": 8883,
      "èº«é«ĺ": 8884,
      "åĽŀçŃĶ": 8885,
      "è¿ľå¾ģ": 8886,
      "éĢĲæŃ¥": 8887,
      "å¤ľéĹ´": 8888,
      "æ¸ħåįİ": 8889,
      "åŃ¦ç³»": 8890,
      "èĨĢ": 8891,
      "ä¸Ĭå°Ĩ": 8892,
      "èİº": 8893,
      "ä¸ĩå¹³æĸ¹ç±³": 8894,
      "ä¸»æĴŃ": 8895,
      "æľŁåĪĬ": 8896,
      "ä½Ĩä»į": 8897,
      "çļĦå¤§åŀĭ": 8898,
      "å®¡æŁ¥": 8899,
      "ĠSchool": 8900,
      "åİ¥": 8901,
      "åĲįè¯į": 8902,
      "Play": 8903,
      "å¾·åħĭ": 8904,
      "å°Ħæīĭ": 8905,
      "åĽ½å®¶è¶³çĲĥéĺŁ": 8906,
      "åľ¨è¿ĻéĩĮ": 8907,
      "åĬ²æŃĮ": 8908,
      "èĵī": 8909,
      "åıĬåħ¶ä»ĸ": 8910,
      "ç£ħ": 8911,
      "å°¼æ³Ĭ": 8912,
      "Ġì": 8913,
      "åıįå°Ħ": 8914,
      "çī©è¯Ń": 8915,
      "åĽŀæĿ¥": 8916,
      "éļĶç¦»": 8917,
      "æīĭæ®µ": 8918,
      "åľ¨åĨħ": 8919,
      "åĳ¨æľ«": 8920,
      "ãĤ»": 8921,
      "å¹³è¡Į": 8922,
      "åĽŀå®¶": 8923,
      "å±ĢçļĦ": 8924,
      "åıĤèµĽèĢħ": 8925,
      "åī©ä½Ļ": 8926,
      "Ro": 8927,
      "ð¬": 8928,
      "åľ¨ç¬¬": 8929,
      "æĸ¯éĩĮ": 8930,
      "æ¡¶": 8931,
      "è¾ĥå°ĳ": 8932,
      "æ£į": 8933,
      "å¤ıå¨ģå¤·": 8934,
      "CH": 8935,
      "èĭ¹æŀľ": 8936,
      "Ġåı¯": 8937,
      "ä¹Łç§°": 8938,
      "åħŃä¸ĸ": 8939,
      "è§ģåĪ°": 8940,
      "çļĦå¥³æĢ§": 8941,
      "å°¼åı¤æĭī": 8942,
      "åį¯": 8943,
      "ç¦¹": 8944,
      "è¯ºæĸ¯": 8945,
      "Ġä¸ºäºĨ": 8946,
      "åĴ¬": 8947,
      "åĨĻçļĦ": 8948,
      "ä¿ĺèĻı": 8949,
      "ä½¿ä»ĸ": 8950,
      "æ»´": 8951,
      "ä¸ĸçķĮå¤§èµĽ": 8952,
      "ä¾Ŀçħ§": 8953,
      "ç±»ä¼¼äºİ": 8954,
      "èĴ¸æ±½": 8955,
      "ä¸īå±Ĥ": 8956,
      "åīĳæ¡¥": 8957,
      "ĠãĢģ": 8958,
      "åĨ¶": 8959,
      "é£İäºĳ": 8960,
      "å¼¹åĬ¾": 8961,
      "æµĵåº¦": 8962,
      "åı¯ä»¥éĢļè¿ĩ": 8963,
      "åĮ»å¸Ī": 8964,
      "æĮīå¯Łä½¿": 8965,
      "å·´æĸ¯": 8966,
      "ä¸Ńå¿ĥçļĦ": 8967,
      "çģµæĦŁ": 8968,
      "æĪĺäºīæľŁéĹ´": 8969,
      "é¡ºæĹ¶éĴĪ": 8970,
      "å£ģçĶ»": 8971,
      "éĴĻ": 8972,
      "å¸¦èĳĹ": 8973,
      "å¹¶æĪĲä¸º": 8974,
      "é¥±": 8975,
      "å¨ģå°Ķæĸ¯": 8976,
      "ĠCo": 8977,
      "å¹´æĭħä»»": 8978,
      "åľ¨æ³ķåĽ½": 8979,
      "ç¦ıå°Ķ": 8980,
      "åı«åģļ": 8981,
      "å¤©æĸĩåŃ¦å®¶": 8982,
      "æ°´çļĦ": 8983,
      "çĹħäºº": 8984,
      "ç¾¤ä½ĵ": 8985,
      "EM": 8986,
      "ä¸ºè¯¥": 8987,
      "çĽ´æµģ": 8988,
      "æ¿Ģç´ł": 8989,
      "å¹´æīį": 8990,
      "å½ĵä½ľ": 8991,
      "æĿ¥æºĲäºİ": 8992,
      "Ġæ¯ĶèµĽ": 8993,
      "å¤§è´¥": 8994,
      "orld": 8995,
      "çĽ¸è¾ĥäºİ": 8996,
      "æľīçº¿": 8997,
      "æĪĺèĪ°": 8998,
      "æĢ»æĺ¯": 8999,
      "ille": 9000,
      "åĪ¶çīĩäºº": 9001,
      "aj": 9002,
      "æĭĺ": 9003,
      "çļĦç¬¬ä¸Ģä¸ª": 9004,
      "ç¦ıçī¹": 9005,
      "å¼ĺæ²»": 9006,
      "1923": 9007,
      "å¤ļä¼¦å¤ļ": 9008,
      "åıĳçĶŁçļĦ": 9009,
      "æĪĲåĬŁçļĦ": 9010,
      "çıĬçĳļ": 9011,
      "è½°çĤ¸æľº": 9012,
      "TA": 9013,
      "ä¸Ģè·¯": 9014,
      "çĶŁç´ł": 9015,
      "å½±ä¸ļ": 9016,
      "åŃ£åĨĽ": 9017,
      "èĴĻå¾·": 9018,
      "æī¬å·ŀ": 9019,
      "...": 9020,
      "å§ĭç»Ī": 9021,
      "æľ¯è¯Ń": 9022,
      "å¢ŀè®¾": 9023,
      "æĵĴ": 9024,
      "oci": 9025,
      "æłĳæľ¨": 9026,
      "æĬĹæĹ¥": 9027,
      "ãĥĢ": 9028,
      "âĶĢâĶĢ": 9029,
      "Ġ;": 9030,
      "åī§åĽ¢": 9031,
      "ä¸ĢçĶŁ": 9032,
      "ä¸¤åº§": 9033,
      "Ã¨": 9034,
      "160": 9035,
      "ĠéŁ©": 9036,
      "æĹ¶æĬ¥": 9037,
      "åī¥": 9038,
      "å±±é¡¶": 9039,
      "çĶµåŃĲæ¸¸æĪı": 9040,
      "å¸Ĥç«ĭ": 9041,
      "è§ģäºİ": 9042,
      "éħµ": 9043,
      "åĥļ": 9044,
      "å¶": 9045,
      "ä¸ŃåİŁ": 9046,
      "æ¸ħçľŁ": 9047,
      "ISBN": 9048,
      "Ġåī¯": 9049,
      "åĲİåĽł": 9050,
      "åĲİåıĪ": 9051,
      "çºªå¿µç¢ĳ": 9052,
      "å¨ģå°Ķå£«": 9053,
      "æ·±åľ³å¸Ĥ": 9054,
      "Am": 9055,
      "ãĥİ": 9056,
      "ä¹¦æ³ķ": 9057,
      "ĠPart": 9058,
      "ĠçĶµè§Ĩ": 9059,
      "ç³Ĭ": 9060,
      "ä¼łæķĻå£«": 9061,
      "çļĦåīįèº«": 9062,
      "æĥ©": 9063,
      "çļĦæĹ¥æľ¬": 9064,
      "çļĦæ¸¸æĪı": 9065,
      "ä¿Ŀå®ī": 9066,
      "Ġ1985": 9067,
      "avid": 9068,
      "é«ĺåľ°": 9069,
      "Ð°Ð½": 9070,
      "éĩĳæĸ¯": 9071,
      "æ°´åĪ©": 9072,
      "æŀľå®ŀ": 9073,
      "ĠçĦ¶èĢĮ": 9074,
      "æ¬¡æķ°": 9075,
      "ä¸Ńå¤®çĶµè§Ĩåı°": 9076,
      "èļģ": 9077,
      "Ad": 9078,
      "äº§çī©": 9079,
      "èĳ¬äºİ": 9080,
      "æĭ¯æķĳ": 9081,
      "çļĦèĢģ": 9082,
      "èī®": 9083,
      "ãĢĤãĢĮ": 9084,
      "éŀį": 9085,
      "åµ©": 9086,
      "å·´å¡ŀ": 9087,
      "å¯¹æĪĺ": 9088,
      "å·´ä¼ĲåĪ©äºļ": 9089,
      "æıĲåĩºçļĦ": 9090,
      "çĭ¬èĩª": 9091,
      "æĺİä»£": 9092,
      "åį³åı¯": 9093,
      "éĽħåĲĦ": 9094,
      "åĤ²": 9095,
      "çĲĨäºĭä¼ļ": 9096,
      "oth": 9097,
      "åĪ©å¥¥": 9098,
      "éĿ¢åĮħ": 9099,
      "éĻįèĲ½": 9100,
      "ç»¼èīºèĬĤçĽ®": 9101,
      "åİŁçĲĨ": 9102,
      "å¸ĪåĽ¢": 9103,
      "æ´ªæŃ¦": 9104,
      "åıĺå½¢": 9105,
      "ÑģÑĤ": 9106,
      "å¹´ç¬¬": 9107,
      "åŃĲå¼¹": 9108,
      "Ġ1986": 9109,
      "DS": 9110,
      "éĩľ": 9111,
      "æŁ¬": 9112,
      "ç»Ļä»ĸ": 9113,
      "æŀģä¸º": 9114,
      "ç½ķè§ģ": 9115,
      "çļĦå¼Ģ": 9116,
      "å¿ĹæĦ¿": 9117,
      "äºĮåįģå¹´": 9118,
      "é³įé±¼": 9119,
      "å½ĵæĹ¥": 9120,
      "èµĽäºĭä¸Ń": 9121,
      "çļĦè¡Įä¸º": 9122,
      "è¥¿åĮº": 9123,
      "éĻ¤æŃ¤ä¹ĭå¤ĸ": 9124,
      "è®½": 9125,
      "æĹ¶è¢«": 9126,
      "åħ¬çº¦": 9127,
      "æĮĩçļĦæĺ¯": 9128,
      "åĲ¬åĪ°": 9129,
      "é©¬åħ¶é¡¿": 9130,
      "äº§éĩı": 9131,
      "åįİè¯Ń": 9132,
      "çŃīçļĦ": 9133,
      "ĠSc": 9134,
      "æ°¨éħ¸": 9135,
      "æķ´åĲĪ": 9136,
      "ild": 9137,
      "ç¡ħ": 9138,
      "æĭ¾": 9139,
      "æķ°çĻ¾": 9140,
      "åŀĭæŁ´æ²¹æľºè½¦": 9141,
      "åĪĻçĶ±": 9142,
      "åħļçļĦ": 9143,
      "åħ¶çĪ¶": 9144,
      "æĮ¤": 9145,
      "æ¹ĸæ³Ĭ": 9146,
      "é¢Ħéĺ²": 9147,
      "ç¥ŀçĪ¶": 9148,
      "çŁĽçĽ¾": 9149,
      "ĠçĻ»åľº": 9150,
      "ä¸īç§į": 9151,
      "ä»£çĽ®": 9152,
      "éĵħ": 9153,
      "éĢļè¡Į": 9154,
      "ean": 9155,
      "éĥ¨æĽ²": 9156,
      "åĪ©å®ī": 9157,
      "101": 9158,
      "åĨ³è®®": 9159,
      "åįļè§Ī": 9160,
      "æ¶µçĽĸ": 9161,
      "ç¿¡ç¿łåı°": 9162,
      "ç»İ": 9163,
      "è¿Ļä¸¤ä¸ª": 9164,
      "åıįèĢĮ": 9165,
      "Ġå¼Ģ": 9166,
      "åħ¶ä»ĸçļĦ": 9167,
      "éĽĮæĢ§": 9168,
      "ï¼Īï¼Ł": 9169,
      "ç»įåħ´": 9170,
      "è¢«ä»»åĳ½ä¸º": 9171,
      "èĲį": 9172,
      "æĶ¹ä»»": 9173,
      "Ġto": 9174,
      "ech": 9175,
      "çī¢": 9176,
      "çīº": 9177,
      "ä¼Ĭå°Ķ": 9178,
      "ĠåĽ¾": 9179,
      "æľĪå¼Ģå§ĭ": 9180,
      "1925": 9181,
      "é¦ĸä»»": 9182,
      "III": 9183,
      "ner": 9184,
      "æľŁçļĦ": 9185,
      "çĶ²åŁº": 9186,
      "åįĹæŀģ": 9187,
      "ä¸ŃåĽ½ç§ĳåŃ¦éĻ¢": 9188,
      "çłĶç©¶åĳĺ": 9189,
      "æİ¨åĩºçļĦ": 9190,
      "ä¾§å¼ı": 9191,
      "ç¤¾äº¤": 9192,
      "åµĮ": 9193,
      "åĨĻçľŁ": 9194,
      "åĪĨç»Ħ": 9195,
      "ç¦½": 9196,
      "ç§ĳå¹»": 9197,
      "åĵĪå¾·": 9198,
      "Ġä½ľä¸º": 9199,
      "å¼ķçĶ¨": 9200,
      "ult": 9201,
      "æªĢ": 9202,
      "åľ¨åı°æ¹¾": 9203,
      "ä¸Ńä¸ĸçºª": 9204,
      "å¤§å°Ĩ": 9205,
      "æľ¬åī§": 9206,
      "æİ¥ç®¡": 9207,
      "ä»£è¡¨éĺŁ": 9208,
      "æĻĭåįĩ": 9209,
      "å¸ľ": 9210,
      "å¾·çĶ²": 9211,
      "åĿĩæľī": 9212,
      "ĠNew": 9213,
      "åħ¬åŃĲ": 9214,
      "TVB": 9215,
      "åĲĪèĤ¥": 9216,
      "éĺ³åħī": 9217,
      "åĵĪæĭī": 9218,
      "çľŁæŃ£çļĦ": 9219,
      "éª¨éª¼": 9220,
      "åľ¨åĮĹäº¬": 9221,
      "é©¬åĮ¹": 9222,
      "æĹ§éĩĳå±±": 9223,
      "æģ¶éŃĶ": 9224,
      "ä¹ĲåĿĽ": 9225,
      "ĠåıĤçľĭ": 9226,
      "å¹´æĺ¥": 9227,
      "ä½ĵåĨħ": 9228,
      "åĨ²åĩ»": 9229,
      "æĪ¦": 9230,
      "ç£·éħ¸": 9231,
      "çªĥ": 9232,
      "æī¿è¯º": 9233,
      "éĢłèĪ¹": 9234,
      "æīĵåħ¥": 9235,
      "åĩºå¢ĥ": 9236,
      "åįĥåı¶": 9237,
      "å°¼æ³Ĭå°Ķ": 9238,
      "çļĦåħ¶ä»ĸ": 9239,
      "BO": 9240,
      "ä¸İå¤§": 9241,
      "La": 9242,
      "é«ĺå®Ĺ": 9243,
      "å°±è¢«": 9244,
      "ä½ĵéķ¿åı¯è¾¾": 9245,
      "ise": 9246,
      "ç«¯çļĦ": 9247,
      "éĥ¨ä¸ĭ": 9248,
      "å½¢æĪĲäºĨ": 9249,
      "èĪħ": 9250,
      "çĳŀåħĭ": 9251,
      "æ··ä¹±": 9252,
      "1912": 9253,
      "åĢĻè½¦": 9254,
      "ç»ıè¿ĩæľ¬åľ°åĮº": 9255,
      "éĢīä¸¾ä¸Ń": 9256,
      "å·¥ä½ľçļĦ": 9257,
      "å¹²çĩ¥": 9258,
      "çİĽæł¼": 9259,
      "åĽ½å®¶çº§": 9260,
      "fl": 9261,
      "æĹıçļĦ": 9262,
      "èĤª": 9263,
      "ä¼¯åĪ©äºļ": 9264,
      "æĹĹä¸ĭçļĦ": 9265,
      "åĨĽèĪ°": 9266,
      "å¼Ģå§ĭäºĨ": 9267,
      "ĠåĽłä¸º": 9268,
      "1917": 9269,
      "çªŁ": 9270,
      "å®ĩæĸĩ": 9271,
      "ä¸ºä»ĸ": 9272,
      "å®ļäºİ": 9273,
      "å±ıä¸ľ": 9274,
      "æĺ¯æľĢ": 9275,
      "çĶ°ä¸Ń": 9276,
      "1905": 9277,
      "èĦĤèĤª": 9278,
      "çŃĸåĪĴ": 9279,
      "æĭīçī¹": 9280,
      "æĢ»éĥ¨ä½įäºİ": 9281,
      "çļĦè¡¨çİ°": 9282,
      "æĮĩæİ§": 9283,
      "å°ĳåį¿": 9284,
      "åį°åº¦å°¼è¥¿äºļ": 9285,
      "åĩĮæĻ¨": 9286,
      "äººæīį": 9287,
      "åľ¨ä»Ĭ": 9288,
      "ral": 9289,
      "çļĦèº«ä»½": 9290,
      "ros": 9291,
      "ĠèµĽ": 9292,
      "Ġå°½ç®¡": 9293,
      "çīºçī²": 9294,
      "åħµåĬĽ": 9295,
      "äºļç§ĳ": 9296,
      "æ¤Ĵ": 9297,
      "ãĥ¼ãĥ«": 9298,
      "aint": 9299,
      "æĶ»åĬ¿": 9300,
      "Ġè®¸": 9301,
      "æĿĢæīĭ": 9302,
      "à¹": 9303,
      "ä¸Ģåįĥ": 9304,
      "ç¼ĸåı·ä¸º": 9305,
      "çĶ±è¯¥éģĵè·¯": 9306,
      "çļĦä¸ĭ": 9307,
      "ä¸ĢæĹ¥": 9308,
      "å¯¡": 9309,
      "åħ¬ç¤¾": 9310,
      "ä¸īçº§": 9311,
      "å¤§éĺŁ": 9312,
      "è¿ĩåº¦": 9313,
      "å¤©çİĭ": 9314,
      "åĪĹæĸ¯": 9315,
      "ç¬¬ä¸ĢçĻ¾": 9316,
      "åŃ¦å£«åŃ¦ä½į": 9317,
      "1926": 9318,
      "èİīäºļ": 9319,
      "1921": 9320,
      "åįĳæĸ¯": 9321,
      "ael": 9322,
      "çļĦåŁİå¸Ĥ": 9323,
      "å¼¼": 9324,
      "æŃ£æĺ¯": 9325,
      "åģľåĬŀ": 9326,
      "ç§ĳçłĶ": 9327,
      "å·´åĭĴ": 9328,
      "Ġåįķ": 9329,
      "è¿ĽåĨĽ": 9330,
      "ç«Ļæĺ¯": 9331,
      "åı·ç§įåŃĲ": 9332,
      "èľ¡": 9333,
      "çķ´": 9334,
      "Ed": 9335,
      "æĪĺæŃ»": 9336,
      "éĩıåŃĲ": 9337,
      "é²¤": 9338,
      "ç¤¾ä¼ļä¸»ä¹īåħ±åĴĮåĽ½": 9339,
      "Ġç®ĢåİĨ": 9340,
      "ç»ħ": 9341,
      "å®ŀè·µ": 9342,
      "çİ¯ç»ķ": 9343,
      "äº¤æĪĺ": 9344,
      "å¸Īéķ¿": 9345,
      "éĢıæĺİ": 9346,
      "DC": 9347,
      "åĵĪéĩĮ": 9348,
      "çļĦåıĮ": 9349,
      "åĢŁçĶ±": 9350,
      "æĪĪå°Ķ": 9351,
      "çļĦåĨħå®¹": 9352,
      "ç¦ıåĪ©": 9353,
      "åĪĴå½Ĵ": 9354,
      "Ġæł¼": 9355,
      "åħ¬ç«ĭ": 9356,
      "erv": 9357,
      "ç»ĪæŃ¢": 9358,
      "çļĨä¸º": 9359,
      "çĢĳ": 9360,
      "ä¸½èİİçĻ½": 9361,
      "é«ĺéĵģ": 9362,
      "iversity": 9363,
      "çļĦå®ĺæĸ¹": 9364,
      "ei": 9365,
      "åĬłçĥŃ": 9366,
      "è¿Ĳä¼ļ": 9367,
      "çķĮçļĦ": 9368,
      "åħ¸åŀĭçļĦ": 9369,
      "åı¦ä¸Ģç§į": 9370,
      "åıĤè§Ĥ": 9371,
      "ç»Łæ²»èĢħ": 9372,
      "éĹµ": 9373,
      "å¸ĥå±Ģ": 9374,
      "æį®è¯´": 9375,
      "å®ľåħ°": 9376,
      "çĶµæ¢¯": 9377,
      "ä»£è°¢": 9378,
      "åĮħæĭ¬äºĨ": 9379,
      "rid": 9380,
      "æ¿ĢçĥĪ": 9381,
      "æŃ¼": 9382,
      "ç¼ª": 9383,
      "æł¡åıĭ": 9384,
      "åħĭéĩĮæĸ¯èĴĤ": 9385,
      "à¦": 9386,
      "Ġå¤ª": 9387,
      "æŃ¤åīį": 9388,
      "ä¸ĸçķĮåĲĦåľ°": 9389,
      "ä»ħä»ħ": 9390,
      "ç«¯çĤ¹": 9391,
      "å¹¶ä¸įæĺ¯": 9392,
      "åı¹": 9393,
      "å²ļ": 9394,
      "è¾±": 9395,
      "ä¸İä»ĸ": 9396,
      "ä½ľçĶ»": 9397,
      "å¯¹ä»ĸ": 9398,
      "éĻ¢æł¡": 9399,
      "æīĵéĢł": 9400,
      "å°ģéĿ¢": 9401,
      "ĠæĿ°": 9402,
      "ç§°èµŀ": 9403,
      "åİ¿ç«ĭ": 9404,
      "Station": 9405,
      "é¢ģå¥ĸç¤¼": 9406,
      "å±łæĿĢ": 9407,
      "åıĳè¾¾": 9408,
      "èĢĮå¾ĹåĲį": 9409,
      "å¸ķå°Ķ": 9410,
      "çĤ®åħµ": 9411,
      "EL": 9412,
      "RNA": 9413,
      "Ġè§Ĵèī²": 9414,
      "éĺµäº¡": 9415,
      "ä¾¦å¯Ł": 9416,
      "çļĦèĬ±": 9417,
      "è¿Ľåı£": 9418,
      "éļĻ": 9419,
      "åĻ¶": 9420,
      "Ġ1984": 9421,
      "éľĸ": 9422,
      "åĩ»åĩº": 9423,
      "çļĦçĪ±": 9424,
      "ä¸ĩåĲ¨": 9425,
      "èĢĮæŃ»": 9426,
      "çļĦä¸ŃåĽ½": 9427,
      "åĮºåĴĮ": 9428,
      "æ¯ĶåĪĨ": 9429,
      "çĥ¤": 9430,
      "çº³å°Ķ": 9431,
      "èĭĹæłĹ": 9432,
      "Ġçĵ¦": 9433,
      "ãģĽ": 9434,
      "éļıæľº": 9435,
      "åĪ¤æĸŃ": 9436,
      "åĪĳäºĭ": 9437,
      "RA": 9438,
      "Ġå¾·åĽ½": 9439,
      "åıĳéŁ³": 9440,
      "å£¶": 9441,
      "è¿ĩäºİ": 9442,
      "å¹¶ä¸Ķåľ¨": 9443,
      "æŃ¦çĶ°": 9444,
      "å®¹éĩı": 9445,
      "SS": 9446,
      "åįģåħ«å¹´": 9447,
      "éĴ§": 9448,
      "5000": 9449,
      "Ġä¹¡éģĵ": 9450,
      "çľģæİ¥å£¤": 9451,
      "åĪĴåĪĨ": 9452,
      "Met": 9453,
      "è¿Ļæ®µ": 9454,
      "çĶµåĬ¨æľº": 9455,
      "åİŁæĿ¥çļĦ": 9456,
      "å¤įåĲĪ": 9457,
      "ä¹ĭåĨħ": 9458,
      "ç½Ĳ": 9459,
      "ä½ĵæĵį": 9460,
      "å»ºæľī": 9461,
      "çĲĨå¿µ": 9462,
      "å²ģä»¥ä¸ĭ": 9463,
      "èµ·é£ŀ": 9464,
      "åıĤéĢī": 9465,
      "èĪĨ": 9466,
      "åıĹæįŁ": 9467,
      "IM": 9468,
      "åįĹåįĹ": 9469,
      "é£ĵ": 9470,
      "è¶³èģĶ": 9471,
      "æĸĹäºī": 9472,
      "åĩºäºİ": 9473,
      "çģ«çģ¾": 9474,
      "è¾ĥå¤§çļĦ": 9475,
      "è´Ŀæł¼": 9476,
      "ç¬¬ä¸īæ¬¡": 9477,
      "å·©": 9478,
      "å¦¥": 9479,
      "ä½Ĩæĺ¯åľ¨": 9480,
      "ows": 9481,
      "ĠÎ": 9482,
      "çĶµæµģ": 9483,
      "ç¤¾éķ¿": 9484,
      "å¹´ä»£åĪĿ": 9485,
      "IF": 9486,
      "ĠæĸĩåĮĸ": 9487,
      "å¼łåįķæĽ²": 9488,
      "æİ·": 9489,
      "ä¸ŀçĽ¸": 9490,
      "å¤ļå¤«": 9491,
      "æ¨¡ä»¿": 9492,
      "éħī": 9493,
      "èģĮè´£": 9494,
      "åĬ©æĶ»": 9495,
      "çļĦå¤§éĥ¨åĪĨ": 9496,
      "Ġåħ¶ä¸Ń": 9497,
      "1914": 9498,
      "æľ¬éĥ¨": 9499,
      "æĽ²çº¿": 9500,
      "å½ĵéĢīä¸º": 9501,
      "ä»ĸå°Ĩ": 9502,
      "èĻĲ": 9503,
      "çŁŃçīĩ": 9504,
      "åħĦéķ¿": 9505,
      "Ġæ³°": 9506,
      "è½¶": 9507,
      "æ³¨åħ¥": 9508,
      "æľīåı¯èĥ½": 9509,
      "éĢīä¸Ń": 9510,
      "åŃ¦éĻ¢çļĦ": 9511,
      "ç§ĢåĲī": 9512,
      "è¡Įèµ°": 9513,
      "é«ĺæ¡¥": 9514,
      "èĬ¯": 9515,
      "èİ±æĸ¯": 9516,
      "çº¦åħĭ": 9517,
      "ç±»åĪ«": 9518,
      "å¤ĦæŃ»": 9519,
      "æĽ¼èģĶ": 9520,
      "æ»ĳéĽª": 9521,
      "æİ¨çĲĨ": 9522,
      "åĩĨç¡®": 9523,
      "OK": 9524,
      "æĪİ": 9525,
      "ä¸ľæĹ¥æľ¬": 9526,
      "å±±æĿĳ": 9527,
      "å®ŀä½ĵ": 9528,
      "è¿½åĩ»": 9529,
      "ĠèĲ§": 9530,
      "æľĿéĺ³": 9531,
      "ç¦ıåĨĪ": 9532,
      "ç§ĺé²ģ": 9533,
      "éĽķåĪ»": 9534,
      "çļĦå¤´": 9535,
      "ä¹ĭçĪ¶": 9536,
      "æīĭä¸ĭ": 9537,
      "éŃħ": 9538,
      "ç»§æī¿äºº": 9539,
      "æľīäºĨ": 9540,
      "å±ŀåĲį": 9541,
      "èĤ¡ç¥¨": 9542,
      "é£ĵé£İ": 9543,
      "çĦļ": 9544,
      "åıĪåľ¨": 9545,
      "åħ¨åĽ½éĩįçĤ¹æĸĩçī©ä¿ĿæĬ¤åįķä½į": 9546,
      "mi": 9547,
      "Ġè°¢": 9548,
      "å°¾å·´": 9549,
      "åı£å¾Ħ": 9550,
      "å¤ºåĨł": 9551,
[...]
