{
  "version": "1.0",
  "truncation": null,
  "padding": null,
  "added_tokens": [
    {
      "id": 0,
      "content": "<|endoftext|>",
      "single_word": false,
      "lstrip": false,
      "rstrip": false,
      "normalized": false,
      "special": true
    },
    {
      "id": 1,
      "content": "<|im_start|>",
      "single_word": false,
      "lstrip": false,
      "rstrip": false,
      "normalized": false,
      "special": true
    },
    {
      "id": 2,
      "content": "<|im_end|>",
      "single_word": false,
      "lstrip": false,
      "rstrip": false,
      "normalized": false,
      "special": true
    }
  ],
  "normalizer": {
    "type": "Sequence",
    "normalizers": [
      {
        "type": "NFKC"
      },
      {
        "type": "StripAccents"
      }
    ]
  },
  "pre_tokenizer": {
    "type": "Sequence",
    "pretokenizers": [
      {
        "type": "Split",
        "pattern": {
          "String": "[\\r\\n]"
        },
        "behavior": "Isolated",
        "invert": false
      },
      {
        "type": "Split",
        "pattern": {
          "String": "\\s?[A-Za-zµÀ-ÖØ-öø-ƺƼ-ƿǄ-ʓʕ-ʯͰ-ͳͶͷͻ-ͽͿΆΈ-ΊΌΎ-ΡΣ-ϵϷ-ҁҊ-ԯԱ-ՖႠ-ჅᎠ-Ᏽᏸ-ᏽᲐ-ᲺᲽ-Ჿᴀ-ᴫᵫ-ᵷᵹ-ᶚḀ-ἕἘ-Ἕἠ-ὅὈ-Ὅὐ-ὗὙὛὝὟ-ώᾀ-ᾴᾶ-ᾼιῂ-ῄῆ-ῌῐ-ΐῖ-Ίῠ-Ῥῲ-ῴῶ-ῼℂℇℊ-ℓℕℙ-ℝℤΩℨK-ℭℯ-ℴℹℼ-ℿⅅ-ⅉⅎↃↄⰀ-ⱻⱾ-ⳤⳫ-ⳮⳲⳳꙀ-ꙭꚀ-ꚛꜢ-ꝯꝱ-ꞇꞋ-ꞎꭰ-ꮿﬀ-ﬆﬓ-ﬗＡ-Ｚａ-ｚ𐐀-𐑏𐒰-𐓓𐓘-𐓻𐲀-𐲲𐳀-𐳲𑢠-𑣟𞤀-𞥃]+"
        },
        "behavior": "Isolated",
        "invert": false
      },
      {
        "type": "Split",
        "pattern": {
          "String": "\\s?[!-/:-~！-／：-～‘-‟　-。]+"
        },
        "behavior": "Isolated",
        "invert": false
      },
      {
        "type": "Split",
        "pattern": {
          "String": "\\s+$"
        },
        "behavior": "Isolated",
        "invert": false
      },
      {
        "type": "Split",
        "pattern": {
          "String": "[一-龥ࠀ-一가-퟿]+"
        },
        "behavior": "Isolated",
        "invert": false
      },
      {
        "type": "Digits",
        "individual_digits": true
      },
      {
        "type": "ByteLevel",
        "add_prefix_space": false,
        "trim_offsets": true,
        "use_regex": false
      }
    ]
  },
  "post_processor": {
    "type": "ByteLevel",
    "add_prefix_space": true,
    "trim_offsets": false,
    "use_regex": true
  },
  "decoder": {
    "type": "ByteLevel",
    "add_prefix_space": true,
    "trim_offsets": true,
    "use_regex": true
  },
  "model": {
    "type": "BPE",
    "dropout": null,
    "unk_token": null,
    "continuing_subword_prefix": null,
    "end_of_word_suffix": null,
    "fuse_unk": false,
    "byte_fallback": false,
    "ignore_merges": false,
    "vocab": {
      "<|endoftext|>": 0,
      "<|im_start|>": 1,
      "<|im_end|>": 2,
      "!": 3,
      "\"": 4,
      "#": 5,
      "$": 6,
      "%": 7,
      "&": 8,
      "'": 9,
      "(": 10,
      ")": 11,
      "*": 12,
      "+": 13,
      ",": 14,
      "-": 15,
      ".": 16,
      "/": 17,
      "0": 18,
      "1": 19,
      "2": 20,
      "3": 21,
      "4": 22,
      "5": 23,
      "6": 24,
      "7": 25,
      "8": 26,
      "9": 27,
      ":": 28,
      ";": 29,
      "<": 30,
      "=": 31,
      ">": 32,
      "?": 33,
      "@": 34,
      "A": 35,
      "B": 36,
      "C": 37,
      "D": 38,
      "E": 39,
      "F": 40,
      "G": 41,
      "H": 42,
      "I": 43,
      "J": 44,
      "K": 45,
      "L": 46,
      "M": 47,
      "N": 48,
      "O": 49,
      "P": 50,
      "Q": 51,
      "R": 52,
      "S": 53,
      "T": 54,
      "U": 55,
      "V": 56,
      "W": 57,
      "X": 58,
      "Y": 59,
      "Z": 60,
      "[": 61,
      "\\": 62,
      "]": 63,
      "^": 64,
      "_": 65,
      "`": 66,
      "a": 67,
      "b": 68,
      "c": 69,
      "d": 70,
      "e": 71,
      "f": 72,
      "g": 73,
      "h": 74,
      "i": 75,
      "j": 76,
      "k": 77,
      "l": 78,
      "m": 79,
      "n": 80,
      "o": 81,
      "p": 82,
      "q": 83,
      "r": 84,
      "s": 85,
      "t": 86,
      "u": 87,
      "v": 88,
      "w": 89,
      "x": 90,
      "y": 91,
      "z": 92,
      "{": 93,
      "|": 94,
      "}": 95,
      "~": 96,
      "¡": 97,
      "¢": 98,
      "£": 99,
      "¤": 100,
      "¥": 101,
      "¦": 102,
      "§": 103,
      "¨": 104,
      "©": 105,
      "ª": 106,
      "«": 107,
      "¬": 108,
      "®": 109,
      "¯": 110,
      "°": 111,
      "±": 112,
      "²": 113,
      "³": 114,
      "´": 115,
      "µ": 116,
      "¶": 117,
      "·": 118,
      "¸": 119,
      "¹": 120,
      "º": 121,
      "»": 122,
      "¼": 123,
      "½": 124,
      "¾": 125,
      "¿": 126,
      "Â": 127,
      "Ã": 128,
      "Ä": 129,
      "Å": 130,
      "Æ": 131,
      "Ç": 132,
      "È": 133,
      "É": 134,
      "Ê": 135,
      "Ë": 136,
      "Î": 137,
      "Ï": 138,
      "Ð": 139,
      "Ñ": 140,
      "Ò": 141,
      "Ó": 142,
      "Ô": 143,
      "Õ": 144,
      "Ö": 145,
      "×": 146,
      "Ø": 147,
      "Ù": 148,
      "Ú": 149,
      "Û": 150,
      "Ü": 151,
      "Þ": 152,
      "à": 153,
      "á": 154,
      "â": 155,
      "ã": 156,
      "ä": 157,
      "å": 158,
      "æ": 159,
      "ç": 160,
      "è": 161,
      "é": 162,
      "ê": 163,
      "ë": 164,
      "ì": 165,
      "í": 166,
      "î": 167,
      "ï": 168,
      "ð": 169,
      "ó": 170,
      "ô": 171,
      "Ā": 172,
      "Ą": 173,
      "Ć": 174,
      "ĉ": 175,
      "Ċ": 176,
      "ċ": 177,
      "Č": 178,
      "Ď": 179,
      "ď": 180,
      "Đ": 181,
      "đ": 182,
      "Ē": 183,
      "ē": 184,
      "Ĕ": 185,
      "ĕ": 186,
      "Ė": 187,
      "ė": 188,
      "Ę": 189,
      "ę": 190,
      "Ě": 191,
      "ě": 192,
      "Ĝ": 193,
      "ĝ": 194,
      "Ğ": 195,
      "ğ": 196,
      "Ġ": 197,
      "ġ": 198,
      "Ģ": 199,
      "ģ": 200,
      "Ĥ": 201,
      "ĥ": 202,
      "Ħ": 203,
      "ħ": 204,
      "Ĩ": 205,
      "ĩ": 206,
      "Ī": 207,
      "ī": 208,
      "Ĭ": 209,
      "ĭ": 210,
      "Į": 211,
      "į": 212,
      "İ": 213,
      "ı": 214,
      "Ĳ": 215,
      "ĳ": 216,
      "Ĵ": 217,
      "ĵ": 218,
      "Ķ": 219,
      "ķ": 220,
      "ĸ": 221,
      "Ĺ": 222,
      "ĺ": 223,
      "Ļ": 224,
      "ļ": 225,
      "Ľ": 226,
      "ľ": 227,
      "Ŀ": 228,
      "ŀ": 229,
      "Ł": 230,
      "ł": 231,
      "Ń": 232,
      "ä¸": 233,
      "ãĢ": 234,
      "çļ": 235,
      "çļĦ": 236,
      "äº": 237,
      "æľ": 238,
      "åı": 239,
      "ãĢĤ": 240,
      "åħ": 241,
      "ä»": 242,
      "å¤": 243,
      "ãĢģ": 244,
      "å®": 245,
      "åĪ": 246,
      "è¿": 247,
      "ä½": 248,
      "åľ": 249,
      "çĶ": 250,
      "åĲ": 251,
      "åĬ": 252,
      "æĺ": 253,
      "ç»": 254,
      "åĽ": 255,
      "æĪ": 256,
      "å¹": 257,
      "æĸ": 258,
      "âĢ": 259,
      "ä¼": 260,
      "æĹ": 261,
      "ä¹": 262,
      "è®": 263,
      "ä¸Ģ": 264,
      "åį": 265,
      "åŃ": 266,
      "è¯": 267,
      "å°": 268,
      "æĺ¯": 269,
      "ãĢĤĊ": 270,
      "å·": 271,
      "åľ¨": 272,
      "æĿ": 273,
      "å¸": 274,
      "æľī": 275,
      "åĮ": 276,
      "éĩ": 277,
      "åº": 278,
      "äºº": 279,
      "ä¸Ń": 280,
      "å¼": 281,
      "æī": 282,
      "è¡": 283,
      "éĢ": 284,
      "åĴ": 285,
      "åĨ": 286,
      "ä¸º": 287,
      "çĽ": 288,
      "èĢ": 289,
      "åĩ": 290,
      "ä¸į": 291,
      "æĬ": 292,
      "åĴĮ": 293,
      "æķ": 294,
      "äºĨ": 295,
      "å±": 296,
      "å¾": 297,
      "å¯": 298,
      "ä¸ļ": 299,
      "è´": 300,
      "æł": 301,
      "å¹´": 302,
      "åĽ½": 303,
      "å¤§": 304,
      "ç§": 305,
      "ĥ½": 306,
      "èµ": 307,
      "è§": 308,
      "éĻ": 309,
      "çİ": 310,
      "çī": 311,
      "æ°": 312,
      "æĢ": 313,
      "æĶ": 314,
      "åŃ¦": 315,
      "çĶŁ": 316,
      "ä»¥": 317,
      "çº": 318,
      "âĢľ": 319,
      "åıĳ": 320,
      "âĢĿ": 321,
      "å½": 322,
      "å¥": 323,
      "å¿": 324,
      "åİ": 325,
      "èĩ": 326,
      "çŃ": 327,
      "ä¸Ĭ": 328,
      "ä¿": 329,
      "æŃ": 330,
      "çĲ": 331,
      "ä¼ļ": 332,
      "çĶ¨": 333,
      "æ³": 334,
      "éĹ": 335,
      "åĳ": 336,
      "æµ": 337,
      "å·¥": 338,
      "éĿ": 339,
      "æİ": 340,
      "ä¸ª": 341,
      "¦ģ": 342,
      "èĥ½": 343,
      "ä½ľ": 344,
      "è¡Į": 345,
      "æĹ¶": 346,
      "è¦ģ": 347,
      "æĪĲ": 348,
      "åĵ": 349,
      "æŀ": 350,
      "åŁ": 351,
      "äºİ": 352,
      "åħ¬": 353,
      "é¢": 354,
      "æ¯": 355,
      "è¿Ļ": 356,
      "æ²": 357,
      "è¾": 358,
      "åĪ°": 359,
      "æĪĳ": 360,
      "å®¶": 361,
      "è½": 362,
      "åľ°": 363,
      "å¯¹": 364,
      "æĿ¥": 365,
      "åĩº": 366,
      "æĭ": 367,
      "äº§": 368,
      "åı¯": 369,
      "åī": 370,
      "çĲĨ": 371,
      "æ±": 372,
      "æĮ": 373,
      "é«": 374,
      "é«ĺ": 375,
      "éĺ": 376,
      "çľ": 377,
      "çŃī": 378,
      "ç«": 379,
      "æĸ°": 380,
      "å¤ļ": 381,
      "æ¸": 382,
      "åĪĨ": 383,
      "ç®": 384,
      "ä¾": 385,
      "æĥ": 386,
      "å¸Ĥ": 387,
      "åĬ¨": 388,
      "æĸ¹": 389,
      "ç»ı": 390,
      "åħ¨": 391,
      "èĤ": 392,
      "æĹ¥": 393,
      "ç½": 394,
      "è¿Ľ": 395,
      "åĮĸ": 396,
      "ä¸İ": 397,
      "ä»¬": 398,
      "æ´": 399,
      "æĦ": 400,
      "éķ": 401,
      "éĥ": 402,
      "çİ°": 403,
      "èĩª": 404,
      "å»": 405,
      "åĲĪ": 406,
      "ä½ĵ": 407,
      "æ¬": 408,
      "ç¨": 409,
      "è¿ĩ": 410,
      "æľº": 411,
      "æľĪ": 412,
      "åĬĽ": 413,
      "åĵģ": 414,
      "ä¸ĭ": 415,
      "åĲĮ": 416,
      "å®ŀ": 417,
      "é¡": 418,
      "åĲİ": 419,
      "æı": 420,
      "å±ķ": 421,
      "å¼Ģ": 422,
      "ä¹Ł": 423,
      "éĥ¨": 424,
      "ä»ĸ": 425,
      "è®¾": 426,
      "æľ¬": 427,
      "éģ": 428,
      "å»º": 429,
      "åıĬ": 430,
      "æĽ": 431,
      "å®ļ": 432,
      "éĿ¢": 433,
      "èģ": 434,
      "çĶµ": 435,
      "ä¸»": 436,
      "å¦": 437,
      "æĢ§": 438,
      "åĬ¡": 439,
      "å¢": 440,
      "åħ¶": 441,
      "ç¬": 442,
      "æ³ķ": 443,
      "éĽ": 444,
      "ä¹ĭ": 445,
      "ç¤": 446,
      "åģ": 447,
      "å°±": 448,
      "éķ¿": 449,
      "åĬł": 450,
      "èī": 451,
      "èµĦ": 452,
      "è·": 453,
      "é£": 454,
      "åħ³": 455,
      "çĤ": 456,
      "éĩį": 457,
      "æį": 458,
      "åº¦": 459,
      "èĢħ": 460,
      "æĻ": 461,
      "å¿ĥ": 462,
      "èĢĮ": 463,
      "è¶": 464,
      "åĮº": 465,
      "éĢļ": 466,
      "æıĲ": 467,
      "åı¸": 468,
      "åľº": 469,
      "åīį": 470,
      "å¾Ĺ": 471,
      "çŁ": 472,
      "åĪ¶": 473,
      "çĻ": 474,
      "æ°´": 475,
      "ç¾": 476,
      "åĨħ": 477,
      "å°Ĩ": 478,
      "æīĢ": 479,
      "éĩı": 480,
      "çł": 481,
      "åĿ": 482,
      "è°": 483,
      "ç®¡": 484,
      "çĽ®": 485,
      "åŃĲ": 486,
      "çī©": 487,
      "åºĶ": 488,
      "æĬĢ": 489,
      "åħ¬åı¸": 490,
      "æ¶": 491,
      "æĸĩ": 492,
      "å¥½": 493,
      "ç³": 494,
      "æķĻ": 495,
      "ç©": 496,
      "æľĢ": 497,
      "ç¨ĭ": 498,
      "äºĭ": 499,
      "ä¿Ŀ": 500,
      "ä½į": 501,
      "å¦Ĥ": 502,
      "æľ¯": 503,
      "èĬ": 504,
      "è®¡": 505,
      "éĹ´": 506,
      "å°ı": 507,
      "ç¬¬": 508,
      "æľŁ": 509,
      "éħ": 510,
      "çĿ": 511,
      "èĲ": 512,
      "éĥ½": 513,
      "å§": 514,
      "éļ": 515,
      "åĢ": 516,
      "åĳĺ": 517,
      "åħ¥": 518,
      "æ¯Ķ": 519,
      "çĽ¸": 520,
      "çĸ": 521,
      "ç§ĳ": 522,
      "ãĢĭ": 523,
      "å¹¶": 524,
      "ãĢĬ": 525,
      "å¤ĸ": 526,
      "ç³»": 527,
      "å¤©": 528,
      "æŁ": 529,
      "çķ": 530,
      "ç§į": 531,
      "éĩĳ": 532,
      "ç±": 533,
      "æķ°": 534,
      "è¡¨": 535,
      "ä¿¡": 536,
      "åĲį": 537,
      "çĤ¹": 538,
      "æĥħ": 539,
      "ä¼ģ": 540,
      "æĽ´": 541,
      "åĽł": 542,
      "æģ": 543,
      "åħĥ": 544,
      "ä¸ī": 545,
      "éĶ": 546,
      "å¹³": 547,
      "éľ": 548,
      "ç½ĳ": 549,
      "å½ĵ": 550,
      "çĹ": 551,
      "çĥ": 552,
      "ä¸ŃåĽ½": 553,
      "ä»İ": 554,
      "å®ī": 555,
      "çĦ": 556,
      "åıĳå±ķ": 557,
      "ä¸ĵ": 558,
      "ç¡": 559,
      "åĪ©": 560,
      "ç¾İ": 561,
      "è¯´": 562,
      "æ°ĳ": 563,
      "åŁº": 564,
      "ä¼ģä¸ļ": 565,
      "æ´»": 566,
      "éĵ": 567,
      "å·¥ä½ľ": 568,
      "è´¨": 569,
      "æ¬¡": 570,
      "æĶ¿": 571,
      "é¡¹": 572,
      "æĪĳä»¬": 573,
      "éģĵ": 574,
      "è¿ĺ": 575,
      "è½¦": 576,
      "å¼ı": 577,
      ",ä½": 578,
      "æŃ¤": 579,
      "æĺİ": 580,
      "éĻ¢": 581,
      "åķ": 582,
      "çī¹": 583,
      "æĦı": 584,
      "ç´": 585,
      "æĪĸ": 586,
      "èĭ": 587,
      "ä»£": 588,
      "æľį": 589,
      "æį®": 590,
      "è§Ħ": 591,
      "ç²": 592,
      "é¦": 593,
      "åĲĦ": 594,
      "ç¥": 595,
      "çĿĢ": 596,
      "æĹł": 597,
      "çłĶ": 598,
      "æ·": 599,
      "èµ·": 600,
      "ä¸Ģä¸ª": 601,
      "æłĩ": 602,
      "çĦ¶": 603,
      "å¸¸": 604,
      "å¢ŀ": 605,
      "æ¡": 606,
      "èĪ": 607,
      "æº": 608,
      "åŀ": 609,
      "å£": 610,
      "åĪĽ": 611,
      "ä¸ĩ": 612,
      "èį": 613,
      "æĬ¥": 614,
      "æŃ£": 615,
      "éĤ": 616,
      "å¾Ī": 617,
      "éĩĮ": 618,
      "æŀľ": 619,
      "çĶ±": 620,
      "åķĨ": 621,
      "å¼º": 622,
      "éĴ": 623,
      "ç¼": 624,
      "æĬĢæľ¯": 625,
      "è¢": 626,
      "æĮģ": 627,
      "é£İ": 628,
      "èĥ": 629,
      "ä»¶": 630,
      "ç»Ł": 631,
      "éĢł": 632,
      "å¤Ħ": 633,
      "åı¯ä»¥": 634,
      "æĤ": 635,
      "å·²": 636,
      "æµ·": 637,
      "æł¡": 638,
      "äº¤": 639,
      "åħ·": 640,
      "è·¯": 641,
      "èĩ³": 642,
      "çº§": 643,
      "è§£": 644,
      "ç»Ħ": 645,
      "éĽĨ": 646,
      "äºĮ": 647,
      "è¿Ĳ": 648,
      "ç»ĵ": 649,
      "æĶ¶": 650,
      "ä½¿": 651,
      "äºĽ": 652,
      "åįķ": 653,
      "æ±Ĥ": 654,
      "ä»»": 655,
      "æµģ": 656,
      "çģ": 657,
      "ç«ĭ": 658,
      "èĤ²": 659,
      "æľįåĬ¡": 660,
      "è¥": 661,
      "éľĢ": 662,
      ",åľ¨": 663,
      "æ°Ķ": 664,
      "éĹ¨": 665,
      "å¯¼": 666,
      "è¥¿": 667,
      "æİ¥": 668,
      "å½±": 669,
      "éª": 670,
      "æĢ»": 671,
      "çĪ": 672,
      "æīĭ": 673,
      "çľĭ": 674,
      "é¢ĺ": 675,
      "ç¤º": 676,
      "è¢«": 677,
      "ä¼ł": 678,
      "åŀĭ": 679,
      "èģĶ": 680,
      "åĲĳ": 681,
      "è¾¾": 682,
      "ç¤¾": 683,
      "æ¸¸": 684,
      "å¸Ī": 685,
      "çº¿": 686,
      "åįģ": 687,
      "ä¾Ľ": 688,
      "ç®¡çĲĨ": 689,
      "åıĹ": 690,
      "ä¸ľ": 691,
      "åĮ»": 692,
      "è£": 693,
      "å¤ĩ": 694,
      "åŁİ": 695,
      "æł¼": 696,
      "æ»": 697,
      "åįĹ": 698,
      "èİ": 699,
      "çİ¯": 700,
      "çĲĥ": 701,
      "åİŁ": 702,
      "çľģ": 703,
      "èĮ": 704,
      "æºĲ": 705,
      "èº": 706,
      "å¹¿": 707,
      "çŁ¥": 708,
      "åĸ": 709,
      "çĹħ": 710,
      "èī²": 711,
      "åı°": 712,
      "èĲ¥": 713,
      "è¿Ľè¡Į": 714,
      "æĦŁ": 715,
      "åĮĹ": 716,
      "åİ»": 717,
      "æĸĻ": 718,
      "é©": 719,
      "äº§åĵģ": 720,
      "ä¸¤": 721,
      "èº«": 722,
      "åħ±": 723,
      "å±±": 724,
      "ä»·": 725,
      "åĽ¢": 726,
      "æķĪ": 727,
      "æł·": 728,
      "ç¦": 729,
      "åģļ": 730,
      "æĬķ": 731,
      "ä¸ĸ": 732,
      "ä¼ĺ": 733,
      "åıĺ": 734,
      "èĦ": 735,
      "ç±»": 736,
      "è¯ģ": 737,
      "æ²»": 738,
      ",è¿Ļ": 739,
      "åħĪ": 740,
      "éĹ®": 741,
      "é¢Ĩ": 742,
      "åĻ": 743,
      "èµĽ": 744,
      "æİ¨": 745,
      "åĽ½å®¶": 746,
      "æ£": 747,
      ",å¹¶": 748,
      "èĬĤ": 749,
      "å²": 750,
      "æ²¡": 751,
      "åĩĨ": 752,
      "èĢĥ": 753,
      "è°ĥ": 754,
      "å½¢": 755,
      "åĶ": 756,
      "è®¤": 757,
      ",ä½Ĩ": 758,
      "ç©¶": 759,
      "å¸ĥ": 760,
      "åĬŀ": 761,
      "ä¹¦": 762,
      "æģ¯": 763,
      "æ¼": 764,
      "è®©": 765,
      "æĥ³": 766,
      "æĸ½": 767,
      "æĪ·": 768,
      "å·±": 769,
      "æĿ¡": 770,
      "è´¹": 771,
      "æĶ¹": 772,
      "éĢī": 773,
      "å®Į": 774,
      "éĻħ": 775,
      "å°ĳ": 776,
      "ä½ł": 777,
      "åĻ¨": 778,
      "æ¯ı": 779,
      "åĪ«": 780,
      "å¸Ĥåľº": 781,
      "ä¹Ī": 782,
      "æŀĦ": 783,
      "ãĢĤĠ": 784,
      "åı£": 785,
      "æ®": 786,
      "çķĮ": 787,
      "åıĸ": 788,
      "éĺŁ": 789,
      "èĩªå·±": 790,
      "åıĤ": 791,
      "ç²¾": 792,
      "è¾ĥ": 793,
      "çĽ´": 794,
      "è¯¥": 795,
      "åıª": 796,
      "çĻ½": 797,
      "è®°": 798,
      "æĮĩ": 799,
      "å¸¦": 800,
      "é»": 801,
      "çĥŃ": 802,
      "æĶ¾": 803,
      "åĽĽ": 804,
      "ä»Ĭ": 805,
      "è§Ĩ": 806,
      "å®¢": 807,
      "çłĶç©¶": 808,
      "é¡¹çĽ®": 809,
      "åįİ": 810,
      ",ä¸į": 811,
      "éĻĲ": 812,
      "æ³¨": 813,
      "è¿ĳ": 814,
      "æķ´": 815,
      "æĶ¯": 816,
      "çħ": 817,
      "æ¨": 818,
      "åħī": 819,
      "åĮħ": 820,
      "ç©º": 821,
      "éĺ²": 822,
      "è§Ĥ": 823,
      "æ·±": 824,
      "éĤ£": 825,
      "æ¶Ī": 826,
      "å¢ĥ": 827,
      "å»ºè®¾": 828,
      "æŃ¥": 829,
      "è£ħ": 830,
      "ä¸Ń,": 831,
      "éĿŀ": 832,
      "å±Ģ": 833,
      "ç»Ń": 834,
      "èĻ": 835,
      "èĢģ": 836,
      "äº¿": 837,
      "éªĮ": 838,
      "ç¡®": 839,
      "æµİ": 840,
      "æķĻèĤ²": 841,
      "åĽŀ": 842,
      "å®¹": 843,
      "æ¢": 844,
      "å¤į": 845,
      "ç»Ļ": 846,
      "æīį": 847,
      "éĢŁ": 848,
      "è¯ķ": 849,
      "åĳĬ": 850,
      "çİĩ": 851,
      "çĬ": 852,
      "ä¹Ĳ": 853,
      "æīĵ": 854,
      "å§Ķ": 855,
      "éĢļè¿ĩ": 856,
      "æĪĺ": 857,
      "èģĮ": 858,
      ",ä»¥": 859,
      "çĶŁäº§": 860,
      "å·ŀ": 861,
      "æĹ¶,": 862,
      "æĿĥ": 863,
      "ç«Ļ": 864,
      "åĬŁ": 865,
      "åĨ³": 866,
      ",èĢĮ": 867,
      "æıĲä¾Ľ": 868,
      "é¥": 869,
      "æĸ¯": 870,
      "æĹ¶éĹ´": 871,
      "è½¬": 872,
      "åĬ©": 873,
      "éŁ": 874,
      "åı·": 875,
      "æ²¡æľī": 876,
      "å®ĥ": 877,
      "æĬ¤": 878,
      "èİ·": 879,
      "ä½İ": 880,
      "..": 881,
      "æ¹": 882,
      "æĿĲ": 883,
      "åĲİ,": 884,
      "æĺĵ": 885,
      "è±": 886,
      "ç§¯": 887,
      "æľª": 888,
      "ç§°": 889,
      "æ¨¡": 890,
      "ç¥ŀ": 891,
      "çº¦": 892,
      "åįĩ": 893,
      "å·¥ç¨ĭ": 894,
      "è´£": 895,
      "ä¸ĵä¸ļ": 896,
      "å¿«": 897,
      "è®®": 898,
      "é£Ł": 899,
      "è¶ħ": 900,
      "ç»ıæµİ": 901,
      "ç¤¾ä¼ļ": 902,
      "ä½¿çĶ¨": 903,
      "é¦ĸ": 904,
      "åĪĴ": 905,
      "çľŁ": 906,
      "æŁ¥": 907,
      "å¼ķ": 908,
      "çĸĹ": 909,
      ",æĺ¯": 910,
      "è¯·": 911,
      "å¤´": 912,
      "æİ§": 913,
      "è¡Įä¸ļ": 914,
      "äºĶ": 915,
      ",ä¹Ł": 916,
      "è§ģ": 917,
      "éĩĩ": 918,
      "èĤ¡": 919,
      "åŁŁ": 920,
      "ä»ĸä»¬": 921,
      "æł¹": 922,
      "è®º": 923,
      "éĹ®é¢ĺ": 924,
      "è¶Ĭ": 925,
      "æ¸ħ": 926,
      "åŃ¦çĶŁ": 927,
      "å¾·": 928,
      "åĢ¼": 929,
      "æ¡Ī": 930,
      "ç´ł": 931,
      "è¯Ĩ": 932,
      "æĺ¾": 933,
      "ä¸»è¦ģ": 934,
      "ãĢĤâĢĿ": 935,
      "çļĦ,": 936,
      "æĢģ": 937,
      "åĨľ": 938,
      "èīº": 939,
      "åĵį": 940,
      "é¢Ħ": 941,
      "åĳ¨": 942,
      "æŀģ": 943,
      "åħ»": 944,
      "ç³»ç»Ł": 945,
      "åİĨ": 946,
      "ä¿¡æģ¯": 947,
      "çĪ±": 948,
      "èĮĥ": 949,
      "è®¾è®¡": 950,
      "å§ĭ": 951,
      "ç±³": 952,
      "âĢĶ": 953,
      "æĪ¿": 954,
      "åĨį": 955,
      "å£«": 956,
      "æ±Ł": 957,
      "éĶĢ": 958,
      "çı": 959,
      "æİĴ": 960,
      "èĬ±": 961,
      "äº¬": 962,
      "æĹħ": 963,
      "çīĩ": 964,
      "åĨµ": 965,
      "ä¼Ĺ": 966,
      "åĪĻ": 967,
      "æ¸©": 968,
      "éħĴ": 969,
      "ä¹ł": 970,
      "ç»´": 971,
      "å®īåħ¨": 972,
      "èĳ": 973,
      "åįı": 974,
      "çĶŁæ´»": 975,
      "å¡": 976,
      "éľĢè¦ģ": 977,
      "èŀ": 978,
      "æµĭ": 979,
      "åŃĺ": 980,
      "äº§ä¸ļ": 981,
      "æ´»åĬ¨": 982,
      "åĽŃ": 983,
      "èĩ´": 984,
      "æ¼Ķ": 985,
      "æĸŃ": 986,
      "è¯Ħ": 987,
      "ä¾ĭ": 988,
      "æĻ¯": 989,
      "éħį": 990,
      "æĸĩåĮĸ": 991,
      "å°±æĺ¯": 992,
      "æĹ¥,": 993,
      "æĴ": 994,
      "åĽ½éĻħ": 995,
      "å¥³": 996,
      "åĪĹ": 997,
      "è¶³": 998,
      "ä¸ĸçķĮ": 999,
      "çĭ": 1000,
      "åģ¥": 1001,
      "æ£Ģ": 1002,
      "éĻį": 1003,
      "åºľ": 1004,
      "æĸ¹éĿ¢": 1005,
      "å°Ķ": 1006,
      ",åħ¶": 1007,
      "ä¸Ķ": 1008,
      "çħ§": 1009,
      "æĪĲä¸º": 1010,
      "çĽ¸åħ³": 1011,
      "æĬĬ": 1012,
      "äººåĳĺ": 1013,
      "ä½ķ": 1014,
      "éĻ¤": 1015,
      "åºĹ": 1016,
      "é©¬": 1017,
      "æĻº": 1018,
      "ä¸Ńå¿ĥ": 1019,
      "æĳ": 1020,
      "éļ¾": 1021,
      "æĿĳ": 1022,
      "çīĮ": 1023,
      "çª": 1024,
      "çİ¯å¢ĥ": 1025,
      "åŃĹ": 1026,
      "åıį": 1027,
      "ç»ĩ": 1028,
      "å¤§åŃ¦": 1029,
      "åĬ¿": 1030,
      "çĽĳ": 1031,
      "ä»½": 1032,
      "äºļ": 1033,
      "åıĪ": 1034,
      "åħļ": 1035,
      "âĢĿçļĦ": 1036,
      "åİ¿": 1037,
      "èį¯": 1038,
      "éĩįè¦ģ": 1039,
      "å¿ħ": 1040,
      "å½±åĵį": 1041,
      "éļı": 1042,
      "å¹´,": 1043,
      "é¾": 1044,
      "èŀį": 1045,
      "æĬķèµĦ": 1046,
      "å¼ł": 1047,
      "èħ": 1048,
      "åº·": 1049,
      "æļ": 1050,
      "åħĭ": 1051,
      "åĿĩ": 1052,
      "æ»¡": 1053,
      "å±ŀ": 1054,
      "åİĭ": 1055,
      "åĦ": 1056,
      "åħ·æľī": 1057,
      ",ä¸º": 1058,
      "èı": 1059,
      "åį³": 1060,
      "è¦ģæ±Ĥ": 1061,
      "ä¾Ŀ": 1062,
      "å¹²": 1063,
      "åĽ¾": 1064,
      "æ®µ": 1065,
      "åĶ®": 1066,
      "ç¦»": 1067,
      "è´Ł": 1068,
      "è¿ŀ": 1069,
      ",ä¸Ģ": 1070,
      "è®¾å¤ĩ": 1071,
      "ä¹ī": 1072,
      "çĬ¶": 1073,
      "åĩł": 1074,
      "æħ": 1075,
      "ä¾¿": 1076,
      "çĻ¾": 1077,
      "éĢĤ": 1078,
      "åŁ¹": 1079,
      "å¥ĸ": 1080,
      "è¯Ŀ": 1081,
      "æĶ¿åºľ": 1082,
      "æī¿": 1083,
      "å®¤": 1084,
      "æķ°æį®": 1085,
      "æł¸": 1086,
      "ä»ħ": 1087,
      "ç¬¬ä¸Ģ": 1088,
      "æĢĿ": 1089,
      "å¥¹": 1090,
      "æŀĹ": 1091,
      "è¯Ń": 1092,
      "ãĢĤåľ¨": 1093,
      "ç½®": 1094,
      "æ¬¾": 1095,
      "çŁ³": 1096,
      "æ²¹": 1097,
      "å·²ç»ı": 1098,
      "èĥ½åĬĽ": 1099,
      "è®¸": 1100,
      "çĽĬ": 1101,
      "åĦ¿": 1102,
      "æĺŁ": 1103,
      "ç®Ĺ": 1104,
      "çļĦä¸Ģ": 1105,
      "åŃ¦æł¡": 1106,
      "çĽ®åīį": 1107,
      "çİĭ": 1108,
      "æĥħåĨµ": 1109,
      "çļĦäºº": 1110,
      "å¢ŀéķ¿": 1111,
      "éŁ³": 1112,
      "åĽłä¸º": 1113,
      "å¦Ĥæŀľ": 1114,
      "åĭ": 1115,
      "åı¯èĥ½": 1116,
      "åĳ½": 1117,
      "çĮ": 1118,
      "èĭ±": 1119,
      "å¤ª": 1120,
      "éĿĴ": 1121,
      ",æľī": 1122,
      "ä½ľä¸º": 1123,
      "æľĽ": 1124,
      "ç§ĳæĬĢ": 1125,
      "ç»Ĩ": 1126,
      "ç¢": 1127,
      "ä¿®": 1128,
      "æĲ": 1129,
      "éĺ³": 1130,
      "âĢĿ,": 1131,
      "åįķä½į": 1132,
      "æĮī": 1133,
      "éĽĨåĽ¢": 1134,
      "å±Ĥ": 1135,
      "èĲ½": 1136,
      "ç»Ħç»ĩ": 1137,
      "åĪĽæĸ°": 1138,
      "éĻ©": 1139,
      "åŁİå¸Ĥ": 1140,
      "è±¡": 1141,
      "æĤ£": 1142,
      "åĥ": 1143,
      "çŃĸ": 1144,
      "ä¸¾": 1145,
      "å¨": 1146,
      "ä¸¥": 1147,
      "æľīéĻĲ": 1148,
      "æĿ¥,": 1149,
      "è´¨éĩı": 1150,
      "ä½ı": 1151,
      "ä»Ģ": 1152,
      "äººæ°ĳ": 1153,
      "åŃ£": 1154,
      "äºĴ": 1155,
      "åĲĪä½ľ": 1156,
      "åľŁ": 1157,
      "èµ°": 1158,
      "æĭī": 1159,
      "æ²³": 1160,
      "åĽ´": 1161,
      "æĿ¿": 1162,
      "åĨĽ": 1163,
      "çŃĳ": 1164,
      "åĩı": 1165,
      "ç»Ī": 1166,
      "åı²": 1167,
      "å¤§çļĦ": 1168,
      "å¿µ": 1169,
      "å¾Ģ": 1170,
      "è¡¨ç¤º": 1171,
      ",å¯¹": 1172,
      "ãĢĤè¿Ļ": 1173,
      "å¤ĦçĲĨ": 1174,
      "çº¢": 1175,
      "åħħ": 1176,
      "å®ŀçİ°": 1177,
      "å¾®": 1178,
      "æłĩåĩĨ": 1179,
      "åħ¨åĽ½": 1180,
      ",æĪĳ": 1181,
      "åĸĦ": 1182,
      "æł¹æį®": 1183,
      "éĵģ": 1184,
      "åĢĻ": 1185,
      "ä»Ģä¹Ī": 1186,
      "è´¢": 1187,
      "è¨": 1188,
      "æĭ¬": 1189,
      "è¨Ģ": 1190,
      "å¥½çļĦ": 1191,
      "ä¸ŃçļĦ": 1192,
      "ä½Ĩ": 1193,
      "åĪĩ": 1194,
      "äº¿åħĥ": 1195,
      "å¤Ł": 1196,
      "ä»¥ä¸Ĭ": 1197,
      "åºĶçĶ¨": 1198,
      "è¯¾": 1199,
      "å¤±": 1200,
      "æ±½": 1201,
      "ä¸įåĲĮ": 1202,
      "åĥı": 1203,
      "ä»¥åıĬ": 1204,
      "çģ«": 1205,
      "äºī": 1206,
      "æī¹": 1207,
      "å¼Ģå§ĭ": 1208,
      "èī¯": 1209,
      "å½ķ": 1210,
      "çĶ»": 1211,
      "è´Ń": 1212,
      "å¯Į": 1213,
      "æĻ®": 1214,
      "å®¡": 1215,
      "å»ºçŃĳ": 1216,
      "åĮħæĭ¬": 1217,
      "éĵ¶": 1218,
      "éĥ¨åĪĨ": 1219,
      "åıĮ": 1220,
      "çļ®": 1221,
      "åħį": 1222,
      "èµĦæºĲ": 1223,
      "åĪĿ": 1224,
      "å¾ĭ": 1225,
      "ç§ĳåŃ¦": 1226,
      "éĥ¨éĹ¨": 1227,
      "åħ¶ä»ĸ": 1228,
      "åı¤": 1229,
      "åŃ¦ä¹ł": 1230,
      ";Ċ": 1231,
      "åĿļ": 1232,
      "åıĭ": 1233,
      "çļĦâĢľ": 1234,
      "å£°": 1235,
      "æĺ¯ä¸Ģ": 1236,
      "çĸ«": 1237,
      "æıĲé«ĺ": 1238,
      "ç¾İåĽ½": 1239,
      "çīĪ": 1240,
      "åĲ«": 1241,
      "è¿ľ": 1242,
      "æĸ¹å¼ı": 1243,
      "æĪı": 1244,
      "åįł": 1245,
      "çıŃ": 1246,
      "åįĬ": 1247,
      "æĿĲæĸĻ": 1248,
      "å±ħ": 1249,
      "åİĤ": 1250,
      "åį«": 1251,
      "äººçļĦ": 1252,
      "å¿Ĺ": 1253,
      "é¾Ļ": 1254,
      "ç®Ģ": 1255,
      ",åĲĮ": 1256,
      "åįļ": 1257,
      "åľ°åĮº": 1258,
      "é¢Ŀ": 1259,
      "ç¾¤": 1260,
      "æľīéĻĲåħ¬åı¸": 1261,
      "æ¥": 1262,
      "æĹħæ¸¸": 1263,
      "ç»ľ": 1264,
      "çĶ³": 1265,
      "å¼Ģåıĳ": 1266,
      "è¿Ļä¸ª": 1267,
      "åł": 1268,
      "é»Ħ": 1269,
      "è§Ħå®ļ": 1270,
      "æķħ": 1271,
      "èĪª": 1272,
      "å·¥ä¸ļ": 1273,
      "ç¦ı": 1274,
      "çºª": 1275,
      "è¡Ģ": 1276,
      "å¾Īå¤ļ": 1277,
      "æīĢä»¥": 1278,
      "å¹³åı°": 1279,
      "åħ´": 1280,
      "å¯Ĩ": 1281,
      "åŁºç¡": 1282,
      "er": 1283,
      "åŁºç¡Ģ": 1284,
      "åį°": 1285,
      "éĴ¢": 1286,
      ":âĢľ": 1287,
      "æĭĽ": 1288,
      "åģ¥åº·": 1289,
      "ä¸ļåĬ¡": 1290,
      "è§Ĵ": 1291,
      "åĮĹäº¬": 1292,
      "è®Ń": 1293,
      "æ²»çĸĹ": 1294,
      "è¾¹": 1295,
      "äºĳ": 1296,
      "è¾ĵ": 1297,
      ",ä»İ": 1298,
      "éĿŀå¸¸": 1299,
      "åŃ©": 1300,
      "æĭ©": 1301,
      "ä½Ļ": 1302,
      "åĪ°äºĨ": 1303,
      "è§ī": 1304,
      "è¿ĩç¨ĭ": 1305,
      "åĩºçİ°": 1306,
      "ä¸Ĭ,": 1307,
      "åī§": 1308,
      "é¢ĨåŁŁ": 1309,
      "æĭħ": 1310,
      "è½»": 1311,
      "æĹ©": 1312,
      "æŁĵ": 1313,
      "èİ·å¾Ĺ": 1314,
      "çļĦæĺ¯": 1315,
      "åĽ½åĨħ": 1316,
      "æľºæŀĦ": 1317,
      "åī¯": 1318,
      "æī§": 1319,
      "ä»ĭ": 1320,
      "ç½ĳç»ľ": 1321,
      "å·´": 1322,
      "ç¼ĸ": 1323,
      ",æĪĳä»¬": 1324,
      "ç½Ĺ": 1325,
      "æŃ¢": 1326,
      "èģļ": 1327,
      "æ¹ĸ": 1328,
      "äºº,": 1329,
      "è®²": 1330,
      "åºķ": 1331,
      "åŃ¦éĻ¢": 1332,
      "åĲ¸": 1333,
      "é¦Ļ": 1334,
      "çĭ¬": 1335,
      "çĵ": 1336,
      ",è¿ĺ": 1337,
      "å¹´çļĦ": 1338,
      "é¡»": 1339,
      "æ¿": 1340,
      "åĵģçīĮ": 1341,
      "æ±½è½¦": 1342,
      "åĽłæŃ¤": 1343,
      "æ¸¯": 1344,
      "è¯´,": 1345,
      "éĢīæĭ©": 1346,
      "è¯»": 1347,
      "æ±¡": 1348,
      "åį´": 1349,
      "åħ¨çĲĥ": 1350,
      "ç«ŀ": 1351,
      "Â·": 1352,
      "ç»§": 1353,
      "éķĩ": 1354,
      "èĥ½å¤Ł": 1355,
      "å®ĮæĪĲ": 1356,
      "å¤§å®¶": 1357,
      "é²": 1358,
      "åħŃ": 1359,
      "ä¸ĭ,": 1360,
      "èĩªå·±çļĦ": 1361,
      "æĴŃ": 1362,
      "è¡¥": 1363,
      "å®³": 1364,
      "å°½": 1365,
      "ä¸´": 1366,
      "å®£": 1367,
      "ç»¼": 1368,
      "å¸Į": 1369,
      "æ½": 1370,
      "æĵ": 1371,
      "ä½ľçĶ¨": 1372,
      "åĨħå®¹": 1373,
      "éĢģ": 1374,
      "æ¬¢": 1375,
      "åı¦": 1376,
      "ç¨³": 1377,
      "çĨ": 1378,
      "åº§": 1379,
      "çķ¥": 1380,
      "æĤ£èĢħ": 1381,
      "çľ¼": 1382,
      "æĭ¥": 1383,
      ":Ċ": 1384,
      "åĨĻ": 1385,
      "æ¶Īè´¹": 1386,
      "æ¿Ģ": 1387,
      "äº²": 1388,
      "äºĨè§£": 1389,
      "è®¡åĪĴ": 1390,
      "æĿİ": 1391,
      "ç«¯": 1392,
      "çªģ": 1393,
      "æĹ¶åĢĻ": 1394,
      "ä¹¡": 1395,
      "åıĳçİ°": 1396,
      "ç¨İ": 1397,
      "å¯¹äºİ": 1398,
      "åıĳçĶŁ": 1399,
      "å®Ŀ": 1400,
      "in": 1401,
      "æīĢæľī": 1402,
      "åĳ³": 1403,
      "ç»ıèĲ¥": 1404,
      "çº³": 1405,
      "åĤ": 1406,
      "çİ°åľ¨": 1407,
      "åĸľ": 1408,
      "çł´": 1409,
      "æĽ¾": 1410,
      "äº«": 1411,
      "æ¤": 1412,
      "å¼Ģå±ķ": 1413,
      "åĬ³": 1414,
      "ç¬¬äºĮ": 1415,
      "åįĥ": 1416,
      "ä¸ĢäºĽ": 1417,
      "ç¥¨": 1418,
      "èīºæľ¯": 1419,
      "æĻºèĥ½": 1420,
      "çĶ±äºİ": 1421,
      "çķĻ": 1422,
      "èĪ¬": 1423,
      "æľīåħ³": 1424,
      "æŁĲ": 1425,
      "å¢ŀåĬł": 1426,
      "æĪĸèĢħ": 1427,
      "åīĤ": 1428,
      "éĿ©": 1429,
      "å¸®": 1430,
      ",ä»ĸ": 1431,
      "æĺ¥": 1432,
      "æ¬§": 1433,
      "å®¢æĪ·": 1434,
      "å®ĺ": 1435,
      "é¢ĳ": 1436,
      "),": 1437,
      "ç»¿": 1438,
      "ä¸ªäºº": 1439,
      "éħĴåºĹ": 1440,
      "è®¤ä¸º": 1441,
      "çĶ¨æĪ·": 1442,
      "ä¸ĢæŃ¥": 1443,
      "åĪ¶éĢł": 1444,
      "ä¸įæĺ¯": 1445,
      "éľĢæ±Ĥ": 1446,
      "è´§": 1447,
      "æıĲåįĩ": 1448,
      "èĭı": 1449,
      "åħ°": 1450,
      "æĶ¿çŃĸ": 1451,
      "æ¦": 1452,
      "è´Łè´£": 1453,
      "!Ċ": 1454,
      "é¦Ĩ": 1455,
      "ä¸ĩåħĥ": 1456,
      "æĤ¨": 1457,
      "ä¿ĿæĬ¤": 1458,
      "ä¸Ĭæµ·": 1459,
      "an": 1460,
      "ä¿ĥ": 1461,
      ")Ċ": 1462,
      "åį¡": 1463,
      "ç§»": 1464,
      "ä»£è¡¨": 1465,
      "çĶµåŃĲ": 1466,
      "éļľ": 1467,
      "è½½": 1468,
      "æĸ¹æ³ķ": 1469,
      "æĶ¯æĮģ": 1470,
      "ä¸°": 1471,
      "on": 1472,
      "å²ģ": 1473,
      "æ¸¸æĪı": 1474,
      "æķĻåŃ¦": 1475,
      "ç»¼åĲĪ": 1476,
      "ç²¾ç¥ŀ": 1477,
      "åŃ©åŃĲ": 1478,
      "æŀĲ": 1479,
      "åıĳå¸ĥ": 1480,
      "%,": 1481,
      "éĺ¿": 1482,
      "ç»©": 1483,
      "åĬŁèĥ½": 1484,
      "åĮ»éĻ¢": 1485,
      "ç»ĵæŀĦ": 1486,
      "éĥ½æĺ¯": 1487,
      "eĠ": 1488,
      "æ´²": 1489,
      "è¾¾åĪ°": 1490,
      "æĹı": 1491,
      "åºı": 1492,
      "ç§¯æŀģ": 1493,
      "éĶĢåĶ®": 1494,
      "æ°´å¹³": 1495,
      "åĩĢ": 1496,
      "æľ¨": 1497,
      "ä¸Ģå®ļ": 1498,
      "æ³¢": 1499,
      "éħ¸": 1500,
      "å¾ħ": 1501,
      "æİ§åĪ¶": 1502,
      "ç¿": 1503,
      "èĴ": 1504,
      "?Ċ": 1505,
      "ä»Ĭå¹´": 1506,
      "æĬĹ": 1507,
      "åĲĥ": 1508,
      "å±Ĭ": 1509,
      "å¤ĸ,": 1510,
      "æİĪ": 1511,
      "ä¹ĭä¸Ģ": 1512,
      "æĭ¥æľī": 1513,
      "ä¸įæĸŃ": 1514,
      "ç§Ģ": 1515,
      ",è®©": 1516,
      "ä½Ľ": 1517,
      "çĹĩ": 1518,
      "åİĨåı²": 1519,
      "è¶ħè¿ĩ": 1520,
      "ç£": 1521,
      "åĨł": 1522,
      "ãĢĤĊåľ¨": 1523,
      "åĪ©çĶ¨": 1524,
      "é»ĳ": 1525,
      "è¿ĻäºĽ": 1526,
      "ľé£İ": 1527,
      "çĻ½çĻ": 1528,
      "æį¢": 1529,
      "èĳĹ": 1530,
      "å¾ģ": 1531,
      "è´£ä»»": 1532,
      "çĻ½çĻľé£İ": 1533,
      "å¼Ĥ": 1534,
      "çŁŃ": 1535,
      ",ä½¿": 1536,
      "å·®": 1537,
      "å®ŀæĸ½": 1538,
      "é£ŀ": 1539,
      "è½¯": 1540,
      "åĩ»": 1541,
      ",å°±": 1542,
      "æĿ¥çļĦ": 1543,
      "çĩ": 1544,
      "èĻ½": 1545,
      "å½¢æĪĲ": 1546,
      "åıĤåĬł": 1547,
      "é¸": 1548,
      "éĩĩçĶ¨": 1549,
      "ä»¤": 1550,
      "æłĳ": 1551,
      "åħ«": 1552,
      "æĺ¾ç¤º": 1553,
      "æ¯Ĵ": 1554,
      "ä¼¤": 1555,
      "é¼": 1556,
      "ç«ł": 1557,
      "æįŁ": 1558,
      "ä»·æł¼": 1559,
      "åª": 1560,
      "åħ¸": 1561,
      "çĶ³è¯·": 1562,
      "éĩįçĤ¹": 1563,
      "è§£åĨ³": 1564,
      "äºĨä¸Ģ": 1565,
      "æĽ´å¤ļ": 1566,
      "åĪĨæŀĲ": 1567,
      "åŁºæľ¬": 1568,
      "æĦ¿": 1569,
      "çŁ¥è¯Ĩ": 1570,
      "âĢĶâĢĶ": 1571,
      "è¿°": 1572,
      "å°¼": 1573,
      "ç´¢": 1574,
      "å©": 1575,
      "è¿Ľåħ¥": 1576,
      "åĲĦç§į": 1577,
      "ä»į": 1578,
      "èĩªçĦ¶": 1579,
      "æ±ī": 1580,
      "åĲ¬": 1581,
      "èĹ": 1582,
      "ä¼łç»Ł": 1583,
      "ç´§": 1584,
      "æĬ¥åĳĬ": 1585,
      "çĻ»": 1586,
      "å³": 1587,
      "èĮ¶": 1588,
      "äº¤éĢļ": 1589,
      "èģĶç½ĳ": 1590,
      "æĮģç»Ń": 1591,
      ",å°Ĩ": 1592,
      "æ¥¼": 1593,
      "ä¹°": 1594,
      "__": 1595,
      "å¯Ł": 1596,
      "çĶ·": 1597,
      "æŃ¦": 1598,
      "æĶ¶åħ¥": 1599,
      "è½®": 1600,
      "åħ³ç³»": 1601,
      "å¸ĮæľĽ": 1602,
      "ç¯": 1603,
      "éļıçĿĢ": 1604,
      "æĪĳåĽ½": 1605,
      "åĽº": 1606,
      ",âĢľ": 1607,
      "ä¹Łæĺ¯": 1608,
      "ç»į": 1609,
      "å¿ħé¡»": 1610,
      "äº§çĶŁ": 1611,
      "è®°èĢħ": 1612,
      "åģĩ": 1613,
      "æī¾": 1614,
      "æŃĮ": 1615,
      "è¿Ľä¸ĢæŃ¥": 1616,
      "å¥Ĺ": 1617,
      "ãĢĤâĢĿĊ": 1618,
      "ä»ĺ": 1619,
      "è¯ī": 1620,
      "åºŃ": 1621,
      "æ¶²": 1622,
      "å½©": 1623,
      "é¥®": 1624,
      "æ¯į": 1625,
      "æĿ¡ä»¶": 1626,
      "åıĤä¸İ": 1627,
      "åĲ¦": 1628,
      "åĨ·": 1629,
      "è´µ": 1630,
      "æł·çļĦ": 1631,
      "æĸ°çļĦ": 1632,
      "æ¯Ķè¾ĥ": 1633,
      "ä¸ĬçļĦ": 1634,
      "âĢĿãĢĤ": 1635,
      "çī¹åĪ«": 1636,
      "ä¼ļè®®": 1637,
      "å»ºç«ĭ": 1638,
      "æīĺ": 1639,
      "å¥ĩ": 1640,
      "ç½ĳç«Ļ": 1641,
      "....": 1642,
      "äºĪ": 1643,
      "åĽ°": 1644,
      "è§ĦåĪĴ": 1645,
      "åŃĺåľ¨": 1646,
      "æķĻå¸Ī": 1647,
      "å®ģ": 1648,
      "è®¯": 1649,
      "ç³»åĪĹ": 1650,
      "æ¯ķ": 1651,
      "è§Ħæ¨¡": 1652,
      "ä¸įèĥ½": 1653,
      "äººæīį": 1654,
      "èĥľ": 1655,
      "éĩĳèŀį": 1656,
      "åªĴ": 1657,
      "åģľ": 1658,
      "æ¯ĶèµĽ": 1659,
      "èĨ": 1660,
      "éĢĲ": 1661,
      "åľ°æĸ¹": 1662,
      "ä½ľåĵģ": 1663,
      "æĪĲåĬŁ": 1664,
      "çĮ®": 1665,
      "ä¸ĥ": 1666,
      "çĿ£": 1667,
      "åĪ»": 1668,
      "èŃ": 1669,
      "ä½ĵç³»": 1670,
      "éģĩ": 1671,
      "ãĢĤĊâĢľ": 1672,
      "åħ³äºİ": 1673,
      "äºĨ,": 1674,
      "æİ¢": 1675,
      "çīĽ": 1676,
      "åĬłå¼º": 1677,
      "çĽ®æłĩ": 1678,
      "ar": 1679,
      "æĻļ": 1680,
      "çĶ¨äºİ": 1681,
      "çĸ¾": 1682,
      "è°¢": 1683,
      "ä»ĭç»į": 1684,
      "è¿İ": 1685,
      "éĻĪ": 1686,
      ",å¦Ĥ": 1687,
      "åºĨ": 1688,
      "ä¸ĵå®¶": 1689,
      "åħ¨éĿ¢": 1690,
      "çĸ«æĥħ": 1691,
      "èĥ½æºĲ": 1692,
      "ä»·åĢ¼": 1693,
      "èģĮä¸ļ": 1694,
      "çŁ¥éģĵ": 1695,
      "è¿½": 1696,
      "èį£": 1697,
      "ç¬¬ä¸ī": 1698,
      "ç»§ç»Ń": 1699,
      "ä¹ĭéĹ´": 1700,
      "ç¼º": 1701,
      "èŃ¦": 1702,
      "ä¹Ŀ": 1703,
      "ç»Ŀ": 1704,
      "å¹ħ": 1705,
      ",åı¯": 1706,
      "éĨ": 1707,
      "çĽĸ": 1708,
      "æĪĲç«ĭ": 1709,
      "éĹ»": 1710,
      "äººä»¬": 1711,
      ".Ġ": 1712,
      "éĴŁ": 1713,
      "ãĢĤä½Ĩ": 1714,
      "éĵ¶è¡Į": 1715,
      "çĶµå½±": 1716,
      "å®ŀéĻħ": 1717,
      "æľªæĿ¥": 1718,
      "æĸ¹æ¡Ī": 1719,
      "ç»ĵåĲĪ": 1720,
      "è®¢": 1721,
      "æĭį": 1722,
      "éĽ¨": 1723,
      "å¸®åĬ©": 1724,
      "æŃ»": 1725,
      "åĮ»çĸĹ": 1726,
      "æĮīçħ§": 1727,
      "éĻĦ": 1728,
      ",åħ¶ä¸Ń": 1729,
      "æĽ²": 1730,
      "æĮ¥": 1731,
      "çİ°ä»£": 1732,
      "è¡ĮæĶ¿": 1733,
      "æ¢°": 1734,
      "è¯¢": 1735,
      "æıĲåĩº": 1736,
      "éĢı": 1737,
      "å®Ī": 1738,
      "èĻ½çĦ¶": 1739,
      "åĪĨåĪ«": 1740,
      "æ¨¡å¼ı": 1741,
      "æ¤į": 1742,
      "çĶļ": 1743,
      "éĺ¶": 1744,
      "åĿĹ": 1745,
      "æ¶¦": 1746,
      "è¿ĺæĺ¯": 1747,
      "æľīæķĪ": 1748,
      "¤Ĳ": 1749,
      "è¡Įä¸º": 1750,
      "é£Łåĵģ": 1751,
      "ä¸ºäºĨ": 1752,
      "å°Ħ": 1753,
      "åĲ¯": 1754,
      "èĢĲ": 1755,
      "ä½³": 1756,
      "å§Ķåĳĺ": 1757,
      "å¤«": 1758,
      ")ãĢģ": 1759,
      "ä»ª": 1760,
      "è®¡ç®Ĺ": 1761,
      "éĤ£ä¹Ī": 1762,
      "åŁºéĩĳ": 1763,
      "èĭ¥": 1764,
      "åħ±åĲĮ": 1765,
      "åį±": 1766,
      "ä¸½": 1767,
      "åĨĮ": 1768,
      "æ°§": 1769,
      "çŃ¾": 1770,
      "é¢Ĩå¯¼": 1771,
      "æī©": 1772,
      "ç»ĥ": 1773,
      "å¯¼èĩ´": 1774,
      "éĴĪ": 1775,
      "çĶŁæĢģ": 1776,
      "çĽ´æİ¥": 1777,
      "åºŁ": 1778,
      "æĹ¶ä»£": 1779,
      "ä¿ĥè¿Ľ": 1780,
      "çģµ": 1781,
      "åıĸå¾Ĺ": 1782,
      "é¥°": 1783,
      "ä¹ħ": 1784,
      "åŁ¹è®Ń": 1785,
      "éº": 1786,
      "èĵ": 1787,
      "èĮĥåĽ´": 1788,
      "æľŁéĹ´": 1789,
      "åĬª": 1790,
      "å¥¥": 1791,
      "æ³¨æĦı": 1792,
      "å»¶": 1793,
      "åĵª": 1794,
      "ä¼¼": 1795,
      "å·¦": 1796,
      "en": 1797,
      "æİ¨åĬ¨": 1798,
      "çĳ": 1799,
      "æ²Ļ": 1800,
      "èįī": 1801,
      "å·Ŀ": 1802,
      "è®¸å¤ļ": 1803,
      "çļĦåıĳå±ķ": 1804,
      "æ¡¥": 1805,
      "çłĶåıĳ": 1806,
      "æĵį": 1807,
      "è¿Ļä¸Ģ": 1808,
      "æİª": 1809,
      "é¡º": 1810,
      "æĳĦ": 1811,
      "åŁ¹åħ»": 1812,
      "èĦĳ": 1813,
      "è·Ł": 1814,
      "èĦ±": 1815,
      "åºĵ": 1816,
      "ä»¥ä¸ĭ": 1817,
      "æľĪ,": 1818,
      ",ä½ł": 1819,
      "éĵ¾": 1820,
      "éĢłæĪĲ": 1821,
      ",ä½Ĩæĺ¯": 1822,
      "åįĪ": 1823,
      "çłģ": 1824,
      "åİħ": 1825,
      "å¨ģ": 1826,
      "æİ¨è¿Ľ": 1827,
      "éĿ¢ç§¯": 1828,
      "é¤Ĳ": 1829,
      "çļĦãĢĤ": 1830,
      "çļĦå¤§": 1831,
      "éĢĢ": 1832,
      "ç«¥": 1833,
      "è´«": 1834,
      "æĿĤ": 1835,
      "æ³ķå¾ĭ": 1836,
      "æĢ¥": 1837,
      "è¯Ĭ": 1838,
      "ä»»ä½ķ": 1839,
      "è¿Ŀ": 1840,
      "ä¿ĿæĮģ": 1841,
      "å¦Ĥä½ķ": 1842,
      "è¿ĲåĬ¨": 1843,
      "åı³": 1844,
      "ãĢĤĊ(": 1845,
      "åºĶè¯¥": 1846,
      "èĹı": 1847,
      "æĿ¾": 1848,
      "ç¬¦": 1849,
      "çĶŁçī©": 1850,
      "éĿł": 1851,
      "ä¸ĢèĪ¬": 1852,
      ",æľĢ": 1853,
      "--": 1854,
      "åĬªåĬĽ": 1855,
      "åĲĮæĹ¶,": 1856,
      "ä¼ĺåĬ¿": 1857,
      "æĭ¿": 1858,
      "å¸Ń": 1859,
      "è®¿": 1860,
      "éŃ": 1861,
      "ãĢĤèĢĮ": 1862,
      "ç»ıéªĮ": 1863,
      "è¡¨çİ°": 1864,
      "æ°¸": 1865,
      "åĳ¢": 1866,
      "åĢŁ": 1867,
      "çĨŁ": 1868,
      "æĶ¹éĿ©": 1869,
      "å·¨": 1870,
      "æĪĺçķ¥": 1871,
      "ä¸Ģèµ·": 1872,
      "è¡¨ç¤º,": 1873,
      "çļĦæĹ¶åĢĻ": 1874,
      "å¡ĳ": 1875,
      ",æīĢä»¥": 1876,
      "çĤİ": 1877,
      "éĶĻ": 1878,
      "æ³Ľ": 1879,
      "è¡Ĺ": 1880,
      "è®¾æĸ½": 1881,
      "ç´¯": 1882,
      "é½": 1883,
      "ä¿Ŀéļľ": 1884,
      "è°Ī": 1885,
      "éĽ¶": 1886,
      "éĴ±": 1887,
      "çĶ²": 1888,
      "å¾ĹåĪ°": 1889,
      "çİ©": 1890,
      "æĪĲæľ¬": 1891,
      "åĽ¢éĺŁ": 1892,
      "ç²ī": 1893,
      "æĹ¥æľ¬": 1894,
      "åĤ¨": 1895,
      "æķ£": 1896,
      "ç»ıè¿ĩ": 1897,
      "è´¸": 1898,
      "èĥĮ": 1899,
      "èĽ": 1900,
      "åĪļ": 1901,
      "åĺ": 1902,
      "èµĦéĩĳ": 1903,
      "åı¶": 1904,
      "å²Ľ": 1905,
      "å¤ı": 1906,
      "æľºæ¢°": 1907,
      "åİŁåĽł": 1908,
      "ä¸ĭéĻį": 1909,
      "ä¸ĢçĽ´": 1910,
      "å¤®": 1911,
      "ç¾İåħĥ": 1912,
      "æī§è¡Į": 1913,
      "çĶļèĩ³": 1914,
      "èıľ": 1915,
      "èģĶåĲĪ": 1916,
      "åį«çĶŁ": 1917,
      "ç«ŀäºī": 1918,
      "åĪĺ": 1919,
      "åıªæľī": 1920,
      "æķĪæŀľ": 1921,
      "ãĢĤåħ¶": 1922,
      "å¸ģ": 1923,
      "åĲĮæĹ¶": 1924,
      "åĨ³å®ļ": 1925,
      "çİ°åľº": 1926,
      "åĨ²": 1927,
      "äº¤æĺĵ": 1928,
      "ç§Ł": 1929,
      "åºĬ": 1930,
      "æĶ»": 1931,
      "åĿļæĮģ": 1932,
      "åº¦,": 1933,
      "ç¨³å®ļ": 1934,
      "åĩıå°ĳ": 1935,
      "ä¸°å¯Į": 1936,
      "æ¾": 1937,
      "äº¤æµģ": 1938,
      "äºĭä¸ļ": 1939,
      "çŁ¿": 1940,
      ",åı¯ä»¥": 1941,
      "ä¸įä¼ļ": 1942,
      "äºĴèģĶç½ĳ": 1943,
      "åĬ³åĬ¨": 1944,
      "æĢ§èĥ½": 1945,
      "or": 1946,
      "ä¸¤ä¸ª": 1947,
      ",æ¯ı": 1948,
      "ç©ºéĹ´": 1949,
      "åĳĺå·¥": 1950,
      "è¯ļ": 1951,
      ",å¤§": 1952,
      "åħ³æ³¨": 1953,
      "ç»ĵæŀľ": 1954,
      "éĶ®": 1955,
      "è·Ŀ": 1956,
      "åĬ±": 1957,
      "æĸ½å·¥": 1958,
      ",æĽ´": 1959,
      "èĪŀ": 1960,
      "åıĳå±ķçļĦ": 1961,
      "éľ²": 1962,
      "é¡¾": 1963,
      "ä¼ĺç§Ģ": 1964,
      "åĪ¤": 1965,
      "çĪ¶": 1966,
      ",åĲĮæĹ¶": 1967,
      "ç®±": 1968,
      "åºĶå½ĵ": 1969,
      "al": 1970,
      "éģĹ": 1971,
      "æľĭ": 1972,
      "ä¸Ģç§į": 1973,
      "æĪª": 1974,
      "éŁ³ä¹Ĳ": 1975,
      "çĸ¾çĹħ": 1976,
      "æł¸å¿ĥ": 1977,
      "æķĳ": 1978,
      "èĸ": 1979,
      "åłĤ": 1980,
      "çĽŁ": 1981,
      "å®ŀéªĮ": 1982,
      "ä¹İ": 1983,
      "ç¬Ķ": 1984,
      "ãĢĤâĢľ": 1985,
      "æŀ¶": 1986,
      "åıĺåĮĸ": 1987,
      "äº®": 1988,
      "åįıä¼ļ": 1989,
      "åĨľä¸ļ": 1990,
      "å°ļ": 1991,
      "æ±ł": 1992,
      "éģ¿": 1993,
      "ä½įäºİ": 1994,
      "æ´Ĺ": 1995,
      "æĿ¥èĩª": 1996,
      "åıĹåĪ°": 1997,
      "æĢİ": 1998,
      "æ¯ķä¸ļ": 1999,
      "å®¶åºŃ": 2000,
      "å®Ĺ": 2001,
      ",ä»¥åıĬ": 2002,
      "åªĴä½ĵ": 2003,
      "ä»ĸçļĦ": 2004,
      "çĶ°": 2005,
      ",èĢĮä¸Ķ": 2006,
      "ä¼ĳ": 2007,
      "è¿Ļç§į": 2008,
      ",å®ĥ": 2009,
      "çİ¯ä¿Ŀ": 2010,
      "è¾Ĩ": 2011,
      "åĮºåŁŁ": 2012,
      "èĤī": 2013,
      "çļĦé«ĺ": 2014,
      "èģĺ": 2015,
      "æīĭæľº": 2016,
      "ä½ĵèĤ²": 2017,
      "æ¶ī": 2018,
      "é£İéĻ©": 2019,
      "ä¸Ģæ¬¡": 2020,
      "æŃ£åľ¨": 2021,
      "èĢĥè¯ķ": 2022,
      "å½Ĵ": 2023,
      "æĪĳä»¬çļĦ": 2024,
      "èª": 2025,
      "åĬłå·¥": 2026,
      "å²Ĺ": 2027,
      ",ä¸İ": 2028,
      "æŃ£å¼ı": 2029,
      "æ¸Ĳ": 2030,
      "èĭ¦": 2031,
      "æĢ§çļĦ": 2032,
      "é¡µ": 2033,
      "æ±¡æŁĵ": 2034,
      "åħĪè¿Ľ": 2035,
      "ç¡¬": 2036,
      "é¡¶": 2037,
      "æ¢¦": 2038,
      "at": 2039,
      "ä¸¥éĩį": 2040,
      "åıĬæĹ¶": 2041,
      "å®¹æĺĵ": 2042,
      "åĲī": 2043,
      "èĩªåĬ¨": 2044,
      "çĸĳ": 2045,
      "æĽ´åĬł": 2046,
      "éĺ¶æ®µ": 2047,
      "çĽĽ": 2048,
      "ä¸ºâĢľ": 2049,
      "éĩĬ": 2050,
      "çĬ¯": 2051,
      "åķĨä¸ļ": 2052,
      "åħ·ä½ĵ": 2053,
      "éĻ¤äºĨ": 2054,
      "çī¹èī²": 2055,
      "èµĦäº§": 2056,
      "ä¸»é¢ĺ": 2057,
      "çº¸": 2058,
      "æľĭåıĭ": 2059,
      ",å½ĵ": 2060,
      "åİļ": 2061,
      "ç½ª": 2062,
      "çĩĥ": 2063,
      "èĢģå¸Ī": 2064,
      "æ´¾": 2065,
      "æĸĹ": 2066,
      "æİ¥åıĹ": 2067,
      "ç¤¼": 2068,
      "éĿĻ": 2069,
      "è§¦": 2070,
      "æ³¨åĨĮ": 2071,
      "è§Ī": 2072,
      "éĻĨ": 2073,
      "âĢĿãĢĤĊ": 2074,
      "è·µ": 2075,
      "âĢĿãĢģ": 2076,
      "è¿ĲèĲ¥": 2077,
      "è¯į": 2078,
      "ä¼´": 2079,
      "å¤ľ": 2080,
      "çľĭåĪ°": 2081,
      "æĮĩå¯¼": 2082,
      "åħħåĪĨ": 2083,
      "æĪĲç»©": 2084,
      "å¹¿æ³Ľ": 2085,
      "åħ¬å¼Ģ": 2086,
      "éĩĮ,": 2087,
      "å°¤": 2088,
      "è¿ĺæľī": 2089,
      "æ³°": 2090,
      "ä¿Ŀè¯ģ": 2091,
      "æħ¢": 2092,
      "æ¹¾": 2093,
      "æİªæĸ½": 2094,
      "é²ľ": 2095,
      "æ£Ģæµĭ": 2096,
      "èĥ¶": 2097,
      "çĤ¹,": 2098,
      "å³°": 2099,
      "éķ¿æľŁ": 2100,
      "å®ľ": 2101,
      "æĺ¯ä¸Ģä¸ª": 2102,
      "å½¢å¼ı": 2103,
      "éĻįä½İ": 2104,
      "è®¨": 2105,
      "å¹´åº¦": 2106,
      "åĬŀåħ¬": 2107,
      "è´·": 2108,
      "ãĢģé«ĺ": 2109,
      "æĹłæ³ķ": 2110,
      "çĥĪ": 2111,
      "ä¸įä»ħ": 2112,
      "æ£ĢæŁ¥": 2113,
      ",åĽłä¸º": 2114,
      "å°ģ": 2115,
      "æĺ¯åľ¨": 2116,
      "å§Ķåĳĺä¼ļ": 2117,
      "å¸¦æĿ¥": 2118,
      "æľĿ": 2119,
      "ä¸Ŀ": 2120,
      "å·¥èīº": 2121,
      "çĽĺ": 2122,
      "æ´ĭ": 2123,
      "çŃĶ": 2124,
      "é¹": 2125,
      "å·¥ä½ľ,": 2126,
      "çļĦæĸ°": 2127,
      "çĹĽ": 2128,
      "æ··": 2129,
      "åĪĽéĢł": 2130,
      "è°ĥæķ´": 2131,
      "åĪ¸": 2132,
      "åĩºäºĨ": 2133,
      "è¯Ĺ": 2134,
      "æīĵéĢł": 2135,
      "æķħäºĭ": 2136,
      "ãĢĤæŃ¤": 2137,
      "è¯¾ç¨ĭ": 2138,
      "èĻĳ": 2139,
      "éĽ·": 2140,
      "æĢĢ": 2141,
      "è½¯ä»¶": 2142,
      "ä¹ĺ": 2143,
      "åĿĢ": 2144,
      "æĹ¢": 2145,
      "å®ĮåĸĦ": 2146,
      "es": 2147,
      "å¹ķ": 2148,
      "åīį,": 2149,
      "åĪĨéĴŁ": 2150,
      "æ±ĩ": 2151,
      "åĲİçļĦ": 2152,
      "ç¬¦åĲĪ": 2153,
      "æīįèĥ½": 2154,
      "èº«ä½ĵ": 2155,
      "åŁºåľ°": 2156,
      "åĪ¶ä½ľ": 2157,
      "éĢĶ": 2158,
      "èµĦæł¼": 2159,
      "æĿ¥è¶Ĭ": 2160,
      "æĺİæĺ¾": 2161,
      "è§ĦèĮĥ": 2162,
      "åıĳæĮ¥": 2163,
      "æķ°åŃĹ": 2164,
      "èĳ£": 2165,
      "åįĸ": 2166,
      "èªī": 2167,
      "åģļå¥½": 2168,
      "åĩº,": 2169,
      "å®£ä¼ł": 2170,
      "æĵįä½ľ": 2171,
      "çĶµè§Ĩ": 2172,
      "åħ³éĶ®": 2173,
      "è¶ĬæĿ¥è¶Ĭ": 2174,
      "éĽĦ": 2175,
      "æĿŁ": 2176,
      "çģ¯": 2177,
      "ä¼°": 2178,
      "ä¸Ĭå¸Ĥ": 2179,
      "åĲĪåĲĮ": 2180,
      "åĽłç´ł": 2181,
      "å¹¸": 2182,
      "éª¨": 2183,
      "èıĮ": 2184,
      "æľ«": 2185,
      "çī©æµģ": 2186,
      "ä¸»ä»»": 2187,
      "åħ¬åħ±": 2188,
      "è°ĥæŁ¥": 2189,
      "èĲ½å®ŀ": 2190,
      "éĩıçļĦ": 2191,
      "éĤ®": 2192,
      "æ»ĳ": 2193,
      "è¿Ĳè¡Į": 2194,
      "æĿ¨": 2195,
      "é±": 2196,
      "èĥŀ": 2197,
      "æ»¡è¶³": 2198,
      "ç¼©": 2199,
      "ä»Ĭå¤©": 2200,
      "è¿Ĳè¾ĵ": 2201,
      "è¶£": 2202,
      "æĥł": 2203,
      "å±ŀäºİ": 2204,
      "åĴ¨": 2205,
      "åĲ¨": 2206,
      "æĦıè§ģ": 2207,
      "è¸": 2208,
      "æ´ģ": 2209,
      "æľºåħ³": 2210,
      "å¿«éĢŁ": 2211,
      "çĶŁåĳ½": 2212,
      "å¼ĢæĶ¾": 2213,
      "é±¼": 2214,
      "éĢļçŁ¥": 2215,
      "èĪ¹": 2216,
      "ä¸Ńå¤®": 2217,
      "å®½": 2218,
      "æĸ¹åĲĳ": 2219,
      "é½Ĳ": 2220,
      "é¼ĵ": 2221,
      "åľ£": 2222,
      "èĤ¡ä»½": 2223,
      "èĨľ": 2224,
      "çĥŁ": 2225,
      "åĮĸåŃ¦": 2226,
      "æħ§": 2227,
      "æľºä¼ļ": 2228,
      "æ¦Ĥ": 2229,
      "åĪ¶åº¦": 2230,
      "åĴ¨è¯¢": 2231,
      "äº¿åħĥ,": 2232,
      "æĤī": 2233,
      "çļĦéĩįè¦ģ": 2234,
      "åĬĽ,": 2235,
      "å»ºè®®": 2236,
      "èĶ": 2237,
      "ç³ĸ": 2238,
      "ä¸Ģæł·": 2239,
      "é«ĺçļĦ": 2240,
      "çº·": 2241,
      "ç¡®å®ļ": 2242,
      "ä¿ĿéĻ©": 2243,
      "çİī": 2244,
      "æĢĿæĥ³": 2245,
      "æ¶Īè´¹èĢħ": 2246,
      "ç»ĦæĪĲ": 2247,
      "è§Ĩé¢ĳ": 2248,
      ",åĽłæŃ¤": 2249,
      "èµĦæĸĻ": 2250,
      "åĲĹ": 2251,
      "å´": 2252,
      "çĲĨå¿µ": 2253,
      "åĿĲ": 2254,
      "ĠS": 2255,
      "åĮĸãĢģ": 2256,
      "æļĸ": 2257,
      "ãĢĤä»ĸ": 2258,
      "ä¸¾åĬŀ": 2259,
      "ç¦ģ": 2260,
      "çħ¤": 2261,
      "çĽĳçĿ£": 2262,
      "ç»¿èī²": 2263,
      "åĳĪ": 2264,
      "åĵĪ": 2265,
      "æ¡£": 2266,
      "æ¶¨": 2267,
      "å¡Ķ": 2268,
      "å¹³æĸ¹": 2269,
      "å©ļ": 2270,
      "éĽª": 2271,
      "ä»»åĬ¡": 2272,
      "%ãĢĤ": 2273,
      "el": 2274,
      "æĪĳçļĦ": 2275,
      "å¤§,": 2276,
      "èĤ¤": 2277,
      "æĪĲæŀľ": 2278,
      "ic": 2279,
      "åľĨ": 2280,
      "æĸ°éĹ»": 2281,
      ",åį³": 2282,
      "è´´": 2283,
      "åĸľæ¬¢": 2284,
      "éļĶ": 2285,
      "å®Įåħ¨": 2286,
      "æı¡": 2287,
      "ç©¿": 2288,
      "çī©è´¨": 2289,
      "åı¥": 2290,
      "ä¸Ńåįİ": 2291,
      "æĿ¡Ġ": 2292,
      "å·¦åı³": 2293,
      "æĸĩä»¶": 2294,
      ",åıª": 2295,
      "æĭŁ": 2296,
      "æķ´ä½ĵ": 2297,
      "å°ıæĹ¶": 2298,
      "åı¬": 2299,
      "è¯º": 2300,
      "å®ŀè·µ": 2301,
      "è´¡": 2302,
      "ä½ĵéªĮ": 2303,
      "éĩįå¤§": 2304,
      "å¯»": 2305,
      "åĦ¿ç«¥": 2306,
      "äºĨãĢĤ": 2307,
      "æĺ¾ç¤º,": 2308,
      "è¿ª": 2309,
      "æĹĹ": 2310,
      "æĿ¯": 2311,
      "æ£®": 2312,
      "æĺ¯åĲ¦": 2313,
      "æĬ¥åĲį": 2314,
      "è·¨": 2315,
      "åĮĸçļĦ": 2316,
      "æ´¥": 2317,
      "æ¯Ľ": 2318,
      "åı«": 2319,
      "æĻ®éĢļ": 2320,
      "ãĢĭ,": 2321,
      "ç§ĳçłĶ": 2322,
      ",åĲĮæ¯Ķ": 2323,
      ",è¦ģ": 2324,
      "èľ": 2325,
      "ç§ģ": 2326,
      "å±ĭ": 2327,
      "æī¶": 2328,
      "ç®Ģåįķ": 2329,
      "Ġ(": 2330,
      "æķ´ä¸ª": 2331,
      "åĶ±": 2332,
      "è¶ĭ": 2333,
      "ç½ļ": 2334,
      "éĴĪå¯¹": 2335,
      "è¿Ļæł·": 2336,
      "ç½²": 2337,
      "æĿ¥çľĭ": 2338,
      "èģĶç³»": 2339,
      "è¿ĩåİ»": 2340,
      "åĢº": 2341,
      "ç§ĭ": 2342,
      "ç¤¾åĮº": 2343,
      ",ä»ĸä»¬": 2344,
      ",å¦Ĥæŀľ": 2345,
      "æĮĳ": 2346,
      "çģ¾": 2347,
      "æķĻæİĪ": 2348,
      "æĺł": 2349,
      "æĹ§": 2350,
      "æī¬": 2351,
      "åĲ§": 2352,
      "æİĮ": 2353,
      "åľ³": 2354,
      "æĶ¹åıĺ": 2355,
      "å¾Ħ": 2356,
      "ç¯ĩ": 2357,
      "ç»Łè®¡": 2358,
      "éĽħ": 2359,
      "çĲĨè®º": 2360,
      "ç»Ĩèĥŀ": 2361,
      "ç©ºæ°Ķ": 2362,
      ",ä¸ŃåĽ½": 2363,
      "èī¯å¥½çļĦ": 2364,
      "é¦Ļæ¸¯": 2365,
      "éŁ©": 2366,
      "æ·±åľ³": 2367,
      "ç¼ĵ": 2368,
      "ä¸įåı¯": 2369,
      ")çļĦ": 2370,
      ",æĹł": 2371,
      "çĴ": 2372,
      "åİ»å¹´": 2373,
      "æĬĵ": 2374,
      "åĳ¼": 2375,
      "åĩºçļĦ": 2376,
      "ç¨ĭåºı": 2377,
      "æľ¬æ¬¡": 2378,
      "æĿĢ": 2379,
      "é²ģ": 2380,
      "ç¡®ä¿Ŀ": 2381,
      "ä¾ĽåºĶ": 2382,
      "æĭĵ": 2383,
      "è¯´:âĢľ": 2384,
      "èĽĭ": 2385,
      "çļĦäºĭ": 2386,
      "åĢį": 2387,
      "çĪĨ": 2388,
      "ä»İäºĭ": 2389,
      "it": 2390,
      "éĩİ": 2391,
      ")Ġ": 2392,
      "åĨ°": 2393,
      "å®¿": 2394,
      "çļĦæľĢ": 2395,
      "å½ĵåľ°": 2396,
      ",éĢļè¿ĩ": 2397,
      "éĥ½æľī": 2398,
      "éĥ¨ãĢģ": 2399,
      "æĦıè¯Ĩ": 2400,
      "æŃ£å¸¸": 2401,
      "æ¶Ĥ": 2402,
      "%ãĢĤĊ": 2403,
      "åĪĽä¸ļ": 2404,
      "æ²Ł": 2405,
      ",çĶ±": 2406,
      "çĺ": 2407,
      "ĠC": 2408,
      "æģ¶": 2409,
      "æ®Ĭ": 2410,
      "æĺ¯ä¸Ģç§į": 2411,
      "âĢĿãĢģâĢľ": 2412,
      "åĪ©æ¶¦": 2413,
      "ä¸¾è¡Į": 2414,
      "èĻļ": 2415,
      "æ¾³": 2416,
      "è¡ĮåĬ¨": 2417,
      "è¿·": 2418,
      "ä¸ĸçºª": 2419,
      "±ä¹Ĳ": 2420,
      "çº¯": 2421,
      "çļĦãĢĬ": 2422,
      "èļ": 2423,
      "ä¼¦": 2424,
      "å®īæİĴ": 2425,
      "çīĻ": 2426,
      "ç¬ĳ": 2427,
      "çĳŀ": 2428,
      "çŃīãĢĤ": 2429,
      "æ²ī": 2430,
      "æ¹¿": 2431,
      "ç§ĺ": 2432,
      "æľīçļĦ": 2433,
      "çľŁæŃ£": 2434,
      "åĪ¶å®ļ": 2435,
      "èµ¢": 2436,
      "å®«": 2437,
      "åĩĿ": 2438,
      "ä¼Ł": 2439,
      "è¯¯": 2440,
      "è£ģ": 2441,
      "çĬ¶æĢģ": 2442,
      "å°±ä¸ļ": 2443,
      "å¿ĥçĲĨ": 2444,
      "æĺİç¡®": 2445,
      "ç±³,": 2446,
      "é¢Ħè®¡": 2447,
      "ç§»åĬ¨": 2448,
      "äº¦": 2449,
      "å¼ķèµ·": 2450,
      "è¦": 2451,
      "èĲ¨": 2452,
      "å®īè£ħ": 2453,
      "åĬŀæ³ķ": 2454,
      "å¹³åĿĩ": 2455,
      "äººç±»": 2456,
      ",åĮħæĭ¬": 2457,
      "ä¹ĭåĲİ,": 2458,
      "åİĭåĬĽ": 2459,
      "å¦Ī": 2460,
      "ä¾µ": 2461,
      "ç¨ĭåº¦": 2462,
      "éĩĳå±ŀ": 2463,
      "èĤ¥": 2464,
      "æ·±åħ¥": 2465,
      ",åĬł": 2466,
      "èµĦæľ¬": 2467,
      "çŃīãĢĤĊ": 2468,
      "åħ¨éĥ¨": 2469,
      "æĲŃ": 2470,
      "åĬĽéĩı": 2471,
      "éĺµ": 2472,
      ",ä¹Łæĺ¯": 2473,
      "åħµ": 2474,
      "æľºåĪ¶": 2475,
      "èĩªèº«": 2476,
      ",å¹¶ä¸Ķ": 2477,
      "æ½®": 2478,
      "ä¸¥æł¼": 2479,
      "å¢ŀå¼º": 2480,
      "çļĦéĹ®é¢ĺ": 2481,
      "æµĵ": 2482,
      "æ²¿": 2483,
      "æĬķåħ¥": 2484,
      "çĥ§": 2485,
      "éĺħ": 2486,
      "ä¸ªæľĪ": 2487,
      "åĿı": 2488,
      "èĢĥèĻĳ": 2489,
      "ãĢĤå½ĵ": 2490,
      "æĢİä¹Ī": 2491,
      "è¿ħ": 2492,
      "æĦıä¹ī": 2493,
      "å¤ļä¸ª": 2494,
      "çĦ¶åĲİ": 2495,
      "æĢ§,": 2496,
      "æļ´": 2497,
      "åŃ¦ç§ĳ": 2498,
      "éķľ": 2499,
      "è¦Ĩ": 2500,
      "èĦĤ": 2501,
      "èĳ£äºĭ": 2502,
      "èĵĿ": 2503,
      "%çļĦ": 2504,
      "ä¹¦è®°": 2505,
      "åŃ¦ãĢģ": 2506,
      "æĬ¥éģĵ": 2507,
      "è¡£": 2508,
      "æ°ĳæĹı": 2509,
      "ä¸ºä¸»": 2510,
      "éĺ»": 2511,
      "å°¤åħ¶": 2512,
      "å¯¿": 2513,
      "åľŁåľ°": 2514,
      "æĪĲéķ¿": 2515,
      "åĨľæĿĳ": 2516,
      "åĩºåı£": 2517,
      "ç»ıçĲĨ": 2518,
      "è¿Ľè¡ĮäºĨ": 2519,
      "æ³¥": 2520,
      "èµ·æĿ¥": 2521,
      "éģ¿åħį": 2522,
      ")ãĢĤ": 2523,
      "å±±ä¸ľ": 2524,
      "åĶĲ": 2525,
      "ä¼Ĭ": 2526,
      "éĵĿ": 2527,
      "ä»¥æĿ¥,": 2528,
      "åĪº": 2529,
      "è¿ŀç»Ń": 2530,
      "è°·": 2531,
      "èĢĹ": 2532,
      "éĿ¢å¯¹": 2533,
      "åĵģè´¨": 2534,
      "ç¢³": 2535,
      "Â°": 2536,
      "ä¸Ģä½ĵ": 2537,
      "çĵ¦": 2538,
      "å¥ĭ": 2539,
      "æ½ľ": 2540,
      "è´¡çĮ®": 2541,
      "è·ĳ": 2542,
      "æķ°éĩı": 2543,
      "ä½łçļĦ": 2544,
      "æ¯Ķå¦Ĥ": 2545,
      "âĢĻ": 2546,
      "åıĳå±ķ,": 2547,
      "ä¸įè¿ĩ": 2548,
      "å¸Ŀ": 2549,
      ",ä»İèĢĮ": 2550,
      "åįģåĪĨ": 2551,
      "æķĪçİĩ": 2552,
      "èĪªç©º": 2553,
      "éļĲ": 2554,
      "æĻºæħ§": 2555,
      "æµª": 2556,
      "é¾Ħ": 2557,
      "åĩĨå¤ĩ": 2558,
      "åķĨåĵģ": 2559,
      "åĨ¬": 2560,
      "èĭ±åĽ½": 2561,
      "çļĦãĢĤĊ": 2562,
      "æĻ¯åĮº": 2563,
      "éģį": 2564,
      "èĴĻ": 2565,
      "èħĲ": 2566,
      "åĲĪçĲĨ": 2567,
      "åħ¬åı¸çļĦ": 2568,
      "å¹¿å·ŀ": 2569,
      "é©¾": 2570,
      "çļ®èĤ¤": 2571,
      "ä¼ĺè´¨": 2572,
      "æ¸©åº¦": 2573,
      "ä¸įåĲĮçļĦ": 2574,
      "ç¹": 2575,
      "éĩĩåıĸ": 2576,
      "ç¼ĺ": 2577,
      "è´¯": 2578,
      ",è¯·": 2579,
      "æģ©": 2580,
      "æŃ¤æ¬¡": 2581,
      "ç£¨": 2582,
      "ç¾¤ä¼Ĺ": 2583,
      "æĹ¶æľŁ": 2584,
      "åĲĦç±»": 2585,
      "èĦļ": 2586,
      "ç¹ģ": 2587,
      "ä¼Ļ": 2588,
      "æĬĺ": 2589,
      "åĭĩ": 2590,
      "çĶµè¯Ŀ": 2591,
      ":Ġ": 2592,
      "ãĢĭ(": 2593,
      "éĩįåºĨ": 2594,
      "æĩ": 2595,
      "%;": 2596,
      "å¾ª": 2597,
      "ä¸»ä¹ī": 2598,
      "åħ¼": 2599,
      "åįĩçº§": 2600,
      "å¹¿ä¸ľ": 2601,
      "æµĻ": 2602,
      "è¯Ńè¨Ģ": 2603,
      "åľĪ": 2604,
      "ä¾§": 2605,
      "åħ¬å¸ĥ": 2606,
      "çŃī,": 2607,
      "ãĢĭãĢģ": 2608,
      "å¤§åŀĭ": 2609,
      "å½»": 2610,
      "åģı": 2611,
      "ç»Łä¸Ģ": 2612,
      "æĸĩæĺİ": 2613,
      "åĬĽçļĦ": 2614,
      "æ¬¢è¿İ": 2615,
      "çļĩ": 2616,
      "åĪĬ": 2617,
      "ç»´æĬ¤": 2618,
      "ç»ķ": 2619,
      "æ°§åĮĸ": 2620,
      ",è¯¥": 2621,
      "et": 2622,
      "éĩįè¦ģçļĦ": 2623,
      "åºĦ": 2624,
      "åħ·å¤ĩ": 2625,
      "å¡ŀ": 2626,
      "æ¢ģ": 2627,
      "æĶ¹åĸĦ": 2628,
      "å¥½,": 2629,
      "ro": 2630,
      "ãĢĤæĪĳ": 2631,
      "è¾ĳ": 2632,
      "æ¬§æ´²": 2633,
      "åĵ¥": 2634,
      "çļĦæĥħåĨµ": 2635,
      "æģ¢": 2636,
      "éĽĨä¸Ń": 2637,
      "åħĪçĶŁ": 2638,
      "æ¼«": 2639,
      "éĹŃ": 2640,
      "çĦ¶èĢĮ": 2641,
      "ãĢģæĸ°": 2642,
      "æ¢ħ": 2643,
      "ä¼į": 2644,
      "è´¹çĶ¨": 2645,
      "çĽ¸æ¯Ķ": 2646,
      "å±ķç¤º": 2647,
      "æĿ°": 2648,
      "è´¸æĺĵ": 2649,
      "çĦ¦": 2650,
      "æĬĢèĥ½": 2651,
      "å¼±": 2652,
      "æ´Ľ": 2653,
      "å¹¿åĳĬ": 2654,
      "è¯Ħä»·": 2655,
      ",åħ¨": 2656,
      "ãĢĤå¦Ĥæŀľ": 2657,
      "åĳ¢?": 2658,
      "ãĢĤĊç¬¬": 2659,
      "éĢŁåº¦": 2660,
      "è§īå¾Ĺ": 2661,
      "åĢĴ": 2662,
      "sĠ": 2663,
      "å¹¶ä¸į": 2664,
      "éľĩ": 2665,
      "ç¿»": 2666,
      "å¤ļçļĦ": 2667,
      "æľĪä»½": 2668,
      "æĥĬ": 2669,
      "ä¹Ļ": 2670,
      "åİŁåĪĻ": 2671,
      "åķĨåĬ¡": 2672,
      "çī¹çĤ¹": 2673,
      "ä¸įå¾Ĺ": 2674,
      ",çĶ¨": 2675,
      "____": 2676,
      "è¡¡": 2677,
      ",æľ¬": 2678,
      "åĶ¯": 2679,
      "ãĢĤ(": 2680,
      "èĤº": 2681,
      "çĽ¸å¯¹": 2682,
      "åıįåºĶ": 2683,
      "ä¸Ńå°ı": 2684,
      "è´¢æĶ¿": 2685,
      "è´¥": 2686,
      "æı´": 2687,
      "æ¶Īæģ¯": 2688,
      "åį·": 2689,
      "çļĦå·¥ä½ľ": 2690,
      "çī¹æ®Ĭ": 2691,
      "æĶ¯ä»ĺ": 2692,
      "å¢Ļ": 2693,
      ",éĤ£": 2694,
      "è¯¦": 2695,
      "ãĢĤĊæį®": 2696,
      "åŃĶ": 2697,
      "å¹¿å¤§": 2698,
      "ä¼ģä¸ļçļĦ": 2699,
      "èĤ¯": 2700,
      "æĲº": 2701,
      "æģ¢å¤į": 2702,
      "å«": 2703,
      "éĵģè·¯": 2704,
      "åĩ¡": 2705,
      "å²Ĺä½į": 2706,
      "èĬĤèĥ½": 2707,
      "éĥ½ä¼ļ": 2708,
      "åĲĮåŃ¦": 2709,
      "è¯´æĺİ": 2710,
      "ä¸įå°ĳ": 2711,
      "åĮ»åŃ¦": 2712,
      "æ±Łèĭı": 2713,
      "å¢¨": 2714,
      "åĽ°éļ¾": 2715,
      "åĨħçļĦ": 2716,
      "åľ°äº§": 2717,
      "å¦ĤæŃ¤": 2718,
      "æ©": 2719,
      "è¿ĳå¹´": 2720,
      "éģĵè·¯": 2721,
      ",åıĪ": 2722,
      "é¡¿": 2723,
      "è¾ħ": 2724,
      "æĶ¿æ²»": 2725,
      "st": 2726,
      "é«ĺéĢŁ": 2727,
      "ç»ĵæĿŁ": 2728,
      "æ³¡": 2729,
      "......": 2730,
      "ä¾Ŀæ³ķ": 2731,
      "æµĭè¯ķ": 2732,
      "æº¶": 2733,
      "æĳ©": 2734,
      "åĲ¸å¼ķ": 2735,
      ")ãĢĤĊ": 2736,
      "å¤§ä¼ļ": 2737,
      "è®¤è¯Ĩ": 2738,
      "æĿ¥è¯´,": 2739,
      "è´·æ¬¾": 2740,
      "è®¤è¯ģ": 2741,
      "å¤ļç§į": 2742,
      "å¼ĥ": 2743,
      "åĲĦåľ°": 2744,
      "è¯ģæĺİ": 2745,
      "æĪªèĩ³": 2746,
      "çĽĳç®¡": 2747,
      "è´Ńä¹°": 2748,
      ",Ġ": 2749,
      "åħ¬è·¯": 2750,
      "å¦ĩ": 2751,
      "äºĨãĢĤĊ": 2752,
      "åŃ¦æľ¯": 2753,
      "çĽĲ": 2754,
      "é©¶": 2755,
      "è¿ĩç¨ĭä¸Ń": 2756,
      "é¦ĸåħĪ": 2757,
      "âĢĺ": 2758,
      "æĪĲåĳĺ": 2759,
      "æİ¨å¹¿": 2760,
      "å¡«": 2761,
      "æľĢå¤§çļĦ": 2762,
      "åįıè®®": 2763,
      "ç¥ĸ": 2764,
      "åĲ´": 2765,
      "æķ¬": 2766,
      "è±ª": 2767,
      "æľīä¸Ģ": 2768,
      "è¿ĻéĩĮ": 2769,
      "æĸ¹éĿ¢,": 2770,
      "éĢĴ": 2771,
      "çıł": 2772,
      "ä¹ĭåĲİ": 2773,
      "æ¸¸å®¢": 2774,
      "çŃ¹": 2775,
      "æĮ¯": 2776,
      "äºĨâĢľ": 2777,
      "åĽĽå·Ŀ": 2778,
      "ç»ıåİĨ": 2779,
      "çļĦå½±åĵį": 2780,
      "çĻĮ": 2781,
      "åĪĳ": 2782,
      "æĸ¹ä¾¿": 2783,
      "æķı": 2784,
      "é¥Ń": 2785,
      "é«ĺ,": 2786,
      "ä¹ĭåīį": 2787,
      "éĩįè§Ĩ": 2788,
      "è¡¨éĿ¢": 2789,
      "åįļå£«": 2790,
      "å·¥ä½ľçļĦ": 2791,
      "äº¡": 2792,
      "æ³ī": 2793,
      "æĢ§ãĢģ": 2794,
      "éĥĳ": 2795,
      "ãĢĤåĽłæŃ¤": 2796,
      "çĹħæ¯Ĵ": 2797,
      "å±ı": 2798,
      "ĠM": 2799,
      "æ¯«": 2800,
      "åĬłåħ¥": 2801,
      "ãĢĤæĪĳä»¬": 2802,
      "å®¾": 2803,
      "è¯ģåĪ¸": 2804,
      "æľºåĻ¨": 2805,
      "åĿĽ": 2806,
      "å°Ĩåľ¨": 2807,
      "ä¸¹": 2808,
      "äº¿ç¾İåħĥ": 2809,
      "ä¸ľè¥¿": 2810,
      "éī": 2811,
      "åĺī": 2812,
      "çĹĩçĬ¶": 2813,
      "å°±ä¼ļ": 2814,
      "éī´": 2815,
      "éĿĴå¹´": 2816,
      "è§Ĥä¼Ĺ": 2817,
      "ac": 2818,
      "å¼¹": 2819,
      "ãĢģå¤§": 2820,
      "è·Ŀç¦»": 2821,
      "ä½įç½®": 2822,
      "åĩŃ": 2823,
      "éĢĲæ¸Ĳ": 2824,
      "å¹´è½»": 2825,
      ",è¿ĻäºĽ": 2826,
      "åħ¬éĩĮ": 2827,
      "ç¤ºèĮĥ": 2828,
      "æ¯Ķä¾ĭ": 2829,
      "çĶµæ±ł": 2830,
      "çļĦå°ı": 2831,
      "çĲĨè§£": 2832,
      "ä¹Łæľī": 2833,
      "ç»ıå¸¸": 2834,
      "åĪĽä½ľ": 2835,
      "èĢ³": 2836,
      "æī¿æĭħ": 2837,
      "è´Łè´£äºº": 2838,
      "åĪĨä¸º": 2839,
      "å±ħæ°ĳ": 2840,
      "åĬ¨åĬĽ": 2841,
      "å¤ļå¹´": 2842,
      "ãĢĭçļĦ": 2843,
      "äº§åĵģçļĦ": 2844,
      "è¶ĭåĬ¿": 2845,
      "å¿ĺ": 2846,
      "äººåı£": 2847,
      "è®¤çľŁ": 2848,
      "æĿ¥è¯´": 2849,
      "ä¿Ħ": 2850,
      "å¤ªéĺ³": 2851,
      "è¯¸": 2852,
      "åıĮæĸ¹": 2853,
      "åŃĻ": 2854,
      "èµı": 2855,
      "é«ĺæł¡": 2856,
      "çİ»": 2857,
      "æĦŁè§ī": 2858,
      "Â°C": 2859,
      "åĮºãĢģ": 2860,
      "çļĦè¯Ŀ": 2861,
      "èµŀ": 2862,
      "èŀįåĲĪ": 2863,
      "çĽ¸ä¿¡": 2864,
      "é£Łçī©": 2865,
      "ä¸įè¦ģ": 2866,
      "çªģçł´": 2867,
      "ä¼ļè®¡": 2868,
      "åĩºçīĪ": 2869,
      "ä¾ĭå¦Ĥ": 2870,
      "æľĹ": 2871,
      "åıªæĺ¯": 2872,
      "èĭĹ": 2873,
      "æģĴ": 2874,
      "åı¦ä¸Ģ": 2875,
      "æµĻæ±Ł": 2876,
      "om": 2877,
      "è¿¹": 2878,
      "å¹¼": 2879,
      ",è¿Ļæĺ¯": 2880,
      "å°Ĭ": 2881,
      "ãĢĤä»İ": 2882,
      "çĽ®çļĦ": 2883,
      "ä¹±": 2884,
      ",çĽ®åīį": 2885,
      "çĴĥ": 2886,
      "æİ¨åĩº": 2887,
      "æ³ķéĻ¢": 2888,
      ",ä¸»è¦ģ": 2889,
      "è´Ŀ": 2890,
      "å¤Ħäºİ": 2891,
      "çŁ¥åĲį": 2892,
      "æ¦ľ": 2893,
      "çĶŁçļĦ": 2894,
      "éĢĤåĲĪ": 2895,
      "æľºåľº": 2896,
      "é¢ľ": 2897,
      "å¹²éĥ¨": 2898,
      "çªĹ": 2899,
      "æľĢåĲİ": 2900,
      "ä¸»ç®¡": 2901,
      "äººå£«": 2902,
      "âĢĿĊ": 2903,
      "ĠA": 2904,
      "åħļåĳĺ": 2905,
      "çŀ": 2906,
      "è¿Ļæł·çļĦ": 2907,
      "æĮĤ": 2908,
      "ç®Ģç§°": 2909,
      "ä¸ĭçļĦ": 2910,
      "åħ¬åĳĬ": 2911,
      "ãĢģä¸Ń": 2912,
      "æĦŁæŁĵ": 2913,
      "åģ¿": 2914,
      "æĮĳæĪĺ": 2915,
      "ä¸įåĪ°": 2916,
      "åĳĬè¯ī": 2917,
      "åħ¬åĽŃ": 2918,
      "æĿ¥æºĲ": 2919,
      "å¼Ł": 2920,
      "å¤ļæķ°": 2921,
      "è½¨": 2922,
      "æĹ¥å¸¸": 2923,
      "ç´¯è®¡": 2924,
      "èģĮå·¥": 2925,
      "æį·": 2926,
      "éĤĢ": 2927,
      "èĳĹåĲį": 2928,
      "æĽ¿": 2929,
      "èİ±": 2930,
      "åıĬåħ¶": 2931,
      "è®¡ç®Ĺæľº": 2932,
      "è°ĵ": 2933,
      "çĽ¸å½ĵ": 2934,
      "çĥ¯": 2935,
      "æĥ¯": 2936,
      "æİĴåĲį": 2937,
      "ç«Ł": 2938,
      "å¤§éĩı": 2939,
      "ä»ĸä»¬çļĦ": 2940,
      "éĺ´": 2941,
      "çīĽçļ®": 2942,
      "ãĢĤè¯¥": 2943,
      "éĨĴ": 2944,
      "è¦ĨçĽĸ": 2945,
      "åĿ¡": 2946,
      "åĢ¼å¾Ĺ": 2947,
      "æĹ¥èµ·": 2948,
      "èĲ¥ä¸ļ": 2949,
      "æ¤įçī©": 2950,
      ",æĪĸ": 2951,
      ",å¥¹": 2952,
      "æ±¡æ°´": 2953,
      "ç¼´": 2954,
      "å¾·åĽ½": 2955,
      "çĻ£": 2956,
      "åħ¶ä¸Ń": 2957,
      "éĢļå¸¸": 2958,
      "ĠP": 2959,
      ",åĨį": 2960,
      "èħ¾": 2961,
      "æļĤ": 2962,
      "æľĢé«ĺ": 2963,
      "ä¼¯": 2964,
      "æ¶īåıĬ": 2965,
      "å·ŀå¸Ĥ": 2966,
      "çĶĺ": 2967,
      "å®ĩ": 2968,
      "èĥ¡": 2969,
      "il": 2970,
      "äºĭä»¶": 2971,
      "ä¸īä¸ª": 2972,
      "åŃ£åº¦": 2973,
      "ç²Ĵ": 2974,
      "æİ¥è§¦": 2975,
      "èĲ¥åħ»": 2976,
      ";Ċ(": 2977,
      "çİ»çĴĥ": 2978,
      "ãĢĳ": 2979,
      "å·¥åħ·": 2980,
      "ãĢĭãĢģãĢĬ": 2981,
      "åĲĦé¡¹": 2982,
      "ãĢĲ": 2983,
      "çĲĥéĺŁ": 2984,
      "æĸ¹éĿ¢çļĦ": 2985,
      "è°ģ": 2986,
      "èįĲ": 2987,
      "æİ¢ç´¢": 2988,
      "ä»¥æĿ¥": 2989,
      "æĪĲéĥ½": 2990,
      "çİ°è±¡": 2991,
      "ãĢĤçĽ®åīį": 2992,
      "åĽ½åĬ¡": 2993,
      "æľīæľº": 2994,
      "äººå·¥": 2995,
      "çĻ»è®°": 2996,
      "ç¯®": 2997,
      "åĲĮæ¯Ķ": 2998,
      "å®¶éķ¿": 2999,
      "çļĦäº§åĵģ": 3000,
      "æ¥ļ": 3001,
      "çĤ¼": 3002,
      "ç¡ķ": 3003,
      "ä¸´åºĬ": 3004,
      "åĭ¤": 3005,
      "æĲľ": 3006,
      "åı¬å¼Ģ": 3007,
      "è½´": 3008,
      "ä¼ı": 3009,
      "åĮħè£ħ": 3010,
      "åĬŀçĲĨ": 3011,
      "åĮĸå·¥": 3012,
      "æ´ª": 3013,
      "çīĽçļ®çĻ£": 3014,
      "è¯ķéªĮ": 3015,
      "è½¦è¾Ĩ": 3016,
      "èĢħçļĦ": 3017,
      "å§ĵ": 3018,
      "çº¤": 3019,
      "åįĬå¹´": 3020,
      "èĩªä¸»": 3021,
      "éĵľ": 3022,
      "èŀįèµĦ": 3023,
      "æ·»": 3024,
      "ç±į": 3025,
      "å®£å¸ĥ": 3026,
      "ol": 3027,
      "éģµ": 3028,
      "åĪĨåŃĲ": 3029,
      "çļĦä¸»è¦ģ": 3030,
      "äººãĢģ": 3031,
      ",éĥ½": 3032,
      "æĹ¨": 3033,
      "åĨħéĥ¨": 3034,
      "åįĹçľģ": 3035,
      "è´¢åĬ¡": 3036,
      "åĬ¨çī©": 3037,
      "æĪ´": 3038,
      "èº«ä»½": 3039,
      "ç»ĻäºĪ": 3040,
      "æľĢç»Ī": 3041,
      "äººãĢĤ": 3042,
      "çĶµåĬĽ": 3043,
      "éº»": 3044,
      "åĽ½åĬ¡éĻ¢": 3045,
      "è¯Ħä¼°": 3046,
      "åıĳè¡¨": 3047,
      "éĩįæĸ°": 3048,
      "æ²»çĲĨ": 3049,
      "é«ĺåº¦": 3050,
      "åħ¶å®ŀ": 3051,
      "èį¯çī©": 3052,
      "ä¸ģ": 3053,
      "am": 3054,
      "éĹ²": 3055,
      "åĪ·": 3056,
      "æ°ı": 3057,
      "é¢ĨåħĪ": 3058,
      "åĲĹ?": 3059,
      "èĩªçĶ±": 3060,
      "æıı": 3061,
      "ä¸Ģå¹´": 3062,
      "æĢķ": 3063,
      "å§Ĩ": 3064,
      "æ¶µ": 3065,
      "æ®ĭ": 3066,
      "è±Ĩ": 3067,
      "æĬ½": 3068,
      "èµµ": 3069,
      "æī¹åĩĨ": 3070,
      ",å¯¹äºİ": 3071,
      ",æĪĲä¸º": 3072,
      "łéģĵ": 3073,
      "åĪĨäº«": 3074,
      "èĬĤçĽ®": 3075,
      "ãĢģä¸ŃåĽ½": 3076,
      "æĺĮ": 3077,
      "åĲĮæľŁ": 3078,
      "å¿Ĩ": 3079,
      "æľºãĢģ": 3080,
      "éº¦": 3081,
      "åľ°åĿĢ": 3082,
      ",æĬĬ": 3083,
      "èĥĥ": 3084,
      "ä»ģ": 3085,
      "å¤įæĿĤ": 3086,
      "çĻ¾åĪĨ": 3087,
      "çļĦæĹ¶éĹ´": 3088,
      "æľīæīĢ": 3089,
      ",åħ·æľī": 3090,
      ",æĢ»": 3091,
      "å¥¶": 3092,
      "çĽ¸åºĶ": 3093,
      "æĸĩç«ł": 3094,
      "ç´łè´¨": 3095,
      "ä¹ĭéĹ´çļĦ": 3096,
      "æĻ¶": 3097,
      "åĲ¯åĬ¨": 3098,
      "ç´«": 3099,
      "èİ«": 3100,
      "éģŃ": 3101,
      "æ´ŀ": 3102,
      "è®°å½ķ": 3103,
      "é¼ĵåĬ±": 3104,
      "å®ĭ": 3105,
      ",åħ¬åı¸": 3106,
      "æİĮæı¡": 3107,
      "éļĨ": 3108,
      "æ·¡": 3109,
      "åıĳçĶµ": 3110,
      "æĪĲäºĨ": 3111,
      ",çĶļèĩ³": 3112,
      "å²¸": 3113,
      "çĭ¬ç«ĭ": 3114,
      "èĲ¥éĶĢ": 3115,
      "ä¸įè¶³": 3116,
      "âĢĿâĢľ": 3117,
      "è¯ģä¹¦": 3118,
      "èĢħ,": 3119,
      "ä¸ĵåĪ©": 3120,
      "éĢļä¿¡": 3121,
      "ãĢĤæį®": 3122,
      "ç¥Ŀ": 3123,
      "æ³ķè§Ħ": 3124,
      "é»ĺ": 3125,
      "ç±»åŀĭ": 3126,
      "äº«åıĹ": 3127,
      "èĤ¡ä¸ľ": 3128,
      "æİī": 3129,
      ",å®ŀçİ°": 3130,
      "åħĪåĲİ": 3131,
      "å½¢è±¡": 3132,
      "åľ¨çº¿": 3133,
      "ä¸Ģä¸ĭ": 3134,
      "è´¦": 3135,
      "åħļå§Ķ": 3136,
      "é¦ĸæ¬¡": 3137,
      "åĬłå¿«": 3138,
      "æĬµ": 3139,
      "è¿ħéĢŁ": 3140,
      "å£ģ": 3141,
      "éĺŁä¼į": 3142,
      "å¹´ä»£": 3143,
      "éĻ¶": 3144,
      "ä¸»åĬ¨": 3145,
      "å¯Ĵ": 3146,
      "å¤§åĪ©": 3147,
      "åįģäºĮ": 3148,
      "æ¯ıå¹´": 3149,
      "è¯ĳ": 3150,
      "æŃ£ç¡®": 3151,
      "äººæ°ĳæĶ¿åºľ": 3152,
      "æİ¨èįĲ": 3153,
      "è¿Ķ": 3154,
      "åĮ»çĶŁ": 3155,
      "é¸¡": 3156,
      "èĢĮè¨Ģ": 3157,
      "æĺ¯âĢľ": 3158,
      "è®¾ç«ĭ": 3159,
      "é¢Ħéĺ²": 3160,
      "éĿ¢ä¸´": 3161,
      "yĠ": 3162,
      "ä¸Ĭè¿°": 3163,
      "æīİ": 3164,
      "å¾®ä¿¡": 3165,
      "ä¹Į": 3166,
      "èį·": 3167,
      "æĭĽçĶŁ": 3168,
      "å¾Ĳ": 3169,
      "éĻĲåĪ¶": 3170,
      "çĬ¶åĨµ": 3171,
      "è®Ńç»ĥ": 3172,
      "ä»įçĦ¶": 3173,
      "èĪĴ": 3174,
      "æĬ¢": 3175,
      ",èĥ½": 3176,
      "çľŁå®ŀ": 3177,
      "åĭĴ": 3178,
      "ä¹Łä¸į": 3179,
      "çļĦæĸ¹å¼ı": 3180,
      "ä¼łæĴŃ": 3181,
      "ä¼ĺåĮĸ": 3182,
      "æ¯ıå¤©": 3183,
      ",è¢«": 3184,
      "è¿ĲçĶ¨": 3185,
      "çļĦåŁºç¡Ģ": 3186,
      "ä¸ĭåįĪ": 3187,
      "åŃ¦ä¼ļ": 3188,
      "æĦĪ": 3189,
      "æľĢå¤§": 3190,
      "è¿½æ±Ĥ": 3191,
      "èĳ¡": 3192,
      "æĽ¼": 3193,
      ",æıĲé«ĺ": 3194,
      "ch": 3195,
      "ä¹ı": 3196,
      "å§ĭç»Ī": 3197,
      "ä¿Ĺ": 3198,
      "åķĨæłĩ": 3199,
      "çıį": 3200,
      "æĶ¹éĢł": 3201,
      "æĻĵ": 3202,
      "è·³": 3203,
      "ä¸Ĭåįĩ": 3204,
      "é¢Ĺ": 3205,
      "ä¸Ģå®¶": 3206,
      "åįıè°ĥ": 3207,
      "åĨłåĨĽ": 3208,
      "åĸĿ": 3209,
      "å¡ĳæĸĻ": 3210,
      "æ¯ıä¸ª": 3211,
      "ç¬¬åĽĽ": 3212,
      "ãĢĤå®ĥ": 3213,
      "åĪĨ,": 3214,
      "åŁºäºİ": 3215,
      "å®ı": 3216,
      "äººæ°ĳå¸ģ": 3217,
      "äººä½ĵ": 3218,
      "éĤ£äºĽ": 3219,
      "è½¬åŀĭ": 3220,
      "æĽ´å¤ļçļĦ": 3221,
      ",éĤ£ä¹Ī": 3222,
      "ä¹Łä¼ļ": 3223,
      "éĢĤåºĶ": 3224,
      "æĢ§åĴĮ": 3225,
      "å¹¸ç¦ı": 3226,
      "å¨±ä¹Ĳ": 3227,
      "å¼ºçļĦ": 3228,
      "å½ĵæĹ¶": 3229,
      "åĩłä¹İ": 3230,
      "è¿ĽæŃ¥": 3231,
      "é£İæł¼": 3232,
      "å±¥": 3233,
      "è®¾ç½®": 3234,
      "åħįè´¹": 3235,
      "ç®¡çĲĨãĢģ": 3236,
      "æī©å¤§": 3237,
      "å°ĳå¹´": 3238,
      "æł¡åĽŃ": 3239,
      "æĭħä»»": 3240,
      "äºĨä¸Ģä¸ª": 3241,
      "çĤī": 3242,
      "é©±": 3243,
      "è¦ģæ±Ĥ,": 3244,
      "ä¹łæĥ¯": 3245,
      "å®ŀéªĮå®¤": 3246,
      "åĸ·": 3247,
      "è¿ŀæİ¥": 3248,
      "åģļåĪ°": 3249,
      ",çĦ¶åĲİ": 3250,
      "æ´»åĬ¨,": 3251,
      "è¡¨è¾¾": 3252,
      "æľĢä½³": 3253,
      "æ»¤": 3254,
      "ä½ĵçİ°": 3255,
      "åĬŀåħ¬å®¤": 3256,
      "æĸ°åŀĭ": 3257,
      "å·§": 3258,
      "äºĭå®ŀ": 3259,
      "åĳĪçİ°": 3260,
      "ç»ĺ": 3261,
      "æľīçĿĢ": 3262,
      "è¿ģ": 3263,
      "è®¾è®¡ãĢģ": 3264,
      "å°½ç®¡": 3265,
      "ãģ": 3266,
      "è¾ī": 3267,
      "çļĦæĬĢæľ¯": 3268,
      "ä¹³": 3269,
      "èĸĦ": 3270,
      "åĮ»èį¯": 3271,
      "éĶĭ": 3272,
      "åŀĥ": 3273,
      "åľ¾": 3274,
      "æ¨ª": 3275,
      "åŀĥåľ¾": 3276,
      "çİ°å®ŀ": 3277,
      "åĿ¦": 3278,
      "åŃ¦ä½į": 3279,
      "çĽ´æĴŃ": 3280,
      "èĲĦ": 3281,
      ",ä¸įä»ħ": 3282,
      "å£®": 3283,
      "æ²ŁéĢļ": 3284,
      ",ä¸Ķ": 3285,
      "å¤©çĦ¶": 3286,
      "çģŃ": 3287,
      "å¼ķå¯¼": 3288,
      "éĺ²æİ§": 3289,
      "ãĢĤåħ¬åı¸": 3290,
      "ãĢĤä½Ĩæĺ¯": 3291,
      "æĹ¦": 3292,
      "èĳ¡èĲĦ": 3293,
      "åĵªäºĽ": 3294,
      "åıĳè¡Į": 3295,
      ",ä¸įæĸŃ": 3296,
      "çĭ¬çī¹": 3297,
      "åħħæ»¡": 3298,
      "æľīäºĽ": 3299,
      "çĿ¡": 3300,
      "ä»¤äºº": 3301,
      "ed": 3302,
      "æĴĳ": 3303,
      "èĦī": 3304,
      "çĮª": 3305,
      "åľ°ä½į": 3306,
      "å°ĺ": 3307,
      "ä¸»æĮģ": 3308,
      "æľ¬ç§ĳ": 3309,
      "aĠ": 3310,
      "åĲĪæł¼": 3311,
      "çĶµåĬ¨": 3312,
      "æ°¨": 3313,
      "æĤ²": 3314,
      "ion": 3315,
      "å¾½": 3316,
      "éħįåĲĪ": 3317,
      "å¼ºè°ĥ": 3318,
      "ur": 3319,
      "æŃ¦æ±ī": 3320,
      "é©»": 3321,
      "çĶ¨çļĦ": 3322,
      "èĢĥçĶŁ": 3323,
      "éĩĩè´Ń": 3324,
      "ãĥ": 3325,
      "åĨįæ¬¡": 3326,
      "è¿ĩç¨ĭä¸Ń,": 3327,
      "å¤©,": 3328,
      "èµĽåŃ£": 3329,
      "è¾Ľ": 3330,
      "æĪ¿åľ°äº§": 3331,
      "æĮĩæłĩ": 3332,
      "éĿ¢çļĦ": 3333,
      "æĸĳ": 3334,
      "è·ĥ": 3335,
      "å¾Ĵ": 3336,
      "ç»ª": 3337,
      "å¸ĤåľºçļĦ": 3338,
      "åĴĮåĽ½": 3339,
      "è·Į": 3340,
      ",æĸ°": 3341,
      "æ³½": 3342,
      "å¥³æĢ§": 3343,
      "å¿ħè¦ģ": 3344,
      "èĩªæ²»": 3345,
      "çī¹åĪ«æĺ¯": 3346,
      "ä½ľèĢħ": 3347,
      "æĿĨ": 3348,
      "èĦ¸": 3349,
      "åı°æ¹¾": 3350,
      "èĭ±è¯Ń": 3351,
      "éĺħè¯»": 3352,
      "èķ": 3353,
      "å»ºæĪĲ": 3354,
      "çļĦçĶŁæ´»": 3355,
      "å¤ļ,": 3356,
      "åĪ©çĽĬ": 3357,
      ",èĢĮæĺ¯": 3358,
      "æ³ķåĽ½": 3359,
      "åŃĲ,": 3360,
      "æĥ³è¦ģ": 3361,
      "å¤©æ´¥": 3362,
      "çº½": 3363,
      "çĲĥåĳĺ": 3364,
      "çĬ¯ç½ª": 3365,
      "çĵ·": 3366,
      "å®ħ": 3367,
      ",åĲĮæ¯Ķå¢ŀéķ¿": 3368,
      "ç£ģ": 3369,
      "éĹ®é¢ĺ,": 3370,
      "éĶģ": 3371,
      "è£ħå¤ĩ": 3372,
      "å¾ªçİ¯": 3373,
      ",è¿ĺæľī": 3374,
      "èļĢ": 3375,
      "èĩ´åĬĽ": 3376,
      "å½±çīĩ": 3377,
      "å¸ĥå±Ģ": 3378,
      "çĪ¶æ¯į": 3379,
      "ä»¬çļĦ": 3380,
      ",ä¸Ń": 3381,
      "äºķ": 3382,
      ")åĴĮ": 3383,
      "é«ĺçº§": 3384,
      "éĶħ": 3385,
      "äº©": 3386,
      "éĩĮçļĦ": 3387,
      ",è¿Ļæł·": 3388,
      "èµģ": 3389,
      "ç¢į": 3390,
      "å¤º": 3391,
      "è¿Ľåı£": 3392,
      "çķħ": 3393,
      "ç§Łèµģ": 3394,
      "æĭĽèģĺ": 3395,
      "ä¸Ģå®ļçļĦ": 3396,
      "æĭĶ": 3397,
      "èĩ³ä»Ĭ": 3398,
      "å®¶,": 3399,
      "æ»´": 3400,
      "çĽĪ": 3401,
      "æ®ĸ": 3402,
      "å¼ºåº¦": 3403,
      "åħ¬ä¼Ĺ": 3404,
      "ä¸ĩåĲ¨": 3405,
      "äººæķ°": 3406,
      "éĽķ": 3407,
      "å¾Ģå¾Ģ": 3408,
      "æµ®": 3409,
      "å²©": 3410,
      "ä¾Ŀæį®": 3411,
      "èĤ¿": 3412,
      "oo": 3413,
      "éĢĲæŃ¥": 3414,
      "çļĦä¼ģä¸ļ": 3415,
      "çĤŃ": 3416,
      "æıĲä¾ĽäºĨ": 3417,
      "åı¦å¤ĸ": 3418,
      "ä¸Ģä½į": 3419,
      "æĽ¾ç»ı": 3420,
      "å±ķè§Ī": 3421,
      "å°¾": 3422,
      "å¿ĥ,": 3423,
      "åįĹäº¬": 3424,
      "éħįå¥Ĺ": 3425,
      "æī£": 3426,
      "ä¸ĢåĪĩ": 3427,
      "èĤ¡ä»½æľīéĻĲåħ¬åı¸": 3428,
      "ä¸ļç»©": 3429,
      "çĽĳæµĭ": 3430,
      "æīĢåľ¨": 3431,
      "éĻ¢æł¡": 3432,
      "åħĥç´ł": 3433,
      "åı¯èĥ½ä¼ļ": 3434,
      "èĬ¯": 3435,
      "æĶ¶éĽĨ": 3436,
      "çŃīå¥ĸ": 3437,
      "èģĶçĽŁ": 3438,
      "åĩ¯": 3439,
      "å°¿": 3440,
      "çŁ³æ²¹": 3441,
      "å®ĺæĸ¹": 3442,
      ",èĩª": 3443,
      "å°ıç»Ħ": 3444,
      "çİ¯èĬĤ": 3445,
      "ç½ĳä¸Ĭ": 3446,
      "äºĮåįģ": 3447,
      "æĭ¼": 3448,
      "å¸¸è§ģ": 3449,
      "ä¸»ä½ĵ": 3450,
      "æļĹ": 3451,
      "ãĢģæ°´": 3452,
      "èĤ¯å®ļ": 3453,
      "èĪį": 3454,
      "ç½Ĺæĸ¯": 3455,
      "ç»´ä¿®": 3456,
      "ing": 3457,
      "æĮĩåĩº,": 3458,
      "çļĦä¸Ģä¸ª": 3459,
      "ä¸°å¯ĮçļĦ": 3460,
      "åĽ´ç»ķ": 3461,
      "éĵº": 3462,
      "åĶ¯ä¸Ģ": 3463,
      "ä¸ĬåįĪ": 3464,
      "PP": 3465,
      "åŃķ": 3466,
      "æĿŃ": 3467,
      "é©¾é©¶": 3468,
      "ç¨¿": 3469,
      "æĭįæĳĦ": 3470,
      "is": 3471,
      "èĻİ": 3472,
      ",å°±æĺ¯": 3473,
      "å¹´é¾Ħ": 3474,
      "åıįæĺł": 3475,
      "çĶµèĦĳ": 3476,
      "è¡Įä¸ļçļĦ": 3477,
      "åħ±äº«": 3478,
      "å°¤åħ¶æĺ¯": 3479,
      "æįŁå¤±": 3480,
      "æ±¤": 3481,
      "èĽĭçĻ½": 3482,
      "æĹ¥èĩ³": 3483,
      "å¦Ĥä»Ĭ": 3484,
      "æİĴæĶ¾": 3485,
      "å¥ī": 3486,
      "çłĶç©¶çĶŁ": 3487,
      "é¥®é£Ł": 3488,
      "åŃ¦åİĨ": 3489,
      "å¯¹è±¡": 3490,
      "å®ŀè¡Į": 3491,
      "äººåľ¨": 3492,
      "è¿Ŀæ³ķ": 3493,
      "æ¯ķä¸ļçĶŁ": 3494,
      "æľ±": 3495,
      "å®Įæķ´": 3496,
      "æľīäºĨ": 3497,
      "æķ¢": 3498,
      "å¿ĹæĦ¿": 3499,
      "çĲĨæĥ³": 3500,
      "éĻķ": 3501,
      "æľºçļĦ": 3502,
      "å¼ºåĮĸ": 3503,
      "è£Ĥ": 3504,
      "ãĢĭãĢĬ": 3505,
      "æµ·å¤ĸ": 3506,
      "åĪ¶åĵģ": 3507,
      "æĸ°æĬĢæľ¯": 3508,
      "åĢ¾": 3509,
      "è®¨è®º": 3510,
      "çĹħä¾ĭ": 3511,
      "é¢ģ": 3512,
      "å°Ŀ": 3513,
      "éŀ": 3514,
      "é¡ºåĪ©": 3515,
      "é«ĺçŃī": 3516,
      "å®ŀåĬĽ": 3517,
      "ãĢģĠ": 3518,
      "èµĸ": 3519,
      "ä¿Ŀæ¸©": 3520,
      "ç²®": 3521,
      "èĥĮæĻ¯": 3522,
      "ç²ĺ": 3523,
      ",åį´": 3524,
      "åĴĮâĢľ": 3525,
      "èĦı": 3526,
      "æī¾åĪ°": 3527,
      "ä¸Ĭæ¶¨": 3528,
      "çĶ³æĬ¥": 3529,
      "ä»£çĲĨ": 3530,
      "åĩºæĿ¥": 3531,
      "ä¸ºä»Ģä¹Ī": 3532,
      "å¯¸": 3533,
      "æĹĭ": 3534,
      "è®ºæĸĩ": 3535,
      "åĪĢ": 3536,
      "å§Ķä¼ļ": 3537,
      "æĹħè¡Į": 3538,
      "ä¼ļåĳĺ": 3539,
      "è§£åĨ³æĸ¹æ¡Ī": 3540,
      "çİ°æľī": 3541,
      "çļĦåľ°æĸ¹": 3542,
      "åıĺå¾Ĺ": 3543,
      "ãĢĤåĲĮæĹ¶,": 3544,
      "å°º": 3545,
      "æłĩå¿Ĺ": 3546,
      "IS": 3547,
      "èĩªæĪĳ": 3548,
      "æ¬£": 3549,
      "è¾ĸ": 3550,
      "æ¸łéģĵ": 3551,
      "åħ¨ä½ĵ": 3552,
      "le": 3553,
      ",è¿Ļä¸ª": 3554,
      "æĶ¯æĴĳ": 3555,
      "åį±éĻ©": 3556,
      "çľģçº§": 3557,
      ",å¤ļ": 3558,
      "å¦Ĥä¸ĭ": 3559,
      "ç¡ķå£«": 3560,
      "ãĢĤĊè¿Ļ": 3561,
      "èī¯å¥½": 3562,
      "æĪĲçĨŁ": 3563,
      "ä»¥âĢľ": 3564,
      "åĲĽ": 3565,
      "æ¹ĸåĮĹ": 3566,
      "ç§¦": 3567,
      "ä¼ļæľī": 3568,
      "æĻ¨": 3569,
      ",åĪ°": 3570,
      "çģ°": 3571,
      "ç¥ŀç»ı": 3572,
      "åĻ¨ãĢģ": 3573,
      "è£ħç½®": 3574,
      "åģ¶": 3575,
      "èĤ¡ç¥¨": 3576,
      "æ§": 3577,
      "æ¦Ĥå¿µ": 3578,
      "å¦»": 3579,
      "åŃ¦çĶŁçļĦ": 3580,
      "èı²": 3581,
      "çĽ¸åĲĮ": 3582,
      "äººçĶŁ": 3583,
      "æĮĩæķ°": 3584,
      "ç¾İä¸½": 3585,
      "as": 3586,
      "æŁĶ": 3587,
      ",äºİ": 3588,
      "æĭĽæłĩ": 3589,
      "è®¸åı¯": 3590,
      "æĸĩåŃ¦": 3591,
      "åĲĦä¸ª": 3592,
      "è¿«": 3593,
      "ãĢĤä¸Ģ": 3594,
      "ä¼¸": 3595,
      "åħįçĸ«": 3596,
      "çŃīæĸ¹éĿ¢": 3597,
      "ç¾İæľ¯": 3598,
      "çļĦæľįåĬ¡": 3599,
      "æĭľ": 3600,
      "æīĭæ®µ": 3601,
      "ç«¹": 3602,
      "è´«åĽ°": 3603,
      "æįĲ": 3604,
      "çļĦä¸Ģç§į": 3605,
      "ä¼Ĺå¤ļ": 3606,
      "çº¹": 3607,
      "åħ±åĴĮåĽ½": 3608,
      "ãĢĤæīĢä»¥": 3609,
      "æŁ±": 3610,
      "éŁ©åĽ½": 3611,
      "ä¸ĵé¡¹": 3612,
      "çľŁçļĦ": 3613,
      "çī©çĲĨ": 3614,
      "è§Ĵèī²": 3615,
      "è¶³çĲĥ": 3616,
      "è®¤ä¸º,": 3617,
      "âĢĿä¸º": 3618,
      "ãĢģä¸į": 3619,
      "è²": 3620,
      "æĦıåĳ³": 3621,
      "ä»¿": 3622,
      "æĦŁåıĹ": 3623,
      "æ°Ľ": 3624,
      "å¥ı": 3625,
      "çłĶç©¶éĻ¢": 3626,
      "æĬĢæľ¯ãĢģ": 3627,
      "éĻ·": 3628,
      "æ¼Ķåĳĺ": 3629,
      "åĽºå®ļ": 3630,
      "è§Ĥå¯Ł": 3631,
      "åħ´è¶£": 3632,
      "èĴ¸": 3633,
      "çĵ¶": 3634,
      "äº§æĿĥ": 3635,
      "åĽ½åĨħå¤ĸ": 3636,
      "è§£éĩĬ": 3637,
      "æ¡ĥ": 3638,
      "LE": 3639,
      "è¹": 3640,
      "æ¬²": 3641,
      "mm": 3642,
      "åį°åº¦": 3643,
      "ãĢĤå¯¹": 3644,
      "æłı": 3645,
      "æł¹æľ¬": 3646,
      "åħ¬å®ī": 3647,
      "éļ¾ä»¥": 3648,
      "ä¼Ļä¼´": 3649,
      "æľ¬èº«": 3650,
      "ç»ıåħ¸": 3651,
      "æķĪçĽĬ": 3652,
      "åħ¬çĽĬ": 3653,
      "ç§°,": 3654,
      "æ¡Īä»¶": 3655,
      "çļĦæĺ¯,": 3656,
      "çªģåĩº": 3657,
      "çļĦå¿ĥ": 3658,
      "åĩĨç¡®": 3659,
      "åįĵ": 3660,
      "pp": 3661,
      "å»ºè®¾,": 3662,
      "ä¸ªçĻ¾åĪĨ": 3663,
      "è°±": 3664,
      "æµģç¨ĭ": 3665,
      "éĺ²æŃ¢": 3666,
      ",æ²¡æľī": 3667,
      "æĸ°åĨł": 3668,
      ",é«ĺ": 3669,
      "éĿ¢åĲĳ": 3670,
      "ä»Ļ": 3671,
      "å»ī": 3672,
      "èĩ´åĬĽäºİ": 3673,
      "----": 3674,
      "æĦŁåĪ°": 3675,
      "èĢ¶": 3676,
      "åįļçī©": 3677,
      "ãĢĤæľ¬": 3678,
      "å¤ļå°ĳ": 3679,
      "å®ĥçļĦ": 3680,
      "æģĲ": 3681,
      "è²Į": 3682,
      "åıĤèĢĥ": 3683,
      "äºĭæķħ": 3684,
      "åĪ©äºİ": 3685,
      "ãĢģå¸Ĥ": 3686,
      "é¢ĨåŁŁçļĦ": 3687,
      "æĹłè®º": 3688,
      "æľĢè¿ĳ": 3689,
      "è¿Ļä¹Ī": 3690,
      "ä¾ĿçĦ¶": 3691,
      "èĻ«": 3692,
      "æĬĳ": 3693,
      "åĪĨå¸ĥ": 3694,
      "åĩºçĶŁ": 3695,
      "è¡¨æ¼Ķ": 3696,
      "åĵģç§į": 3697,
      "çī¹å¾ģ": 3698,
      ".Ċ": 3699,
      ",åĲİ": 3700,
      "åįİä¸º": 3701,
      "æĩĤ": 3702,
      "éĤ¦": 3703,
      "äºĭé¡¹": 3704,
      "æĢ»ç»ıçĲĨ": 3705,
      "æĿ¥çľĭ,": 3706,
      "ç¾Ĭ": 3707,
      "æ²³åĮĹ": 3708,
      "åĲ«æľī": 3709,
      "æĿľ": 3710,
      "æĬķæłĩ": 3711,
      "åħĥ,": 3712,
      "åĩłä¸ª": 3713,
      "èĤł": 3714,
      "éĥ½åľ¨": 3715,
      "ä¿¡çĶ¨": 3716,
      "å·¡": 3717,
      "ä¸ĩåħĥ,": 3718,
      "å¿ł": 3719,
      "æĳĨ": 3720,
      "çļĦçĥŃ": 3721,
      "åľºæīĢ": 3722,
      "ä¿Ħç½Ĺæĸ¯": 3723,
      "æĺ¯ä»Ģä¹Ī": 3724,
      "ä»ĵ": 3725,
      "èĤºçĤİ": 3726,
      "ĠT": 3727,
      "åĲĮæł·": 3728,
      "äººçī©": 3729,
      "è£ħé¥°": 3730,
      "å²ģçļĦ": 3731,
      "åĨľæ°ĳ": 3732,
      "åİĤå®¶": 3733,
      "eb": 3734,
      "âĢľä¸Ģ": 3735,
      "åľ¨äºİ": 3736,
      "å°ĸ": 3737,
      "åıªèĥ½": 3738,
      "è¯¦ç»Ĩ": 3739,
      "åĪĽå»º": 3740,
      "å¢ŀéĢŁ": 3741,
      "æĬĢæľ¯çļĦ": 3742,
      "æ¶Īéĺ²": 3743,
      "æŃ»äº¡": 3744,
      "å¿«ä¹Ĳ": 3745,
      "ä¸īå¹´": 3746,
      "èĤĿ": 3747,
      "åĨħ,": 3748,
      "è´¯å½»": 3749,
      "æ¼ı": 3750,
      "å£°æĺİ": 3751,
      "ç§°ä¸º": 3752,
      "æľº,": 3753,
      "ä½ľä¸ļ": 3754,
      "æĿ¥åĪ°": 3755,
      "ãĢģæľī": 3756,
      "çº¤ç»´": 3757,
      "åĪºæ¿Ģ": 3758,
      "æĥħç»ª": 3759,
      "çº¿ä¸Ĭ": 3760,
      "ĠG": 3761,
      "æķ´åĲĪ": 3762,
      "re": 3763,
      "çĺ¤": 3764,
      "ãĢĤĊæľ¬": 3765,
      "ä½ĵçļĦ": 3766,
      "èī¾": 3767,
      "å±ķå¼Ģ": 3768,
      "å¿Ļ": 3769,
      "æĻĭ": 3770,
      "è§Ħå®ļ,": 3771,
      "èĢĥæł¸": 3772,
      "äºĨãĢĬ": 3773,
      "å·¥åİĤ": 3774,
      "åľ¨ä¸ŃåĽ½": 3775,
      "åİ¦": 3776,
      "ãĢĤæľī": 3777,
      "è¿Ī": 3778,
      "æĺĨ": 3779,
      "éĤĢè¯·": 3780,
      "å¿ĥçļĦ": 3781,
      "ç¾İçļĦ": 3782,
      "è®¤å®ļ": 3783,
      "(C": 3784,
      "ä½ıæĪ¿": 3785,
      "çĶľ": 3786,
      "åģļåĩº": 3787,
      "å¯º": 3788,
      "èģĶèµĽ": 3789,
      "è°Ĳ": 3790,
      "çĶŁéķ¿": 3791,
      "æİĺ": 3792,
      "é¸Ł": 3793,
      "å¤§å¹ħ": 3794,
      "çĽ¸äºĴ": 3795,
      "çī¢": 3796,
      "æ©¡": 3797,
      "éĥ¨ç½²": 3798,
      "å®¤åĨħ": 3799,
      "ç¡ħ": 3800,
      "éĽ¶åĶ®": 3801,
      "æŀĦæĪĲ": 3802,
      "äºļæ´²": 3803,
      "çĲ´": 3804,
      "åĽŃåĮº": 3805,
      "åĽ¾ä¹¦": 3806,
      "æĬ¤çĲĨ": 3807,
      "å·¥ä½ľäººåĳĺ": 3808,
      "çīĪæĿĥ": 3809,
      "æĽ´å¥½": 3810,
      "éŃĶ": 3811,
      "ãĢĤĊãĢĬ": 3812,
      ",å½¢æĪĲ": 3813,
      "ç§Ĵ": 3814,
      "åħ¨çľģ": 3815,
      ",åĪĻ": 3816,
      "ãĢĤçĶ±äºİ": 3817,
      "âĢĿçŃī": 3818,
      "èĤĮ": 3819,
      "åīįçļĦ": 3820,
      "ä¸Ģ)": 3821,
      "æĢ»ä½ĵ": 3822,
      "æĸĩåŃĹ": 3823,
      "æī«": 3824,
      "å°Ĩäºİ": 3825,
      "åŁĥ": 3826,
      "çĶŁç´ł": 3827,
      "æĺ¯çĶ±": 3828,
      "æĦŁè°¢": 3829,
      "ri": 3830,
      "å°Ĩä¼ļ": 3831,
      "çļĦå¥½": 3832,
      "å¹³æĸ¹ç±³": 3833,
      "åĮħåĲ«": 3834,
      "å¤§èµĽ": 3835,
      "ä¸ĩäºº": 3836,
      "æºª": 3837,
      "ä¹¡æĿĳ": 3838,
      "çļĦä½ľçĶ¨": 3839,
      "åı¯éĿł": 3840,
      "éĶ¦": 3841,
      "ĠB": 3842,
      "éĽĨä½ĵ": 3843,
      "æĦıåĳ³çĿĢ": 3844,
      ",ä¼ļ": 3845,
      "å§Ĳ": 3846,
      "ä¸ĵä¸ļçļĦ": 3847,
      "å½¼": 3848,
      "æİ§èĤ¡": 3849,
      "éķ¿ãĢģ": 3850,
      "æ¬¡,": 3851,
      "æī°": 3852,
      "è®ºåĿĽ": 3853,
      "åĲ¸æĶ¶": 3854,
      "åĽ½æľī": 3855,
      "åįģä¸ī": 3856,
      "ãĢĤä¸º": 3857,
      "ä¸ĢçĤ¹": 3858,
      "æĺ¾èĳĹ": 3859,
      "æĹ¶çļĦ": 3860,
      "ç®¡éģĵ": 3861,
      "æľŁå¾ħ": 3862,
      "å¤©æ°Ķ": 3863,
      "éĶĪ": 3864,
      "èĩ³å°ĳ": 3865,
      "ä¸»åĬŀ": 3866,
      "ç»ĦåĲĪ": 3867,
      "èĥİ": 3868,
      "è§Ĵåº¦": 3869,
      "**": 3870,
      ",åħ±": 3871,
      "åĨ³èµĽ": 3872,
      "ä¸ĵéĹ¨": 3873,
      "è®©äºº": 3874,
      "æĮĸ": 3875,
      "åıªè¦ģ": 3876,
      "æ³µ": 3877,
      "èµ¶": 3878,
      "un": 3879,
      "é«ĺç«¯": 3880,
      "ä¸ĭæĿ¥": 3881,
      "æĽ´æĸ°": 3882,
      "ad": 3883,
      "çłĶç©¶æīĢ": 3884,
      "è°ĭ": 3885,
      "æµ·æ´ĭ": 3886,
      "ç³»ç»ŁçļĦ": 3887,
      "ä½İäºİ": 3888,
      "å®īå¾½": 3889,
      "æŃ£æĺ¯": 3890,
      "åĲ«éĩı": 3891,
      "å®ļä½į": 3892,
      "å±ķçİ°": 3893,
      "æİĪæĿĥ": 3894,
      "åŃĺåĤ¨": 3895,
      "ä¸Ļ": 3896,
      "æĬ±": 3897,
      "-Ġ": 3898,
      "çĪ¸": 3899,
      "åľ°çĲĥ": 3900,
      ",æĪĳåĽ½": 3901,
      "æ³¨éĩį": 3902,
      "æ»¨": 3903,
      ",ä¿ĥè¿Ľ": 3904,
      "æĶ¶çĽĬ": 3905,
      "è¡¥åħħ": 3906,
      "åīĳ": 3907,
      "æĪĲå°±": 3908,
      "æ£ĢéªĮ": 3909,
      "åĩĢåĪ©æ¶¦": 3910,
      "åĵ²": 3911,
      "è¡¨æĺİ": 3912,
      "ç¦»åŃĲ": 3913,
      "åį±å®³": 3914,
      "ãĢĤæŃ¤å¤ĸ,": 3915,
      "ä¹ĥ": 3916,
      "æıĴ": 3917,
      "éģĩåĪ°": 3918,
      "ä¸ĭéĿ¢": 3919,
      "æ·±åº¦": 3920,
      "èĶ¬": 3921,
      "ä¸»ç®¡éĥ¨éĹ¨": 3922,
      ",è¿Ļç§į": 3923,
      "æŀĦå»º": 3924,
      ",æŃ¤": 3925,
      "è®¤åı¯": 3926,
      "åįļçī©é¦Ĩ": 3927,
      "åºĶæĢ¥": 3928,
      "æĢĿèĢĥ": 3929,
      "åĩī": 3930,
      "çī©èģĶç½ĳ": 3931,
      "ç§įæ¤į": 3932,
      "äºĮ)": 3933,
      "åĲĦå¤§": 3934,
      "æ¸ħæ´ģ": 3935,
      "ç¡«": 3936,
      "å¸¦åĬ¨": 3937,
      "å·¥ä½ľãĢĤ": 3938,
      "ä¸ĢåĲį": 3939,
      "%ä»¥ä¸Ĭ": 3940,
      "è¥¿å®ī": 3941,
      "IP": 3942,
      "é»İ": 3943,
      "éĥģ": 3944,
      "é¡¹çĽ®çļĦ": 3945,
      "çĶµåķĨ": 3946,
      "ãĢĤĊä»İ": 3947,
      ",ç§¯æŀģ": 3948,
      "å±¥è¡Į": 3949,
      "å¼ķè¿Ľ": 3950,
      "å¹¿åľº": 3951,
      "åŁºåĽł": 3952,
      "å¼ķåıĳ": 3953,
      "çī§": 3954,
      "å¸Ĥæ°ĳ": 3955,
      "æĸ°èĥ½æºĲ": 3956,
      "æķĻèĤ²éĥ¨": 3957,
      "éħ¯": 3958,
      "åľ°,": 3959,
      "è¯ļä¿¡": 3960,
      "è§ĦåĪĻ": 3961,
      "ä»ªå¼ı": 3962,
      "é¡µç¬¬": 3963,
      "éĢĨ": 3964,
      "æĿ¡ä¾ĭ": 3965,
      "éĺĶ": 3966,
      "å¤§éĥ¨åĪĨ": 3967,
      "å½ķåıĸ": 3968,
      "å¹´åºķ": 3969,
      "ä¸ĢãĢģ": 3970,
      "åİŁæĸĻ": 3971,
      "ãĢĤæł¹æį®": 3972,
      "å®¡æŁ¥": 3973,
      "åĲįåįķ": 3974,
      "ä¸»å¸Ń": 3975,
      "åıĳçĹħ": 3976,
      "âĢĿ(": 3977,
      "ä¸Ńåįİäººæ°ĳ": 3978,
      "æĳĦå½±": 3979,
      "å·¥èµĦ": 3980,
      "æıĲåīį": 3981,
      "äººå·¥æĻºèĥ½": 3982,
      "åĬ²": 3983,
      "äº§éĩı": 3984,
      "çļĦä¸į": 3985,
      "æī¶è´«": 3986,
      ",åĽł": 3987,
      "ä½¿åĳ½": 3988,
      "éĻķè¥¿": 3989,
      "çİĽ": 3990,
      "äºĭæĥħ": 3991,
      "èī²çļĦ": 3992,
      "çºªå¿µ": 3993,
      "èĢģå¹´": 3994,
      "ot": 3995,
      "æ»¡æĦı": 3996,
      "çĪ¶äº²": 3997,
      "çĵľ": 3998,
      "åĪ¶éĢłä¸ļ": 3999,
      "åŁºå±Ĥ": 4000,
      "æ²ĥ": 4001,
      "æĪ¿å±ĭ": 4002,
      "ãĢĤåħ¶ä¸Ń,": 4003,
      "ç¦»å¼Ģ": 4004,
      "çĻ½çĻľé£İçļĦ": 4005,
      "çĩ¥": 4006,
      "æĸ°å¢ŀ": 4007,
      "å¦Ļ": 4008,
      "æĭĵå±ķ": 4009,
      "åĬłå¤§": 4010,
      "åĴĮç¤¾ä¼ļ": 4011,
      "ä¸Ńåįİäººæ°ĳåħ±åĴĮåĽ½": 4012,
      "å¿§": 4013,
      "ä½ľåĩº": 4014,
      "åįģå¹´": 4015,
      "æĶ¾åľ¨": 4016,
      "ä¹Łåľ¨": 4017,
      "åĪĨç±»": 4018,
      "å¯¿åĳ½": 4019,
      "æľīäºº": 4020,
      "å¾Īå¤§": 4021,
      "æħĪ": 4022,
      ",ç¡®ä¿Ŀ": 4023,
      "åĪĽæĦı": 4024,
      "æ¢¯": 4025,
      "æ²Ī": 4026,
      "åŃĲçļĦ": 4027,
      "çĸĨ": 4028,
      "åº¦çļĦ": 4029,
      "å¿½": 4030,
      "å¤ļæ¬¡": 4031,
      "æĺ¯æĮĩ": 4032,
      ",å¸ĮæľĽ": 4033,
      "ä¸¤ç§į": 4034,
      "åĨĴ": 4035,
      "æģĭ": 4036,
      "è¿Ļæĺ¯": 4037,
      "åĩłå¹´": 4038,
      "éĤ»": 4039,
      "å®ĥä»¬": 4040,
      "æĽ´æĺ¯": 4041,
      "æ°´ãĢģ": 4042,
      "å¤©çļĦ": 4043,
      "ä¸Ģæµģ": 4044,
      "èħ¹": 4045,
      "ãĢĤĊæŃ¤": 4046,
      "åĮĸ,": 4047,
      "åĽ½å¤ĸ": 4048,
      "ä¸Ģå®ļè¦ģ": 4049,
      "æ··åĲĪ": 4050,
      "åŁºç¡Ģè®¾æĸ½": 4051,
      "æµ¦": 4052,
      "çļĨ": 4053,
      "æĤ¬": 4054,
      "éĵ¸": 4055,
      "çī©çļĦ": 4056,
      "åĽŀæĶ¶": 4057,
      "èĸª": 4058,
      "ä¼ĳéĹ²": 4059,
      "æ´»æĢ§": 4060,
      "åĳ¨è¾¹": 4061,
      "æ°Ķä½ĵ": 4062,
      "ç¼ºä¹ı": 4063,
      "æıĲäº¤": 4064,
      "èĩªè¡Į": 4065,
      "åħ¨å¸Ĥ": 4066,
      "åķĬ": 4067,
      "ä¸Ģä»£": 4068,
      "æĹģ": 4069,
      "ä¸Ģè·¯": 4070,
      "å½±è§Ĩ": 4071,
      "çħ§çīĩ": 4072,
      "ä¼¼ä¹İ": 4073,
      "å¹»": 4074,
      "èĤĥ": 4075,
      "åĮº,": 4076,
      "å·¥åķĨ": 4077,
      "ä¿¡æģ¯åĮĸ": 4078,
      "å¯¹å¤ĸ": 4079,
      "åħĦ": 4080,
      "ä¼ĺåħĪ": 4081,
      "èĭ¹": 4082,
      "å¤Ħç½ļ": 4083,
      "ä¹īåĬ¡": 4084,
      "éģĵå¾·": 4085,
      ",å·²": 4086,
      "éħįç½®": 4087,
      "åįłæ¯Ķ": 4088,
      "éĩĳé¢Ŀ": 4089,
      "ãĢĤè¿ĻäºĽ": 4090,
      "èĤ¡æĿĥ": 4091,
      "éķ¿,": 4092,
      "å¯¼æ¼Ķ": 4093,
      "ĠçļĦ": 4094,
      "åŁ¹èĤ²": 4095,
      "çİ©å®¶": 4096,
      "æ¸ħæ¥ļ": 4097,
      "å¥¹çļĦ": 4098,
      "é«ĺæķĪ": 4099,
      "æĢ»ç»ĵ": 4100,
      "æľŁ,": 4101,
      "æĻ®éģį": 4102,
      "èŀº": 4103,
      "è¾½": 4104,
      "å¹¼åĦ¿": 4105,
      "åħģ": 4106,
      "ĠR": 4107,
      "çĤ¹ãĢĤ": 4108,
      "èĭ¹æŀľ": 4109,
      "æīĭæľ¯": 4110,
      "æĹ¶åĪ»": 4111,
      "è¡Ĺéģĵ": 4112,
      ",å°ı": 4113,
      "åįµ": 4114,
      "å±ĳ": 4115,
      "ç¡®è®¤": 4116,
      "æµģéĩı": 4117,
      "èī°": 4118,
      "å¾ĹåĪ°äºĨ": 4119,
      "è¾ŀ": 4120,
      "ç±»ä¼¼": 4121,
      "åĭŁ": 4122,
      "id": 4123,
      "ä¿¡åı·": 4124,
      "ä¼ļ,": 4125,
      "åĲĦçº§": 4126,
      "ä¸įåĨį": 4127,
      "ç¬¬ä¸Ģæ¬¡": 4128,
      "ãĤ": 4129,
      "ä¸Ģèĩ´": 4130,
      "ç¢İ": 4131,
      "çļĦåīį": 4132,
      "æĺ¨": 4133,
      "äºĴåĬ¨": 4134,
      "åł¡": 4135,
      "æĬķèµĦèĢħ": 4136,
      ",å¹¶åľ¨": 4137,
      "æµģåĬ¨": 4138,
      "æĿĥåĪ©": 4139,
      "æĬ«": 4140,
      "é¢Ħæµĭ": 4141,
      "å·¥ä½ľãĢĤĊ": 4142,
      "ä¼ļåľ¨": 4143,
      "çłĤ": 4144,
      "èħĲèļĢ": 4145,
      "ĠL": 4146,
      "éĨĩ": 4147,
      "å¸¦æĿ¥çļĦ": 4148,
      "çļĦæĸ¹æ³ķ": 4149,
      "åĲĪéĩĳ": 4150,
      "è½¬åıĺ": 4151,
      "åĮºçļĦ": 4152,
      "æľŁçļĦ": 4153,
      "çĹħæĥħ": 4154,
      "åĪ«äºº": 4155,
      "èĥĨ": 4156,
      "æīĢè°ĵ": 4157,
      "éĽĨæĪĲ": 4158,
      "æ£ĭ": 4159,
      "ç»Īäºİ": 4160,
      "æµģè¡Į": 4161,
      "ç»´çĶŁç´ł": 4162,
      "æ¢¦æĥ³": 4163,
      "èµł": 4164,
      "åī©": 4165,
      "æ¹ĸåįĹ": 4166,
      "ç¥¥": 4167,
      "In": 4168,
      "å¤§å¤ļæķ°": 4169,
      "æľŁéĹ´,": 4170,
      "åĽ½å®¶çº§": 4171,
      "ä¼ĺæĥł": 4172,
      "åīįå¾Ģ": 4173,
      "èµ¢å¾Ĺ": 4174,
      "éĺ³åħī": 4175,
      "æľįåĬ¡,": 4176,
      "æĪĲåĪĨ": 4177,
      "æ£®æŀĹ": 4178,
      "ãĢĤĊå½ĵ": 4179,
      "èµĭ": 4180,
      "é«ĺè´¨éĩı": 4181,
      "çļĦæ°´": 4182,
      "åŁİéķĩ": 4183,
      "å½°": 4184,
      "åįģä¸Ģ": 4185,
      "ä½ĽæķĻ": 4186,
      "çºº": 4187,
      "æ·»åĬł": 4188,
      "çļĦéľĢæ±Ĥ": 4189,
      "ãĢģæĹł": 4190,
      "ä¼ģä¸ļ,": 4191,
      "ä¸Ńæľī": 4192,
      "å¾Īå¤ļäºº": 4193,
      "å·¥ç¨ĭå¸Ī": 4194,
      "æ¯įäº²": 4195,
      ",ä¸¤": 4196,
      "éĢļè®¯": 4197,
      ",æľĢç»Ī": 4198,
      "éĥŃ": 4199,
      "å¾Īéļ¾": 4200,
      "Ġå¹´": 4201,
      "æĳĺ": 4202,
      "å¸¦é¢Ĩ": 4203,
      "ä¸Ĭå¹´": 4204,
      "æľĢæĸ°": 4205,
      "çļĦä¸Ń": 4206,
      "å¹³è¡¡": 4207,
      "èį£èªī": 4208,
      "æ¸Ĺ": 4209,
      ",Ċ": 4210,
      "èį¯åĵģ": 4211,
      "èµĽäºĭ": 4212,
      "èĴĤ": 4213,
      "çļĦä¸ĵä¸ļ": 4214,
      ",ä¸įè¿ĩ": 4215,
      "é¢Ħç®Ĺ": 4216,
      "èĿ": 4217,
      "äºĮæĺ¯": 4218,
      "èĥ½åĬĽ,": 4219,
      "åĩ¤": 4220,
      "èµĦè®¯": 4221,
      "çļĦäºĭæĥħ": 4222,
      "éĿ©åĳ½": 4223,
      "ä»ªåĻ¨": 4224,
      "å¼ķé¢Ĩ": 4225,
      "ä½łä»¬": 4226,
      "æĢª": 4227,
      "åĴĮåħ¶ä»ĸ": 4228,
      "å¤ļåħĥ": 4229,
      "ãĢĤãĢĬ": 4230,
      "æīĢå¾Ĺ": 4231,
      ",ç»ı": 4232,
      "çĥ¦": 4233,
      "åĬŀåŃ¦": 4234,
      "åľ°çĤ¹": 4235,
      "æĹ¥åīį": 4236,
      "æĶ¶è´Ń": 4237,
      "æĽ´å¥½çļĦ": 4238,
      "è·¯ãĢģ": 4239,
      "åŁİä¹¡": 4240,
      "æĮĩåĩº": 4241,
      "æĭĨ": 4242,
      "åºĶå¯¹": 4243,
      "åĴĮè°Ĳ": 4244,
      "ĠH": 4245,
      "æķ°æį®æĺ¾ç¤º,": 4246,
      "å½¹": 4247,
      "èħĶ": 4248,
      "å®¡æł¸": 4249,
      "è´µå·ŀ": 4250,
      "ãĢĭçŃī": 4251,
      "è¢ĭ": 4252,
      "èĳ£äºĭéķ¿": 4253,
      "çĨŁæĤī": 4254,
      "è¡Ģç®¡": 4255,
      "äººåĬĽ": 4256,
      "æĭĴ": 4257,
      "åľºæĻ¯": 4258,
      "çĪ±æĥħ": 4259,
      "éĺ²æ²»": 4260,
      "çĲĨäºĭ": 4261,
      "å¯Ħ": 4262,
      ",ä¸Ĭ": 4263,
      "åĩŃåĢŁ": 4264,
      "éĩĩè®¿": 4265,
      "ç¼Ŀ": 4266,
      "åľ°çļĦ": 4267,
      "åĳ¢?Ċ": 4268,
      "æĺ¯ä¸į": 4269,
      "ä¸ŃåŃ¦": 4270,
      "åĨ³çŃĸ": 4271,
      "çºł": 4272,
      "çºµ": 4273,
      "ĠD": 4274,
      "çĸı": 4275,
      "è¿Ł": 4276,
      "å®ļçļĦ": 4277,
      "å°ıåŃ¦": 4278,
      ",ä¸ºäºĨ": 4279,
      "éĶĢéĩı": 4280,
      "æ²³åįĹ": 4281,
      "éĢĥ": 4282,
      ",æ¯Ķå¦Ĥ": 4283,
      "ç¢ĳ": 4284,
      "é¢ľèī²": 4285,
      "äºĮãĢģ": 4286,
      "æ°ĶåĢĻ": 4287,
      "æĤ¨çļĦ": 4288,
      "åĳ¼åĲ¸": 4289,
      "çł´åĿı": 4290,
      "çĦĬ": 4291,
      "å¯»æī¾": 4292,
      "åľ°çĲĨ": 4293,
      "èĥ½éĩı": 4294,
      "ä»¥ä¸ĭç®Ģç§°": 4295,
      "ç½©": 4296,
      "ä¸įèī¯": 4297,
      "çīµ": 4298,
      "å¤įåĲĪ": 4299,
      "çĭĤ": 4300,
      ",ä¸ĢèĪ¬": 4301,
      "å¦Īå¦Ī": 4302,
      "åĽĽä¸ª": 4303,
      "çĮ«": 4304,
      "æıŃ": 4305,
      "å°ıçļĦ": 4306,
      "of": 4307,
      "èµ·,": 4308,
      "æĹ¶å°ļ": 4309,
      "åĲįç§°": 4310,
      "æķ¦": 4311,
      "éĻĦè¿ĳ": 4312,
      "è¯±": 4313,
      "åįıåĬ©": 4314,
      "äºĪä»¥": 4315,
      "æ°¯": 4316,
      "æ¶ĤæĸĻ": 4317,
      "äººãĢĤĊ": 4318,
      "çļĦæĹ¶åĢĻ,": 4319,
      "æ°¢": 4320,
      "ä½©": 4321,
      "æµĭéĩı": 4322,
      "éĢĤçĶ¨äºİ": 4323,
      "éĻµ": 4324,
      "å·®å¼Ĥ": 4325,
      "ent": 4326,
      "å©´": 4327,
      "æĢ»é¢Ŀ": 4328,
      "æ·±åĪ»": 4329,
      "åħļçļĦ": 4330,
      "åĩºè¡Į": 4331,
      "éĿ¢è¯ķ": 4332,
      "æĢĿç»´": 4333,
      "è®°å¿Ĩ": 4334,
      "äºĭåĬ¡": 4335,
      "èĥº": 4336,
      "è¸ª": 4337,
      "æĲľç´¢": 4338,
      "è¸ı": 4339,
      "%ãĢģ": 4340,
      "æĢ§ãĢĤ": 4341,
      "äº§ä¸ļéĵ¾": 4342,
      "ï¿": 4343,
      "(åĲ«": 4344,
      "æĪĲç«ĭäºİ": 4345,
      "ä¸ª,": 4346,
      "æĪĳæł¡": 4347,
      "è¯ĬæĸŃ": 4348,
      "çļĦçłĶç©¶": 4349,
      "æĦ¿æĦı": 4350,
      "æŃ¤,": 4351,
      "ï¿½": 4352,
      "th": 4353,
      "è®¾å¤ĩãĢģ": 4354,
      "åħ¶å®ĥ": 4355,
      "çº¿,": 4356,
      "å¾ĭå¸Ī": 4357,
      "äºı": 4358,
      "ãĢĤĊåħ¬åı¸": 4359,
      "å±Ĥæ¬¡": 4360,
      "å®¶çļĦ": 4361,
      "åıĳåĬ¨": 4362,
      "æĿĥçĽĬ": 4363,
      ",çİ°": 4364,
      "éļľç¢į": 4365,
      "æ±¡æ°´å¤ĦçĲĨ": 4366,
      "åĩĢåĮĸ": 4367,
      "åıĤèµĽ": 4368,
      "é»Ħéĩĳ": 4369,
      "å¤§ä¼Ĺ": 4370,
      "ä¸ĬäºĨ": 4371,
      "çĸ«æĥħéĺ²æİ§": 4372,
      "é¼»": 4373,
      ",ç»Ļ": 4374,
      "ä¸Ńå¿ĥãĢģ": 4375,
      "çļĦåĲĮæĹ¶,": 4376,
      "åħ¬éĩĮ,": 4377,
      "åİ¨": 4378,
      "èµĦè´¨": 4379,
      ",çĶ±äºİ": 4380,
      "åĮĹäº¬å¸Ĥ": 4381,
      "æĺİæĺŁ": 4382,
      "éķ¿çļĦ": 4383,
      "å´ĩ": 4384,
      "èį£èİ·": 4385,
      "ç¦ıå»º": 4386,
      "åıĸå¾ĹäºĨ": 4387,
      "ä¸Ĭå¸Ĥåħ¬åı¸": 4388,
      "åħ±æľī": 4389,
      "æ°¸è¿ľ": 4390,
      "ç§ī": 4391,
      "è§Ħå®ļçļĦ": 4392,
      "åĪĩå®ŀ": 4393,
      "å¤§æķ°æį®": 4394,
      "å¦¹": 4395,
      "å²Ń": 4396,
      "åįłåľ°": 4397,
      "è¥¿éĥ¨": 4398,
      "å°±åı¯ä»¥": 4399,
      "ç¼ĸåĪ¶": 4400,
      "å£¤": 4401,
      "å¸ĪçĶŁ": 4402,
      "ä¸ŃåĽ½çļĦ": 4403,
      "éĢıè¿ĩ": 4404,
      "æ©¡èĥ¶": 4405,
      "ãĢĤå¦Ĥ": 4406,
      "åĨ²åĩ»": 4407,
      ",æł¹æį®": 4408,
      "é«ĺæ¸©": 4409,
      "è¿ĳå¹´æĿ¥,": 4410,
      "ä½ıå®ħ": 4411,
      "åı¯æĮģç»Ń": 4412,
      "åıĸæ¶Ī": 4413,
      "å®ļæľŁ": 4414,
      "ä¹Ķ": 4415,
      "çĶŁäº§ãĢģ": 4416,
      "ç½ĳåıĭ": 4417,
      "èĶ¬èıľ": 4418,
      "å«Į": 4419,
      "æıĲéĨĴ": 4420,
      "çº·çº·": 4421,
      "å¾Īå¤§çļĦ": 4422,
      "æ°´,": 4423,
      "çĽ¾": 4424,
      "å½ĵåīį": 4425,
      "çłĸ": 4426,
      "ä¸īå¤§": 4427,
      "å¥Ķ": 4428,
      "åĩºå¸Ń": 4429,
      "ãĢĤéĢļè¿ĩ": 4430,
      "è¡°": 4431,
      "ä¿Ŀåģ¥": 4432,
      "ç¡®è¯Ĭ": 4433,
      "æ¸¡": 4434,
      "åĩ½": 4435,
      "åĹ": 4436,
      "çģĮ": 4437,
      "è¯ŀ": 4438,
      "æ·±åĮĸ": 4439,
      "æĹ¥åľ¨": 4440,
      "é©±åĬ¨": 4441,
      "å¥ĳ": 4442,
      "ä¸ľåįĹ": 4443,
      "ä¾¿åĪ©": 4444,
      "ou": 4445,
      "éĥ¨ä»¶": 4446,
      ",çİ°åľ¨": 4447,
      "åĢ¡": 4448,
      "ç¬¬äºĶ": 4449,
      "ä¸ī)": 4450,
      ";Ġ": 4451,
      "æĿŃå·ŀ": 4452,
      "é«ĺä¸Ń": 4453,
      "èĢĢ": 4454,
      "æŀĿ": 4455,
      ",æĪĸèĢħ": 4456,
      "é¥±": 4457,
      ",ãĢĬ": 4458,
      "å£°éŁ³": 4459,
      "æ·ĺ": 4460,
      "èµ´": 4461,
      "åıĤè§Ĥ": 4462,
      "èī²å½©": 4463,
      "ä¸ĸçķĮä¸Ĭ": 4464,
      "èģĮè´£": 4465,
      "çļĦåİŁåĽł": 4466,
      "åŃ¦èĢħ": 4467,
      "æ¯ıä¸Ģä¸ª": 4468,
      "ä¿¡å¿ĥ": 4469,
      "å·¨å¤§": 4470,
      "éĽ¾": 4471,
      "åı¦å¤ĸ,": 4472,
      "åľ¨ä¸Ģèµ·": 4473,
      "è½¬åĮĸ": 4474,
      "æĲ¬": 4475,
      "è½¨éģĵ": 4476,
      "ä¸ľåĮĹ": 4477,
      "æĢģåº¦": 4478,
      "é¤Ĳé¥®": 4479,
      "æĥľ": 4480,
      "ä¼¤å®³": 4481,
      "åĲĮæĦı": 4482,
      "çŁ¥è¯Ĩäº§æĿĥ": 4483,
      "åĨ»": 4484,
      "éĥ½ä¸į": 4485,
      "åľ°åĮºçļĦ": 4486,
      "èĢĥå¯Ł": 4487,
      "æĶ¯åĩº": 4488,
      "æ³ķ,": 4489,
      "æ¨¡åŀĭ": 4490,
      "æĦıå¤§åĪ©": 4491,
      "æīĢæľīçļĦ": 4492,
      "çĽ¸åħ³çļĦ": 4493,
      "ç²¾ç¥ŀ,": 4494,
      "ãĢĤĊæł¹æį®": 4495,
      "æ±Łè¥¿": 4496,
      "è®¼": 4497,
      "åĲĪä½ľ,": 4498,
      "æĻ¯è§Ĥ": 4499,
      "æĦıæĢĿ": 4500,
      "ãĢģçĶµ": 4501,
      "ãĢĤåĽłä¸º": 4502,
      "é½¿": 4503,
      "èĪªå¤©": 4504,
      "å½¢åĬ¿": 4505,
      ",ä¹Łä¸į": 4506,
      "ç¨Ģ": 4507,
      ",è¿ĺæĺ¯": 4508,
      "é£ŁçĶ¨": 4509,
      "åį«æĺŁ": 4510,
      "åľ°ä¸ĭ": 4511,
      "å§Ķæīĺ": 4512,
      "æ·Ģ": 4513,
      "ãĢĤå¯¹äºİ": 4514,
      "å¼Ĺ": 4515,
      "è¯ĨåĪ«": 4516,
      "åĻ¨çļĦ": 4517,
      "éĿĴå²Ľ": 4518,
      "ä»ĭç»į,": 4519,
      "ag": 4520,
      "é«ĺè¾¾": 4521,
      "ä¸ľæĸ¹": 4522,
      "åį°åĪ·": 4523,
      "è¿Ļæ¬¡": 4524,
      "æĤ¦": 4525,
      "çĽ´åĪ°": 4526,
      "ãĢĤè¦ģ": 4527,
      "åºĶçĶ¨äºİ": 4528,
      "çĪ±çļĦ": 4529,
      "ç¼ĸè¾ĳ": 4530,
      "æĸ°åĮº": 4531,
      "è¿Ŀåıį": 4532,
      "åľ°éĵģ": 4533,
      "ä¸Ģæ®µ": 4534,
      "å¯¹æīĭ": 4535,
      "èĩªåĬ¨åĮĸ": 4536,
      ",èĻ½çĦ¶": 4537,
      "åľºæ¯ĶèµĽ": 4538,
      "ä¼ģä¸ļãĢģ": 4539,
      "åį³å°Ĩ": 4540,
      "ow": 4541,
      "è¿İæĿ¥": 4542,
      ",åĲĳ": 4543,
      "åłĨ": 4544,
      "ä¼ļçļĦ": 4545,
      "æĬ¥èĢĥ": 4546,
      "çŃ¾è®¢": 4547,
      "èİ·åıĸ": 4548,
      "éĶ¡": 4549,
      "and": 4550,
      "åıĺæĪĲ": 4551,
      "ç²Ĺ": 4552,
      "å±±è¥¿": 4553,
      "èĤ¾": 4554,
      "å±ħä½ı": 4555,
      "å¹¿è¥¿": 4556,
      "åĪĨåĪ«ä¸º": 4557,
      "æ¡Į": 4558,
      "åħ»èĢģ": 4559,
      "è¯Ħå®¡": 4560,
      "è½¬ç§»": 4561,
      "ç¢±": 4562,
      "è¯īè®¼": 4563,
      "ä¼łæī¿": 4564,
      "åĲį,": 4565,
      "æĥħæĦŁ": 4566,
      "ãĢĤä¸İ": 4567,
      "ç³»ç»ŁãĢģ": 4568,
      "åĲĪæ³ķ": 4569,
      "ä¹Łåı¯ä»¥": 4570,
      "åĬłéĢŁ": 4571,
      "æĹħå®¢": 4572,
      "å·¥ç¨ĭãĢģ": 4573,
      "å¸ĤãĢģ": 4574,
      "BA": 4575,
      "åĽ¢ä½ĵ": 4576,
      "æ¼Ķåĩº": 4577,
      "ç²¾å½©": 4578,
      "åī²": 4579,
      "èĪŀåı°": 4580,
      "è¡¥è´´": 4581,
      "ãĢĤçĦ¶èĢĮ": 4582,
      "ãĢĭä¸Ń": 4583,
      "åį³åı¯": 4584,
      "æİ¥è¿ĳ": 4585,
      "éĢĤå½ĵ": 4586,
      "ç«ŀèµĽ": 4587,
      "æĽ´ä¸º": 4588,
      "éĺĢ": 4589,
      "iv": 4590,
      "æĭ¨": 4591,
      "çľł": 4592,
      "åĩºåı°": 4593,
      "æ¡Ĩ": 4594,
      "èµĶ": 4595,
      "æľīä¸Ģä¸ª": 4596,
      "æĺ¯æľĢ": 4597,
      "èĩŃ": 4598,
      "çºªå½ķ": 4599,
      "ãĢĤåħ¶ä¸Ń": 4600,
      ",å¯¼èĩ´": 4601,
      "æķĮ": 4602,
      "åĲįåŃĹ": 4603,
      "ĠE": 4604,
      "âĢĿåĴĮâĢľ": 4605,
      "éĺ²æĬ¤": 4606,
      "ç«ĭåį³": 4607,
      "çŃīçº§": 4608,
      "å¹¶æ²¡æľī": 4609,
      "æ¡Ĥ": 4610,
      "æĥħåĨµ,": 4611,
      "æĹĹä¸ĭ": 4612,
      "ä¸¤å¹´": 4613,
      "èĭ±éĽĦ": 4614,
      "è¯ķçĤ¹": 4615,
      "å¹²çĩ¥": 4616,
      "é¡¹çĽ®,": 4617,
      "ä¼ĺèī¯": 4618,
      "å£³": 4619,
      "å¯ĨåĪĩ": 4620,
      "ay": 4621,
      "ä½¿çĶ¨çļĦ": 4622,
      "å¼ĺ": 4623,
      "ç²¾åĩĨ": 4624,
      "éĻª": 4625,
      "æĤŁ": 4626,
      "ç»´æĮģ": 4627,
      "éĹ®é¢ĺçļĦ": 4628,
      "çīĪæľ¬": 4629,
      "ä¿±ä¹Ĳ": 4630,
      "ç©ºè°ĥ": 4631,
      "åĬ¨çĶ»": 4632,
      "æĹ¥Ġ": 4633,
      "è¿ĳæĹ¥,": 4634,
      "éĢļéģĵ": 4635,
      "æĥ³åĪ°": 4636,
      "ĠF": 4637,
      "åĤ¬": 4638,
      "æĪĴ": 4639,
      "åºŁæ°´": 4640,
      "ig": 4641,
      "çĥĪçļĦ": 4642,
      "çľĭ,": 4643,
      "è°ĥèĬĤ": 4644,
      "åı¥è¯Ŀ": 4645,
      "çŃĸçķ¥": 4646,
      "çĽĳæİ§": 4647,
      "æľŁéĻĲ": 4648,
      "çĶŁæ´»ä¸Ń": 4649,
      "åĩºåıĳ": 4650,
      "åħ¸åŀĭ": 4651,
      "ãĢĤä»¥": 4652,
      "LED": 4653,
      "åĲĮå¿Ĺ": 4654,
      "éĺ¿éĩĮ": 4655,
      "å¤§åŃ¦ãĢģ": 4656,
      "çªģçĦ¶": 4657,
      "æĿĳæ°ĳ": 4658,
      "èĢķ": 4659,
      "æľºéģĩ": 4660,
      "èĦ±è´«": 4661,
      "æīĵåį°": 4662,
      "å¤§åŃ¦çĶŁ": 4663,
      "è½¦åŀĭ": 4664,
      "å¼¥": 4665,
      "æĺŁæľŁ": 4666,
      "çĤ¸": 4667,
      "è¾ĥä¸º": 4668,
      "ä¸Ģçº§": 4669,
      "éĿĴå°ĳå¹´": 4670,
      "åĨ¶": 4671,
      "æĶ¶åĪ°": 4672,
      "ĠâĢľ": 4673,
      "å¹¿ä¸ľçľģ": 4674,
      "èĴĻåı¤": 4675,
      "éĶĮ": 4676,
      "é»ĳèī²": 4677,
      "åįģäºĶ": 4678,
      "æī§æ³ķ": 4679,
      "æĶ¾å¼ĥ": 4680,
      "ç¬¬ä¸Ģä¸ª": 4681,
      "çĿĽ": 4682,
      "åĳ¨æľŁ": 4683,
      "å·¨å¤§çļĦ": 4684,
      "ä¸ĬåįĬå¹´": 4685,
      "äºĭä¸ļåįķä½į": 4686,
      "è°ĥçłĶ": 4687,
      "åĬ¨ä½ľ": 4688,
      "å¤±åİ»": 4689,
      ",ä¸Ģä¸ª": 4690,
      "å¼ĢåĲ¯": 4691,
      "èħº": 4692,
      "æī¿åĮħ": 4693,
      "èĬ¯çīĩ": 4694,
      "æµħ": 4695,
      ",åĲĦ": 4696,
      "ç»Ŀå¯¹": 4697,
      "ç¾İå¥½": 4698,
      "æŁ³": 4699,
      "äººä¸º": 4700,
      "å¼Ģæĭĵ": 4701,
      "æķ°åŃ¦": 4702,
      "åĲĪæĪĲ": 4703,
      "ç§°åı·": 4704,
      "çº¿è·¯": 4705,
      "èĳĹä½ľ": 4706,
      "ä½Ĩæĺ¯": 4707,
      "å¤ļå®¶": 4708,
      "éĶ»": 4709,
      "æ¼Ĩ": 4710,
      ",çľĭ": 4711,
      "æī¿è¯º": 4712,
      "æĤ£èĢħçļĦ": 4713,
      "ä¾ĽåºĶåķĨ": 4714,
      "åį¢": 4715,
      "åıĳæĺİ": 4716,
      "ç¡®å®ŀ": 4717,
      "åı¯ä»¥åľ¨": 4718,
      "éĹª": 4719,
      "ä¸ĵæ³¨": 4720,
      "æĢ»è£ģ": 4721,
      "ä¿±ä¹Ĳéĥ¨": 4722,
      "äº§èĥ½": 4723,
      "åĴĸ": 4724,
      "åĩĮ": 4725,
      "ä»¥åĲİ": 4726,
      "çĭĹ": 4727,
      "èĮĥåĽ´åĨħ": 4728,
      "æĢ»æĺ¯": 4729,
      "ç¤¾äº¤": 4730,
      "å®¶åħ·": 4731,
      "æĶ¹è¿Ľ": 4732,
      "æ»ļ": 4733,
      "çº¢èī²": 4734,
      "éĴ»": 4735,
      "åŁĭ": 4736,
      "é«ĺäºİ": 4737,
      "è°¨": 4738,
      "åħģè®¸": 4739,
      "å¤§éĩıçļĦ": 4740,
      "è§Ĩè§ī": 4741,
      "å¤ĸçļĦ": 4742,
      "è¯µ": 4743,
      "åİŁçĲĨ": 4744,
      "å¾Īå¥½çļĦ": 4745,
      "åĮ»å¸Ī": 4746,
      "çİĩä¸º": 4747,
      "åı¸æ³ķ": 4748,
      "åħīä¼ı": 4749,
      "å¥ĸåĬ±": 4750,
      "æĹ¥(": 4751,
      "åĽŀåĪ°": 4752,
      "ãĢĤĊæĪĳ": 4753,
      "åįıåĲĮ": 4754,
      "éªĳ": 4755,
      "ä¹ĭä¸Ģ,": 4756,
      "çļĦä¸»": 4757,
      "æľįè£ħ": 4758,
      "åįģåħ«": 4759,
      "ä¸Ģæī¹": 4760,
      "å¤§å¸Ī": 4761,
      "âĢķ": 4762,
      "å¸¦çĿĢ": 4763,
      "æĿĤå¿Ĺ": 4764,
      "æľįåĬ¡çļĦ": 4765,
      "ä½į,": 4766,
      "æĳĩ": 4767,
      "å¯¹æĸ¹": 4768,
      "è´Ńçī©": 4769,
      "æĹ¥ä¸ĬåįĪ": 4770,
      "åĪĻæĺ¯": 4771,
      "çķª": 4772,
      "éķĢ": 4773,
      "ç®¡çĲĨ,": 4774,
      "ä¹ĭä¸ĢãĢĤ": 4775,
      "ä»Ķ": 4776,
      "åĻª": 4777,
      "ä¸įéĶĻ": 4778,
      "åŃ¤": 4779,
      "æµ©": 4780,
      "æļĳ": 4781,
      "æł¡éķ¿": 4782,
      "å¿ĥãĢģ": 4783,
      "ä¸ĭè½½": 4784,
      "éĢĤçĶ¨": 4785,
      "ir": 4786,
      "æ³ķãĢĭ": 4787,
      "å»ºéĢł": 4788,
      "çº³åħ¥": 4789,
      "å®¡è®¡": 4790,
      "éĻ¢éķ¿": 4791,
      "éĥ½èĥ½": 4792,
      "æĭĸ": 4793,
      "å®¡æī¹": 4794,
      "ãĢĤèĭ¥": 4795,
      "åĬĽãĢģ": 4796,
      "è®¾å¤ĩçļĦ": 4797,
      "æĵ¦": 4798,
      "åįģåĽĽ": 4799,
      "äºĶâĢĿ": 4800,
      "ç§¯ç´¯": 4801,
      "äºĳåįĹ": 4802,
      "è´§å¸ģ": 4803,
      "çĶŁåŃĺ": 4804,
      "éĩĮéĿ¢": 4805,
      "æĹº": 4806,
      "æ°ĳéĹ´": 4807,
      "åĽ¾çīĩ": 4808,
      "æ°ĽåĽ´": 4809,
      "æľįåĬ¡ãĢģ": 4810,
      "åħĪè¿ĽçļĦ": 4811,
      "éĢļçĶ¨": 4812,
      "é«ĺèĢĥ": 4813,
      "å§ĶãĢģ": 4814,
      "åģľæŃ¢": 4815,
      "æĹ¥ä¸ĭåįĪ": 4816,
      "å¹³æĸ¹ç±³,": 4817,
      "åĿĬ": 4818,
      ",åºĶ": 4819,
      "ä¸ĵçĶ¨": 4820,
      "ter": 4821,
      "éĿĴæĺ¥": 4822,
      "å®ĺç½ĳ": 4823,
      "æĶ¶è´¹": 4824,
      "ä¾ĭ,": 4825,
      "âĢľä¸ī": 4826,
      "(A": 4827,
      "èİ·å¾ĹäºĨ": 4828,
      "è®©æĪĳä»¬": 4829,
      "æĸ¤": 4830,
      "éĢıéľ²": 4831,
      "åĪ¤æĸŃ": 4832,
      ",ä½¿çĶ¨": 4833,
      "ä¸Ĭä¸ĭ": 4834,
      "em": 4835,
      "ä¹ĭè·¯": 4836,
      "ä¿®æĶ¹": 4837,
      "åĦ¿åŃĲ": 4838,
      "èħ¾è®¯": 4839,
      ",åħ¶å®ŀ": 4840,
      "ä¾Ŀæīĺ": 4841,
      "æļ¨": 4842,
      "æµĨ": 4843,
      "å¤ļæł·": 4844,
      "ç»ıæµİåıĳå±ķ": 4845,
      "è¾Ī": 4846,
      "èĵĦ": 4847,
      "æĬ¥ãĢĭ": 4848,
      "èİ²": 4849,
      "å¤ĸåĽ½": 4850,
      "éĢīæīĭ": 4851,
      "å¿į": 4852,
      "ãĢĤĊç¬¬äºĮ": 4853,
      "ä»ĸäºº": 4854,
      "äººæ°ĳæ³ķéĻ¢": 4855,
      "å¢ĵ": 4856,
      "åĲĬ": 4857,
      "å¯ĵ": 4858,
      "åİĭç¼©": 4859,
      "èĬ³": 4860,
      "ãĢĤĊèĢĮ": 4861,
      "æĤī,": 4862,
      "è®²è¿°": 4863,
      "å°Ŀè¯ķ": 4864,
      "æĨ": 4865,
      "çĥŃæ°´": 4866,
      "é£İæĻ¯": 4867,
      "çĽĪåĪ©": 4868,
      "éĶĻè¯¯": 4869,
      "æľºåĻ¨äºº": 4870,
      "æ£Ĵ": 4871,
      "æĶ¶å½ķ": 4872,
      "ç¦ģæŃ¢": 4873,
      "è¾ĥå¤§": 4874,
      "çĶŁæ´»çļĦ": 4875,
      "çķĻä¸ĭ": 4876,
      "æŁ¥è¯¢": 4877,
      "èĬĿ": 4878,
      "è®¾æľī": 4879,
      "èĪĴéĢĤ": 4880,
      "æĢ§è´¨": 4881,
      "å¹¿æĴŃ": 4882,
      ",åĴĮ": 4883,
      "ä¸ªæĢ§": 4884,
      "æĶ¯éĥ¨": 4885,
      "å§ĳ": 4886,
      "ä¸»è¦ģæĺ¯": 4887,
      "è¿ĳæľŁ": 4888,
      "è¾¨": 4889,
      "å°±èĥ½": 4890,
      "åĬ¨æĢģ": 4891,
      "éĤ£ä¸ª": 4892,
      "æħİ": 4893,
      "æŁı": 4894,
      "å»ºè®¾ãĢģ": 4895,
      "éĴ¢éĵģ": 4896,
      ",åĬłå¼º": 4897,
      "ä»£çłģ": 4898,
      "èľľ": 4899,
      "çĥŃæĥħ": 4900,
      "NA": 4901,
      "è¿ĳå¹´æĿ¥": 4902,
      "åĲĹ?Ċ": 4903,
      "æ»ĭ": 4904,
      "ä¿Ĭ": 4905,
      "åĲİæĿ¥": 4906,
      "æŁĲäºĽ": 4907,
      "æĪªæŃ¢": 4908,
      "å¤Ħç½®": 4909,
      "æģ°": 4910,
      "å¤ªéĺ³èĥ½": 4911,
      "ä¸Ģç³»åĪĹ": 4912,
      "æľīå¾Īå¤ļ": 4913,
      "é¬": 4914,
      "ãĢĤä»ĸä»¬": 4915,
      "åĳ¨åĽ´": 4916,
      "åľŁå£¤": 4917,
      "è¾£": 4918,
      ",éľĢè¦ģ": 4919,
      "è¾ĵéĢģ": 4920,
      "ãĢĤä¸ŃåĽ½": 4921,
      "è¯ĦéĢī": 4922,
      "èı©": 4923,
      "IT": 4924,
      "åĪ©äºļ": 4925,
      "éĶĪéĴ¢": 4926,
      "å°½éĩı": 4927,
      "ä¸Ģå¤©": 4928,
      "åĬłä¸Ĭ": 4929,
      ",æİ¨åĬ¨": 4930,
      "ä¹Łå°Ĩ": 4931,
      "æĪĺäºī": 4932,
      "ãĢĤä½ľä¸º": 4933,
      ",æ¯Ķ": 4934,
      "æľŁåĪĬ": 4935,
      "èĢģäºº": 4936,
      "çļĦãĢģ": 4937,
      "us": 4938,
      "éľį": 4939,
      "æĺ¥èĬĤ": 4940,
      "ãĢĤä¸įè¿ĩ": 4941,
      "æĻ°": 4942,
      "èĤ¿çĺ¤": 4943,
      "ÃĹ": 4944,
      "æĶ»åĿļ": 4945,
      "åı¯è§ģ": 4946,
      "åİĤåķĨ": 4947,
      "æ¯ģ": 4948,
      "äº§çĶŁçļĦ": 4949,
      "è¿ĺè¦ģ": 4950,
      "æľªæĿ¥çļĦ": 4951,
      "è¢«åĳĬ": 4952,
      "å¾Īå¿«": 4953,
      "åĬ©åĬĽ": 4954,
      "éĢłåŀĭ": 4955,
      "æĤł": 4956,
      "ãĢģå°ı": 4957,
      "ç²¾åĵģ": 4958,
      "ä¾µçĬ¯": 4959,
      "æĹ¥çļĦ": 4960,
      "èº«è¾¹": 4961,
      "äº§åĵģ,": 4962,
      "ç¨į": 4963,
      "æ¡ĳ": 4964,
      "çİ°éĩĳ": 4965,
      "(S": 4966,
      "å½±åĵį,": 4967,
      "æĸ°åħ´": 4968,
      "å±±ä¸ľçľģ": 4969,
      "ãĢĤåĽłæŃ¤,": 4970,
      ".c": 4971,
      "å¤§åĬĽ": 4972,
      "åŀĤ": 4973,
      "è°¢è°¢": 4974,
      "èĩ³äºİ": 4975,
      "æįŁå®³": 4976,
      "çĶ¨äºº": 4977,
      "æľīæķĪçļĦ": 4978,
      "é¦ĸå¸Ń": 4979,
      "åħ¬ç¤º": 4980,
      "ãĢĬåħ³äºİ": 4981,
      "è¯¾åłĤ": 4982,
      ",æīįèĥ½": 4983,
      "åıĺæĽ´": 4984,
      "ãĢĤéļıçĿĢ": 4985,
      "ç¬¬ä¸ĢæĹ¶éĹ´": 4986,
      "æįķ": 4987,
      "åĮ¹": 4988,
      "éŃħ": 4989,
      "ä¼ļãĢģ": 4990,
      "åħ½": 4991,
      "çľ¼çĿĽ": 4992,
      "ä¸ªçĻ¾åĪĨçĤ¹": 4993,
      "çĶ¨åĵģ": 4994,
      "æıĲåĪ°": 4995,
      "éģ¥": 4996,
      "å¸ĪèĮĥ": 4997,
      "éī´å®ļ": 4998,
      "äº§ä¸ļåıĳå±ķ": 4999,
      "åĪĿæŃ¥": 5000,
      "ä¸ĵé¢ĺ": 5001,
      "æ¶¯": 5002,
      "åĽ½æ°ĳ": 5003,
      "ä¸ĭåĪĹ": 5004,
      "çī©åĵģ": 5005,
      "åĽ½å®¶çļĦ": 5006,
      ",æīį": 5007,
      ",ä¸įèĥ½": 5008,
      "å¦Ĥä¸ĭ:Ċ": 5009,
      "ä¸ĢæĿ¡": 5010,
      "æĴŀ": 5011,
      "æĳ¸": 5012,
      "çĥĺ": 5013,
      "åŁİåĮº": 5014,
      "________": 5015,
      "ãĢĤĊçĽ®åīį": 5016,
      "æ¿Ģåħī": 5017,
      "ç´§å¼ł": 5018,
      ",åıªè¦ģ": 5019,
      "çŃīçŃī": 5020,
      "åºĻ": 5021,
      "è½¬æį¢": 5022,
      "åıĳçİ°,": 5023,
      "è¾Ĳ": 5024,
      "æłĳç«ĭ": 5025,
      "ä¼łéĢĴ": 5026,
      "æĦŁæĥħ": 5027,
      "çĽĳçĿ£ç®¡çĲĨ": 5028,
      "ä»°": 5029,
      "èĤª": 5030,
      "çħĮ": 5031,
      "è¯¾é¢ĺ": 5032,
      "é£ŀæľº": 5033,
      "åĬłåĿ¡": 5034,
      "ä¹¦æ³ķ": 5035,
      "çļĦæķ°æį®": 5036,
      "å·²æľī": 5037,
      "ab": 5038,
      "èĦĤèĤª": 5039,
      "èĭ¯": 5040,
      "éĤ®ç®±": 5041,
      "éĻ¶çĵ·": 5042,
      "çĶµæ°Ķ": 5043,
      "å½ĵçĦ¶": 5044,
      "æķ´çĲĨ": 5045,
      "im": 5046,
      "çļĦè®¾è®¡": 5047,
      "çļĦå¸Ĥåľº": 5048,
      "ä»¥ä¸º": 5049,
      "èµ°åĲĳ": 5050,
      "åĽŀå¤į": 5051,
      "é«ĺãĢģ": 5052,
      "âĢĿæĺ¯": 5053,
      "æĹ©æľŁ": 5054,
      "èĲ¥éĢł": 5055,
      "è¿Ľå±ķ": 5056,
      "çĶŁæĢģçİ¯å¢ĥ": 5057,
      "è½¦ç«Ļ": 5058,
      "ation": 5059,
      "ISO": 5060,
      ",è¿Ľä¸ĢæŃ¥": 5061,
      "è½¦ãĢģ": 5062,
      "æĸĩçī©": 5063,
      "å®¶äºº": 5064,
      "æ±Ĺ": 5065,
      "å¤ĸè§Ĥ": 5066,
      "ãĢĤä¸ºäºĨ": 5067,
      "åĪ°åºķ": 5068,
      "åĪ©çİĩ": 5069,
      "å³¡": 5070,
      "å®Įç¾İ": 5071,
      "ä¼łç»ŁçļĦ": 5072,
      "«çĹ": 5073,
      "åħ¹": 5074,
      "è¶³å¤Ł": 5075,
      "è·¯çº¿": 5076,
      "æ¼Ĥ": 5077,
      "åħ³å¿ĥ": 5078,
      "ä¸Ģçº¿": 5079,
      "æīĵå¼Ģ": 5080,
      "åĨįçĶŁ": 5081,
      "å¨ľ": 5082,
      "åıĳæĶ¾": 5083,
      "æľĪåºķ": 5084,
      "å®ĹæĹ¨": 5085,
      "åıĳè¾¾": 5086,
      "èĪ°": 5087,
      "èµ·æĿ¥,": 5088,
      "ãĢĤè¿Ļæĺ¯": 5089,
      "åĮĢ": 5090,
      "æ³Į": 5091,
      "ä¼Ĳ": 5092,
      "ç¢°": 5093,
      "è½»æĿ¾": 5094,
      "åĲįçļĦ": 5095,
      "æĢ»éĥ¨": 5096,
      "ãĢĤå¥¹": 5097,
      "æŁľ": 5098,
      "os": 5099,
      "åħ¬åı¸,": 5100,
      "å¹¶ä¸įæĺ¯": 5101,
      "UR": 5102,
      "é¢ĸ": 5103,
      "éĿŀæ³ķ": 5104,
      ",ä¸įè¦ģ": 5105,
      "éķ¿æ±Ł": 5106,
      "ãĢĤä¸į": 5107,
      "ĠW": 5108,
      "äººç¾¤": 5109,
      "èĲ¥æĶ¶": 5110,
      "æ¸ħæ´Ĺ": 5111,
      "æµ¸": 5112,
      ",æĹłè®º": 5113,
      "é«ĺéĵģ": 5114,
      "æŁ´": 5115,
      "åĽ½çļĦ": 5116,
      "ãĢĤĊä¸ī": 5117,
      "æĬĢæľ¯,": 5118,
      "é¸£": 5119,
      "çļĦè¦ģæ±Ĥ": 5120,
      "é¡µéĿ¢": 5121,
      "åĪ°è¾¾": 5122,
      "éŀĭ": 5123,
      "åº¦åģĩ": 5124,
      "éĢ¾": 5125,
      "çī©ä¸ļ": 5126,
      "æĥħå½¢": 5127,
      "ç¼Ĩ": 5128,
      "ä¸Ĭä¼ł": 5129,
      "è§Ħæł¼": 5130,
      "åĲīæŀĹ": 5131,
      "æķĪåºĶ": 5132,
      "éĵ¶å±ĳ": 5133,
      "!âĢĿ": 5134,
      "ä¼łæĦŁ": 5135,
      "æ¡£æ¡Ī": 5136,
      "æ°ĳå®¿": 5137,
      "é¢ĦæľŁ": 5138,
      "åĬ©äºİ": 5139,
      "åĭĥ": 5140,
      "ç§ĺä¹¦": 5141,
      "çļĦåĨħå®¹": 5142,
      "çļĦåŁºæľ¬": 5143,
      "å¥ĭæĸĹ": 5144,
      "å®īåħ¨çĶŁäº§": 5145,
      "å¥¥è¿Ĳ": 5146,
      "éĵ¶å±ĳçĹħ": 5147,
      "å¤§å¤§": 5148,
      "å¼Ĥå¸¸": 5149,
      "åĽ½å®¶åĴĮ": 5150,
      "åĲĲ": 5151,
      "çĬ¹": 5152,
      "ä¸Ģåľº": 5153,
      "é¢ĩ": 5154,
      "äººåĬĽèµĦæºĲ": 5155,
      "æĮĩæĮ¥": 5156,
      "æ¸Ķ": 5157,
      "ä¸ĵç§ĳ": 5158,
      "æĹ¥çĽĬ": 5159,
      "æııè¿°": 5160,
      "éŃĤ": 5161,
      "ä¿ĿçķĻ": 5162,
      "æµĵåº¦": 5163,
      "çĭ¬çī¹çļĦ": 5164,
      "å¤ļé¡¹": 5165,
      "æĺĤ": 5166,
      "çİ°ä»£åĮĸ": 5167,
      "è¾ĵåħ¥": 5168,
      "åıĬä»¥ä¸Ĭ": 5169,
      "åģļäºĨ": 5170,
      "åī§ãĢĬ": 5171,
      "çĻ¾å§ĵ": 5172,
      "æıĲåĩºäºĨ": 5173,
      "ãĢĤĊä¸ŃåĽ½": 5174,
      "éģµå®Ī": 5175,
      "èĢĮæĪĲ": 5176,
      "æľ¬äºº": 5177,
      "éĽĩ": 5178,
      "å°±åľ¨": 5179,
      "åĬłæĭ¿": 5180,
      "è¥¿åįĹ": 5181,
      "æīĢéľĢ": 5182,
      "äº¿åħĥ,åĲĮæ¯Ķå¢ŀéķ¿": 5183,
      "è¡ĮçļĦ": 5184,
      "ç©·": 5185,
      "åģ¥èº«": 5186,
      "åĬŁçİĩ": 5187,
      "æĬ¼": 5188,
      "ä¸ļåĨħ": 5189,
      "åħ»æ®ĸ": 5190,
      ",å¹¶ä¸į": 5191,
      "æķĻç»ĥ": 5192,
      "åĽ¢ç»ĵ": 5193,
      "èĬĤçº¦": 5194,
      "çĮĽ": 5195,
      "ãĢĤè¿Ļç§į": 5196,
      "åħ¬åı¸ãĢģ": 5197,
      "åıĳåĩº": 5198,
      "çļĦåŃ¦çĶŁ": 5199,
      "èģĬ": 5200,
      "åĽĬ": 5201,
      "æĸ°åĨłèĤºçĤİ": 5202,
      "ç¾¤ä½ĵ": 5203,
      "é¢Ī": 5204,
      "åį³ä½¿": 5205,
      "æĲŀ": 5206,
      "çŃīåľ°": 5207,
      "ä¸īè§Ĵ": 5208,
      "è¾¾æĪĲ": 5209,
      ",ä½ľä¸º": 5210,
      "æ·®": 5211,
      "èī³": 5212,
      "ç¿»è¯ĳ": 5213,
      "çĶµåĻ¨": 5214,
      "å±ĢãĢģ": 5215,
      "åĬĽåĴĮ": 5216,
      "å¤´,": 5217,
      "ä¸ŃåĮ»": 5218,
      "ç®Ń": 5219,
      "åĶ®åĲİ": 5220,
      "æ··åĩĿ": 5221,
      "åħ¨æĸ°": 5222,
      "èµ«": 5223,
      "æĺ¯ä¸ª": 5224,
      "éªĹ": 5225,
      "çĸ²": 5226,
      "é¬¼": 5227,
      "è´¢å¯Į": 5228,
      "è£ħä¿®": 5229,
      "æĬ«éľ²": 5230,
      "æ¹ĺ": 5231,
      "åıī": 5232,
      "IC": 5233,
      "èĩªæ²»åĮº": 5234,
      "å¾Īæľī": 5235,
      "æľºç»Ħ": 5236,
      "é¡¾å®¢": 5237,
      "åįģä¹Ŀ": 5238,
      "ãĢĤåĲĮæĹ¶": 5239,
      "åİĺ": 5240,
      "äºĮçº§": 5241,
      "è¢Ń": 5242,
      "æĽ¹": 5243,
      "æĭħä¿Ŀ": 5244,
      "éĺ³å¸Ĥ": 5245,
      "è¹Ī": 5246,
      "éĹ´,": 5247,
      "äºĨè§£,": 5248,
      "è§Ħå¾ĭ": 5249,
      "æ´»åĬ¨çļĦ": 5250,
      "(ä»¥ä¸ĭç®Ģç§°": 5251,
      "ä¸ĭæ»ĳ": 5252,
      "åħ¬åĬ¡": 5253,
      "åĲ¹": 5254,
      "åĪĨéħį": 5255,
      "æľĢå¥½çļĦ": 5256,
      "åķ¡": 5257,
      "ãĢĤèĻ½çĦ¶": 5258,
      "ç¡¬ä»¶": 5259,
      "ãĢĶ": 5260,
      "è¥¿åĮĹ": 5261,
      "ä¸Ĭæµ·å¸Ĥ": 5262,
      "æľĢä½İ": 5263,
      "æ¸ħæĻ°": 5264,
      "ä¹ĭå¤ĸ,": 5265,
      ",èĥ½å¤Ł": 5266,
      "ãĢķ": 5267,
      "ç§įç±»": 5268,
      "è¡Ģåİĭ": 5269,
      "æķĻèĤ²ãĢģ": 5270,
      "åŃ©åŃĲä»¬": 5271,
      "è¾Ĳå°Ħ": 5272,
      "è®¿éĹ®": 5273,
      "çļĦçĽ¸åħ³": 5274,
      "åĬłçĽŁ": 5275,
      "æīĭç»Ń": 5276,
      "å¤©ä¸ĭ": 5277,
      "è§ĤçĤ¹": 5278,
      "çĩķ": 5279,
      "åīįæĻ¯": 5280,
      "è§Ĥå¿µ": 5281,
      "éĿ¢,": 5282,
      "å°±åĥı": 5283,
      "éĩĬæĶ¾": 5284,
      "å§ľ": 5285,
      "ä½ĵæ£Ģ": 5286,
      "åĪĨç¦»": 5287,
      "å¥³åĦ¿": 5288,
      "è´¤": 5289,
      "è´¢äº§": 5290,
      "ä¼łè¾ĵ": 5291,
      "å°Ĭéĩį": 5292,
      "çĪ·": 5293,
      "çĽĹ": 5294,
      "è¥¿çıŃ": 5295,
      "è¥¿äºļ": 5296,
      "åŃ©åŃĲçļĦ": 5297,
      "ç¨İåĬ¡": 5298,
      "æĺ¯æľī": 5299,
      "è¥¿çıŃçīĻ": 5300,
      "ä¼ļä¸Ĭ": 5301,
      "å¹³å®ī": 5302,
      "åĴĮæľįåĬ¡": 5303,
      "äººæĸĩ": 5304,
      "çĸ¼": 5305,
      "è¶ħçº§": 5306,
      "åį°è±¡": 5307,
      "PS": 5308,
      "çĽĴ": 5309,
      "å¤ļå¹´çļĦ": 5310,
      "ä½ĵåĪ¶": 5311,
      "åı¤ä»£": 5312,
      "çļĦåİĨåı²": 5313,
      "çĶŁ,": 5314,
      "ä¹Ļçĥ¯": 5315,
      "ç»ĨèĬĤ": 5316,
      "çĽ¸åºĶçļĦ": 5317,
      "å®ļåĪ¶": 5318,
      "æĹ¥æľŁ": 5319,
      "åĬłçĥŃ": 5320,
      "è¡Ģæ¶²": 5321,
      ")åľ¨": 5322,
      "II": 5323,
      "è¾ħåĬ©": 5324,
      "çĶŁäº§çļĦ": 5325,
      "åĿª": 5326,
      "æĮ¤": 5327,
      "æ°ĳä¼Ĺ": 5328,
      "çĹħäºº": 5329,
      "çĲĨå¿µ,": 5330,
      "å¸ħ": 5331,
      "å¥īçĮ®": 5332,
      "åįĥä¸ĩ": 5333,
      "éŃı": 5334,
      "éĹ´çļĦ": 5335,
      "åĲĮæ¯Ķå¢ŀéķ¿": 5336,
      "æ¶µçĽĸ": 5337,
      "å¹³æĹ¶": 5338,
      "æĢ§ãĢĤĊ": 5339,
      "ec": 5340,
      "åĴĸåķ¡": 5341,
      "å¤§ãĢģ": 5342,
      "çĨĬ": 5343,
      "æµ´": 5344,
      "ä»¥åīį": 5345,
      ";åľ¨": 5346,
      "æķ´æĶ¹": 5347,
      "å»ºè®¾çļĦ": 5348,
      "æ»©": 5349,
      "ä¸Ģä»½": 5350,
      "å·²æĪĲä¸º": 5351,
      "å§¿": 5352,
      "åįģåħŃ": 5353,
      "æ¶Į": 5354,
      "æĹłäºº": 5355,
      "åĲĪçī©": 5356,
      "æľ´": 5357,
      "åħ¬äº¤": 5358,
      ",ä¸įå¾Ĺ": 5359,
      "æĶ¶èİ·": 5360,
      "çĶ¨æ°´": 5361,
      "å»ºç«ĭäºĨ": 5362,
      "...": 5363,
      "æ¸©æļĸ": 5364,
      "çļĦä½¿çĶ¨": 5365,
      "ä¸Ļçĥ¯": 5366,
      "ç®¡çĲĨä½ĵç³»": 5367,
      "èĥ¸": 5368,
      "ä»²": 5369,
      "çļĦçĶŁäº§": 5370,
      "è¯ģæį®": 5371,
      "çļĦä¿¡æģ¯": 5372,
      "ãĢģç¤¾ä¼ļ": 5373,
      "éĢĶå¾Ħ": 5374,
      "ä¸įçŁ¥éģĵ": 5375,
      "åī¯ä¸»ä»»": 5376,
      "éķ¿æ²Ļ": 5377,
      "è¾©": 5378,
      "æĸ°åįİ": 5379,
      "èĥľåĪ©": 5380,
      "çģµæ´»": 5381,
      ",æĭ¥æľī": 5382,
      "å®ŀä½ĵ": 5383,
      "æħ°": 5384,
      "åħĭæĸ¯": 5385,
      "çĽĨ": 5386,
      "å¯Ĩåº¦": 5387,
      "éħįå¤ĩ": 5388,
      "ãĢĤĊæĪĳä»¬": 5389,
      "éļıæĹ¶": 5390,
      "çĻ½èī²": 5391,
      "å°ºå¯¸": 5392,
      "PC": 5393,
      "åĩºçİ°äºĨ": 5394,
      "é¤Ĳåİħ": 5395,
      "çĶ¨éĢĶ": 5396,
      "GB": 5397,
      "æĴ¤": 5398,
      "å¼¯": 5399,
      ",æĹ¢": 5400,
      "ãĢģéĺ²": 5401,
      "éĴ¢ç®¡": 5402,
      "å¾¡": 5403,
      "é¹ı": 5404,
      "äº§åĵģè´¨éĩı": 5405,
      "å¸ķ": 5406,
      "æĥ³è±¡": 5407,
      "è¿ĩæ»¤": 5408,
      "èµ·åĪ°": 5409,
      ",ä¾¿": 5410,
      "éĥ½è¦ģ": 5411,
      "éĴĻ": 5412,
      "èµĦåĬ©": 5413,
      "æĸ¹ä½į": 5414,
      "éĢĬ": 5415,
      "è¿ĺåľ¨": 5416,
      "åº·å¤į": 5417,
      "åĲĮä¸Ģ": 5418,
      "æĺ¯ä¸ŃåĽ½": 5419,
      "åĬĽãĢĤĊ": 5420,
      "åĽ¾ä¹¦é¦Ĩ": 5421,
      "çħ®": 5422,
      "å¥Ī": 5423,
      "æĸ¯çī¹": 5424,
      "æ±ģ": 5425,
      "ç§ĳæĬĢåĪĽæĸ°": 5426,
      "çĶµåŃĲåķĨåĬ¡": 5427,
      "æľ¬ç«Ļ": 5428,
      "åĽĽå·Ŀçľģ": 5429,
      "èŀįåħ¥": 5430,
      "èµļ": 5431,
      "è®¢åįķ": 5432,
      "äººæīįåŁ¹åħ»": 5433,
      "æĪĺæĸĹ": 5434,
      "å®¢æĪ·æıĲä¾Ľ": 5435,
      "éħ·": 5436,
      "åĽŃæŀĹ": 5437,
      "åľ¨è¿Ļ": 5438,
      "å°ĳæķ°": 5439,
      "å¼Ģå§ĭ,": 5440,
      "åīĬ": 5441,
      "ãĢĭĊ": 5442,
      "æĹłçº¿": 5443,
      "éĶĲ": 5444,
      "éģĹä¼ł": 5445,
      "æĭħå¿ĥ": 5446,
      "åľº,": 5447,
      "æĸĩåĮĸçļĦ": 5448,
      "åĵįåºĶ": 5449,
      "çļĦä¸ĢäºĽ": 5450,
      "æłĭ": 5451,
      "ä¹ĭå¤ĸ": 5452,
      "åı¯èĥ½æĺ¯": 5453,
      "æµ·åįĹ": 5454,
      "ä¸²": 5455,
      "çººç»ĩ": 5456,
      "å¤§çº¦": 5457,
      "èĪŀè¹Ī": 5458,
      "åİļçļĦ": 5459,
      "çĤĴ": 5460,
      "åĮºåĪ«": 5461,
      "äºİæĺ¯": 5462,
      "å§»": 5463,
      "å°ıè¯´": 5464,
      "æ³Ħ": 5465,
      "åį±æľº": 5466,
      "å¼ºå¤§çļĦ": 5467,
      "èĩ£": 5468,
      "ä¹¦è®°ãĢģ": 5469,
      "ç»Īç«¯": 5470,
      ",åıªæľī": 5471,
      "æĹ¥åŃĲ": 5472,
      "éļıåĲİ": 5473,
      "OS": 5474,
      "æ¡¶": 5475,
      "å°±æľī": 5476,
      "æĻ®åıĬ": 5477,
      "æĺİçĻ½": 5478,
      "äºĶå¹´": 5479,
      "ä¼łæŁĵ": 5480,
      "çŃĽ": 5481,
      "ä½¿å¾Ĺ": 5482,
      "åĬĽåº¦": 5483,
      "é¡¹,": 5484,
      "åĬĽãĢĤ": 5485,
      "å¹³åı°,": 5486,
      "å¸Ĥå§Ķ": 5487,
      "åĲĦèĩª": 5488,
      "çĶ³è¯·äºº": 5489,
      "éķ¿æĹ¶éĹ´": 5490,
      "ãĢģæĬĢæľ¯": 5491,
      "çŁ©": 5492,
      "å®Ŀå®Ŀ": 5493,
      "çĻ«çĹ": 5494,
      "ĠN": 5495,
      "çĻ«çĹ«": 5496,
      "çħ§æĺİ": 5497,
      "å»Ĭ": 5498,
      "è§Ĥçľĭ": 5499,
      ":Ċ(": 5500,
      "æĢİæł·": 5501,
      "é¦Ī": 5502,
      "å¨ĺ": 5503,
      "åĲ¦åĪĻ": 5504,
      "åĨħå¤ĸ": 5505,
      "æ³³": 5506,
      "åĳ¨å¹´": 5507,
      "çĸ«èĭĹ": 5508,
      "æĻļä¸Ĭ": 5509,
      "åĪ¶åº¦,": 5510,
      "è¾ħå¯¼": 5511,
      "åĬ£": 5512,
      "ä¼ĳæģ¯": 5513,
      "å¸¸å¸¸": 5514,
      "éħ°": 5515,
      "åı£ç½©": 5516,
      "åĽŀçŃĶ": 5517,
      "å¤Ħ,": 5518,
      "ç¾½": 5519,
      "çĶµæºĲ": 5520,
      "å®īåħ¨ãĢģ": 5521,
      "æİ¥å¾ħ": 5522,
      "ç¼ĵè§£": 5523,
      "åģ¥åħ¨": 5524,
      "å®¹éĩı": 5525,
      "åĲįä¸º": 5526,
      "ä¸Ģä¸ªäºº": 5527,
      "ç½Ĳ": 5528,
      "æł¼å±Ģ": 5529,
      "èħ°": 5530,
      "å®ŀçĶ¨": 5531,
      "URL": 5532,
      "è¶ĬåįĹ": 5533,
      "å®ļä¹ī": 5534,
      "çĽ¸ç»ĵåĲĪ": 5535,
      "è¥¿æĸ¹": 5536,
      "è¿Ĳä½ľ": 5537,
      "è´º": 5538,
      "ä½ıå®¿": 5539,
      "è¯»ä¹¦": 5540,
      "ä¸ĭåİ»": 5541,
      "âĹ": 5542,
      ",æıĲåįĩ": 5543,
      "æłª": 5544,
      "çŁĽ": 5545,
      "éĹ¹": 5546,
      "åīª": 5547,
      "æľīåħ³éĥ¨éĹ¨": 5548,
      "æĹ¨åľ¨": 5549,
      "åħ¥éĢī": 5550,
      "æĬ¥éģĵ,": 5551,
      "æİĪäºĪ": 5552,
      ",ä¸ĭ": 5553,
      "èĭıå·ŀ": 5554,
      "çĶ¨æĿ¥": 5555,
      "ä¸Ģæĺ¯": 5556,
      "ä¿ĿåŃĺ": 5557,
      "æ¨¡åĿĹ": 5558,
      "åĲĪä½ľä¼Ļä¼´": 5559,
      "æ³ķå®ļ": 5560,
      "èľĤ": 5561,
      "æĬĳåĪ¶": 5562,
      "å®ĹæķĻ": 5563,
      "èĤ©": 5564,
      ",äºº": 5565,
      "åĲĮåŃ¦ä»¬": 5566,
      "ä»¥ä¸ĬçļĦ": 5567,
      "åħĦå¼Ł": 5568,
      "åĴĮå¹³": 5569,
      "æĵİ": 5570,
      "æ±Łèĭıçľģ": 5571,
      "å¸¦æĿ¥äºĨ": 5572,
      "å¹´åĪĿ": 5573,
      "èµ°è¿Ľ": 5574,
      "æīĭ,": 5575,
      "åıĳè¨Ģ": 5576,
      "åħħçĶµ": 5577,
      "éģĹäº§": 5578,
      "è¯´ãĢĤĊ": 5579,
      ",çī¹åĪ«æĺ¯": 5580,
      "å¼Ģå·¥": 5581,
      "æĮĸæİĺ": 5582,
      "é¥°æ¼Ķ": 5583,
      "av": 5584,
      "åıĹçĲĨ": 5585,
      "çº³ç¨İ": 5586,
      "æ¿ĢåĬ±": 5587,
      ",å°¤åħ¶æĺ¯": 5588,
      "ãĢģå¤ļ": 5589,
      "ä¸įè¶ħè¿ĩ": 5590,
      "æ¿Ģåıĳ": 5591,
      "çļĦèĥ½åĬĽ": 5592,
      "èį¡": 5593,
      ",æķħ": 5594,
      "åįĵè¶Ĭ": 5595,
      "ç§ĳåŃ¦éĻ¢": 5596,
      "ul": 5597,
      "çĶµä¿¡": 5598,
      "æĵħ": 5599,
      "é¼ł": 5600,
      ",ä½¿å¾Ĺ": 5601,
      "çĶµè·¯": 5602,
      "æ·ĭ": 5603,
      "å¤§éĻĨ": 5604,
      "åŃ¦å®¶": 5605,
      ",ä¸ī": 5606,
      "èµ¤": 5607,
      "èĤĸ": 5608,
      "åĴĴ": 5609,
      "æĪĲäº¤": 5610,
      "æľ¬åľ°": 5611,
      "çĲĨçĶ±": 5612,
      "æ³ķäºº": 5613,
      "èĥģ": 5614,
      "èĢĮä¸į": 5615,
      "éĺŁçļĦ": 5616,
      "æ°ĳèĲ¥": 5617,
      "æ¯ıä¸Ģ": 5618,
      "ç¥Ń": 5619,
      "ä¸Ńæĸĩ": 5620,
      "åĭĺ": 5621,
      "ç£·": 5622,
      "åºŁæ°Ķ": 5623,
      "è´§çī©": 5624,
      "åİ»å¹´åĲĮæľŁ": 5625,
      "ä¼ļä¸Ĭ,": 5626,
      ",å¤§å®¶": 5627,
      "ç¤¾ä¼ļä¸»ä¹ī": 5628,
      "æĶ¶èĹı": 5629,
      "æľīåĵªäºĽ": 5630,
      "çħ¤çĤŃ": 5631,
      "æ®¿": 5632,
      "å»¶éķ¿": 5633,
      "å¤§æ°Ķ": 5634,
      "ãĢĤĊå¦Ĥæŀľ": 5635,
      "æħ¢æħ¢": 5636,
      "é«ĺæĸ°æĬĢæľ¯": 5637,
      "éĥ¨éķ¿": 5638,
      "ä¸ĵä¸ļæĬĢæľ¯": 5639,
      "æĽ¿ä»£": 5640,
      "çļĦæ²»çĸĹ": 5641,
      "é¢Ĺç²Ĵ": 5642,
      "ä»İä¸ļ": 5643,
      "å¾Īå®¹æĺĵ": 5644,
      "åŃĲãĢģ": 5645,
      "å®¶å±ħ": 5646,
      "ä¸»æ¼Ķ": 5647,
      "æĬĬæı¡": 5648,
      "å¼º,": 5649,
      "ç§°ä¸ºâĢľ": 5650,
      "çļĦçİ¯å¢ĥ": 5651,
      "åĺ´": 5652,
      "è¶ħè¶Ĭ": 5653,
      "è´¢ç»ı": 5654,
      "å½ķåĪ¶": 5655,
      "âĢĿ)": 5656,
      "è¡¥åĬ©": 5657,
      "èįĴ": 5658,
      "æİ¢è®¨": 5659,
      "å°ı,": 5660,
      "è¿ĩçļĦ": 5661,
      "å½»åºķ": 5662,
      "çº½çº¦": 5663,
      "å°ļæľª": 5664,
      "åĿļå®ļ": 5665,
      "æĸ¹å¼ı,": 5666,
      "åıĳå±ķãĢĤ": 5667,
      "(M": 5668,
      "ä¿®å¤į": 5669,
      "éĻĢ": 5670,
      "å¹¶ä¸Ķ": 5671,
      "æ°Ł": 5672,
      "èħ¿": 5673,
      "æ¶ĪéĻ¤": 5674,
      "èı©èĲ¨": 5675,
      "æ¾³å¤§åĪ©": 5676,
      "çļĦæķħäºĭ": 5677,
      "åĲĪéĢĤ": 5678,
      "å¯¨": 5679,
      "æ³ª": 5680,
      "ä¿¡æīĺ": 5681,
      "éĢıæĺİ": 5682,
      "åĪĨæ³Į": 5683,
      "èĥĢ": 5684,
      "åĻ¨,": 5685,
      "æ¾³å¤§åĪ©äºļ": 5686,
      "çŃ¾ç½²": 5687,
      "æľĢå¥½": 5688,
      "ä¸ŃãĢĤ": 5689,
      "ç§ĳåŃ¦å®¶": 5690,
      "æľīâĢľ": 5691,
      "ä»½é¢Ŀ": 5692,
      "åħ¬å¹³": 5693,
      "éģĵ,": 5694,
      "èĲ¥ä¸ļæĶ¶åħ¥": 5695,
      "[URL": 5696,
      "[URL]": 5697,
      "æľįåĬ¡ä¸ļ": 5698,
      "æ£ī": 5699,
      "å¾Īå¥½": 5700,
      "éĥİ": 5701,
      "ä¸ĬåįĬ": 5702,
      "å¢ŀåĬłäºĨ": 5703,
      "åŃĲåħ¬åı¸": 5704,
      "æŃĮæĽ²": 5705,
      "æ··åĩĿåľŁ": 5706,
      "æľµ": 5707,
      "å¼Ģè®¾": 5708,
      "éĶ»çĤ¼": 5709,
      "ç²īä¸Ŀ": 5710,
      "éħ¶": 5711,
      "éħ¬": 5712,
      ",æľĢåĲİ": 5713,
      "æĿ¿åĿĹ": 5714,
      "æī®": 5715,
      "éĢĢä¼ĳ": 5716,
      "çľŁæŃ£çļĦ": 5717,
      "CE": 5718,
      "å¸¸è§Ħ": 5719,
      "DP": 5720,
      "ãĢĭåĴĮ": 5721,
      "åħħåĪĨåıĳæĮ¥": 5722,
      "ç§ĳæĬĢæľīéĻĲåħ¬åı¸": 5723,
      "ãĢĤè¿Ļä¸ª": 5724,
      "æľīä»Ģä¹Ī": 5725,
      "æ¶Īæ¯Ĵ": 5726,
      "å°Ĩåħ¶": 5727,
      "çļĦåºĶçĶ¨": 5728,
      "æ¶ĪåĮĸ": 5729,
      "æ¡Īä¾ĭ": 5730,
      "çº²": 5731,
      "æĽĿ": 5732,
      "åĽĽ)": 5733,
      "AA": 5734,
      "ãĢģä¸ī": 5735,
      "åıĳå±ķãĢĤĊ": 5736,
      "è¿ĳæĹ¥": 5737,
      "çĥĤ": 5738,
      "çŃ¾çº¦": 5739,
      "èĻļæĭŁ": 5740,
      "æĸ°æĹ¶ä»£": 5741,
      "çĶ»éĿ¢": 5742,
      "åŃ¦æł¡çļĦ": 5743,
      "ä¿®è®¢": 5744,
      "å»·": 5745,
      "å½Ń": 5746,
      "çĶ¨åľ°": 5747,
      "ç»ŁçŃ¹": 5748,
      "ä¾Ŀçħ§": 5749,
      "è½¦,": 5750,
      "å¸¸è§ģçļĦ": 5751,
      "å·´è¥¿": 5752,
      "éľ¸": 5753,
      "éļĶç¦»": 5754,
      "ç§īæī¿": 5755,
      "è¿Ľç¨ĭ": 5756,
      "åħ¨å¹´": 5757,
      "èµ·äºĨ": 5758,
      "ç±»ãĢģ": 5759,
      "åĲĮæŃ¥": 5760,
      "çĶ¨äººåįķä½į": 5761,
      "åľ°éĿ¢": 5762,
      "ä¹ĭåīį,": 5763,
      "å¹¶éĿŀ": 5764,
      "æĥ³æ³ķ": 5765,
      "æ¬£èµı": 5766,
      "ãĢģä¸Ĭæµ·": 5767,
      ",éĻ¤äºĨ": 5768,
      "éĥĳå·ŀ": 5769,
      "ä¾ĿéĿł": 5770,
      "æĺ¯ä»¥": 5771,
      "é«ĺéĢŁåħ¬è·¯": 5772,
      "èĬ¬": 5773,
      "èµ°åĩº": 5774,
      "è¾½å®ģ": 5775,
      "åı¦ä¸Ģä¸ª": 5776,
      "é£ŀè¡Į": 5777,
      "äºŃ": 5778,
      "æıĲç¤º": 5779,
      "è¯¸å¤ļ": 5780,
      "å¤¹": 5781,
      "å¹½": 5782,
      "åĢºåĬ¡": 5783,
      "ç»µ": 5784,
      "æłĩåĩĨåĮĸ": 5785,
      "çļĦä¸ŃåĽ½": 5786,
      "æ°Ķæ¸©": 5787,
      "å®¶çĶµ": 5788,
      "å»ºçŃĳéĿ¢ç§¯": 5789,
      "çİ¯å¢ĥä¿ĿæĬ¤": 5790,
      "æĺ¯å¯¹": 5791,
      "åŃŁ": 5792,
      "åľ°è´¨": 5793,
      "ä¾Ľç»Ļ": 5794,
      "äº¤æį¢": 5795,
      "åĪļåĪļ": 5796,
      "çĶŁæ¶¯": 5797,
      "ä¾ł": 5798,
      "çŃĸåĪĴ": 5799,
      "ap": 5800,
      "ä¼ļéķ¿": 5801,
      "çĻ½æĸĳ": 5802,
      "Ġ-Ġ": 5803,
      ");": 5804,
      "æĮĩå®ļ": 5805,
      "çĻ½çĻľé£İæĤ£èĢħ": 5806,
      "å®ŀçİ°äºĨ": 5807,
      "å®ŀéĻħä¸Ĭ": 5808,
      ",ä»Ĭå¹´": 5809,
      "æĪĲæķĪ": 5810,
      "åħ¬æ°ĳ": 5811,
      "åıł": 5812,
      "æĬĽ": 5813,
      "æ±¡æ³¥": 5814,
      "æĲºæīĭ": 5815,
      "æĹ¬": 5816,
      "å²³": 5817,
      "å¡ĺ": 5818,
      "æĢ»å±Ģ": 5819,
      "==": 5820,
      "å®ŀåľ¨": 5821,
      "ç¾İé£Ł": 5822,
      "åĪĳäºĭ": 5823,
      "æĺ¯ä¸Ģå®¶": 5824,
      "åľ°åĿĢ:": 5825,
      "ãĢģèĢĲ": 5826,
      "çłĶåıĳãĢģ": 5827,
      "æķ´æ²»": 5828,
      "èİī": 5829,
      "æĪĸè®¸": 5830,
      "éļĲæĤ£": 5831,
      "çļĦåħ³éĶ®": 5832,
      "ID": 5833,
      "å½¢æĢģ": 5834,
      ",ä¾ĭå¦Ĥ": 5835,
      "åıĳèĤ²": 5836,
      "ãĢĤåı¯": 5837,
      "åĬ³åĬ¨åĲĪåĲĮ": 5838,
      "è¾ĥé«ĺ": 5839,
      "AR": 5840,
      "åŃĿ": 5841,
      "Ġé¥°": 5842,
      "å©ļå§»": 5843,
      "çŁĽçĽ¾": 5844,
      "ä»£è°¢": 5845,
      "é©°": 5846,
      "æĭĴç»Ŀ": 5847,
      ",åİŁ": 5848,
      "èĮħ": 5849,
      "æĢĿè·¯": 5850,
      "é¢ģåıĳ": 5851,
      "ä»¥åĲİ,": 5852,
      "çļĦä»·æł¼": 5853,
      "è¾ĥä½İ": 5854,
      "æĭįåįĸ": 5855,
      "ä¸įå¤Ł": 5856,
      "ãĢģæľįåĬ¡": 5857,
      "å®ĮæĪĲäºĨ": 5858,
      "æ¶ĪèĢĹ": 5859,
      "å½±åĥı": 5860,
      "ç¿¼": 5861,
      "å£°æĺİ:": 5862,
      "ä¸ĩç¾İåħĥ": 5863,
      "ç³ĸå°¿": 5864,
      "çłĶåĪ¶": 5865,
      "CO": 5866,
      "è¾ĵåĩº": 5867,
      "åį°åıĳ": 5868,
      "æµı": 5869,
      "å¼ķæĵİ": 5870,
      "å¼Ģå¹ķ": 5871,
      "ãĢĤèĩª": 5872,
      "å®¶æĹı": 5873,
      "èĭ±æĸĩ": 5874,
      "å¸¸åĬ¡": 5875,
      "è¯Ħè®º": 5876,
      "æĹ¶éĹ´,": 5877,
      "ãĢĤĊä¸º": 5878,
      "éĥ¨çļĦ": 5879,
      ",ä¹Łå°±æĺ¯": 5880,
      "é¥®æĸĻ": 5881,
      "åľ¨âĢľ": 5882,
      "é³": 5883,
      "æ£Ģå¯Ł": 5884,
      "ä¾ĽåºĶéĵ¾": 5885,
      "çļĦç¬¬ä¸Ģ": 5886,
      "æ¯ıä¸ªäºº": 5887,
      "æĪĲä¸ºäºĨ": 5888,
      "ä¿¡ä»»": 5889,
      "æŀ¢": 5890,
      "åłµ": 5891,
      "åŃ£èĬĤ": 5892,
      "é¦¨": 5893,
      "æ£ļ": 5894,
      "ä¹Łè¦ģ": 5895,
      "é¸¿": 5896,
      "åıĤåĬłäºĨ": 5897,
      "çĶĺèĤĥ": 5898,
      "ut": 5899,
      "æĹ¥çĶµ": 5900,
      "åİ¿çº§": 5901,
      "ä¸Ńå¿ĥ,": 5902,
      "æľĢä¸º": 5903,
      "ç³»ç»Ł,": 5904,
      "ç¢§": 5905,
      "éĻĨç»Ń": 5906,
      "éĥ½åı¯ä»¥": 5907,
      "æķ°çļĦ": 5908,
      "å¿ħçĦ¶": 5909,
      "æ²³åįĹçľģ": 5910,
      "å¼ķåħ¥": 5911,
      "åĽŀå½Ĵ": 5912,
      "æĺ¯:": 5913,
      "æĮº": 5914,
      "å¯¼åĲĳ": 5915,
      "æīĳ": 5916,
      "å¥ł": 5917,
      "åıĳå°Ħ": 5918,
      "é¥¼": 5919,
      "è¯»èĢħ": 5920,
      "åĲĪå¹¶": 5921,
      "um": 5922,
      "é¾Ļå¤´": 5923,
      "å¤ĩæ¡Ī": 5924,
      "æĴĴ": 5925,
      "åĬ©åŃ¦": 5926,
      "ell": 5927,
      "å·®è·Ŀ": 5928,
      "åı·çº¿": 5929,
      "ãĢģåįĹ": 5930,
      "éĩįéĩı": 5931,
      "æĮģæľī": 5932,
      "æ°´çļĦ": 5933,
      "åĪĨéĴŁ,": 5934,
      "å¸¦ä¸Ģè·¯": 5935,
      "âĢľä¸ŃåĽ½": 5936,
      "è½¬è®©": 5937,
      "ç¨İæĶ¶": 5938,
      "å¹´åīį": 5939,
      "èĻ¹": 5940,
      "çĶ·åŃĲ": 5941,
      "ãĢĤéĤ£ä¹Ī": 5942,
      "çº¦ä¸º": 5943,
      "od": 5944,
      "op": 5945,
      "åĨ·åį´": 5946,
      "æĪĸæĺ¯": 5947,
      "ä¸»è§Ĵ": 5948,
      "ç»ıè´¹": 5949,
      "å°½å¿«": 5950,
      "ç§©": 5951,
      "æ¬§çĽŁ": 5952,
      "æ·±åľ³å¸Ĥ": 5953,
      "ob": 5954,
      "ä¸§": 5955,
      "å½ĵå¹´": 5956,
      "åľ¨ãĢĬ": 5957,
      "åħ±äº§": 5958,
      "(P": 5959,
      "å½ĵä»£": 5960,
      "æµĻæ±Łçľģ": 5961,
      "æ¬ł": 5962,
      "âĢĿä¹ĭ": 5963,
      "åľ°éľĩ": 5964,
      "æĮ¡": 5965,
      "æĭħå½ĵ": 5966,
      "èİ·å¥ĸ": 5967,
      "çļĦæľºä¼ļ": 5968,
      "åĨħæ¶µ": 5969,
      "èº«ä¸Ĭ": 5970,
      "ä¸ĺ": 5971,
      "éĢ»": 5972,
      "çŃīé¢ĨåŁŁ": 5973,
      "æ°Ķè±¡": 5974,
      "è¿Ŀè§Ħ": 5975,
      "åĲĦçķĮ": 5976,
      "æĻºèĥ½åĮĸ": 5977,
      "æłĳèĦĤ": 5978,
      "çķľ": 5979,
      "çłĶè®¨": 5980,
      "éªĮæĶ¶": 5981,
      "åĵªéĩĮ": 5982,
      "å®´": 5983,
      "åīĤãĢģ": 5984,
      "è¾¾åĪ°äºĨ": 5985,
      "ç´§å¯Ĩ": 5986,
      "å¨ģèĥģ": 5987,
      "å®¤ãĢģ": 5988,
      "åĩºæĿ¥çļĦ": 5989,
      "å»ºæĿĲ": 5990,
      "å¿Į": 5991,
      "æ³ķãĢģ": 5992,
      "æ¯ķç«Ł": 5993,
      "éĽĨåĽ¢æľīéĻĲåħ¬åı¸": 5994,
      "æĥĳ": 5995,
      "åıĳåĬ¨æľº": 5996,
      "æĬĢæľ¯åĴĮ": 5997,
      "å¯¹æİ¥": 5998,
      "ä¸ºä¸Ģä½ĵ": 5999,
      "è¯´æĺ¯": 6000,
      "åĨħå¿ĥ": 6001,
      "å»¶ä¼¸": 6002,
      "äººå¤§": 6003,
      "ç»ĵå©ļ": 6004,
      "èİİ": 6005,
      "çĪĨåıĳ": 6006,
      "æŀª": 6007,
      "ç«Ļåľ¨": 6008,
      "éŁµ": 6009,
      "äºĨè§£åĪ°": 6010,
      "å¤©çĦ¶æ°Ķ": 6011,
      "åºŀ": 6012,
      "(å¦Ĥ": 6013,
      "æīĵåĩ»": 6014,
      "çļĦå®īåħ¨": 6015,
      "éĺŁåĳĺ": 6016,
      "è¡Į,": 6017,
      "æĸľ": 6018,
      "ç³ĸå°¿çĹħ": 6019,
      "æīŃ": 6020,
      "æĹ¥æĻļ": 6021,
      "è¡¥åģ¿": 6022,
      "æīİå®ŀ": 6023,
      "éĻ¢å£«": 6024,
      "åĨħèĴĻåı¤": 6025,
      "ä½ľçĶ¨,": 6026,
      "å°±è¦ģ": 6027,
      "èģĮç§°": 6028,
      "æĲı": 6029,
      "çĿĢåĬĽ": 6030,
      "å¦Ĩ": 6031,
      "å©´åĦ¿": 6032,
      "èŁ": 6033,
      "å¼Ħ": 6034,
      "æĿĥå¨ģ": 6035,
      "ä¾¨": 6036,
      "ç²¤": 6037,
      "å±ķä¼ļ": 6038,
      "ç«ĭè¶³": 6039,
      "æĻĴ": 6040,
      "éĹ¨ç¥¨": 6041,
      "ç»ıæµİç¤¾ä¼ļ": 6042,
      "åĲĦä½į": 6043,
      "æĢ§æł¼": 6044,
      "è§Ĩä¸º": 6045,
      "åĿĿ": 6046,
      "ä¼ĺåĬ¿,": 6047,
      "çļĦä¸ľè¥¿": 6048,
      "æĪĲå¹´": 6049,
      "å°¼äºļ": 6050,
      "çī©èµĦ": 6051,
      "æĹłçĸĳ": 6052,
      "éĢļæĬ¥": 6053,
      "ER": 6054,
      "çĶŁæĪĲ": 6055,
      "æĭĮ": 6056,
      "èĽĭçĻ½è´¨": 6057,
      "åŃ¦éĻ¢ãĢģ": 6058,
      "èº«ä»½è¯ģ": 6059,
      "æĸ°çĶŁ": 6060,
      "Th": 6061,
      "èµ·éĩį": 6062,
      "æľįåĬ¡ãĢĤĊ": 6063,
      "èµĶåģ¿": 6064,
      "èĪŁ": 6065,
      "éļ§": 6066,
      "èĢĮè¨Ģ,": 6067,
      "åŁİå¸ĤçļĦ": 6068,
      ".com": 6069,
      "ä¸ľäº¬": 6070,
      "çĥ¤": 6071,
      "åĨľäº§åĵģ": 6072,
      "çº¿ä¸ĭ": 6073,
      "éĥ¨ä½į": 6074,
      "ç§©åºı": 6075,
      "æ°´åĪ©": 6076,
      "è¿ĲåĬ¨åĳĺ": 6077,
      "æĲŃå»º": 6078,
      "ä¼ĺçĤ¹": 6079,
      "å¤§éģĵ": 6080,
      "çĽ²": 6081,
      "æĭ³": 6082,
      "å±±ãĢģ": 6083,
      "éĢīçĶ¨": 6084,
      "åı¹": 6085,
      "æĶ¿åºľä¿¡æģ¯": 6086,
      "å¤±è´¥": 6087,
      "ç¬¬åħŃ": 6088,
      ";èĢĮ": 6089,
      "è½¦çļĦ": 6090,
      "åĨłçĬ¶": 6091,
      ",ä¹Łæľī": 6092,
      "ãĢĤĊè¯¥": 6093,
      "æĸ°çĸĨ": 6094,
      "ç¬¬ä¸īæĸ¹": 6095,
      "å©Ĩ": 6096,
      "äºıæįŁ": 6097,
      "é¹¿": 6098,
      "å¿ĹæĦ¿èĢħ": 6099,
      "è¡¨ç¤º:âĢľ": 6100,
      "æº¢": 6101,
      "çĩĥæĸĻ": 6102,
      ",ä¸Ģå®ļ": 6103,
      "è®°èĢħĠ": 6104,
      "ä¸ĭäºĨ": 6105,
      "ãĢĤĊå¯¹äºİ": 6106,
      "éĩįå¤į": 6107,
      "ä¹ĲåĽŃ": 6108,
      "è¿ĽèĢĮ": 6109,
      "å°Ĩç»§ç»Ń": 6110,
      "å¾®åįļ": 6111,
      "åŃ¦åĳĺ": 6112,
      ",å¿ħé¡»": 6113,
      "æĶĢ": 6114,
      "åĬŁæķĪ": 6115,
      "leĠ": 6116,
      "éĥ½å¸Ĥ": 6117,
      "çī¹æĢ§": 6118,
      "ç»Ħå»º": 6119,
      "oc": 6120,
      "èīºæľ¯å®¶": 6121,
      "èĶ¡": 6122,
      "éĢļé£İ": 6123,
      "ãĢģä¼ģä¸ļ": 6124,
      "çļĦç²¾ç¥ŀ": 6125,
      "èħĬ": 6126,
      "ç«ŀæĬĢ": 6127,
      "é«ĺå³°": 6128,
      "å·´é»İ": 6129,
      "èĥ½åĬĽåĴĮ": 6130,
      "æľĪçļĦ": 6131,
      "å¸Ĥåľº,": 6132,
      "åłª": 6133,
      "å¯¼å¸Ī": 6134,
      "è®©æĪĳ": 6135,
      "åįłæį®": 6136,
      "åıįå¤į": 6137,
      "çĶµå½±ãĢĬ": 6138,
      "æĹ¶éĹ´:": 6139,
      "å°ıç¼ĸ": 6140,
      "æĶ»åĩ»": 6141,
      "å±Ģéķ¿": 6142,
      "ä¸īåĪĨ": 6143,
      "åĽĽå¤§": 6144,
      "æĽ°": 6145,
      "èĮĤ": 6146,
      "æ¼ĶåĶ±": 6147,
      "æ¡¥æ¢ģ": 6148,
      "çŃīå¾ħ": 6149,
      "æł½": 6150,
      "é¡¾éĹ®": 6151,
      "æħ¢æĢ§": 6152,
      "æŃ¤åĲĮæĹ¶,": 6153,
      "æĭĽåķĨ": 6154,
      "og": 6155,
      "åĬłæĭ¿å¤§": 6156,
      "äººåĴĮ": 6157,
      "è®¤çŁ¥": 6158,
      "åĩºç§Ł": 6159,
      "åħĥ/": 6160,
      "å®¢è§Ĥ": 6161,
      "ä¸ºæĤ¨": 6162,
      "å¢ŀåĢ¼": 6163,
      "éĹ®é¢ĺãĢĤ": 6164,
      "ä¹Łèĥ½": 6165,
      "åĬ³åĬ¨èĢħ": 6166,
      "åħ³éĹŃ": 6167,
      "èģļæ°¨": 6168,
      "æ¤Ĵ": 6169,
      "è¯´:": 6170,
      "å¯Ĩå°ģ": 6171,
      ",éģ¿åħį": 6172,
      "åĪ¶æĪĲ": 6173,
      "ä¸¥éĩįçļĦ": 6174,
      ",åĿļæĮģ": 6175,
      "âĢĿĠ": 6176,
      "åıĳä½ľ": 6177,
      "æ°´æ³¥": 6178,
      "ãĢĤĊç¬¬ä¸ī": 6179,
      "å®ŀä¹ł": 6180,
      "çİ°çĬ¶": 6181,
      "åĸľçĪ±": 6182,
      "%åĴĮ": 6183,
      "ç§°âĢľ": 6184,
      "è°Ĭ": 6185,
      "èķ´": 6186,
      "ä½ĵä¼ļ": 6187,
      "äºĭ,": 6188,
      "æīįæĺ¯": 6189,
      ",åĬłå¿«": 6190,
      "åĽŀæĬ¥": 6191,
      "æ°ĳçĶŁ": 6192,
      "å¯¼ä½ĵ": 6193,
      "æĲºç¨ĭ": 6194,
      "æľºçĶµ": 6195,
      "å¾Īå°ĳ": 6196,
      "ook": 6197,
      "è¿ĺä¼ļ": 6198,
      "çĶµç½ĳ": 6199,
      "è´¯å½»èĲ½å®ŀ": 6200,
      "å¾Ĺä»¥": 6201,
      "æĿ¿ãĢģ": 6202,
      "èĬ±åĽŃ": 6203,
      "çļĦåħ³ç³»": 6204,
      "ç²¾å¿ĥ": 6205,
      "æķĻæĿĲ": 6206,
      "æĹłæĦı": 6207,
      "ç®¡çĲĨçļĦ": 6208,
      ",æľīçļĦ": 6209,
      "ä¸¤äºº": 6210,
      "å¤§å°ı": 6211,
      "åĽºä½ĵ": 6212,
      "å®¶éĩĮ": 6213,
      "å¥³åŃĲ": 6214,
      "ç½ļæ¬¾": 6215,
      "æ¾³éĹ¨": 6216,
      "å¯¹åħ¶": 6217,
      "èģļçĦ¦": 6218,
      "è®²è§£": 6219,
      "éĿŀæ´²": 6220,
      "ä½ľçĶ¨ãĢĤĊ": 6221,
      "æŃ£è§Ħ": 6222,
      "ç»ĨèıĮ": 6223,
      "ãĢģæĸĩåĮĸ": 6224,
      "çŁŃæľŁ": 6225,
      "å¹¼åĦ¿åĽŃ": 6226,
      "ä¸Ģä½ĵåĮĸ": 6227,
      "æ³Ĭ": 6228,
      "ä¸įäºĨ": 6229,
      "æĺŁçº§": 6230,
      "ä¸¾æİª": 6231,
      "é¦ĸæī¹": 6232,
      ",éļıçĿĢ": 6233,
      "æīĵçł´": 6234,
      "é¼İ": 6235,
      ",åį³ä½¿": 6236,
      "ä¾Ŀèµĸ": 6237,
      "çº¿çļĦ": 6238,
      "æľīéĻĲè´£ä»»": 6239,
      "çıŃçº§": 6240,
      "ä¸įéĶĪéĴ¢": 6241,
      "ä»ĸåľ¨": 6242,
      "ç¿°": 6243,
      "éħ±": 6244,
      "ç²®é£Ł": 6245,
      "çĶµç«Ļ": 6246,
      "è¾ĥé«ĺçļĦ": 6247,
      "ä¸Ī": 6248,
      "æĸ°åĬłåĿ¡": 6249,
      "åįıä½ľ": 6250,
      "è´¾": 6251,
      "ä½ľçĶ¨ãĢĤ": 6252,
      "éĺģ": 6253,
      "çŃĶæ¡Ī": 6254,
      "ãĢĤĊä½ľä¸º": 6255,
      "çļĦæĥħåĨµä¸ĭ,": 6256,
      "è´Łæĭħ": 6257,
      "æľĢæĹ©": 6258,
      "ä¾¯": 6259,
      "ä¸´æĹ¶": 6260,
      ",ä¹Łåı¯ä»¥": 6261,
      "æ´»è·ĥ": 6262,
      "æĺ¯éĿŀå¸¸": 6263,
      "ä¸Ĭä¸Ģ": 6264,
      "å¤ıåŃ£": 6265,
      "æ¨¡æĭŁ": 6266,
      "æĿĲæĸĻçļĦ": 6267,
      "åĬ¨,": 6268,
      "åıĳèµ·": 6269,
      "ä¼ĺå¼Ĥ": 6270,
      "ç«Ń": 6271,
      "èĥ½åĬĽãĢģ": 6272,
      "åĵ²åŃ¦": 6273,
      ",è¿Ļä¸Ģ": 6274,
      "æĦıå¤ĸ": 6275,
      "ç´§æĢ¥": 6276,
      "âĶ": 6277,
      "äº¤éĢļè¿Ĳè¾ĵ": 6278,
      "æ¡Ĩæŀ¶": 6279,
      "åİ¦éĹ¨": 6280,
      "åħ³èĬĤ": 6281,
      "æ°®": 6282,
      ",æľīæķĪ": 6283,
      "çĶµæľº": 6284,
      "åģľè½¦": 6285,
      ",ä»ħ": 6286,
      "ä¼łåªĴ": 6287,
      "çĲĨå·¥": 6288,
      "è®°å¾Ĺ": 6289,
      "æī¶æĮģ": 6290,
      "çĩĥçĥ§": 6291,
      "çłĶç©¶ä¸Ńå¿ĥ": 6292,
      "æĲŃéħį": 6293,
      "åĨ¬åŃ£": 6294,
      "æĽ´å¤§çļĦ": 6295,
      "å¿ĥéĩĮ": 6296,
      "åįģä¸ĥ": 6297,
      "èģļæ°¨éħ¯": 6298,
      ",åĬªåĬĽ": 6299,
      "æľīå®³": 6300,
      "è¡Ķ": 6301,
      "çľĭçľĭ": 6302,
      "éħįä»¶": 6303,
      "è¿ĺåı¯ä»¥": 6304,
      "åĽŀå¿Ĩ": 6305,
      "æŃ¤åīį": 6306,
      "ãĢĤä½ł": 6307,
      "ç©Ĩ": 6308,
      "å¸Ĥåľºä¸Ĭ": 6309,
      "æłĩåĩĨçļĦ": 6310,
      "å®¢æĪ·çļĦ": 6311,
      "åĴĮæĬĢæľ¯": 6312,
      "æ±°": 6313,
      "æĹ¥æĬ¥": 6314,
      "æķĳæı´": 6315,
      "ä¹¦éĿ¢": 6316,
      "éķľå¤´": 6317,
      "æ°´æŀľ": 6318,
      "ãĢĤĊæŃ¤å¤ĸ,": 6319,
      "ç¼´çº³": 6320,
      "å¢ĥå¤ĸ": 6321,
      "e)": 6322,
      "æ³ķå¾ĭæ³ķè§Ħ": 6323,
      "å®Ļ": 6324,
      ",åħ¶ä»ĸ": 6325,
      "åĲĦåĽ½": 6326,
      "å¹²åĩĢ": 6327,
      "éħ¿": 6328,
      "çİ¯æ¯Ķ": 6329,
      "åĪĽå§ĭ": 6330,
      "èģĮåĬ¡": 6331,
      "çĪ½": 6332,
      "åĿĩåĮĢ": 6333,
      "çĶ¨çĶµ": 6334,
      "æ§½": 6335,
      "æľ¬ä¹¦": 6336,
      "è¿ŀéĶģ": 6337,
      "æ¨¡å¼ı,": 6338,
      "ST": 6339,
      "ä¸Ńå°ıä¼ģä¸ļ": 6340,
      "åĩºçİ°åľ¨": 6341,
      "è½´æī¿": 6342,
      "ãĢĭãĢĤ": 6343,
      "çĹĽèĭ¦": 6344,
      "æµİåįĹ": 6345,
      "çģ¾å®³": 6346,
      "åĽ½äº§": 6347,
      "æľĪèĩ³": 6348,
      "APP": 6349,
      "æĺĨæĺİ": 6350,
      "åħĨ": 6351,
      "åįģå¤§": 6352,
      "äºīåıĸ": 6353,
      "çļĦç®¡çĲĨ": 6354,
      "çĻ¾å¹´": 6355,
      "ä¸Ģæł·,": 6356,
      "åıĤå±ķ": 6357,
      "åįļè§Ī": 6358,
      "ä¸ļãĢģ": 6359,
      "çĪ±å¿ĥ": 6360,
      "å¦ĩå¥³": 6361,
      "åĪĹåħ¥": 6362,
      "ãĢĤçİ°åľ¨": 6363,
      "æĿĲè´¨": 6364,
      "ãĢģåľ¨": 6365,
      "æĿī": 6366,
      "æµıè§Ī": 6367,
      "åıĻ": 6368,
      "å®ł": 6369,
      "èĲ½åľ°": 6370,
      ",å¸®åĬ©": 6371,
      "ard": 6372,
      "äº§åĢ¼": 6373,
      "é½Ĳåħ¨": 6374,
      "ä¸¢": 6375,
      "çªĦ": 6376,
      "è®²åº§": 6377,
      "äºīè®®": 6378,
      "åįĥçĵ¦": 6379,
      "ä¸įå¼Ģ": 6380,
      "æĬĢå·§": 6381,
      "èģļéĽĨ": 6382,
      ",æıĲä¾Ľ": 6383,
      "å¢ĥåĨħ": 6384,
      "è¦ģæ³¨æĦı": 6385,
      "çİĩåħĪ": 6386,
      "ãĢģâĢľ": 6387,
      "æĢĴ": 6388,
      "éĩįçļĦ": 6389,
      "åĤħ": 6390,
      "æĹłéĻĲ": 6391,
      "ç»¿åĮĸ": 6392,
      "çĥŃçĪ±": 6393,
      ",ä½Ĩåľ¨": 6394,
      "ãĢģé»Ħ": 6395,
      "çĶ¨æĪ·çļĦ": 6396,
      "ä¸ŃãĢĤĊ": 6397,
      "å±Ī": 6398,
      "äºĴçĽ¸": 6399,
      "çºªå¾ĭ": 6400,
      "éĽĨåĽ¢åħ¬åı¸": 6401,
      "ç¦ıåĪ©": 6402,
      "å¾®çĶŁçī©": 6403,
      "ä¸įåľ¨": 6404,
      "æĺ¾å¾Ĺ": 6405,
      "çĽ®å½ķ": 6406,
      "çļĦåħ¨": 6407,
      "æľĢåħ·": 6408,
      "çĽ¸æ¯Ķ,": 6409,
      "å¹´çº§": 6410,
      "ä¾µæĿĥ": 6411,
      "èģª": 6412,
      "ew": 6413,
      "ãĢĤä¾ĭå¦Ĥ": 6414,
      "åģ·": 6415,
      "éĤĵ": 6416,
      "åĩıè½»": 6417,
      "æĸ¹çļĦ": 6418,
      "æŁ¯": 6419,
      "çī¹å®ļ": 6420,
      "éħ°èĥº": 6421,
      "MA": 6422,
      "Ch": 6423,
      "æĥħèĬĤ": 6424,
      ",ä¸ĢçĽ´": 6425,
      "è¯´,âĢľ": 6426,
      "éģ£": 6427,
      "ç»Ħç»ĩçļĦ": 6428,
      "è½¬è½½": 6429,
      ",ç»ıè¿ĩ": 6430,
      "èĥ½åľ¨": 6431,
      "è®°è½½": 6432,
      "åħļå»º": 6433,
      "åĪ°çļĦ": 6434,
      "èĩªèº«çļĦ": 6435,
      "å¯¹æ¯Ķ": 6436,
      "åı·)": 6437,
      "é¢Ħè®¢": 6438,
      ",åģļ": 6439,
      ",éķ¿": 6440,
      "åĳ½è¿Ĳ": 6441,
      "èĬ½": 6442,
      "æķĻèĤ²çļĦ": 6443,
      "li": 6444,
      "å¥³åŃ©": 6445,
      "æĺ¯åĽłä¸º": 6446,
      ",å·²ç»ı": 6447,
      "]Ċ": 6448,
      "ç¨ĭåº¦ä¸Ĭ": 6449,
      "æĸ°å»º": 6450,
      "åľºçļĦ": 6451,
      "oĠ": 6452,
      "äººåĳĺçļĦ": 6453,
      "å¼ıçļĦ": 6454,
      "æ²»æĦĪ": 6455,
      "ç®Ģä»ĭ": 6456,
      "åµ": 6457,
      "éļ¾åº¦": 6458,
      "ä¸ĸçķĮæĿ¯": 6459,
      "è®¾è®¡å¸Ī": 6460,
      "äººäºĭ": 6461,
      "æĻ¯çĤ¹": 6462,
      "St": 6463,
      "éĤ®ä»¶": 6464,
      "å¼ºåĪ¶": 6465,
      "éĺ²èĮĥ": 6466,
      "æĽ´å¥½åľ°": 6467,
      "éĤ£éĩĮ": 6468,
      ",åħ±åĲĮ": 6469,
      ",æĮīçħ§": 6470,
      "å½¼æŃ¤": 6471,
      "ä¿±": 6472,
      "åĽŀåºĶ": 6473,
      "åĲ¸éĻĦ": 6474,
      "æĢ»ç»Ł": 6475,
      "å±ĤéĿ¢": 6476,
      "æ¶Ľ": 6477,
      "(åĮħæĭ¬": 6478,
      "æ³°åĽ½": 6479,
      "åĮºåĿĹ": 6480,
      "åĪ¶éĢłåķĨ": 6481,
      "æķ£çĥŃ": 6482,
      "æ¯ħ": 6483,
      "å¤§è¿ŀ": 6484,
      "é¥ŃåºĹ": 6485,
      "åĬŀäºĭ": 6486,
      ",ä¸ĢäºĽ": 6487,
      "ä¸įçĶ¨": 6488,
      "å¸ĤæĶ¿åºľ": 6489,
      "ä»ĬåĲİ": 6490,
      "çļĦè¿ĩç¨ĭ": 6491,
      ",äººä»¬": 6492,
      "æĦŁåıĹåĪ°": 6493,
      "åĪ¤åĨ³": 6494,
      "å¼ĢåıĳãĢģ": 6495,
      "ers": 6496,
      "çĸ¾çĹħçļĦ": 6497,
      "ä¸ļçļĦ": 6498,
      "è®¸åı¯è¯ģ": 6499,
      "è¦ģç´ł": 6500,
      "åŃ¦æľŁ": 6501,
      "åı°åĮĹ": 6502,
      "é¥²": 6503,
      "éĻĦä»¶": 6504,
      "ä¹ĭæĹ¥èµ·": 6505,
      "ç»ĻäºĨ": 6506,
      "åıįèĢĮ": 6507,
      "åİī": 6508,
      "èģļä¸Ļçĥ¯": 6509,
      "ãĢĤä»Ĭå¹´": 6510,
      "æĽ´æľī": 6511,
      "ä¸įå¥½": 6512,
      "éĤ£æł·": 6513,
      "åĢºåĪ¸": 6514,
      "ãĢģæµ·": 6515,
      "éŁ¦": 6516,
      "éª¨å¹²": 6517,
      "çĥĺå¹²": 6518,
      "ä¹Łè®¸": 6519,
      "èĳ¡èĲĦéħĴ": 6520,
      "æĴŃæĶ¾": 6521,
      "å½ĵäºĭ": 6522,
      "èĳĹåĲįçļĦ": 6523,
      "ä¼ĺç§ĢçļĦ": 6524,
      "æĪ·å¤ĸ": 6525,
      "é£ĺ": 6526,
      "çĦĬæİ¥": 6527,
      "éĩįç»Ħ": 6528,
      "åºŁçī©": 6529,
      "ä¸º:": 6530,
      "ãĢĤĠâĢľ": 6531,
      "èĻ¾": 6532,
      "éŁ§": 6533,
      "åĨ¯": 6534,
      "çĶµè§Ĩåı°": 6535,
      "çļĦçĽ®æłĩ": 6536,
      "åıĳéĢģ": 6537,
      "æŁĲæŁĲ": 6538,
      "ç®ĢåįķçļĦ": 6539,
      "ä¹ĭä¸ĢãĢĤĊ": 6540,
      "ä¸Ģå¼ł": 6541,
      "æ¯Ķäºļ": 6542,
      "æıĲä¾ĽçļĦ": 6543,
      "ä¹ĥèĩ³": 6544,
      "æ¸ĹéĢı": 6545,
      "éģĵ:âĢľ": 6546,
      "æ´»åĬ¨ãĢĤĊ": 6547,
      "ia": 6548,
      "éĶĢåķĨ": 6549,
      "æ¶Īå¤±": 6550,
      "ä¾¿æį·": 6551,
      "è¾īçħĮ": 6552,
      "æ¸´": 6553,
      "çħ§é¡¾": 6554,
      "ãĢģçľģ": 6555,
      "çĤ¹åĩ»": 6556,
      "æ°ĳä¸»": 6557,
      "æħĪåĸĦ": 6558,
      "ä¾¦": 6559,
      "åŁºéĩĳä¼ļ": 6560,
      "ov": 6561,
      "è¡¨å½°": 6562,
      "åį§": 6563,
      "æľĢåĲİ,": 6564,
      "æµģéĢļ": 6565,
      "çº¿ãĢģ": 6566,
      "å¦»åŃĲ": 6567,
      "éĻĦå±ŀ": 6568,
      "åİŁæľ¬": 6569,
      "æĢģåĬ¿": 6570,
      ")æĺ¯": 6571,
      "AI": 6572,
      "åħ¨åĬĽ": 6573,
      "åħ¬åı¸åľ¨": 6574,
      "æł¡åĮº": 6575,
      "æľįåĬ¡ãĢĤ": 6576,
      "ç§ĳåŃ¦æĬĢæľ¯": 6577,
      "åĨłçĬ¶çĹħæ¯Ĵ": 6578,
      "åħ¨ä¸ĸçķĮ": 6579,
      "è¯´çļĦ": 6580,
      "æĬĵä½ı": 6581,
      "çļĦç¤¾ä¼ļ": 6582,
      "ä¸ĵè¾ĳ": 6583,
      "å»¶ç»Ń": 6584,
      ",å»ºç«ĭ": 6585,
      "åº§è°Ī": 6586,
      "ä¹¡éķĩ": 6587,
      "ç¦ħ": 6588,
      "æľīçĤ¹": 6589,
      "æī©å±ķ": 6590,
      "èģĮèĥ½": 6591,
      "âĶĢ": 6592,
      "èĤ¡ä»·": 6593,
      "çļĦäººçĶŁ": 6594,
      "ä»ĭç»įäºĨ": 6595,
      "æ¸Ŀ": 6596,
      "æķ°åŃĹåĮĸ": 6597,
      "åĽŀå®¶": 6598,
      "ãĢģåĽ½å®¶": 6599,
      "å¸ĤæĶ¿": 6600,
      "ä¸¤ä½į": 6601,
      "åº¦ãĢģ": 6602,
      "æľªæĿ¥,": 6603,
      "æī¿åĬŀ": 6604,
      "åĮł": 6605,
      "ä¸ŃéĹ´": 6606,
      "ç¤¾ä¼ļçļĦ": 6607,
      "æĸĩèīº": 6608,
      "æĸĩæĹħ": 6609,
      "CC": 6610,
      "çļĦéĢīæĭ©": 6611,
      "ä½ľå®¶": 6612,
      "å®ŀæĹ¶": 6613,
      "å½¢çĬ¶": 6614,
      "åįĬå¯¼ä½ĵ": 6615,
      "æ¼Ķè®²": 6616,
      "å¡«åĨĻ": 6617,
      "å®ŀè®Ń": 6618,
      "è¿ĺå°Ĩ": 6619,
      "è£ķ": 6620,
      "åŁºçĿ£": 6621,
      "å¼ĺæī¬": 6622,
      "çĨĶ": 6623,
      "åŀ«": 6624,
      "çĽĳå¯Ł": 6625,
      "éĥ¨,": 6626,
      "ãĢĤĊéļıçĿĢ": 6627,
      "é£İçĶµ": 6628,
      "èĪªçıŃ": 6629,
      "çļĦå¤ĸ": 6630,
      "äºĳè®¡ç®Ĺ": 6631,
      "âĢ¢": 6632,
      "æľºåºĬ": 6633,
      "çļĦè¡Įä¸º": 6634,
      "è¿ĺæ²¡æľī": 6635,
      "ä¸įåĲĮ,": 6636,
      "çļĦåıĺåĮĸ": 6637,
      "å·¥ä½ľä¸Ń": 6638,
      "éļ¾é¢ĺ": 6639,
      "æ°´è´¨": 6640,
      "åĨĽäºĭ": 6641,
      "ç¿Ķ": 6642,
      "åľ¨æŃ¤": 6643,
      "çļĦè´¨éĩı": 6644,
      "åľºåľ°": 6645,
      "æ³ķå¾ĭãĢģ": 6646,
      "ç«ŀäºīåĬĽ": 6647,
      "æįĲèµł": 6648,
      ",é¢Ħè®¡": 6649,
      "åįľ": 6650,
      "ä¸ºæŃ¢": 6651,
      "åģļæ³ķ": 6652,
      "ä¸įçŁ¥": 6653,
      "éĵŃ": 6654,
      "æĽ´æį¢": 6655,
      "ä¹ĺåĿĲ": 6656,
      "å¤ķ": 6657,
      "æķ°æİ§": 6658,
      "èĩªä¿¡": 6659,
      "%å·¦åı³": 6660,
      "åĽ¾åĥı": 6661,
      "åĩĿèģļ": 6662,
      "çļĦç»¼åĲĪ": 6663,
      "æĺ¾çĦ¶": 6664,
      "ç¥ĸåĽ½": 6665,
      "ä¸ĩè¾Ĩ": 6666,
      "ä¾ĿæĹ§": 6667,
      "ç¡®è¯ĬçĹħä¾ĭ": 6668,
      "åıĳå¸ĥçļĦ": 6669,
      "ç»ıéªĮ,": 6670,
      "ãĢĬä¸ŃåĽ½": 6671,
      "è¾ĥå¼ºçļĦ": 6672,
      "æĢ¨": 6673,
      "æ´»åĬ¨ãĢĤ": 6674,
      "è®²è¯Ŀ": 6675,
      "ä¸Ĭæľī": 6676,
      "éĩĩéĽĨ": 6677,
      "è¡·": 6678,
      "è½¬åŀĭåįĩçº§": 6679,
      "ç¨»": 6680,
      "æķħéļľ": 6681,
      "NG": 6682,
      "ä¸Ģé¡¹": 6683,
      "éģŃéģĩ": 6684,
      "æħķ": 6685,
      "æ·ĺæ±°": 6686,
      "åİŁåĪĽ": 6687,
      "å®ĩå®Ļ": 6688,
      "çĪ±å¥½": 6689,
      "æµªè´¹": 6690,
      "çĽ¸ä¼¼": 6691,
      "éļ§éģĵ": 6692,
      "å¦¥": 6693,
      "å¯»æ±Ĥ": 6694,
      "è§Ĩéĩİ": 6695,
      "èĦĨ": 6696,
      "åĪĽç«ĭ": 6697,
      "åıĺéĿ©": 6698,
      "å¹³ç¨³": 6699,
      "åıĹçĽĬ": 6700,
      "åıĳå±ķãĢģ": 6701,
      "éĩĳãĢģ": 6702,
      "äºĮæ°§åĮĸ": 6703,
      "æ²«": 6704,
      "è®¾å¤ĩ,": 6705,
      "ãĢĤæ¯Ķå¦Ĥ": 6706,
      "äº¬ä¸ľ": 6707,
      "ä¹Łå°±": 6708,
      "åŃĲå¥³": 6709,
      "ä¾¿æĺ¯": 6710,
      "å¾ħéģĩ": 6711,
      "ä¸ªä½ĵ": 6712,
      "ç³ķ": 6713,
      "æĩĪ": 6714,
      "ä»¥å¾Ģ": 6715,
      "æľīåºı": 6716,
      "æģ¼": 6717,
      "çī©,": 6718,
      "ä¼¦æķ¦": 6719,
      "çĹķ": 6720,
      "ä¸¤å¤§": 6721,
      "ä¼ª": 6722,
      "å°ıæĹ¶,": 6723,
      "ä»·åĢ¼è§Ĥ": 6724,
      "åıĬçĽ¸åħ³": 6725,
      "çļĦéĢļçŁ¥": 6726,
      "çŃīçĽ¸åħ³": 6727,
      "å¯¹æŃ¤": 6728,
      "è¦ģæľī": 6729,
      "æĿ¥ä¿¡": 6730,
      "èĬĤçľģ": 6731,
      "åĳĺãĢģ": 6732,
      ",åħ¨éĿ¢": 6733,
      "åģļçļĦ": 6734,
      "çĶ·æĢ§": 6735,
      "èĮ¶åı¶": 6736,
      "ãĢĬä¸Ńåįİäººæ°ĳåħ±åĴĮåĽ½": 6737,
      "éĢ¢": 6738,
      "ç±³çļĦ": 6739,
      "é«ĺåİĭ": 6740,
      "çī¹çĤ¹,": 6741,
      "éĩĳèŀįæľºæŀĦ": 6742,
      "çļĦé¦ĸ": 6743,
      "ãĢĤĊä½Ĩ": 6744,
      "è¿Ľåĩºåı£": 6745,
      "åĿĩä¸º": 6746,
      ",èĭ¥": 6747,
      "å±ıå¹ķ": 6748,
      "æ¶²ä½ĵ": 6749,
      "æ¤ħ": 6750,
      "æĸ¯åĿ¦": 6751,
      "åĦĴ": 6752,
      "è¡į": 6753,
      "çĲĥè¿·": 6754,
      "ä¸»å¯¼": 6755,
      "æŀ¶æŀĦ": 6756,
      "åĪ¶éĢłãĢģ": 6757,
      "è¾ĥå¤§çļĦ": 6758,
      ",åīį": 6759,
      "çŃĭ": 6760,
      "æ·±åıĹ": 6761,
      "åĨĻä½ľ": 6762,
      "å°ıåĮº": 6763,
      "ä¼łæĦŁåĻ¨": 6764,
      "éĶĤ": 6765,
      "åľĨæ»¡": 6766,
      "ç©¶ç«Ł": 6767,
      "åįĹæĸ¹": 6768,
      "å°ıåŀĭ": 6769,
      "ç»ĺçĶ»": 6770,
      "æĪĳä»¬åľ¨": 6771,
      "åĲ¬åĪ°": 6772,
      "èĵ¬": 6773,
      ",ä»ĸçļĦ": 6774,
      "å½¢æĪĲäºĨ": 6775,
      "åĸ»": 6776,
      "ãĢĤæĪªèĩ³": 6777,
      "åĪĨè§£": 6778,
      "ä¹Ĳè§Ĥ": 6779,
      "æĸ°èĥ½æºĲæ±½è½¦": 6780,
      "æĪĪ": 6781,
      "æīĩ": 6782,
      "ãĢĤĠåľ¨": 6783,
      "æĿ¡ä»¶çļĦ": 6784,
      "æĿ¥æºĲ:": 6785,
      "æ´½": 6786,
      "æĿĲæĸĻãĢģ": 6787,
      "åı¯è¾¾": 6788,
      "æ¯ıæĹ¥": 6789,
      "çĥŃéĹ¨": 6790,
      ":åľ¨": 6791,
      "(B": 6792,
      "åŃ¦çļĦ": 6793,
      "ãĢĤçĽ®åīį,": 6794,
      "å¼ĢéĢļ": 6795,
      "åı¦ä¸Ģæĸ¹éĿ¢": 6796,
      "å¹´åľ¨": 6797,
      "å¥½è¯Ħ": 6798,
      "éĨī": 6799,
      "ä¸¤æ¬¡": 6800,
      "tĠ": 6801,
      "å¤įåį°": 6802,
      "åİŁæĿ¥": 6803,
      "èĢģæĿ¿": 6804,
      "ä»ĬæĹ¥": 6805,
      "çļĦä¸ĸçķĮ": 6806,
      ",èĢĮä¸įæĺ¯": 6807,
      "çŃĴ": 6808,
      "ind": 6809,
      "è§£éĻ¤": 6810,
      "ç§»æ°ĳ": 6811,
      "å·¥ä½ľèĢħ": 6812,
      "éĢ»è¾ĳ": 6813,
      "æ°´å¹³çļĦ": 6814,
      "é¾Ļæ±Ł": 6815,
      "äººéĥ½": 6816,
      "ub": 6817,
      "äºĮæ¬¡": 6818,
      "çļĦäºº,": 6819,
      "ãĢģå¯¹": 6820,
      "åĬłéĩį": 6821,
      "æ»ŀ": 6822,
      "è¶ĬæĿ¥è¶Ĭå¤ļ": 6823,
      "æ¹ĸåįĹçľģ": 6824,
      "è½¦éĹ´": 6825,
      "æĬ¥èŃ¦": 6826,
      "çŀ¬": 6827,
      ",å¢ŀå¼º": 6828,
      "âĢĿ;": 6829,
      "æĺ¯æĪĳ": 6830,
      "ä¹Łå¾Ī": 6831,
      "ä¸»æµģ": 6832,
      "æ¶¦æ»ĳ": 6833,
      "åĲķ": 6834,
      "çĻ¾ä¸ĩ": 6835,
      "åľ¨åĨħçļĦ": 6836,
      "æĥħåĨµä¸ĭ,": 6837,
      "æĬļ": 6838,
      "æłĩåĩĨ,": 6839,
      "æľĢå¤ļ": 6840,
      "é©¬æĿ¥": 6841,
      "å¹¿éĺĶ": 6842,
      "æĢ»éĩı": 6843,
      "æĹ¶åħī": 6844,
      "æī¿åıĹ": 6845,
      "ç¨£": 6846,
      "ä¸ĭè·Į": 6847,
      "èģĶåĲĪåĽ½": 6848,
      "åįłåľ°éĿ¢ç§¯": 6849,
      "æī©å¼ł": 6850,
      "åħļæĶ¯éĥ¨": 6851,
      "åı·çłģ": 6852,
      "å¤ļåĲį": 6853,
      "äº§ä¸ļçļĦ": 6854,
      "ãĢĤèĢĮä¸Ķ": 6855,
      "çĶ±æŃ¤": 6856,
      "çºłçº·": 6857,
      "éģµå¾ª": 6858,
      "çĿ¡çľł": 6859,
      "èĢ¶ç¨£": 6860,
      "æ²ª": 6861,
      "è¿ľç¨ĭ": 6862,
      "è¿ĲèĲ¥åķĨ": 6863,
      "åĢŁåĬ©": 6864,
      "åĵŃ": 6865,
      "è¯´æ³ķ": 6866,
      "è¯·æ±Ĥ": 6867,
      "æī¹è¯Ħ": 6868,
      "èº«å¿ĥ": 6869,
      "åĲĪèĤ¥": 6870,
      "ç«ĭæĸ¹": 6871,
      "ç§ĳçĽ®": 6872,
      ",æīĵéĢł": 6873,
      "åħ¨æĸ¹ä½į": 6874,
      "åħħè¶³": 6875,
      "åĪĽåĬŀ": 6876,
      "è¯Ńæĸĩ": 6877,
      "æĬķè¯ī": 6878,
      "å¹´)": 6879,
      "--------": 6880,
      "ä¸Ńèį¯": 6881,
      "ãĢĤä¸»è¦ģ": 6882,
      "æĸ¹éĴĪ": 6883,
      "äººä»¬çļĦ": 6884,
      "ä¿¡æģ¯æĬĢæľ¯": 6885,
      "æ½Ń": 6886,
      "éĴł": 6887,
      "æŁĲç§į": 6888,
      "æĹ¶ä»£çļĦ": 6889,
      "çĶµç¼Ĩ": 6890,
      "ä¸įä¹ħ": 6891,
      "åºĶèģĺ": 6892,
      "ç²¾å¯Ĩ": 6893,
      "å¤§äºİ": 6894,
      "ãĢģè¥¿": 6895,
      "çľĭè§ģ": 6896,
      "å¥½åĥı": 6897,
      "åħ¬æĸ¤": 6898,
      "åħ¬å¯ĵ": 6899,
      "å¤įå·¥": 6900,
      ",è¿ĻéĩĮ": 6901,
      "æķ°æį®åºĵ": 6902,
      "å¥³å£«": 6903,
      "ä¾µçĬ¯äºĨ": 6904,
      "æĦī": 6905,
      "å¤§æī¹": 6906,
      "ä¼ģä¸ļåĴĮ": 6907,
      "çĶŁåĬ¨": 6908,
      "åĽĽãĢģ": 6909,
      "ä½İ,": 6910,
      "èĭ¥å¹²": 6911,
      "æľŁè´§": 6912,
      "çļĦå½¢å¼ı": 6913,
      "è¿ĩäºĨ": 6914,
      "åķ¦": 6915,
      "PE": 6916,
      "æĽ´å¤§": 6917,
      "å±±åĮº": 6918,
      "çĭ®": 6919,
      "èĮ¨": 6920,
      "æ¸¯åı£": 6921,
      "çĢ": 6922,
      "çģ«ç®Ń": 6923,
      "ev": 6924,
      "çıŃä¸»ä»»": 6925,
      "åĨľèį¯": 6926,
      "åį¸": 6927,
      "ç³Ĭ": 6928,
      "å»ºè®¾åĴĮ": 6929,
      "åĳ³éģĵ": 6930,
      "ä¸īæĺ¯": 6931,
      ",æľīäºĽ": 6932,
      "çĹħçļĦ": 6933,
      "åħ¨æĸ°çļĦ": 6934,
      "æĽ´é«ĺ": 6935,
      "æĮ¯åħ´": 6936,
      "æ¯Ķéĩį": 6937,
      "è®¾è®¡,": 6938,
      "éĢ¸": 6939,
      "è±ªåįİ": 6940,
      "æº¶æ¶²": 6941,
      "æĹ¥åĨħ": 6942,
      "ç²¾åº¦": 6943,
      "åĤ²": 6944,
      "æ±¡æŁĵçī©": 6945,
      "ä¸ĬéĿ¢": 6946,
      "æĹ¥)": 6947,
      "æĲºå¸¦": 6948,
      "æĹ©åľ¨": 6949,
      "éĦ": 6950,
      "å¤įèĭı": 6951,
      "è®¾è®¡çļĦ": 6952,
      "çĻ»å½ķ": 6953,
      "ç¾İè§Ĥ": 6954,
      "åįķåħĥ": 6955,
      "æ¸ħçĲĨ": 6956,
      "åıĶ": 6957,
      "æĪĳå¸Ĥ": 6958,
      "ãĢĤçİ°": 6959,
      "æ²¹ãĢģ": 6960,
      "æĺİæĺ¾çļĦ": 6961,
      "æĸ°é²ľ": 6962,
      "èĥĸ": 6963,
      "ç§ĺå¯Ĩ": 6964,
      "èĳ£äºĭä¼ļ": 6965,
      "ç¯®çĲĥ": 6966,
      "æĸĮ": 6967,
      "éĶĢåĶ®é¢Ŀ": 6968,
      ",æŃ£": 6969,
      "çº¦å®ļ": 6970,
      "çĪ¸çĪ¸": 6971,
      "æŀģå¤§": 6972,
      "æĲħ": 6973,
      "åĪł": 6974,
      "å¿ĥèĦı": 6975,
      "åĬ©æĶ»": 6976,
      "ĠJ": 6977,
      "ãĢĤĊ(äºĮ)": 6978,
      "åĤ¨å¤ĩ": 6979,
      "ä¹Łå°±æĺ¯": 6980,
      "æķıæĦŁ": 6981,
      "æľºåĬ¨": 6982,
      "åĪĽæĸ°ãĢģ": 6983,
      "ä¹Łæ²¡æľī": 6984,
      ",å¾Īå¤ļ": 6985,
      "è§Ĩé¢ĳç½ĳç«Ļ": 6986,
      "ä¹¦çĶ»": 6987,
      "ç»©æķĪ": 6988,
      "åħ±è®¡": 6989,
      "åĻ¨æ¢°": 6990,
      "ä¸ĭæĿ¥,": 6991,
      "åĤ¬åĮĸ": 6992,
      "èĳĹä½ľæĿĥ": 6993,
      "ç»ıæµİçļĦ": 6994,
      ",åĪĨåĪ«": 6995,
      "åĲĮäºĭ": 6996,
      "å±±å¸Ĥ": 6997,
      "web": 6998,
      "éĺ²çĸ«": 6999,
      "!Ġ": 7000,
      "å°ıéķĩ": 7001,
      "çĻĮçĹĩ": 7002,
      "çľĭçĿĢ": 7003,
      "å¹´(": 7004,
      "ä¹ĭæīĢä»¥": 7005,
      "èĦ¾": 7006,
      "AM": 7007,
      "æī¿è®¤": 7008,
      "ä»¶äºĭ": 7009,
      "èģĮä¸ļæķĻèĤ²": 7010,
      "å¿«éĢĴ": 7011,
      "ä¸ĢçĽ´åľ¨": 7012,
      "å·¢": 7013,
      "ä¼ģä¸ļåľ¨": 7014,
      "å¤±ä¸ļ": 7015,
      "åĪĨæķ£": 7016,
      "æĪ¿éĹ´": 7017,
      "äºİä¸Ģä½ĵ": 7018,
      "æľ¬åľŁ": 7019,
      "é¢ĳçİĩ": 7020,
      "å¸½": 7021,
      "æ´Ĵ": 7022,
      "çļĦå¤§åŀĭ": 7023,
      "åįķçĭ¬": 7024,
      "ä¼łå¥ĩ": 7025,
      "å¯Įæľī": 7026,
      "ãĢģä¸Ģ": 7027,
      "èĦ±è´«æĶ»åĿļ": 7028,
      "å¹´è½»äºº": 7029,
      "æ¼ł": 7030,
      "ç¥ŀç§ĺ": 7031,
      "æĴ°": 7032,
      "ä¹ĭå¤Ħ": 7033,
      "åİĮ": 7034,
      "åıĬåħ¶ä»ĸ": 7035,
      "å¤ĦçĲĨä¸İ": 7036,
      "æľªç»ı": 7037,
      "è®¾å®ļ": 7038,
      "è´µçļĦ": 7039,
      "çŃīçļĦ": 7040,
      "æĥ©": 7041,
      "çŃīå¤ļç§į": 7042,
      "æıĲé«ĺäºĨ": 7043,
      "åİ¿(": 7044,
      "è¯Ħä¸º": 7045,
      "æĪıåī§": 7046,
      "ak": 7047,
      "ãĢĤç»ıè¿ĩ": 7048,
      "é«ĺåħ´": 7049,
      "è¯ŀçĶŁ": 7050,
      "æ¸ħåįİ": 7051,
      "ä¸ľéĥ¨": 7052,
      "è´§è¿Ĳ": 7053,
      "åįķä¸Ģ": 7054,
      "ĠV": 7055,
      "è¿ĽçĲĥ": 7056,
      "çľī": 7057,
      "åĬ³åĬ¡": 7058,
      "æ°Ķ,": 7059,
      "ä»ħä»ħ": 7060,
      "æ¬§åħĥ": 7061,
      "SC": 7062,
      "ä¸ļçķĮ": 7063,
      "åıĤæķ°": 7064,
      "èĳ¬": 7065,
      ",äº¦": 7066,
      "åĪĹè½¦": 7067,
      "ä¸Ĭçº¿": 7068,
      "ä½ĵåĨħ": 7069,
      "ç½ĳé¡µ": 7070,
      "çļĦæķĪæŀľ": 7071,
      "éª¤": 7072,
      "ç»§æī¿": 7073,
      "å°ĨæĪĲä¸º": 7074,
      "æĶ¾æĿ¾": 7075,
      "åıįé¦Ī": 7076,
      "ãĢĤâĢĿĊâĢľ": 7077,
      "æĦŁåĬ¨": 7078,
      "åĮºåĿĹéĵ¾": 7079,
      ",åįł": 7080,
      "åĴ¸": 7081,
      "å¤ªå¤ļ": 7082,
      "æ¹ĸåĮĹçľģ": 7083,
      "åĩ¸": 7084,
      "TC": 7085,
      "è´¹ãĢģ": 7086,
      "éªĮè¯ģ": 7087,
      ",æľ¬ç½ĳç«Ļ": 7088,
      "æŀĹä¸ļ": 7089,
      "?Ġ": 7090,
      "çļĦåĽ½å®¶": 7091,
      ",æĿ¥": 7092,
      "æİ¥çĿĢ": 7093,
      "å¤§å¤ļ": 7094,
      "ä¸Ĭå¹´åĲĮæľŁ": 7095,
      "çĸ¯": 7096,
      "âĸ": 7097,
      "è¿ĩåº¦": 7098,
      "éĽ¶éĥ¨ä»¶": 7099,
      "çĽ¸å½ĵäºİ": 7100,
      "ä¸Ģçīĩ": 7101,
      "åħ¬åħĥ": 7102,
      "åħ³èģĶ": 7103,
      "åī§æĥħ": 7104,
      "æ¸©é¦¨": 7105,
      "å·´å·´": 7106,
      "åħ¨æ°ĳ": 7107,
      "äºĮçŃīå¥ĸ": 7108,
      "éľŀ": 7109,
      "å¼ĢåıĳåĮº": 7110,
      "æĢ»çĽĳ": 7111,
      "çļĦè§Ħå®ļ": 7112,
      "éĺ²èħĲ": 7113,
      "æŃ¥ä¼Ĳ": 7114,
      "åĳĬçŁ¥": 7115,
      "åĪ¶èį¯": 7116,
      "äºĭå®ŀä¸Ĭ,": 7117,
      "å¤§è§Ħæ¨¡": 7118,
      "æī§ä¸ļ": 7119,
      "æ¸¯æ¾³": 7120,
      "åİŁå§ĭ": 7121,
      "çĶŁäº§çº¿": 7122,
      "æī¹åıĳ": 7123,
      "äºĨä¸ŃåĽ½": 7124,
      "çľĭæĿ¥,": 7125,
      "åºĵåŃĺ": 7126,
      "è·¯,": 7127,
      "çİ°åľ¨çļĦ": 7128,
      "åĬĽåº¦,": 7129,
      "å¥łå®ļ": 7130,
      "æĺ¯æĪĳä»¬": 7131,
      "ãĢģæĽ´": 7132,
      "æĸĩåĮĸåĴĮ": 7133,
      "ĠK": 7134,
      "æ®ĭçĸ¾": 7135,
      "æł¼åħ°": 7136,
      "çĶµåİĭ": 7137,
      "éľĢæ±Ĥ,": 7138,
      "åĿĳ": 7139,
      "éĹ®é¢ĺãĢĤĊ": 7140,
      "æĦŁæģ©": 7141,
      "è¯´è¿ĩ": 7142,
      "æ½ĺ": 7143,
      "ä¸įåıĺ": 7144,
      "çĶ¨è½¦": 7145,
      "æ¯«ç±³": 7146,
      "An": 7147,
      "åĩºæĿ¥,": 7148,
      "æĥ§": 7149,
      "è¯ĬçĸĹ": 7150,
      ",æ°´": 7151,
      "å¼ºçĥĪ": 7152,
      "çĮľ": 7153,
      ",åĲĮæ¯Ķä¸ĭéĻį": 7154,
      "çļĦä¸Ģéĥ¨åĪĨ": 7155,
      "è¿Ļéĥ¨": 7156,
      "æİªæĸ½,": 7157,
      "å¤ĸéĥ¨": 7158,
      "åĩºåĶ®": 7159,
      "éħįéĢģ": 7160,
      "åı£,": 7161,
      "é¡¶çº§": 7162,
      "ãĢĤåŃ¦æł¡": 7163,
      "è§£æĶ¾": 7164,
      ",å¹¶å°Ĩ": 7165,
      "ä»ªè¡¨": 7166,
      "æįŁä¼¤": 7167,
      "è§Ĥåħī": 7168,
      "è§ģè¯ģ": 7169,
      "çģ«çģ¾": 7170,
      "ç¬Ķè¯ķ": 7171,
      "çĻ¾åº¦": 7172,
      "çļĦåĽ½éĻħ": 7173,
      "ç°": 7174,
      "æľ¬è´¨": 7175,
      "æī®æ¼Ķ": 7176,
      "ik": 7177,
      "ãĢģå¼ł": 7178,
      "ä¿Ŀåħ»": 7179,
      "é¦ĸéĥ½": 7180,
      "ç¾İä¸½çļĦ": 7181,
      "è¡£æľį": 7182,
      "é£İæľº": 7183,
      "âĨ": 7184,
      "æľīå¤ļ": 7185,
      "åıªæıĲä¾Ľ": 7186,
      "æĿ¥äºĨ": 7187,
      "å»ºè®¾é¡¹çĽ®": 7188,
      "åĲĪä¼Ļ": 7189,
      ",è¿Ļä¹Łæĺ¯": 7190,
      "èŁ¹": 7191,
      "åħ¥åŃ¦": 7192,
      "æ±ŁåįĹ": 7193,
      "è´ŁåĢº": 7194,
      "éĺ¿å°Ķ": 7195,
      "ç¯®æĿ¿": 7196,
      "åı¯ä»¥éĢļè¿ĩ": 7197,
      "æľīåĪ©äºİ": 7198,
      "å±Ģéĥ¨": 7199,
      "ä¸ĢæĹ¦": 7200,
      "æŃĮæīĭ": 7201,
      ",éĥ½æĺ¯": 7202,
      "ãĢģå®īåħ¨": 7203,
      "ç¬¬ä¸ĥ": 7204,
      "åıĹæ¬¢è¿İ": 7205,
      "æŀļ": 7206,
      "åıĸä»£": 7207,
      "ä¸įå¿ĺ": 7208,
      "å¤§æ¡¥": 7209,
      "å·¥äºº": 7210,
      "çľģå¸Ĥ": 7211,
      ",å¹´": 7212,
      "ç¦½": 7213,
      "ç®¡çĲĨåĴĮ": 7214,
      "åħ¬åĬ¡åĳĺ": 7215,
      "éĢ¼": 7216,
      "æķĻèĤ²æķĻåŃ¦": 7217,
      "çİ¯å¢ĥçļĦ": 7218,
      "èĩĤ": 7219,
      "è°¢è°¢!Ċ": 7220,
      "ä¸īåįģ": 7221,
      ",åĲĮæĹ¶ä¹Ł": 7222,
      "æİ¥æĶ¶": 7223,
      "åħĭæľį": 7224,
      "å¤ĸçķĮ": 7225,
      "çĪ¬": 7226,
      ",éĢłæĪĲ": 7227,
      "ä½ľé£İ": 7228,
      "æĬķç¥¨": 7229,
      "ä¸ĢçŃīå¥ĸ": 7230,
      "èĬĤå¥ı": 7231,
      "åĤ¨åŃĺ": 7232,
      "å³»": 7233,
      "æ¿ĢçĥĪ": 7234,
      ",æĮī": 7235,
      "ä¸ĬãĢĤ": 7236,
      "å½ĵä¸Ń": 7237,
      "èĳ±": 7238,
      "éĻ·åħ¥": 7239,
      "ç¢Ĺ": 7240,
      "åĺīå®¾": 7241,
      "å¿ĥä¸Ń": 7242,
      "ä¸ºå¤§å®¶": 7243,
      "AC": 7244,
      ",æ¯ıå¹´": 7245,
      "åĮĹæĸ¹": 7246,
      "ä¸ĵæ³¨äºİ": 7247,
      "ä½İæ¸©": 7248,
      ",å¼Ģ": 7249,
      "ä¸Ģæł·çļĦ": 7250,
      "é»ĳé¾Ļæ±Ł": 7251,
      "é©¬åħĭ": 7252,
      "æľªèĥ½": 7253,
      "äºĶ)": 7254,
      ",æĪĳä»¬å°Ĩåľ¨": 7255,
      "çļĦä½ľåĵģ": 7256,
      ",æĽ´æĺ¯": 7257,
      "çĶµè¯Ŀ:": 7258,
      "è´Ŀå°Ķ": 7259,
      "ä¸įå¾Ĺä¸į": 7260,
      "ä¹ĭéĻħ": 7261,
      "ä»Ĭå¹´çļĦ": 7262,
      "äº¤æĺĵæīĢ": 7263,
      "å¸Ĩ": 7264,
      "ç½Ĺé©¬": 7265,
      "å¤§åİ¦": 7266,
      "æĸĩçĮ®": 7267,
      "æľīæľĽ": 7268,
      "è®©ä½ł": 7269,
      "çĩĥæ°Ķ": 7270,
      "ä¸»åľº": 7271,
      "åĩĢæ°´": 7272,
      "çļĦæł¸å¿ĥ": 7273,
      "ä¼ļå±ķ": 7274,
      "ç«ĻãĢģ": 7275,
      "ä¹ĭä¸ĭ,": 7276,
      "ä»Ķç»Ĩ": 7277,
      "å¥ĸé¡¹": 7278,
      "æĥħåĨµä¸ĭ": 7279,
      "ãĢĤĊä»ĸ": 7280,
      "åĴĮç®¡çĲĨ": 7281,
      "éħµ": 7282,
      "éĥ½æ²¡æľī": 7283,
      "åľ°ãĢģ": 7284,
      "ĠO": 7285,
      "ä¸»èĲ¥": 7286,
      "åĮĸåĲĪçī©": 7287,
      "ä¹ĭä¸Ń": 7288,
      "ãĢĤâĢĿĠ": 7289,
      "è±¡å¾ģ": 7290,
      "æŁ¥çľĭ": 7291,
      "éĩįåºĨå¸Ĥ": 7292,
      "GDP": 7293,
      "è¦ģåľ¨": 7294,
      "çĶµæµģ": 7295,
      "åľºãĢģ": 7296,
      "å·¥ä¼ļ": 7297,
      "åħ¶ä¸Ń,": 7298,
      "åĪĨæķ°": 7299,
      "æľĪåĪĿ": 7300,
      "æĹłæķ°": 7301,
      "åľ¨ç¾İåĽ½": 7302,
      "è¿ªå£«": 7303,
      "æļĤæĹ¶": 7304,
      "ç§įåŃĲ": 7305,
      "å¯¹è¯Ŀ": 7306,
      "æŀ¢çº½": 7307,
      "åĿĩç³»": 7308,
      "èµĦæºĲ,": 7309,
      "å¨ĥ": 7310,
      "åŁºæľ¬ä¸Ĭ": 7311,
      "å®ģæ³¢": 7312,
      "åıĳçĶŁäºĨ": 7313,
      "ä¸¾æĬ¥": 7314,
      ",éĻ¤": 7315,
      "è¿ªå£«å°¼": 7316,
      "åĲĪè®¡": 7317,
      "çķĻåŃ¦": 7318,
      "çĤ®": 7319,
      "åĪĨåħ¬åı¸": 7320,
      "ä¿¡å¿µ": 7321,
      "ä¸Ģè½®": 7322,
      "å¸¸æĢģ": 7323,
      "æİ¥åĪ°": 7324,
      "çİĦ": 7325,
      "æĶ¿åĬ¡": 7326,
      "èŃ¦æĸ¹": 7327,
      "çķı": 7328,
      ",ä¸įæĺ¯": 7329,
      "äººåĿĩ": 7330,
      "èī²,": 7331,
      "TV": 7332,
      "äº¿åħĥãĢĤĊ": 7333,
      "å·©": 7334,
      "èĤ¢": 7335,
      "SA": 7336,
      "å¿ĥçģµ": 7337,
      "å¤ªå¹³": 7338,
      "æĺİçļĦ": 7339,
      "æĹłè®ºæĺ¯": 7340,
      "ç®¡çĲĨå±Ģ": 7341,
      "çŁ³å¢¨": 7342,
      "æĶ¯æı´": 7343,
      "æ½ľåľ¨": 7344,
      "æ²³åĮĹçľģ": 7345,
      "å¤ĦçļĦ": 7346,
      "åºĨç¥Ŀ": 7347,
      "å®¶ãĢģ": 7348,
      "çłĶç©¶,": 7349,
      "å¤§æĤ²": 7350,
      "èĪ¶": 7351,
      "if": 7352,
      "æ¯ıæ¬¡": 7353,
      "âĢĿåľ¨": 7354,
      "åģ¥åº·çļĦ": 7355,
      "å¹¿æ³ĽåºĶçĶ¨äºİ": 7356,
      "å®¢è¿Ĳ": 7357,
      "äººæ¬¡": 7358,
      "ãĢĤä¸Ń": 7359,
      "ä¼½": 7360,
      "è´µåı¸": 7361,
      "ãĢĤå½ĵçĦ¶": 7362,
      "æĥħ,": 7363,
      "ç»³": 7364,
      "å¸¦æľī": 7365,
      "æĶ¶éĽĨäºİ": 7366,
      "åıĺåĬ¨": 7367,
      "ãĢĤæŃ¤å¤ĸ": 7368,
      "ç¥Ŀç¦ı": 7369,
      "åıĳå±ķåĴĮ": 7370,
      "æĪĲäºº": 7371,
      "çĲ³": 7372,
      "çī©æĸĻ": 7373,
      "å¯¹å¾ħ": 7374,
      "çĭ±": 7375,
      "é¸Ń": 7376,
      "çĿĢâĢľ": 7377,
      "):": 7378,
      "å¹´æĿ¥": 7379,
      "ä¸Ńå¿ĥçļĦ": 7380,
      "ä¹ĭä¸Ń,": 7381,
      "æºĲäºİ": 7382,
      "çļĦåŁºç¡Ģä¸Ĭ,": 7383,
      "åİĤæĪ¿": 7384,
      "éģĹåĿĢ": 7385,
      "cm": 7386,
      "ç§ĳãĢģ": 7387,
      "äº«æľī": 7388,
      ",ä»¥âĢľ": 7389,
      "æĪĲåĬŁçļĦ": 7390,
      ",è¦ģæ±Ĥ": 7391,
      "æĿĳãĢģ": 7392,
      "åıĤä¸İå½ķåĪ¶": 7393,
      "å¹ħåº¦": 7394,
      "çīĪæĿĥ,è¯·": 7395,
      "çī¹ç§į": 7396,
      "æľ¬ç«ĻæĶ¶å½ķ": 7397,
      "çĽ¸åħ³éĥ¨éĹ¨": 7398,
      "ç¾İå¥½çļĦ": 7399,
      "éĿ¢åīį": 7400,
      "äºĨå¾Īå¤ļ": 7401,
      "æĹ¥-": 7402,
      "åİĨç¨ĭ": 7403,
      "èĥ½åĬĽçļĦ": 7404,
      "åīįæ²¿": 7405,
      ",åıªæĺ¯": 7406,
      "éĻĦåĬł": 7407,
      "æļ´éĽ¨": 7408,
      "æ°Ķæ°Ľ": 7409,
      "æłĩçŃ¾": 7410,
      "æĹłæĦıä¾µçĬ¯äºĨ": 7411,
      "æª": 7412,
      "é«ĺåº¦éĩįè§Ĩ": 7413,
      "å½ĵå¤©": 7414,
      "æī©æķ£": 7415,
      "åľ°åĽ¾": 7416,
      "æĶ¾åħ¥": 7417,
      "è´¦æĪ·": 7418,
      "é£Łåĵģå®īåħ¨": 7419,
      "éĻĮ": 7420,
      "ä»¶,": 7421,
      "ç½ķ": 7422,
      "èĥ½åĲ¦": 7423,
      "ä¸ŃåĮ»èį¯": 7424,
      "å¢ŀéķ¿,": 7425,
      "åįłæľī": 7426,
      "çļĦæľī": 7427,
      "çļĦåŃ¦ä¹ł": 7428,
      "çªģåıĳ": 7429,
      "åĪĨä¼ļ": 7430,
      "éĤ®ç®±åľ°åĿĢ": 7431,
      "äº§åĵģãĢģ": 7432,
      "è¯¥åħ¬åı¸": 7433,
      "æĹ¶éĹ´ä¸º": 7434,
      "æİĴæ°´": 7435,
      "æ¶¨å¹ħ": 7436,
      "ç»Łè®¡,": 7437,
      "æĹłæĦıä¾µçĬ¯äºĨè´µåı¸": 7438,
      "éĻķè¥¿çľģ": 7439,
      "éĩįè¦ģçļĦæĺ¯": 7440,
      "çļĦé£Łçī©": 7441,
      "åº¦åĴĮ": 7442,
      "å¦Ĥæŀľä½ł": 7443,
      "ä¼ļå¯¹": 7444,
      "çĽ¸åħ³èµĦæºĲ": 7445,
      "çļĦåħī": 7446,
      "çĻ»éĻĨ": 7447,
      "çļĦ,åºĶå½ĵ": 7448,
      "è¿Ļä½į": 7449,
      "èµĦæºĲåŃĺåĤ¨": 7450,
      "æĶ¿çŃĸ,": 7451,
      "æ°´å¹³,": 7452,
      "ç¿ł": 7453,
      "ä½ĵç§¯": 7454,
      "åĲİç»Ń": 7455,
      "çĸ¼çĹĽ": 7456,
      "åİĨåı²ä¸Ĭ": 7457,
      "æĬ¤å£«": 7458,
      "çĭ¼": 7459,
      "å®ĮåĸĦçļĦ": 7460,
      "æĹłæĦıä¾µçĬ¯äºĨè´µåı¸çīĪæĿĥ,è¯·": 7461,
      "èĢĥåı¤": 7462,
      "(D": 7463,
      "å¤«å¦»": 7464,
      "é¹°": 7465,
      "èĩªè§ī": 7466,
      "åıĳæĶ¹": 7467,
      "åĲĦå¤§è§Ĩé¢ĳç½ĳç«Ļ": 7468,
      "åģĩæľŁ": 7469,
      "éĥ¡": 7470,
      "ä¹ĺå®¢": 7471,
      ",æĪĳä»¬å°Ĩåľ¨ç¬¬ä¸ĢæĹ¶éĹ´": 7472,
      "æľīåı¯èĥ½": 7473,
      "æľĢåĪĿ": 7474,
      "è½½ä½ĵ": 7475,
      "éĴ¢ç»ĵæŀĦ": 7476,
      "ãĢĤåı¦å¤ĸ,": 7477,
      "ang": 7478,
      "ç±»åĪ«": 7479,
      "å¾®ä¼ģä¸ļ": 7480,
      "æıĲä¾Ľå½±çīĩ": 7481,
      "ä¸ĭä¸ĢæŃ¥": 7482,
      "ä¸īç§į": 7483,
      "èĳĽ": 7484,
      "ä¸Ģåº§": 7485,
      "æľīéĻĲè´£ä»»åħ¬åı¸": 7486,
      "çļĦæĪĲç»©": 7487,
      "æıĲä¾Ľå½±çīĩèµĦæºĲåŃĺåĤ¨": 7488,
      "ä¸įèµ·": 7489,
      "å½±åĵįåĬĽ": 7490,
      "webé¡µéĿ¢": 7491,
      "åĳĬè¯īè®°èĢħ": 7492,
      "è¯Ī": 7493,
      "åı¯åľ¨": 7494,
      "çļĦç»ıæµİ": 7495,
      ",å®ĥä»¬": 7496,
      "å¹´ä¸ŃåĽ½": 7497,
      "è¿ĺèĥ½": 7498,
      "æľįåĬ¡,å¹¶ä¸į": 7499,
      "çıŃåŃĲ": 7500,
      "é©¬æĿ¥è¥¿äºļ": 7501,
      "åĵģçīĮçļĦ": 7502,
      "èŃ¦å¯Ł": 7503,
      "ç»ıéĶĢåķĨ": 7504,
      "å¼ºå¤§": 7505,
      "åĮħæĭ¬:": 7506,
      "ä¸įä»ħä»ħ": 7507,
      "éĹ¨,": 7508,
      "æĹłæĦıä¾µçĬ¯äºĨè´µåı¸çīĪæĿĥ,è¯·ç»Ļ": 7509,
      ",ä¹Łä¸įåıĤä¸İå½ķåĪ¶": 7510,
      "éĤ®ç®±åľ°åĿĢæĿ¥ä¿¡": 7511,
      "æľįåĬ¡,å¹¶ä¸įæıĲä¾Ľå½±çīĩèµĦæºĲåŃĺåĤ¨": 7512,
      "å®ŀåľ°": 7513,
      "çľĭèµ·æĿ¥": 7514,
      "åľ¨è¿ĻéĩĮ": 7515,
      "å·²ç»ıæĪĲä¸º": 7516,
      "æľŁæľĽ": 7517,
      "äºĶä¸ª": 7518,
      ",æľ¬ç½ĳç«ĻåıªæıĲä¾Ľ": 7519,
      ",æ¯ıå¤©": 7520,
      "å¸¦ä¸Ģè·¯âĢĿ": 7521,
      "æĺİå¹´": 7522,
      "ãĢĭåĴĮãĢĬ": 7523,
      "ç§ĳæĻ®": 7524,
      "èİŀ": 7525,
      "æĪĲåŀĭ": 7526,
      ",ä¼ģä¸ļ": 7527,
      "ç»ĦæĪĲéĥ¨åĪĨ": 7528,
      "æĶ¶éĽĨäºİåĲĦå¤§è§Ĩé¢ĳç½ĳç«Ļ": 7529,
      "ç²¾ç»Ĩ": 7530,
      "å±±,": 7531,
      "åİ»éĻ¤": 7532,
      "ç¤¾ä¼ļè´£ä»»": 7533,
      "ä¸ļåĬ¡çļĦ": 7534,
      "åĪ¶åĨ·": 7535,
      "å¤ĦçĲĨä¸İåĽŀå¤į": 7536,
      "åĿĩç³»æĶ¶éĽĨäºİåĲĦå¤§è§Ĩé¢ĳç½ĳç«Ļ": 7537,
      "æľįåĬ¡,å¹¶ä¸įæıĲä¾Ľå½±çīĩèµĦæºĲåŃĺåĤ¨,ä¹Łä¸įåıĤä¸İå½ķåĪ¶": 7538,
      "è¿ĩäºİ": 7539,
      "éĶħçĤī": 7540,
      "éĤ®ç®±åľ°åĿĢæĿ¥ä¿¡,æĪĳä»¬å°Ĩåľ¨ç¬¬ä¸ĢæĹ¶éĹ´": 7541,
      "TO": 7542,
      "æīĢå¾Ĺç¨İ": 7543,
      "éĨĽ": 7544,
      "ãĢĤèĭ¥æľ¬ç«ĻæĶ¶å½ķ": 7545,
      "éĳ": 7546,
      "çļĦç»ĵæŀľ": 7547,
      "åĿĩç³»æĶ¶éĽĨäºİåĲĦå¤§è§Ĩé¢ĳç½ĳç«Ļ,æľ¬ç½ĳç«ĻåıªæıĲä¾Ľ": 7548,
      "éĤ®ç®±åľ°åĿĢæĿ¥ä¿¡,æĪĳä»¬å°Ĩåľ¨ç¬¬ä¸ĢæĹ¶éĹ´å¤ĦçĲĨä¸İåĽŀå¤į": 7549,
      "åĿļå®ŀ": 7550,
      "æĹħæ¸¸ä¸ļ": 7551,
      "ä¸ºæł¸å¿ĥ": 7552,
      "æĹłæĦıä¾µçĬ¯äºĨè´µåı¸çīĪæĿĥ,è¯·ç»ĻéĤ®ç®±åľ°åĿĢæĿ¥ä¿¡,æĪĳä»¬å°Ĩåľ¨ç¬¬ä¸ĢæĹ¶éĹ´å¤ĦçĲĨä¸İåĽŀå¤į": 7553,
      "éĳ«": 7554,
      "ä¸Ĭä¼łãĢĤèĭ¥æľ¬ç«ĻæĶ¶å½ķ": 7555,
      "up": 7556,
      "è¯´è¯Ŀ": 7557,
      "æºĥ": 7558,
      "é»Ħæ²³": 7559,
      "åĶ®åĲİæľįåĬ¡": 7560,
      "webé¡µéĿ¢æľįåĬ¡,å¹¶ä¸įæıĲä¾Ľå½±çīĩèµĦæºĲåŃĺåĤ¨,ä¹Łä¸įåıĤä¸İå½ķåĪ¶": 7561,
      "è½¨éģĵäº¤éĢļ": 7562,
      "ãĢģçĶµåŃĲ": 7563,
      "çŃīå¤ļ": 7564,
      "ãĢĤĊçĶ±äºİ": 7565,
      "è´£ä»¤": 7566,
      "å¥½å¥½": 7567,
      "æŃ¥è¡Į": 7568,
      "å¾ģæ±Ĥ": 7569,
      "æĹłæĦıä¾µçĬ¯äºĨè´µåı¸çīĪæĿĥ,è¯·ç»ĻéĤ®ç®±åľ°åĿĢæĿ¥ä¿¡,æĪĳä»¬å°Ĩåľ¨ç¬¬ä¸ĢæĹ¶éĹ´å¤ĦçĲĨä¸İåĽŀå¤įè°¢è°¢!Ċ": 7570,
      "æ´¾åĩº": 7571,
      "æĺ¯,": 7572,
      "é¢ĺæĿĲ": 7573,
      "äºĶä¸Ģ": 7574,
      "çļĦæĥħåĨµä¸ĭ": 7575,
      "ãĢģĠä¸Ĭä¼łãĢĤèĭ¥æľ¬ç«ĻæĶ¶å½ķ": 7576,
      "ä¸ºäºº": 7577,
      "èį·åħ°": 7578,
      "ä¸ºåŁºç¡Ģ": 7579,
      "çĽ¸åħ³èµĦæºĲåĿĩç³»æĶ¶éĽĨäºİåĲĦå¤§è§Ĩé¢ĳç½ĳç«Ļ,æľ¬ç½ĳç«ĻåıªæıĲä¾Ľ": 7580,
      ",åĽ½å®¶": 7581,
      "webé¡µéĿ¢æľįåĬ¡,å¹¶ä¸įæıĲä¾Ľå½±çīĩèµĦæºĲåŃĺåĤ¨,ä¹Łä¸įåıĤä¸İå½ķåĪ¶ãĢģĠä¸Ĭä¼łãĢĤèĭ¥æľ¬ç«ĻæĶ¶å½ķ": 7582,
      "æĪ¿åŃĲ": 7583,
      "æľīåħ³è§Ħå®ļ": 7584,
      "æ¿Ģç´ł": 7585,
      "çĶŁçĲĨ": 7586,
      "æĮĩåįĹ": 7587,
      "æ½ľåĬĽ": 7588,
      "æľĢé«ĺçļĦ": 7589,
      "éĵħ": 7590,
      "ä¸ĸçķĮçļĦ": 7591,
      "æĹ©å·²": 7592,
      "èĬĤæĹ¥": 7593,
      "ä¸İâĢľ": 7594,
      "çĲĨè´¢": 7595,
      "é¦ĸä¸ª": 7596,
      "èĲĿ": 7597,
      "Ph": 7598,
      "åĮºåĨħ": 7599,
      "æľīéĻĲåħ¬åı¸ãĢģ": 7600,
      "çº§åĪ«": 7601,
      "ãĢģä»¥": 7602,
      "ä¼°è®¡": 7603,
      ",åĬłä¸Ĭ": 7604,
      "åĲ¸å¼ķäºĨ": 7605,
      "éĺĲ": 7606,
      "è¿Ľåıĸ": 7607,
      "åħĭ,": 7608,
      "å®īå¾½çľģ": 7609,
      "å¿«çļĦ": 7610,
      "åħ¥ä½ı": 7611,
      "æ°ĳèŃ¦": 7612,
      "åıįå¯¹": 7613,
      "çŃīæĸ¹éĿ¢çļĦ": 7614,
      "çªĳ": 7615,
      "åıĺå½¢": 7616,
      "æĹ¥åĪ¶": 7617,
      "ä¸Ĭçº§": 7618,
      "éĹ¸": 7619,
      "ç®¡çĲĨåĬŀæ³ķ": 7620,
      "?âĢĿ": 7621,
      "çļĦä¸ĢåĪĩ": 7622,
      "ä¸įéľĢè¦ģ": 7623,
      "åĩĨåĪĻ": 7624,
      "ç¨³æŃ¥": 7625,
      "èĪ¹èĪ¶": 7626,
      "ep": 7627,
      ",ç¾İåĽ½": 7628,
      "é©¬ä¸Ĭ": 7629,
      "Ġåľ¨": 7630,
      "å®ª": 7631,
      "é¢Ħçº¦": 7632,
      "çļĦè¡¨çİ°": 7633,
      "çĽ´è¾ĸ": 7634,
      "èģļä¸Ļçĥ¯éħ°èĥº": 7635,
      "ç´«å¤ĸ": 7636,
      "æİ¨è¡Į": 7637,
      "éļ¶": 7638,
      "ä¼Łå¤§": 7639,
      "èĭį": 7640,
      "æĤĶ": 7641,
      "éĢīä¸¾": 7642,
      "èº«ä½ĵåģ¥åº·": 7643,
      "åĩºåİ»": 7644,
      "ç¼©çŁŃ": 7645,
      ",æľªæĿ¥": 7646,
      "ra": 7647,
      "ãĢĤĊä»Ĭå¹´": 7648,
      "å¤§åŃ¦çļĦ": 7649,
      "ãĢģçĻ½": 7650,
      "åĲŀ": 7651,
      "æĶ¹ç¼ĸ": 7652,
      "æº¯": 7653,
      "åıĹä¼¤": 7654,
      "åĬ¨æ¼«": 7655,
      "çŃīè¡Įä¸ļ": 7656,
      "è·µè¡Į": 7657,
      "ä¹ĭ,": 7658,
      "æīįä¼ļ": 7659,
      "åĪĿä¸Ń": 7660,
      "æµ·ä¸Ĭ": 7661,
      "å°ģéĹŃ": 7662,
      "çī¢è®°": 7663,
      ",ä¿Ŀè¯ģ": 7664,
      "èģĶéĤ¦": 7665,
      "èµ¢å¾ĹäºĨ": 7666,
      "ä½ľçī©": 7667,
      "é¦ĨãĢģ": 7668,
      "å¤ıå¤©": 7669,
      "çĶ¨èį¯": 7670,
      "ç±»çļĦ": 7671,
      "è¡¬": 7672,
      "é«ĺèģĮ": 7673,
      "åİ¿ãĢģ": 7674,
      "ä¿¡èªī": 7675,
      "æĻºèĥ½æīĭæľº": 7676,
      "æıĲåıĸ": 7677,
      "èħ»": 7678,
      "ãĢģçİĭ": 7679,
      "ä¸Ģéĥ¨": 7680,
      "æ³¨æĺİ": 7681,
      "éĥ½å¾Ī": 7682,
      "çĽ®åīį,": 7683,
      "ok": 7684,
      "äº§çĶŁäºĨ": 7685,
      "å·¨å¤´": 7686,
      "éĺ¿éĩĮå·´å·´": 7687,
      "æ³ķçļĦ": 7688,
      "âĢľåıĮ": 7689,
      "æŃ£ç¡®çļĦ": 7690,
      "ãĢĤĊä¸İ": 7691,
      "çĹħåĽł": 7692,
      "åı·,": 7693,
      "TA": 7694,
      "æĳĬ": 7695,
      "èģĮä½į": 7696,
      "åĮĹäº¬æĹ¶éĹ´": 7697,
      "æĸ°åįİç¤¾": 7698,
      "ãĢģæĿİ": 7699,
      "éĩĮç¨ĭ": 7700,
      "ç®¡ãĢģ": 7701,
      "çļĩå¸Ŀ": 7702,
      "ç½ĳç»ľå®īåħ¨": 7703,
      "æ¸ħåįķ": 7704,
      "US": 7705,
      "ãĢģéĩĳ": 7706,
      "å±±æ°´": 7707,
      "ç´łåħ»": 7708,
      "æĭ¿åĪ°": 7709,
      "å¼Ģå¿ĥ": 7710,
      "æ³¢åĬ¨": 7711,
      "éĢĿ": 7712,
      "çļĦĠ": 7713,
      "çļĦé¡¹çĽ®": 7714,
      ",åĩıå°ĳ": 7715,
      "æľ¬æĸĩ": 7716,
      "å¼ĢåŃ¦": 7717,
      "åīįæľŁ": 7718,
      "äººä¸İ": 7719,
      "æİ¢æµĭ": 7720,
      "ãĢģå¤ĸ": 7721,
      "åħ¥åı£": 7722,
      "åĵĪå°Ķ": 7723,
      "é¢ĨåŁŁ,": 7724,
      "åľ¨æł¡": 7725,
      "ãĢĤéĤ£": 7726,
      "å¹´èĩ³": 7727,
      "æķ²": 7728,
      "è¯ģå®ŀ": 7729,
      "çļĦå¤©": 7730,
      "ãĢĤĊæľ¬æ¬¡": 7731,
      "åĵģãĢģ": 7732,
      "è¶ħå£°": 7733,
      "çļĦåŁİå¸Ĥ": 7734,
      "åľ¨åħ¨åĽ½": 7735,
      "æ¸©å®¤": 7736,
      "äº¤åıī": 7737,
      "åĬ©çĲĨ": 7738,
      "åħ»çĶŁ": 7739,
      "ä¸ºä¸»,": 7740,
      "ä¸ĩå¹³æĸ¹ç±³": 7741,
      "ä¿¡æģ¯,": 7742,
      "ç¼ºéĻ·": 7743,
      "ä¸Ģè¡Į": 7744,
      "è·¨å¢ĥ": 7745,
      "çĶ·å¥³": 7746,
      "çĥ¹": 7747,
      "äº¿åħĥãĢģ": 7748,
      "Açº§": 7749,
      "åĮĸå¦Ĩ": 7750,
      "çĲĥ,": 7751,
      "è·¨è¶Ĭ": 7752,
      "ä¿¡ä»°": 7753,
      "çĤ¹çļĦ": 7754,
      ",ä¸įå°ĳ": 7755,
      "æłĩé¢ĺ": 7756,
      "å®¢æĪ¿": 7757,
      "æ¬º": 7758,
      "æĪĺèĥľ": 7759,
      "çĪ±åĽ½": 7760,
      "ç¼ºå°ĳ": 7761,
      ",å¦Ĥä»Ĭ": 7762,
      "çļĦæľĭåıĭ": 7763,
      "å¼¦": 7764,
      "ç»ıåİĨäºĨ": 7765,
      "æ¸¸æ³³": 7766,
      "å¹³éĿ¢": 7767,
      "æ±ª": 7768,
      "ç®¡çĲĨäººåĳĺ": 7769,
      "ãĢĤĊäºĮãĢģ": 7770,
      "æ³¨åħ¥": 7771,
      "å¥½å¤Ħ": 7772,
      "åĨĪ": 7773,
      "æ¶Īæģ¯,": 7774,
      "åıĳå¸ĥäºĨ": 7775,
      "éģĵçĲĨ": 7776,
      "çļĦåĬŁèĥ½": 7777,
      "çļĦåİŁåĪĻ": 7778,
      "æİ¥ä¸ĭæĿ¥": 7779,
      "è·Łè¸ª": 7780,
      "è¯ķåĽ¾": 7781,
      "å®¡è®®": 7782,
      "art": 7783,
      "å®¹åĻ¨": 7784,
      "æĹ±": 7785,
      "èĦĬ": 7786,
      "å±ĢéĿ¢": 7787,
      "çĪĨçĤ¸": 7788,
      "ãĢĤæĸ°": 7789,
      "çļĦæĦŁè§ī": 7790,
      "æīĢå±ŀ": 7791,
      "å¢ŀå¹ħ": 7792,
      "ãĢĤæŃ¤æ¬¡": 7793,
      "çĶµè§Ĩåī§": 7794,
      "(ä»¥ä¸ĭç®Ģç§°âĢľ": 7795,
      "ä½Ļé¢Ŀ": 7796,
      ",åįĹ": 7797,
      "æľīåĬ©äºİ": 7798,
      "æĭĺ": 7799,
      "ä¾ĭãĢģ": 7800,
      "çļĦéķ¿": 7801,
      "æ¶īå«Į": 7802,
      ",åĲ¦åĪĻ": 7803,
      "PV": 7804,
      "ãĢĤå¤§": 7805,
      "çľŁè¯ļ": 7806,
      "åħ»æĪĲ": 7807,
      "UV": 7808,
      "å¿ĥæĥħ": 7809,
      "è¿ľè¿ľ": 7810,
      "åı¸æľº": 7811,
      "äºĨå¯¹": 7812,
      "æ¨¡åħ·": 7813,
      "éĻįéĽ¨": 7814,
      ",å°±ä¼ļ": 7815,
      "çļĦäººåĳĺ": 7816,
      ",éĩĩçĶ¨": 7817,
      "éĹ¨çªĹ": 7818,
      "å¸®æī¶": 7819,
      "ãĢģå»ºçŃĳ": 7820,
      "ä¸Ľ": 7821,
      "åĩºçīĪç¤¾": 7822,
      "åĮĸåĴĮ": 7823,
      "æ²Īéĺ³": 7824,
      "ä¸įä½ı": 7825,
      "æĲŃè½½": 7826,
      ",åħ¶ä¸Ń,": 7827,
      "å°±ä¸į": 7828,
      "åĲĦéĥ¨éĹ¨": 7829,
      "å±Ĭä¸ŃåĽ½": 7830,
      ")çŃī": 7831,
      "ä¸Īå¤«": 7832,
      "èĢĥèĻĳåĪ°": 7833,
      ",äº§åĵģ": 7834,
      "å¤įåĪ¶": 7835,
      "æģ¨": 7836,
      "æĹłç¼Ŀ": 7837,
      "å··": 7838,
      "åħ¬æŃ£": 7839,
      "ä»ĭè´¨": 7840,
      "ĠSt": 7841,
      "çĺ¦": 7842,
      "çĮİ": 7843,
      "ç¹ģèį£": 7844,
      "è¯±åıĳ": 7845,
      "éĽĩä¸»": 7846,
      "åħ¬ç§¯": 7847,
      "åĲĪçĲĨçļĦ": 7848,
      ",å¦Ĥä½ķ": 7849,
      "çļĦç¾İ": 7850,
      "çĽ¸åıį": 7851,
      "èĢĮä¸Ķ": 7852,
      ",åıĬæĹ¶": 7853,
      "erĠ": 7854,
      "è¿ĽæĶ»": 7855,
      "èĹ¤": 7856,
      "è¾¹ç¼ĺ": 7857,
      "ãĢĤĊå¯¹": 7858,
      "èĤĮèĤī": 7859,
      "åĲİæŀľ": 7860,
      ",å½ĵæĹ¶": 7861,
      "ãĢĭæĺ¯": 7862,
      "åĢ¼å¾Ĺä¸Ģ": 7863,
      "æ±Ľ": 7864,
      "ç®¡çĲĨéĥ¨éĹ¨": 7865,
      "ãĢģä½İ": 7866,
      "ä¸ĢæĶ¯": 7867,
      "èīĩ": 7868,
      "å¸¦å¤´": 7869,
      "å¤§å¥ĸ": 7870,
      "åīįè¿Ľ": 7871,
      ",åħ¨åĽ½": 7872,
      "ç§ĺä¹¦éķ¿": 7873,
      "App": 7874,
      "ãĢģæĬĹ": 7875,
      "çĶŁèĤ²": 7876,
      "ä¸Ĭæĺł": 7877,
      "åħĳ": 7878,
      "é¢ĳéģĵ": 7879,
      "çļĦé£İéĻ©": 7880,
      "è¢ģ": 7881,
      "å¿½è§Ĩ": 7882,
      "ä¸ŃæľĢ": 7883,
      "åīįæĿ¥": 7884,
      "åı£èħĶ": 7885,
      "çĳŀå£«": 7886,
      ",ä»¥ä¾¿": 7887,
      "æĦŁ,": 7888,
      "çļĦæĸĩåĮĸ": 7889,
      "è´¢æĶ¿éĥ¨": 7890,
      "çļĦäººæīį": 7891,
      "è¶ĬæĿ¥è¶Ĭå¤ļçļĦ": 7892,
      "ä½Ĳ": 7893,
      "æİ¨åĩºäºĨ": 7894,
      "ãĢĤè¿Ļæł·": 7895,
      "å¾ģæĶ¶": 7896,
      "è¡Įé©¶": 7897,
      "æķ°åįģ": 7898,
      "åĢ¡å¯¼": 7899,
      "åĩıéĢŁ": 7900,
      "æĪĳéĻ¢": 7901,
      "åħ´å¥ĭ": 7902,
      "çłĶç©¶åĳĺ": 7903,
      "æĮĤçīĮ": 7904,
      "æī¿è½½": 7905,
      "åĨħåľ°": 7906,
      "æ¹Ľ": 7907,
      "èĨ¨": 7908,
      "å¹¶æľª": 7909,
      "ill": 7910,
      "çļĦåı¯èĥ½": 7911,
      "åĿļåĨ³": 7912,
      "çļĦåıĳçĶŁ": 7913,
      "å°Ĩæĺ¯": 7914,
      "æľīè¶£": 7915,
      "åŀĭåı·": 7916,
      "çķĻåľ¨": 7917,
      "éĥĬ": 7918,
      "ä½įå±ħ": 7919,
      "çģµéŃĤ": 7920,
      "æĽ¾åľ¨": 7921,
      "ç»ĵè®º": 7922,
      "å®ıè§Ĥ": 7923,
      "çļĦåıĳå±ķ,": 7924,
      "ä¸ľèİŀ": 7925,
      "é»ı": 7926,
      "èıĬ": 7927,
      "éĺ¿æĭī": 7928,
      "èĥ½åĬĽãĢĤĊ": 7929,
      "çľģä»½": 7930,
      "çº³ç±³": 7931,
      "ä¸ļä¸»": 7932,
      "åĿļå®Ī": 7933,
      "çĶŁäº§ç»ıèĲ¥": 7934,
      ",å¤ĸ": 7935,
      "åĨ²çªģ": 7936,
      "å½ĵäºĭäºº": 7937,
      "éĤª": 7938,
      "éĢīæĭĶ": 7939,
      "åĽŀé¡¾": 7940,
      "è£ħéħį": 7941,
      "åĿĲèĲ½": 7942,
      "äººâĢĿ": 7943,
      "å¹´å¼Ģå§ĭ": 7944,
      "æ³¨åĨĮèµĦæľ¬": 7945,
      "ä»ĩ": 7946,
      "æĩĤå¾Ĺ": 7947,
      "(N": 7948,
      "å¸ĪèµĦ": 7949,
      "èĲ§": 7950,
      ",äºİæĺ¯": 7951,
      "æ°´ä¸Ń": 7952,
      ",ä¸įç®¡": 7953,
      "å§ļ": 7954,
      "ç§ģäºº": 7955,
      "çļĦæĶ¯æĮģ": 7956,
      "çĸ¹": 7957,
      "ç»Ļå¤§å®¶": 7958,
      "IM": 7959,
      "å¯¹åºĶ": 7960,
      "çĽ¸ç»§": 7961,
      "ĠæľĪ": 7962,
      "çºªå§Ķ": 7963,
      "app": 7964,
      "å¹²æī°": 7965,
      "(çº¦": 7966,
      "å¹´ä»¥ä¸Ĭ": 7967,
      "åĬĿ": 7968,
      "æĹ¶éĹ´åĨħ": 7969,
      "å«©": 7970,
      "ç³»æķ°": 7971,
      "ä»¿ä½Ľ": 7972,
      "äº¿åħĥãĢĤ": 7973,
      "äº¤ä»ĺ": 7974,
      "è·¯å¾Ħ": 7975,
      "åİŁæĿĲæĸĻ": 7976,
      "åĪĽæĸ°åĪĽä¸ļ": 7977,
      "(E": 7978,
      "ãĢĤä¸ĢèĪ¬": 7979,
      "åħ¨ç¨ĭ": 7980,
      "çĤ¹ãĢĤĊ": 7981,
      "å·¥ç¨ĭæĬĢæľ¯": 7982,
      "çĳ°": 7983,
      ",ä»¥åħį": 7984,
      "ä¾¿å®ľ": 7985,
      "æĲħæĭĮ": 7986,
      "ä¸įå¦Ĥ": 7987,
      "æĺ¨å¤©": 7988,
      "çļĦå¤ļ": 7989,
      "ä»ĺåĩº": 7990,
      "åĴĮåıĳå±ķ": 7991,
      "è¿½ç©¶": 7992,
      "æĪĳçľģ": 7993,
      "éĺ¶æ®µ,": 7994,
      "æĻ´": 7995,
      "æŀģä¸º": 7996,
      "çĽĳä¼ļ": 7997,
      "å¤įåıĳ": 7998,
      "å¼ºãĢģ": 7999,
      "åĮ»çĸĹåĻ¨æ¢°": 8000,
      "çİ²": 8001,
      "æłĩè¯Ĩ": 8002,
      "æ³¡æ²«": 8003,
      "åĲİæľŁ": 8004,
      "BS": 8005,
      "å¤ĦåĪĨ": 8006,
      "å®Įæķ´çļĦ": 8007,
      ",æĥ³": 8008,
      "å»ºè®¾å·¥ç¨ĭ": 8009,
      "åĪĿæľŁ": 8010,
      "äº²èĩª": 8011,
      "ä¸īæĺŁ": 8012,
      "æ¢³": 8013,
      "åĴ³": 8014,
      "èµĭäºĪ": 8015,
      "åĶ¤": 8016,
      "éĻĲäºİ": 8017,
      ",åİ»": 8018,
      "çļĦéĤ£": 8019,
      "å¼ºåĬ²": 8020,
      "è¿ĩæķı": 8021,
      "ãĢĭãĢĤĊ": 8022,
      "é¡½": 8023,
      "çµ": 8024,
      "è§£è¯»": 8025,
      "äºĴèģĶ": 8026,
      "éĵ¾æİ¥": 8027,
      "åĩıæİĴ": 8028,
      "!âĢĿĊ": 8029,
      "æ¢¨": 8030,
      "éĿĴæµ·": 8031,
      "Al": 8032,
      "çĶŁæĦı": 8033,
      "èģĺçĶ¨": 8034,
      "æ¸Ĳæ¸Ĳ": 8035,
      "è®¡åĪĴ,": 8036,
      "äºĭåĬ¡æīĢ": 8037,
      "æĨ¾": 8038,
      "é¢Ĩå¯¼å°ıç»Ħ": 8039,
      "è°ĥè§£": 8040,
      "æ·±æ·±": 8041,
      "é»ĳèī²ç´ł": 8042,
      "éĹ¨åºĹ": 8043,
      "å¢ŀåĬł,": 8044,
      "éĻ¤æŃ¤": 8045,
      "ç»ĥä¹ł": 8046,
      "äºĶå¤§": 8047,
      "æĽĿåħī": 8048,
      "åĬŁå¤«": 8049,
      "çľŁç©º": 8050,
      "çģ«è½¦": 8051,
      "åĬĽäºī": 8052,
      "è©": 8053,
      "ä¸įå¤ļ": 8054,
      "åĻ¨ä»¶": 8055,
      "æĹ¶éĹ´çļĦ": 8056,
      "ä¸ªåĪ«": 8057,
      "ä¿¡æģ¯çļĦ": 8058,
      "æļĤåģľ": 8059,
      "(R": 8060,
      "çĿĲ": 8061,
      "åĵģçļĦ": 8062,
      "å¤§æ¦Ĥ": 8063,
      "æĺ¯ä»İ": 8064,
      "ç¨³å®ļçļĦ": 8065,
      "èĲ½åĲİ": 8066,
      "æ²īæ·Ģ": 8067,
      "ä¸Ńçº§": 8068,
      "èĢĥéªĮ": 8069,
      "åįķä½įãĢģ": 8070,
      "å¿ĥæĢģ": 8071,
      "åħ°å·ŀ": 8072,
      "æĥ¨": 8073,
      "æ²»çĸĹ,": 8074,
      "äº©,": 8075,
      "åľ°ä¸Ĭ": 8076,
      "åŃ¦ä¹łãĢģ": 8077,
      "æ´¾éģ£": 8078,
      "è§Ħç«ł": 8079,
      "æµģåŁŁ": 8080,
      "çĥ·": 8081,
      ",å¹¶å¯¹": 8082,
      "ãĢĤĊéĢļè¿ĩ": 8083,
      "æĢ¡": 8084,
      "åħ±å»º": 8085,
      "çµ®": 8086,
      "éĥ¨éĺŁ": 8087,
      "éĢłæĪĲçļĦ": 8088,
      "ä¸Ĭå¸Ŀ": 8089,
      "è¦ģæ±ĤçļĦ": 8090,
      ",åħħåĪĨ": 8091,
      "åŀĭæĿĲ": 8092,
      "è©¹": 8093,
      "åŃ¦æł¡ãĢģ": 8094,
      "æł¼å¼ı": 8095,
      "åıĳçĶŁåľ¨": 8096,
      "ess": 8097,
      "åĲįãĢĤ": 8098,
      "webé¡µéĿ¢æľįåĬ¡,å¹¶ä¸įæıĲä¾Ľå½±çīĩèµĦæºĲåŃĺåĤ¨,ä¹Łä¸įåıĤä¸İå½ķåĪ¶ãĢģĠä¸Ĭä¼łãĢĤèĭ¥æľ¬ç«ĻæĶ¶å½ķçļĦ": 8099,
      "ä¸įä½Ĩ": 8100,
      "æ¶²åİĭ": 8101,
      "è¾Ł": 8102,
      "çļ®èĤ¤çĹħ": 8103,
      "å¤ĸ,è¿ĺ": 8104,
      "çľĭåĪ°äºĨ": 8105,
      "çĨĻ": 8106,
      "ç±»åŀĭçļĦ": 8107,
      "æľī:": 8108,
      "??": 8109,
      "åĸĬ": 8110,
      "å¥¢": 8111,
      ",å¹¶äºİ": 8112,
      "å¦¨": 8113,
      "ãĢģèĩª": 8114,
      "åĩºèµĦ": 8115,
      "åĮĹéĥ¨": 8116,
      ",å½ĵçĦ¶": 8117,
      "è·¯ä¸Ĭ": 8118,
      "å®¶ä¹¡": 8119,
      "åıĹåĪ°äºĨ": 8120,
      "èº«ä¸º": 8121,
      "ç¼´è´¹": 8122,
      "åĩłåįģ": 8123,
      "äº®çĽ¸": 8124,
      "çĽ®çļĦåľ°": 8125,
      "ç§ĳåŃ¦çłĶç©¶": 8126,
      "æĺ¯ä¸įæĺ¯": 8127,
      "(G": 8128,
      "ä¸Ĭç½ĳ": 8129,
      "ä¸ĬçıŃ": 8130,
      "ä¸ĬåįĬå¹´,": 8131,
      "ä¸ĩäºº,": 8132,
      "æ¸£": 8133,
      "è¿Ļé¡¹": 8134,
      "åĮĸå·¥ãĢģ": 8135,
      "åħ¬ç§¯éĩĳ": 8136,
      "æĽ´é«ĺçļĦ": 8137,
      "èªĵ": 8138,
      "uc": 8139,
      "çļĦèĢģ": 8140,
      "çļĦé£İ": 8141,
      "ä¸įç®¡": 8142,
      "ãĢģåįİ": 8143,
      "ç©ºä¸Ń": 8144,
      "åĪ°æĿ¥": 8145,
      "çī©ãĢģ": 8146,
      "åĽ½éĻħåĮĸ": 8147,
      "CA": 8148,
      "è°ĥæİ§": 8149,
      "è¯Ŀé¢ĺ": 8150,
      "ç§įç§į": 8151,
      "ãĢģç»ıæµİ": 8152,
      "æģĴå¤§": 8153,
      "ä½ĵç³»,": 8154,
      "çªĿ": 8155,
      "äº§ä¸ļåĽŃ": 8156,
      "åħ±èµ¢": 8157,
      "åĳ¨æľ«": 8158,
      "æĹŃ": 8159,
      "äººæ°Ķ": 8160,
      "oog": 8161,
      "å¿«æį·": 8162,
      "æĸ°åŁİ": 8163,
      "å¼Ģå±ķäºĨ": 8164,
      "æ´»åĬĽ": 8165,
      "è¢ĸ": 8166,
      "èī²åĪĹ": 8167,
      "äººæ°ĳç¾¤ä¼Ĺ": 8168,
      "ä¸įå¤ª": 8169,
      "è¾°": 8170,
      "åĶ®ä»·": 8171,
      "æ±ĩæĬ¥": 8172,
      "ĠCh": 8173,
      "æĸ°åĨłèĤºçĤİçĸ«æĥħ": 8174,
      "ãĢĤéĻ¤äºĨ": 8175,
      "åħ³æĢĢ": 8176,
      ",ä¸ĢæĹ¦": 8177,
      "çıłæµ·": 8178,
      "åħ³ç³»,": 8179,
      "ãĢĤĊ(ä¸ī)": 8180,
      "éĵĿåĲĪéĩĳ": 8181,
      "æĬĦ": 8182,
      "çļĦæ¯ĶèµĽ": 8183,
      "æľįçĶ¨": 8184,
      "g/": 8185,
      "å¤ĸèµĦ": 8186,
      "å§Ĩæĸ¯": 8187,
      "æıĲèµ·": 8188,
      "çĽ´å¾Ħ": 8189,
      "æĹ¥ãĢģ": 8190,
      "éĿĴçĿĲ": 8191,
      "æĤłä¹ħ": 8192,
      "ä»»èģĮ": 8193,
      "éĺ²æ°´": 8194,
      "è£ħæľº": 8195,
      "æ¼Ĥäº®": 8196,
      "è´ª": 8197,
      "åķĨå®¶": 8198,
      "çĽ®æłĩ,": 8199,
      "åľ°å¤Ħ": 8200,
      "åĮ»çĸĹæľºæŀĦ": 8201,
      ",æ¯ıä¸ª": 8202,
      "å°Ĩä»¥": 8203,
      "éªĦ": 8204,
      "å°ĶÂ·": 8205,
      "é¹¤": 8206,
      "åİ¨æĪ¿": 8207,
      "åħļç»Ħç»ĩ": 8208,
      "æľŁåĨħ": 8209,
      "åĥ§": 8210,
      "æĬĢæľ¯åĪĽæĸ°": 8211,
      "åįķçº¯": 8212,
      "åľ°åŁŁ": 8213,
      "æĺİå¤©": 8214,
      "å°½åı¯èĥ½": 8215,
      "å¸ĮèħĬ": 8216,
      "åĬłä»¥": 8217,
      "ä¸¥è°¨": 8218,
      "ãĢĤĊç¬¬åĽĽ": 8219,
      "ä¸ŃçŃī": 8220,
      "åĨ³å¿ĥ": 8221,
      "çº±": 8222,
      "è§ĦåĪĴãĢģ": 8223,
      "é¡¹çĽ®å»ºè®¾": 8224,
      "å¤įåį°ä»¶": 8225,
      "åľ¨è¿Ļä¸ª": 8226,
      "éĩĮæĸ¯": 8227,
      "èģļåĲĪ": 8228,
      "çļĦçĽ®": 8229,
      "ãĢģåĮĹäº¬": 8230,
      "éĺ²çģ«": 8231,
      "æĹ¥åīį,": 8232,
      "åīįåĪĹ": 8233,
      "ä¼ĺè¶Ĭ": 8234,
      "å¾®è½¯": 8235,
      "éķ¿å®ī": 8236,
      "åİŁåĳĬ": 8237,
      "ãĢĤæ¯ı": 8238,
      "å¤§èĦĳ": 8239,
      "å°ıç¨ĭåºı": 8240,
      "è¯´âĢľ": 8241,
      "ç¬¼": 8242,
      "IN": 8243,
      "ä¸İä¸ŃåĽ½": 8244,
      "æĪ¿äº§": 8245,
      "åŀĴ": 8246,
      "æĿ¡æ¬¾": 8247,
      "ç¬¬äºĮæ¬¡": 8248,
      "åıĳå±ķæĪĺçķ¥": 8249,
      "ãĢĤĠ(": 8250,
      "å®¶æĶ¿": 8251,
      "ç»ĪæŃ¢": 8252,
      "ãĢĤĊä¸ºäºĨ": 8253,
      "ä¸ºä½ķ": 8254,
      "é«ĵ": 8255,
      "å¯ĨéĽĨ": 8256,
      "è§Ĥèµı": 8257,
      "å¥³äºº": 8258,
      "å¤¸": 8259,
      "å¤§æĤ²åĴĴ": 8260,
      "DA": 8261,
      "ãĢģæ±½è½¦": 8262,
      "å¸ĪèĮĥå¤§åŃ¦": 8263,
      "æĶ¹éĿ©å¼ĢæĶ¾": 8264,
      "æ¯ķä¸ļäºİ": 8265,
      "ä¼łç»ŁæĸĩåĮĸ": 8266,
      "æŁ´æ²¹": 8267,
      ";(": 8268,
      "èĩªçĦ¶ç§ĳåŃ¦": 8269,
      "ãĢģåı¯": 8270,
      "éŃħåĬĽ": 8271,
      "å¹´åĨħ": 8272,
      "äº§ä¸ļåĮĸ": 8273,
      "å¹´è¢«": 8274,
      ",åĥı": 8275,
      "éģ®": 8276,
      "ç§¯åĪĨ": 8277,
      "æľ¨æĿĲ": 8278,
      ",åºĶå½ĵ": 8279,
      "çĪµ": 8280,
      "çŃīå¤ļä¸ª": 8281,
      "çļĦæľĢå¤§": 8282,
      "ä¸Ģåĳ¨": 8283,
      "çļĦ,çĶ±": 8284,
      "æľºåĪ¶,": 8285,
      "åĲĪèµĦ": 8286,
      "ç»ĻæĪĳ": 8287,
      "âĢĿåŃĹ": 8288,
      "çļĦä¸ī": 8289,
      "æ»´æ»´": 8290,
      "æİĴæŁ¥": 8291,
      "æĹĭè½¬": 8292,
      "å¹´æľ«": 8293,
      "èĲĮ": 8294,
      "æµ·æĭĶ": 8295,
      "ä¼ļåĩºçİ°": 8296,
      "èĥ½èĢĹ": 8297,
      "åħ¨åİ¿": 8298,
      "ä¸ļæĢģ": 8299,
      "ä¸Ńå°ıåŃ¦": 8300,
      "åĿĲåľ¨": 8301,
      "å¸ĤåĮº": 8302,
      "äººå¯¹": 8303,
      "åı¤åħ¸": 8304,
      "ç¦»ä¸įå¼Ģ": 8305,
      "ç¨³å®ļæĢ§": 8306,
      "èĭĳ": 8307,
      "æĪ¿ä»·": 8308,
      "ãĢĤĊèĩª": 8309,
      "æĺŃ": 8310,
      "ä¸ĢåĲĮ": 8311,
      "å»ºäºİ": 8312,
      "(æĪĸ": 8313,
      "æĸ°åŀĭåĨłçĬ¶çĹħæ¯Ĵ": 8314,
      "åĬ¡å®ŀ": 8315,
      "é¢ĦèŃ¦": 8316,
      "æµªæ¼«": 8317,
      "åĴ½": 8318,
      "æĢ»æī¿åĮħ": 8319,
      ",è¿Ļæł·çļĦ": 8320,
      "all": 8321,
      "å¤§æĪĺ": 8322,
      "åĭ¿": 8323,
      "çļĦæĬķèµĦ": 8324,
      "éģĤ": 8325,
      "æİĴéĻ¤": 8326,
      "åŃĺåľ¨çļĦ": 8327,
      "éĢĤå®ľ": 8328,
      "çĽ¼": 8329,
      "å¹´æĿ¥,": 8330,
      "èĬĴ": 8331,
      "å¡ĳéĢł": 8332,
      "éļĻ": 8333,
      "éĥ½çŁ¥éģĵ": 8334,
      "çĻ½éħĴ": 8335,
      "å¼¹æĢ§": 8336,
      "åı¤èĢģ": 8337,
      "ex": 8338,
      "ä¸Ģåº¦": 8339,
      "è¯ŃéŁ³": 8340,
      "è¿Ĳè½¬": 8341,
      "å¤ĩåıĹ": 8342,
      "è®¤åĲĮ": 8343,
      ",ä½İ": 8344,
      "è¥¿èĹı": 8345,
      "éĽķå¡ĳ": 8346,
      "è¿İæİ¥": 8347,
      "éĽ¶ä»¶": 8348,
      "ç®Ĺæ³ķ": 8349,
      "åĮ»éĻ¢çļĦ": 8350,
      "æĬµè¾¾": 8351,
      "çļĦå°±æĺ¯": 8352,
      "åħĪéĶĭ": 8353,
      "è¡Įä¸ļåįıä¼ļ": 8354,
      "çĽĳçĲĨ": 8355,
      ",åı¯èĥ½": 8356,
      "è¤": 8357,
      "åĨįåº¦": 8358,
      "ç¥¨æĪ¿": 8359,
      "èĥĮåĲİ": 8360,
      "ä¸Ĭåİ»": 8361,
      "è¿ľç¦»": 8362,
      "å¤ļå¹´æĿ¥": 8363,
      "çĨŁç»ĥ": 8364,
      "å¿ĺè®°": 8365,
      "éľī": 8366,
      "çī¹æ®ĬçļĦ": 8367,
      "Un": 8368,
      "ç»İ": 8369,
      "ä¼łè¯´": 8370,
      "ä»İæĿ¥": 8371,
      "åĮ»æĬ¤": 8372,
      "å¦®": 8373,
      "åľĨå½¢": 8374,
      "åĮ¹éħį": 8375,
      "åħ¨èº«": 8376,
      "ä¹¦,": 8377,
      "é¢ģå¥ĸ": 8378,
      "èī°éļ¾": 8379,
      "éĢĢåĩº": 8380,
      "æ¨¡èĮĥ": 8381,
      "åİķ": 8382,
      "å«Įçĸĳ": 8383,
      ":ãĢĬ": 8384,
      "äºĭå®ľ": 8385,
      "çļĦå»ºçŃĳ": 8386,
      "ä¸ĩå¹³æĸ¹ç±³,": 8387,
      "è¯¢éĹ®": 8388,
      "ä¸ľåįĹäºļ": 8389,
      "ax": 8390,
      "ä¸ĩåħĥãĢĤĊ": 8391,
      "åħ¬å®īå±Ģ": 8392,
      "åĳ¨å²ģ": 8393,
      "ä¸įåı¯èĥ½": 8394,
      "çļĦåħ¶ä»ĸ": 8395,
      "æĺ¯è¦ģ": 8396,
      "åī¯æĢ»ç»ıçĲĨ": 8397,
      "è§Ĩè§Ĵ": 8398,
      "ãĢģçİ¯å¢ĥ": 8399,
      "åĪĽéĢłäºĨ": 8400,
      "æĹ¥å¸¸çĶŁæ´»": 8401,
      "ãĢĤè¿Ļä¸Ģ": 8402,
      "ä½ĵçİ°äºĨ": 8403,
      "åľ¨åĮĹäº¬": 8404,
      "æł¡åıĭ": 8405,
      "èĢģå¹´äºº": 8406,
      "åĩ»è´¥": 8407,
      "æ¸¸ä¹Ĳ": 8408,
      ",è¿Ļå°±æĺ¯": 8409,
      "è¾ĥå¥½çļĦ": 8410,
      "å·¥ä½ľå®¤": 8411,
      "çİ¯å¢ĥ,": 8412,
      ",æĺ¯ä¸Ģç§į": 8413,
      "è½¬åĲĳ": 8414,
      "äºĳåįĹçľģ": 8415,
      "éĺµå®¹": 8416,
      "ãĢģçŁ³": 8417,
      "çī²": 8418,
      "å¾ĹçŁ¥": 8419,
      "çĥ¦æģ¼": 8420,
      "é¢Ĩåıĸ": 8421,
      ",ä¸įåĲĮ": 8422,
      "ä¸įæĺĵ": 8423,
      "(T": 8424,
      "çľ¼éķľ": 8425,
      "ãĢĤĊä¸Ń": 8426,
      "æľįåĬ¡åĻ¨": 8427,
      "æĿ¥è®²": 8428,
      "ä¸įè§ģ": 8429,
      "é¹ħ": 8430,
      "èĤłéģĵ": 8431,
      "âĢľå¤§": 8432,
      "MP": 8433,
      "å±¡": 8434,
      "ä¸ºåĩĨ": 8435,
      "æĤĦ": 8436,
      "Dæīĵåį°": 8437,
      "åºŁå¼ĥ": 8438,
      "CD": 8439,
      "ä¸ĢçĶŁ": 8440,
      "ä¸Ńåįİæ°ĳæĹı": 8441,
      ",åıĳçİ°": 8442,
      "åĨħåľ¨": 8443,
      "å°ıæ¸¸æĪı": 8444,
      "èģĶåĲĪä¼ļ": 8445,
      "å¯¼èĪª": 8446,
      "æŃ¤å¤ĸ,": 8447,
      "èĭıå®ģ": 8448,
      "ãĢĤĊæľī": 8449,
      "æµĩ": 8450,
      "åĢºæĿĥ": 8451,
      "åī¯æĢ»è£ģ": 8452,
      "éĩĩè®¿æĹ¶": 8453,
      "å·¦åı³,": 8454,
      "ãĢģæĻºèĥ½": 8455,
      "æĬķèµĦåŁºéĩĳ": 8456,
      "çļĦé«ĺåº¦": 8457,
      "çĶ·åŃ©": 8458,
      "çļĦèīºæľ¯": 8459,
      "çłģå¤´": 8460,
      "æĬĵå¥½": 8461,
      "ä¸ĸçķĮåĲĦåľ°": 8462,
      "åĪĽå§ĭäºº": 8463,
      "(H": 8464,
      "èĬ¦": 8465,
      "çıįæĥľ": 8466,
      "åī§éĻ¢": 8467,
      "èŃ¦åĳĬ": 8468,
      "èĢĲç£¨": 8469,
      "ä¸Ģæ¬¡æĢ§": 8470,
      "ãĢĤĊ(ä¸Ģ)": 8471,
      ",å¤§åĬĽ": 8472,
      "ç«ŁçĦ¶": 8473,
      "çĽ´è¾ĸå¸Ĥ": 8474,
      "æĬ¹": 8475,
      "çĶµç«ŀ": 8476,
      "äººå¿ĥ": 8477,
      ",åĽłèĢĮ": 8478,
      "çļĦåĲĪä½ľ": 8479,
      "ç¡«éħ¸": 8480,
      "åĩºä¸Ģ": 8481,
      "âĢľä¸Ģå¸¦ä¸Ģè·¯âĢĿ": 8482,
      "å§ĵåĲį": 8483,
      "å¸ĤåĢ¼": 8484,
      "éĩı,": 8485,
      "æº¶åīĤ": 8486,
      "åĲĮè¡Į": 8487,
      "åĴĮä¸ŃåĽ½": 8488,
      "æĪĸåħ¶ä»ĸ": 8489,
      "çº¦ç¿°": 8490,
      "ä¼ļãĢĤ": 8491,
      "ç¬¬åħ«": 8492,
      "åĪ©æģ¯": 8493,
      "ãĢĤĊæĸ°": 8494,
      "è¿ĩåİ»çļĦ": 8495,
      "æįŁåĿı": 8496,
      "ä¼ģä¸ļãĢĤ": 8497,
      "è·ŁçĿĢ": 8498,
      "ä¸įåĬ¨": 8499,
      "è´Łèį·": 8500,
      "åĲĪæ³ķæĿĥçĽĬ": 8501,
      "åħ¨æĹ¥åĪ¶": 8502,
      "éľĢè¦ģçļĦ": 8503,
      "(L": 8504,
      "çķĮéĿ¢": 8505,
      "å¤§æ¥¼": 8506,
      "åºĶè¯¥æĺ¯": 8507,
      "ç¬¬ä¹Ŀ": 8508,
      "çªĹåı£": 8509,
      "åħ¬ä¼Ĺåı·": 8510,
      "è¸¢": 8511,
      "åĻªå£°": 8512,
      "ç®Ĺæĺ¯": 8513,
      "è¿Ŀçº¦": 8514,
      "ãĢģç¾İ": 8515,
      "å´Ķ": 8516,
      "å¤įæĿĤçļĦ": 8517,
      "ãĢī": 8518,
      "åįıåķĨ": 8519,
      "ä¼´éļıçĿĢ": 8520,
      "ip": 8521,
      "åįķä½įçļĦ": 8522,
      "èĪ±": 8523,
      "åŃ¦ä¹ł,": 8524,
      "æĹ©ä¸Ĭ": 8525,
      "é«ĺåĵģè´¨": 8526,
      "è°¦": 8527,
      "æ²¸": 8528,
      "å¾ĹåĪĨ": 8529,
      "èĽĩ": 8530,
      "åŁİä¹¡å»ºè®¾": 8531,
      "ark": 8532,
      "åı²ä¸Ĭ": 8533,
      "ãĢĤĊä¸įè¿ĩ": 8534,
      "åħ³çĪ±": 8535,
      "ä¸ĩä½Ļ": 8536,
      "éĢłä»·": 8537,
      "æĭīå¼Ģ": 8538,
      "ç©´": 8539,
      "TheĠ": 8540,
      "çº¿åŁİå¸Ĥ": 8541,
      ",è¿Ľè¡Į": 8542,
      "çļĦçİ°è±¡": 8543,
      "ä½ľäºĨ": 8544,
      "çĶŁäº§åĴĮ": 8545,
      "Ġé¥°)": 8546,
      "åĩºæ¼Ķ": 8547,
      "ãĢģæľĢ": 8548,
      "å¸ĤåľºéľĢæ±Ĥ": 8549,
      "å¤·": 8550,
      "å½Ĵå±ŀäºİ": 8551,
      "çļĦæµ·": 8552,
      "ä½ľæĸĩ": 8553,
      "ç«£": 8554,
      "æĥħæĢĢ": 8555,
      "æ¡©": 8556,
      "æı´åĬ©": 8557,
      "çļĦçī¹çĤ¹": 8558,
      "æŃ§": 8559,
      "ä¿®è¡Į": 8560,
      "æĪĳåľ¨": 8561,
      "å·´å£«": 8562,
      "ä»²è£ģ": 8563,
      "ç»Ļä½ł": 8564,
      "æĬķæĶ¾": 8565,
      "çļĦæ¸¸æĪı": 8566,
      "ä¹Łåı¯": 8567,
      "æĤ£æľī": 8568,
      ",å°±åĥı": 8569,
      "æ°¯åĮĸ": 8570,
      "ç®¡æİ§": 8571,
      "ãĢĪ": 8572,
      "ãĢģåĽ½éĻħ": 8573,
      "åįķä½įåĴĮ": 8574,
      ",ä¸įä¼ļ": 8575,
      ":Ċ(ä¸Ģ)": 8576,
      "åģĩæĹ¥": 8577,
      "è®¯(": 8578,
      ";äºĮæĺ¯": 8579,
      "åħ¥å¢ĥ": 8580,
      "æ¼«çĶ»": 8581,
      "å·©åĽº": 8582,
      "çļĦæķĻèĤ²": 8583,
      "é«ĺãĢĤ": 8584,
      "è½°": 8585,
      "æľīæľºä¼ļ": 8586,
      "ä¸ļåĨħäººå£«": 8587,
      "æľĪä¸Ń": 8588,
      "åķĨåºĹ": 8589,
      "ä¿¡èµĸ": 8590,
      "åĪĨæŀĲå¸Ī": 8591,
      "æ¨±": 8592,
      "çļĦåħ¬åı¸": 8593,
      "å¹´,æĺ¯": 8594,
      "å¹³åĩ¡": 8595,
      "åĽ½éĺ²": 8596,
      "å®īç½®": 8597,
      "ç§ĳéĻ¢": 8598,
      "åıĺé¢ĳ": 8599,
      "åįĹéĥ¨": 8600,
      "åķĨä¼ļ": 8601,
      "ä¹Łè¢«": 8602,
      "è¶ħå¸Ĥ": 8603,
      "ç»Ĩèĩ´": 8604,
      "ç»ıãĢĭ": 8605,
      "é£İåħī": 8606,
      "èįīåİŁ": 8607,
      "æ°ĳäºĭ": 8608,
      "ç¬ĶèĢħ": 8609,
      "å½ĵä¸Ń,": 8610,
      "%èĩ³": 8611,
      "çļĦæīĢæľī": 8612,
      "ãĢģåĪĽæĸ°": 8613,
      "æĵħéķ¿": 8614,
      "æº¶è§£": 8615,
      "è¡ĮæĶ¿éĥ¨éĹ¨": 8616,
      ",è¿ĽèĢĮ": 8617,
      "æ¬¡æķ°": 8618,
      "é«ĺçŃīæķĻèĤ²": 8619,
      "ç«ĭä½ĵ": 8620,
      "åİĨç»ı": 8621,
      "æĳ©æĵ¦": 8622,
      "åıĳçĥŃ": 8623,
      "çĤİãĢģ": 8624,
      "å¤įåħ´": 8625,
      "ç»ĵç®Ĺ": 8626,
      "ç£Ĭ": 8627,
      "å¹¿å·ŀå¸Ĥ": 8628,
      "ä¸įåıĬ": 8629,
      "ä¸İåħ¶ä»ĸ": 8630,
      "ä¸Ńåħ±": 8631,
      "æĶ¿çŃĸçļĦ": 8632,
      "ä»ĵåĤ¨": 8633,
      "å¹´ãĢĤ": 8634,
      "NBA": 8635,
      "åĢ¼å¾Ĺä¸ĢæıĲ": 8636,
      "ä¾ĽçĶµ": 8637,
      "ä¸ĢæľŁ": 8638,
      "å¸Ĳ": 8639,
      "çİ©åħ·": 8640,
      "çĥŃæ°´åĻ¨": 8641,
      "å®ŀè´¨": 8642,
      "å·¾": 8643,
      "æ²¿æµ·": 8644,
      "æĶ¶åıĸ": 8645,
      "è±«": 8646,
      "æĿ¡ä¾ĭãĢĭ": 8647,
      "å¸Ĥçº§": 8648,
      "å¥ĸéĩĳ": 8649,
      "ãĢĤĊèĻ½çĦ¶": 8650,
      "éķ¿åŁİ": 8651,
      "æľįåĬ¡ä¸Ńå¿ĥ": 8652,
      "å¿ħè¦ģçļĦ": 8653,
      "æŃĩ": 8654,
      "å°ıäºİ": 8655,
      "å¼Ģä¸ļ": 8656,
      "åħ¸èĮĥ": 8657,
      "è¿ĶåĽŀ": 8658,
      "ä¸ĭæ¸¸": 8659,
      "ud": 8660,
      "ä¹ĭæĹħ": 8661,
      "ç¦ıå»ºçľģ": 8662,
      "ä¾Ľæ°´": 8663,
      "ä¼ĹçĶŁ": 8664,
      "çĭŃ": 8665,
      "è§£çŃĶ": 8666,
      "çłĶç©¶äººåĳĺ": 8667,
      "èĴĭ": 8668,
      "å¼ķèµ·çļĦ": 8669,
      "åĽ½å®¶åĴĮåľ°åĮº": 8670,
      "ãĢģå·¥ä½ľ": 8671,
      "å·ŀãĢģ": 8672,
      ",æ¬¢è¿İ": 8673,
      "èµĦæºĲçļĦ": 8674,
      "åľ¨åĽ½åĨħ": 8675,
      "å®ĺåĳĺ": 8676,
      "éĵ¶è¡ĮãĢģ": 8677,
      "æłĩå¿ĹçĿĢ": 8678,
      "ç±³ãĢģ": 8679,
      "åħ¨åĽ½åĲĦåľ°": 8680,
      "å¼Ģå±ķâĢľ": 8681,
      "æŃ¥éª¤": 8682,
      "è§ģåĪ°": 8683,
      "çļĦä¸¤": 8684,
      "åĩĮæĻ¨": 8685,
      "èĥ½åĬĽãĢĤ": 8686,
      "çĸ²åĬ³": 8687,
      "æ½®æµģ": 8688,
      "çļĦæłĩåĩĨ": 8689,
      "åĪĨè¾¨": 8690,
      "èĪĮ": 8691,
      "åµĮ": 8692,
      "anc": 8693,
      "åŃµ": 8694,
      "åĩłå¤©": 8695,
      "çŃīäºİ": 8696,
      "å¥¥è¿Ĳä¼ļ": 8697,
      "åİĭåĬĽ,": 8698,
      "æ´»æĢ§çĤŃ": 8699,
      ",âĢĿ": 8700,
      "ey": 8701,
      "ç¡¬åº¦": 8702,
      "èįĨ": 8703,
      "ä¸īãĢģ": 8704,
      "åı«åģļ": 8705,
      "èĻļåģĩ": 8706,
      "åĪłéĻ¤": 8707,
      "åĬ«": 8708,
      "æĺ¯å¾Ī": 8709,
      "ç¡Ŀ": 8710,
      "èĪĨ": 8711,
      "æľªæĪĲå¹´": 8712,
      "åĪĩåī²": 8713,
      "ãĢĤç»ı": 8714,
      ")(": 8715,
      "åı°,": 8716,
      "ç§ĳåŃ¦ä¸İ": 8717,
      ":ä¸Ģæĺ¯": 8718,
      "çĶ¨ä½ľ": 8719,
      "éģĵãĢģ": 8720,
      "çļĦåģ¥åº·": 8721,
      "é¡¹çĽ®ãĢģ": 8722,
      "çļĦæľĢä½³": 8723,
      "ç§ĭåŃ£": 8724,
      ",å¸¸": 8725,
      "æĭīæĸ¯": 8726,
      "çľģãĢģ": 8727,
      "æ°ĶãĢģ": 8728,
      "åįģåŃĹ": 8729,
      "ä¸įæĸŃçļĦ": 8730,
      "éļıåĲİ,": 8731,
      "åľ¨åħ¨çĲĥ": 8732,
      "åĩºåħ·": 8733,
      "åĪĨçļĦ": 8734,
      "çī¹èī²çļĦ": 8735,
      "å¢ħ": 8736,
      "åī¥": 8737,
      "å¼Ģåħ³": 8738,
      "åĿİ": 8739,
      ",å°¤åħ¶": 8740,
      "ä¼łè¾¾": 8741,
      "è´¢æĬ¥": 8742,
      "éļıæĦı": 8743,
      "æĺ¯ä¸ºäºĨ": 8744,
      "æŀ«": 8745,
      "åħīæĺİ": 8746,
      "è¡¨ç¤º,âĢľ": 8747,
      "ç²¾èĭ±": 8748,
      "æ¬§ç¾İ": 8749,
      "åĿĩåı¯": 8750,
      "ä¸ºæľ¬": 8751,
      "æ³ķæ²»": 8752,
      "èĢħãĢģ": 8753,
      "éĵĥ": 8754,
      "åĪ°ä½į": 8755,
      "æ¬¢ä¹Ĳ": 8756,
      "ä¸ĩäººæ¬¡": 8757,
      "æ¯ıä¸Ģä½į": 8758,
      "åĵĪå°Ķæ»¨": 8759,
      "ç¼¸": 8760,
      "åıĳéħµ": 8761,
      "å¥½ãĢģ": 8762,
      "ãĢĤåħ¶å®ŀ": 8763,
      "å·¥ç¨ĭæĸ½å·¥": 8764,
      "åį«è§Ĩ": 8765,
      "åİ»äºĨ": 8766,
      "è¯Ħå®ļ": 8767,
      "åĪĽæĸ°,": 8768,
      "æĶ¿åºľçļĦ": 8769,
      "æĭ¼æĲı": 8770,
      "æ¯ıæľĪ": 8771,
      "é¢ł": 8772,
      "éģĹæĨ¾": 8773,
      "ç»ĵæĿŁåĲİ,": 8774,
      "éĢ¾æľŁ": 8775,
      "æĸĩåĮĸéģĹäº§": 8776,
      "å®¡çĲĨ": 8777,
      "é¢ĳç¹ģ": 8778,
      "åħ¸ç¤¼": 8779,
      "å±ķç¤ºäºĨ": 8780,
      "èĩªè¡Įè½¦": 8781,
      "æĿı": 8782,
      "åĲįä¸ºâĢľ": 8783,
      "åĽ¾æ¡Ī": 8784,
      "åĿļæĮģâĢľ": 8785,
      "éĤ®æĶ¿": 8786,
      "åĸĦäºİ": 8787,
      "çģ¿": 8788,
      "æĹ¥,åľ¨": 8789,
      "åıĳæĢ§": 8790,
      "ä¸ĭä¸Ģ": 8791,
      "ä¼łåĬ¨": 8792,
      "ä¸»å¼ł": 8793,
      "åĨĢ": 8794,
      "çŃī)": 8795,
      "æĦıå¿Ĺ": 8796,
      "ç»Ŀç¼ĺ": 8797,
      "ä¸Ńè¶ħ": 8798,
      "éĿĻçĶµ": 8799,
      "ãĢĤå°½ç®¡": 8800,
      ",åŃ¦æł¡": 8801,
      "æĺı": 8802,
      "åĳĨ": 8803,
      "IE": 8804,
      "ç»ĻæĪĳä»¬": 8805,
      "ãĢĤåĽł": 8806,
      "ç¥ŀçļĦ": 8807,
      "Ġm": 8808,
      "ä¸įæĥ³": 8809,
      "è´¨çĸĳ": 8810,
      "ä»įæľī": 8811,
      "åı£ç¢ĳ": 8812,
      "æĸ¹æ³ķ,": 8813,
      "åĲ¬åıĸ": 8814,
      "å¢ĥçķĮ": 8815,
      "ort": 8816,
      "åĭ¾": 8817,
      "éķĢéĶĮ": 8818,
      "CP": 8819,
      "è®©ä»ĸ": 8820,
      "ant": 8821,
      "é²ģè¿ħ": 8822,
      "æį§": 8823,
      "æĢ»æĬķèµĦ": 8824,
      "åİ¿åŁİ": 8825,
      "è¿Ļåľº": 8826,
      "åģļåĩºäºĨ": 8827,
      "æ¼Ķèīº": 8828,
      "åı¯æĮģç»Ńåıĳå±ķ": 8829,
      "æĮ«": 8830,
      "æĢĢçĸĳ": 8831,
      "æķĻå®¤": 8832,
      ",è®©æĪĳä»¬": 8833,
      "å¯ĮåĲ«": 8834,
      "éĩĳåĪļ": 8835,
      ",çĽ´åĪ°": 8836,
      "ç»ıæµİå¢ŀéķ¿": 8837,
      "ãĢĤæĺ¯": 8838,
      "ãĢĤĊæŃ¤æ¬¡": 8839,
      "ä¼ļè®¡å¸Ī": 8840,
      "åıĳçĶŁçļĦ": 8841,
      "éĽĨä¸Ńåľ¨": 8842,
      "å¤©åľ°": 8843,
      "çŃīæĸ¹å¼ı": 8844,
      "æŀ£": 8845,
      "éĩįå»º": 8846,
      "äºĶéĩĳ": 8847,
      "çĲ¼": 8848,
      "æľ¬æĿ¥": 8849,
      "ä»£æĽ¿": 8850,
      "å£¶": 8851,
      "é¥²æĸĻ": 8852,
      "èĲĿåįľ": 8853,
      "åħ¥åĽ´": 8854,
      ",è¿Ļä¹Ł": 8855,
      "æĶ¾å¿ĥ": 8856,
      "çļĦæ¯Ķä¾ĭ": 8857,
      "æĦģ": 8858,
      "est": 8859,
      "ç§īæī¿âĢľ": 8860,
      ",è¯´": 8861,
      "æ¾Ħ": 8862,
      "èĴ¸æ±½": 8863,
      "å±ĤçļĦ": 8864,
      "æµ·åħ³": 8865,
      "èĮĦ": 8866,
      ",æĿİ": 8867,
      "çĽ¸æľº": 8868,
      "çľŁæĺ¯": 8869,
      "ãĢĤĊä¸īãĢģ": 8870,
      "ä¸īçº§": 8871,
      "ä¼ģä¸ļå®¶": 8872,
      "çļĦåŁºç¡Ģä¸Ĭ": 8873,
      "ç«£å·¥": 8874,
      "ack": 8875,
      "åľ¨æľ¬": 8876,
      "åŁŁåĲį": 8877,
      "åĿĩæľī": 8878,
      "âĢķâĢķ": 8879,
      "åĬłæ²¹": 8880,
      "éĩĩçĶ¨äºĨ": 8881,
      "ĠIn": 8882,
      "è¯ķç®¡": 8883,
      "å·²è¢«": 8884,
      "ä½¿çĶ¨å¯¿åĳ½": 8885,
      "çłĶç©¶ãĢģ": 8886,
      "ä»ħä¸º": 8887,
      "sh": 8888,
      "åĬŀåħ¬åİħ": 8889,
      ",åĮĹ": 8890,
      "æĿ¡ä»¶ä¸ĭ": 8891,
      "èĬ±è´¹": 8892,
      "èµĲ": 8893,
      "ä¹ĭåľ°": 8894,
      "æ°¸ä¹ħ": 8895,
      "æĪĺçķ¥åĲĪä½ľ": 8896,
      "åĮº)": 8897,
      "ebook": 8898,
      "é¡·": 8899,
      "çĦ¦èĻĳ": 8900,
      ",éĻįä½İ": 8901,
      "åīįä¸ī": 8902,
      "åĪĨãĢĤĊ": 8903,
      "æĪĲç«ĭäºĨ": 8904,
      "æ°ĳèĪª": 8905,
      "æī«æıı": 8906,
      "TE": 8907,
      "åĲģ": 8908,
      "ãĥ»": 8909,
      "æĦıè§ģãĢĭ": 8910,
      "âĢľä¸¤": 8911,
      ",ç»ĵåĲĪ": 8912,
      "ä¸ŃæīĢ": 8913,
      "çĸĹæ³ķ": 8914,
      "çĽ¸åħ³è´Łè´£äºº": 8915,
      "ä¿ĥä½¿": 8916,
      "åĻªéŁ³": 8917,
      "ãĢģç®¡çĲĨ": 8918,
      "éĴ¢æĿĲ": 8919,
      "ãĢģç§ĳçłĶ": 8920,
      "åļ": 8921,
      "åįĳ": 8922,
      "ON": 8923,
      "çĶ¸": 8924,
      "åĪ°,": 8925,
      "é¡ºåºı": 8926,
      "å´Ľ": 8927,
      "èĤ¡ä¸ľçļĦ": 8928,
      "å½ĵä»Ĭ": 8929,
      "åĽ°æī°": 8930,
      "è¯ł": 8931,
      "(J": 8932,
      "åĵªä¸ª": 8933,
      "åĩ¶": 8934,
      "çĮ´": 8935,
      "æĳĦåĥı": 8936,
      "çĸĳéĹ®": 8937,
      "ä¸įä½İäºİ": 8938,
      "éĢĢå½¹": 8939,
      "åĲ§!Ċ": 8940,
      "âĢĿä¸ºä¸»é¢ĺ": 8941,
      "âĢľæĪĳ": 8942,
      "ä»İæľª": 8943,
      "äºĴèģĶç½ĳ+": 8944,
      "å¤ªç©º": 8945,
      "è®¯Ġ": 8946,
      "æĮĩç¤º": 8947,
      "éħĴåºĹçļĦ": 8948,
      "ä¸ºä¸ŃåĽ½": 8949,
      "å¹³çŃī": 8950,
      "ä¸Ģæ¬¾": 8951,
      "æĸ½è¡Į": 8952,
      "æĥĬåĸľ": 8953,
      "æĬķäº§": 8954,
      "ä¸ĩåħĥãĢĤ": 8955,
      "ä»įåľ¨": 8956,
      "æĢĢåŃķ": 8957,
      "å¹´ãĢģ": 8958,
      ",æľīåĪ©äºİ": 8959,
      "åĸī": 8960,
      "çļĦç¡®": 8961,
      "æİ¨åĩºçļĦ": 8962,
      "å®¶ä¸Ń": 8963,
      "èĢĮå·²": 8964,
      "æİĴè¡Į": 8965,
      "ä¸¤åĽ½": 8966,
      "çļĦä¸Ģé¡¹": 8967,
      "ä¸įç¬¦åĲĪ": 8968,
      "ç¥ŀå¥ĩ": 8969,
      "ä¹¦ãĢĭ": 8970,
      "çĶ·äºº": 8971,
      "è°·æŃĮ": 8972,
      ",å¾Ī": 8973,
      "ç»ĦæĪĲçļĦ": 8974,
      "æĢ»åĢ¼": 8975,
      ",å¼ł": 8976,
      "æİ©": 8977,
      "ç«ĭæ³ķ": 8978,
      "AèĤ¡": 8979,
      "å¯Ĥ": 8980,
      "éķ¿è¾¾": 8981,
      "ç¦»å©ļ": 8982,
      "çļĦåı¯": 8983,
      "æĪĲåĵģ": 8984,
      "åĢ¾åĲĳ": 8985,
      "çļĦæīĭ": 8986,
      "åķ¤": 8987,
      "å®ļä»·": 8988,
      "åĢŁéī´": 8989,
      "äºĨä¸Ģç§į": 8990,
      "å¼ºçĥĪçļĦ": 8991,
      "æıĲé«ĺ,": 8992,
      "å½°æĺ¾": 8993,
      "åİĺç±³": 8994,
      "ãĢĤå¦Ĥä»Ĭ": 8995,
      "ãĢĤĊéĻ¤äºĨ": 8996,
      "åĽ½èµĦ": 8997,
      "ãĢģé«ĺæķĪ": 8998,
      "èķ¾": 8999,
      "ä¸ĭæĿ¥çļĦ": 9000,
      "åİ¿çº§ä»¥ä¸Ĭ": 9001,
      "qu": 9002,
      "éĿĸ": 9003,
      "è½®èĥİ": 9004,
      ";å¯¹": 9005,
      "åº¸": 9006,
      "åĽŀæĿ¥": 9007,
      "for": 9008,
      "æĬĸ": 9009,
      "åĽ½åľŁ": 9010,
      "æĢ¥æĢ§": 9011,
      "éĺ²å®Ī": 9012,
      "æĿ¥æºĲäºİ": 9013,
      "ãĢģC": 9014,
      "å®¿èĪį": 9015,
      "æ¦ľåįķ": 9016,
      "åĴĮåĽ½å®¶": 9017,
      "æŀ¯": 9018,
      "å¹¿æ³ĽçļĦ": 9019,
      "æľĢéĩįè¦ģçļĦ": 9020,
      "å¸Ĥéķ¿": 9021,
      "âĢĵ": 9022,
      "èµĦæ·±": 9023,
      "æĹ¶æľŁ,": 9024,
      "è¿ĺåİŁ": 9025,
      "æĬ¥è®°èĢħ": 9026,
      "ç»¼èīº": 9027,
      "å¤Ħå¤Ħ": 9028,
      "å¤ļå½©": 9029,
      "ä¸įåĪ©": 9030,
      "è¿Ļä¸¤": 9031,
      "äºĨãĢĤâĢĿ": 9032,
      "åĮ»éĻ¢ãĢģ": 9033,
      "å®°": 9034,
      "çĶŁåĳ½çļĦ": 9035,
      "æŀģå¤§çļĦ": 9036,
      "åİĤãĢģ": 9037,
      "ç¼ĸåı·": 9038,
      "åĴĮé«ĺ": 9039,
      "åĪĨæŀĲ,": 9040,
      "åĪĨå·¥": 9041,
      "åľºä¸Ĭ": 9042,
      "éħ¸ãĢģ": 9043,
      "ä¼Łå¤§çļĦ": 9044,
      "åľ¨ä¸Ģä¸ª": 9045,
      "åŃĲå®«": 9046,
      "ä¸¥å³»": 9047,
      "æ¶Īè´¹èĢħçļĦ": 9048,
      ",æĺ¯æĮĩ": 9049,
      "ç¼ĵæħ¢": 9050,
      "å½¦": 9051,
      "ä¸»äºº": 9052,
      "éº»çĥ¦": 9053,
      "æľ¬æ³ķ": 9054,
      "èµ·çĤ¹": 9055,
      "åŃ¦å£«": 9056,
      "åıĺéĢŁ": 9057,
      "å·¥ç¨ĭå»ºè®¾": 9058,
      "éĴ¢çĲ´": 9059,
      "çĳŁ": 9060,
      "åĩ°": 9061,
      "æ±Łè¥¿çľģ": 9062,
      "ä»¥ä¸ĭçļĦ": 9063,
      "æ°´åºĵ": 9064,
      "åĬłå¼ºå¯¹": 9065,
      "å¤®è§Ĩ": 9066,
      "çļĦåħ·ä½ĵ": 9067,
      "ãĢĤĊä¸Ģ": 9068,
      "æ»¥": 9069,
      "æ¸©æ³ī": 9070,
      "å·¥ç¨ĭæľºæ¢°": 9071,
      ",åħ¶ä½Ļ": 9072,
      "ç§ģåĭŁ": 9073,
      "åį´æĺ¯": 9074,
      "çļĦä¸Ģæ¬¡": 9075,
      "çĿ£ä¿ĥ": 9076,
      ",æĽ¾": 9077,
      "è´®": 9078,
      "ç»ıæµİæķĪçĽĬ": 9079,
      "ãĢĳĊ": 9080,
      "çŀ¬éĹ´": 9081,
      ",èİ·å¾Ĺ": 9082,
      "ç»Īèº«": 9083,
      "æĸĩåĮĸæĹħæ¸¸": 9084,
      "åŁºç¡Ģä¸Ĭ": 9085,
      "ä½ĵè´¨": 9086,
      "åĮĹç¾İ": 9087,
      "æĹ©æĹ¥": 9088,
      "è§£åĨ³äºĨ": 9089,
      ")ãĢĭ": 9090,
      "æŁĲä¸ª": 9091,
      "èĨı": 9092,
      "ãĢģäºº": 9093,
      "çŃīéĹ®é¢ĺ": 9094,
      "ç¥¸": 9095,
      "è°ĪåĪ¤": 9096,
      "our": 9097,
      "èīĺ": 9098,
      "çļĦåīįæıĲ": 9099,
      "æ¶¤": 9100,
      "åŃ¦çĶŁåľ¨": 9101,
      "é»Ħèī²": 9102,
      ",çĦ¶èĢĮ": 9103,
      "æķĻä¼ļ": 9104,
      "è´ŁéĿ¢": 9105,
      "æ¶¡": 9106,
      "å½ĵä¸ĭ": 9107,
      "å·®åĪ«": 9108,
      "å°¸": 9109,
      "äºĮæīĭ": 9110,
      "åĨħå®¹,": 9111,
      "çļĦåĲį": 9112,
      "ãĢģçº¢": 9113,
      "åıĳæİĺ": 9114,
      "åıĸåĨ³": 9115,
      "æľīæķĪåľ°": 9116,
      "æĴŃåĩº": 9117,
      "å®¶ä¼ģä¸ļ": 9118,
      "ber": 9119,
      "ãĢĤæľ¬æ¬¡": 9120,
      "åıĭå¥½": 9121,
      "åĬ¨åĳĺ": 9122,
      "eg": 9123,
      "åĿĩè¡¡": 9124,
      "çĶŁäº§ä¼ģä¸ļ": 9125,
      "å®³æĢķ": 9126,
      "çĨ¬": 9127,
      "è¯łéĩĬ": 9128,
      "åľºåĲĪ": 9129,
      "æľºæŀĦçļĦ": 9130,
      "ãĢģå·¥ä¸ļ": 9131,
      "åħ±äº§åħļ": 9132,
      "ä¹¦åĨĻ": 9133,
      "æ²¡æĥ³åĪ°": 9134,
      "ç¿ģ": 9135,
      "æ°ĳæĶ¿": 9136,
      "æĬµæĬĹ": 9137,
      "ãĢģæĹ¥æľ¬": 9138,
      "æĪĳæĥ³": 9139,
      "æĸ°ä¸Ģä»£": 9140,
      "ä¼ĺè´¨çļĦ": 9141,
      "åīįåĲİ": 9142,
      "èµ°è®¿": 9143,
      "çŁ¿å±±": 9144,
      "åħĥãĢĤĊ": 9145,
      "æĿ°åĩº": 9146,
      "æľįåĬ¡å¹³åı°": 9147,
      "åħ¬å®īæľºåħ³": 9148,
      "åįİäºº": 9149,
      "æĹĹèĪ°": 9150,
      "åıĳæī¬": 9151,
      "acebook": 9152,
      "ä¼ļå¯¼èĩ´": 9153,
      "æ³¼": 9154,
      "ç½¢": 9155,
      "çĬ¬": 9156,
      "èĮ«": 9157,
      "åħĥä»¶": 9158,
      "æķĻèĤ²å±Ģ": 9159,
      "ä»·æ¯Ķ": 9160,
      "éļıä¹ĭ": 9161,
      ",è¿Ļæ¬¡": 9162,
      "ä¹¦ç±į": 9163,
      "å®¢äºº": 9164,
      "åıĤçħ§": 9165,
      "çĶµç£ģ": 9166,
      "æ¹¿åº¦": 9167,
      "çļĦçĪ±": 9168,
      "åĵģ,": 9169,
      "æ¯ĶåĪĨ": 9170,
      "ä¾ĭåŃĲ": 9171,
      "èĿ¶": 9172,
      "éĺŁ,": 9173,
      "é©³": 9174,
      "å®ŀéĻħæĥħåĨµ": 9175,
      "åĽ½éĻħæľºåľº": 9176,
      "(F": 9177,
      "å¿«,": 9178,
      "å¸Ĥåľºä»½é¢Ŀ": 9179,
      "å¥ĸåŃ¦": 9180,
      "çļĦåĲĦç§į": 9181,
      "æ¸Ĭ": 9182,
      "å¹¸è¿Ĳ": 9183,
      "åıĸåĨ³äºİ": 9184,
      "çİ¯æ°§": 9185,
      "é¢ĨåħĪçļĦ": 9186,
      "å·¥ä½ľ;": 9187,
      "çļĦåĲĮæĹ¶": 9188,
      "çŁ¥è¯Ĩ,": 9189,
      "km": 9190,
      "è¾¾æłĩ": 9191,
      "åįĹåĮĹ": 9192,
      "æĿ¿çļĦ": 9193,
      "çº§çļĦ": 9194,
      "éĽĦåİļ": 9195,
      "ç»ıçºª": 9196,
      "å°ĳ,": 9197,
      "åł¤": 9198,
      "%Ċ": 9199,
      "ç¾İåĽ½çļĦ": 9200,
      "èģĮä¸ļæĬĢæľ¯": 9201,
      "åī¯ä¹¦è®°": 9202,
      "åŃ¦è´¹": 9203,
      "ä¹Ĳè¶£": 9204,
      ",æľīæĹ¶": 9205,
      "åĽ°å¢ĥ": 9206,
      "è£ģåĪ¤": 9207,
      "èģĶç»ľ": 9208,
      "å®¶å±ŀ": 9209,
      "åħ¶ä¸ŃçļĦ": 9210,
      "çĶŁäº§ãĢģéĶĢåĶ®": 9211,
      "æĬ¥ä»·": 9212,
      "æīĢåľ¨åľ°": 9213,
      "å¹´ä»¥æĿ¥,": 9214,
      "é£İéĽ¨": 9215,
      "åĭĩäºİ": 9216,
      "æ±īè¯Ń": 9217,
      "ä½ĵéĩį": 9218,
      "æ°Ķæģ¯": 9219,
      "ä¸ºä¸»è¦ģ": 9220,
      "è°ĥè¯ķ": 9221,
      "æĬ¤æłı": 9222,
      "ãĢģä¸ĵä¸ļ": 9223,
      "æ³»": 9224,
      "åİļåº¦": 9225,
      "èĵ¬åĭĥ": 9226,
      "çĢĳ": 9227,
      "åįĹå®ģ": 9228,
      "éģįå¸ĥ": 9229,
      "è¿Ļæ®µ": 9230,
      "åŃ¦ä¹łçļĦ": 9231,
      "äºĶãĢģ": 9232,
      "ãĢĤĊãĢĲ": 9233,
      "çĽĳäºĭ": 9234,
      "åıĭè°Ĭ": 9235,
      "ä¸įäºĪ": 9236,
      "éĿ¢ä¸Ĭ": 9237,
      "çľģæĶ¿åºľ": 9238,
      "åħĥãĢģ": 9239,
      "åĲĦæĸ¹": 9240,
      "äº¤å¾Ģ": 9241,
      "ich": 9242,
      "èī°èĭ¦": 9243,
      "è¶³å¤ŁçļĦ": 9244,
      "ãĢģæĹħæ¸¸": 9245,
      "éľľ": 9246,
      "æĶ¿åºľä¿¡æģ¯åħ¬å¼Ģ": 9247,
      "é«ĺç§ĳæĬĢ": 9248,
      "å°Ĩä¸º": 9249,
      "èĢħåĴĮ": 9250,
      ",åħ·ä½ĵ": 9251,
      "éģŃåıĹ": 9252,
      ",å¤©": 9253,
      "éĹ·": 9254,
      "çĶ±ä¸ŃåĽ½": 9255,
      "å¾·éĩĮ": 9256,
      "ç¼ĸç¨ĭ": 9257,
      "è¿Ľåº¦": 9258,
      "âĢĭ": 9259,
      "éĩıåŃĲ": 9260,
      "æĬ¬": 9261,
      "ä¿®æŃ£": 9262,
      "éĵ¶è¡Įä¸ļ": 9263,
      "ĠX": 9264,
      "åİŁåŃĲ": 9265,
      "åĲ¾": 9266,
      "æľĢæĸ°çļĦ": 9267,
      "æĿ¥çľĭçľĭ": 9268,
      "çļĦéĥ¨åĪĨ": 9269,
      "çī¹æľĹ": 9270,
      "è¡ĮæĶ¿æľºåħ³": 9271,
      "è½§": 9272,
      "ä¸ĭåįĬå¹´": 9273,
      "èµ°åľ¨": 9274,
      "æĸ¥": 9275,
      "å¥½ãĢĤ": 9276,
      "è½¿": 9277,
      "èĬĤçĤ¹": 9278,
      "åĲ§ãĢĤĊ": 9279,
      "å¢ŀåĬłåĢ¼": 9280,
      "åĻ¨æĿĲ": 9281,
      "éļĲç§ģ": 9282,
      ",çī¹åĪ«": 9283,
      "EM": 9284,
[...]
