<unk>	0
<s>	0
</s>	0
<0x00>	0
<0x01>	0
<0x02>	0
<0x03>	0
<0x04>	0
<0x05>	0
<0x06>	0
<0x07>	0
<0x08>	0
<0x09>	0
<0x0A>	0
<0x0B>	0
<0x0C>	0
<0x0D>	0
<0x0E>	0
<0x0F>	0
<0x10>	0
<0x11>	0
<0x12>	0
<0x13>	0
<0x14>	0
<0x15>	0
<0x16>	0
<0x17>	0
<0x18>	0
<0x19>	0
<0x1A>	0
<0x1B>	0
<0x1C>	0
<0x1D>	0
<0x1E>	0
<0x1F>	0
<0x20>	0
<0x21>	0
<0x22>	0
<0x23>	0
<0x24>	0
<0x25>	0
<0x26>	0
<0x27>	0
<0x28>	0
<0x29>	0
<0x2A>	0
<0x2B>	0
<0x2C>	0
<0x2D>	0
<0x2E>	0
<0x2F>	0
<0x30>	0
<0x31>	0
<0x32>	0
<0x33>	0
<0x34>	0
<0x35>	0
<0x36>	0
<0x37>	0
<0x38>	0
<0x39>	0
<0x3A>	0
<0x3B>	0
<0x3C>	0
<0x3D>	0
<0x3E>	0
<0x3F>	0
<0x40>	0
<0x41>	0
<0x42>	0
<0x43>	0
<0x44>	0
<0x45>	0
<0x46>	0
<0x47>	0
<0x48>	0
<0x49>	0
<0x4A>	0
<0x4B>	0
<0x4C>	0
<0x4D>	0
<0x4E>	0
<0x4F>	0
<0x50>	0
<0x51>	0
<0x52>	0
<0x53>	0
<0x54>	0
<0x55>	0
<0x56>	0
<0x57>	0
<0x58>	0
<0x59>	0
<0x5A>	0
<0x5B>	0
<0x5C>	0
<0x5D>	0
<0x5E>	0
<0x5F>	0
<0x60>	0
<0x61>	0
<0x62>	0
<0x63>	0
<0x64>	0
<0x65>	0
<0x66>	0
<0x67>	0
<0x68>	0
<0x69>	0
<0x6A>	0
<0x6B>	0
<0x6C>	0
<0x6D>	0
<0x6E>	0
<0x6F>	0
<0x70>	0
<0x71>	0
<0x72>	0
<0x73>	0
<0x74>	0
<0x75>	0
<0x76>	0
<0x77>	0
<0x78>	0
<0x79>	0
<0x7A>	0
<0x7B>	0
<0x7C>	0
<0x7D>	0
<0x7E>	0
<0x7F>	0
<0x80>	0
<0x81>	0
<0x82>	0
<0x83>	0
<0x84>	0
<0x85>	0
<0x86>	0
<0x87>	0
<0x88>	0
<0x89>	0
<0x8A>	0
<0x8B>	0
<0x8C>	0
<0x8D>	0
<0x8E>	0
<0x8F>	0
<0x90>	0
<0x91>	0
<0x92>	0
<0x93>	0
<0x94>	0
<0x95>	0
<0x96>	0
<0x97>	0
<0x98>	0
<0x99>	0
<0x9A>	0
<0x9B>	0
<0x9C>	0
<0x9D>	0
<0x9E>	0
<0x9F>	0
<0xA0>	0
<0xA1>	0
<0xA2>	0
<0xA3>	0
<0xA4>	0
<0xA5>	0
<0xA6>	0
<0xA7>	0
<0xA8>	0
<0xA9>	0
<0xAA>	0
<0xAB>	0
<0xAC>	0
<0xAD>	0
<0xAE>	0
<0xAF>	0
<0xB0>	0
<0xB1>	0
<0xB2>	0
<0xB3>	0
<0xB4>	0
<0xB5>	0
<0xB6>	0
<0xB7>	0
<0xB8>	0
<0xB9>	0
<0xBA>	0
<0xBB>	0
<0xBC>	0
<0xBD>	0
<0xBE>	0
<0xBF>	0
<0xC0>	0
<0xC1>	0
<0xC2>	0
<0xC3>	0
<0xC4>	0
<0xC5>	0
<0xC6>	0
<0xC7>	0
<0xC8>	0
<0xC9>	0
<0xCA>	0
<0xCB>	0
<0xCC>	0
<0xCD>	0
<0xCE>	0
<0xCF>	0
<0xD0>	0
<0xD1>	0
<0xD2>	0
<0xD3>	0
<0xD4>	0
<0xD5>	0
<0xD6>	0
<0xD7>	0
<0xD8>	0
<0xD9>	0
<0xDA>	0
<0xDB>	0
<0xDC>	0
<0xDD>	0
<0xDE>	0
<0xDF>	0
<0xE0>	0
<0xE1>	0
<0xE2>	0
<0xE3>	0
<0xE4>	0
<0xE5>	0
<0xE6>	0
<0xE7>	0
<0xE8>	0
<0xE9>	0
<0xEA>	0
<0xEB>	0
<0xEC>	0
<0xED>	0
<0xEE>	0
<0xEF>	0
<0xF0>	0
<0xF1>	0
<0xF2>	0
<0xF3>	0
<0xF4>	0
<0xF5>	0
<0xF6>	0
<0xF7>	0
<0xF8>	0
<0xF9>	0
<0xFA>	0
<0xFB>	0
<0xFC>	0
<0xFD>	0
<0xFE>	0
<0xFF>	0
▁*	-0
20	-1
19	-2
201	-3
200	-4
),	-5
10	-6
一个	-7
er	-8
18	-9
an	-10
中国	-11
▁19	-12
00	-13
12	-14
on	-15
in	-16
▁(	-17
ar	-18
11	-19
美国	-20
公司	-21
大学	-22
)。	-23
位于	-24
en	-25
▁《	-26
▁201	-27
。19	-28
15	-29
成为	-30
日本	-31
第一	-32
香港	-33
or	-34
al	-35
国家	-36
开始	-37
使用	-38
可以	-39
地区	-40
16	-41
的一	-42
199	-43
世界	-44
17	-45
▁S	-46
研究	-47
历史	-48
▁-	-49
电影	-50
主要	-51
包括	-52
at	-53
进行	-54
es	-55
以及	-56
▁200	-57
电视	-58
第二	-59
▁C	-60
21	-61
获得	-62
其他	-63
部分	-64
他们	-65
没有	-66
14	-67
是一	-68
is	-69
ic	-70
▁在	-71
13	-72
)、	-73
学院	-74
其中	-75
22	-76
》(	-77
车站	-78
由于	-79
30	-80
el	-81
▁M	-82
人民	-83
国际	-84
他的	-85
政府	-86
认为	-87
之后	-88
因为	-89
中心	-90
自己	-91
建筑	-92
198	-93
▁饰	-94
中的	-95
游戏	-96
因此	-97
25	-98
作为	-99
工作	-100
it	-101
发现	-102
法国	-103
..	-104
▁A	-105
之一	-106
设计	-107
铁路	-108
学校	-109
可能	-110
比赛	-111
音乐	-112
▁B	-113
同时	-114
作品	-115
当时	-116
担任	-117
il	-118
am	-119
冠军	-120
us	-121
运动	-122
委员	-123
英国	-124
时间	-125
代表	-126
▁P	-127
23	-128
称为	-129
ol	-130
足球	-131
▁20	-132
台湾	-133
通过	-134
世纪	-135
as	-136
成立	-137
发展	-138
ch	-139
属于	-140
50	-141
系统	-142
▁T	-143
联赛	-144
最后	-145
不同	-146
re	-147
制作	-148
政治	-149
人口	-150
文化	-151
后来	-152
”。	-153
28	-154
▁第	-155
年的	-156
出现	-157
工程	-158
24	-159
公里	-160
名为	-161
et	-162
197	-163
管理	-164
》,	-165
这个	-166
年代	-167
期间	-168
▁生	-169
ion	-170
球队	-171
ro	-172
he	-173
利亚	-174
▁L	-175
」,	-176
正式	-177
最终	-178
上的	-179
之间	-180
le	-181
这些	-182
影响	-183
▁H	-184
也是	-185
社会	-186
参加	-187
▁历史	-188
发生	-189
所有	-190
196	-191
▁R	-192
》、	-193
进入	-194
节目	-195
的一个	-196
ur	-197
根据	-198
。201	-199
人的	-200
城市	-201
”,	-202
经济	-203
计划	-204
▁G	-205
第三	-206
大的	-207
北京	-208
26	-209
委员会	-210
罗斯	-211
人物	-212
组织	-213
上海	-214
德国	-215
时期	-216
尼亚	-217
▁D	-218
教育	-219
最佳	-220
共和	-221
▁199	-222
27	-223
两个	-224
):	-225
技术	-226
成员	-227
194	-228
」。	-229
学家	-230
▁F	-231
行政	-232
生活	-233
出版	-234
有一	-235
系列	-236
发行	-237
提供	-238
面积	-239
om	-240
》、《	-241
un	-242
演员	-243
中央	-244
列车	-245
二十	-246
艺术	-247
——	-248
已经	-249
活动	-250
战争	-251
斯特	-252
表示	-253
许多	-254
了一	-255
欧洲	-256
▁大	-257
集团	-258
ac	-259
195	-260
主义	-261
但是	-262
重要	-263
共和国	-264
29	-265
主教	-266
为了	-267
。200	-268
完成	-269
ing	-270
故事	-271
保护	-272
000	-273
关系	-274
到了	-275
出生	-276
服务	-277
联盟	-278
▁生平	-279
有限	-280
of	-281
40	-282
十二	-283
目前	-284
成功	-285
前往	-286
de	-287
角色	-288
决定	-289
分布	-290
的人	-291
他在	-292
拥有	-293
组成	-294
os	-295
结构	-296
分别	-297
全国	-298
▁I	-299
举行	-300
交通	-301
联合	-302
市镇	-303
虽然	-304
通常	-305
号线	-306
的地	-307
and	-308
航空	-309
加入	-310
参与	-311
问题	-312
父亲	-313
60	-314
动物	-315
需要	-316
是在	-317
印度	-318
北部	-319
▁E	-320
俄罗斯	-321
建立	-322
存在	-323
宣布	-324
最高	-325
的大	-326
中华	-327
当地	-328
▁本	-329
将军	-330
时代	-331
并且	-332
来自	-333
▁W	-334
科学	-335
ra	-336
同年	-337
用于	-338
平方	-339
独立	-340
开发	-341
31	-342
▁N	-343
项目	-344
首次	-345
一般	-346
方面	-347
.5	-348
生产	-349
ri	-350
具有	-351
学生	-352
公园	-353
80	-354
格兰	-355
▁of	-356
形成	-357
负责	-358
罗马	-359
歌曲	-360
海军	-361
小说	-362
一些	-363
单位	-364
导致	-365
相关	-366
球员	-367
▁K	-368
决赛	-369
产生	-370
南部	-371
采用	-372
西亚	-373
职业	-374
专辑	-375
有限公司	-376
事件	-377
37	-378
特别	-379
方式	-380
合作	-381
年至	-382
ter	-383
情况	-384
ed	-385
然而	-386
生涯	-387
结束	-388
机车	-389
并在	-390
帝国	-391
设有	-392
公路	-393
100	-394
例如	-395
生物	-396
ad	-397
这种	-398
毕业	-399
大利	-400
所以	-401
》。	-402
的是	-403
ia	-404
个人	-405
取得	-406
ul	-407
机场	-408
饰演	-409
自己的	-410
35	-411
附近	-412
中学	-413
经过	-414
受到	-415
现在	-416
支持	-417
建设	-418
不过	-419
三年	-420
控制	-421
是一个	-422
:“	-423
th	-424
体育	-425
克斯	-426
导演	-427
2019	-428
会议	-429
2010	-430
机构	-431
赛季	-432
就是	-433
阿尔	-434
国王	-435
这一	-436
人员	-437
合并	-438
无法	-439
70	-440
著名	-441
大陆	-442
ay	-443
银行	-444
一直	-445
(15	-446
家族	-447
ent	-448
一起	-449
▁198	-450
只有	-451
」(	-452
植物	-453
st	-454
细胞	-455
非常	-456
工业	-457
位置	-458
赛事	-459
年度	-460
90	-461
得到	-462
造成	-463
区域	-464
继续	-465
环境	-466
过程	-467
来的	-468
传统	-469
um	-470
ir	-471
ation	-472
ig	-473
▁t	-474
苏联	-475
博物	-476
演出	-477
45	-478
女子	-479
结果	-480
增加	-481
十一	-482
另外	-483
是由	-484
自由	-485
之前	-486
。”	-487
主席	-488
年间	-489
家庭	-490
2020	-491
以下	-492
道路	-493
医院	-494
▁18	-495
于是	-496
新闻	-497
要求	-498
超过	-499
对于	-500
教授	-501
1,	-502
西班	-503
约翰	-504
另一	-505
id	-506
纪念	-507
▁J	-508
西班牙	-509
此外	-510
46	-511
如果	-512
48	-513
im	-514
2008	-515
47	-516
东京	-517
2012	-518
儿子	-519
2011	-520
出的	-521
ot	-522
名称	-523
1.	-524
部队	-525
2009	-526
高速	-527
重新	-528
分为	-529
四年	-530
指挥	-531
接受	-532
反应	-533
博物馆	-534
进士	-535
总统	-536
38	-537
去世	-538
范围	-539
乐部	-540
能力	-541
现代	-542
改为	-543
(18	-544
2013	-545
2016	-546
ag	-547
36	-548
东北	-549
地方	-550
任何	-551
俱乐部	-552
第四	-553
电视剧	-554
2015	-555
战斗	-556
创作	-557
纪录	-558
2006	-559
2014	-560
2007	-561
直到	-562
企业	-563
内的	-564
表现	-565
东南	-566
成绩	-567
除了	-568
军队	-569
内容	-570
协会	-571
后的	-572
选择	-573
军事	-574
电视台	-575
▁李	-576
击败	-577
小时	-578
利用	-579
它们	-580
:「	-581
2017	-582
自然	-583
39	-584
58	-585
主题	-586
人民共和国	-587
版本	-588
主持	-589
语言	-590
尔斯	-591
运动员	-592
性的	-593
亚洲	-594
选举	-595
拍摄	-596
▁O	-597
母亲	-598
作用	-599
文学	-600
再次	-601
制造	-602
她的	-603
线路	-604
iv	-605
2000	-606
人类	-607
2018	-608
电子	-609
都是	-610
日在	-611
意大利	-612
标准	-613
....	-614
:00	-615
三十	-616
有关	-617
33	-618
方法	-619
ut	-620
并不	-621
▁V	-622
也有	-623
▁:	-624
2021	-625
是一种	-626
联邦	-627
共同	-628
广东	-629
▁新	-630
随后	-631
op	-632
的时	-633
主角	-634
年在	-635
浙江	-636
物种	-637
配音	-638
西南	-639
完全	-640
里斯	-641
,《	-642
攻击	-643
动画	-644
太平	-645
设立	-646
新的	-647
▁阿	-648
em	-649
博士	-650
中华人民共和国	-651
拉斯	-652
元年	-653
ow	-654
下的	-655
类似	-656
市场	-657
特征	-658
34	-659
数量	-660
直接	-661
曾经	-662
最初	-663
山东	-664
加拿	-665
美元	-666
实验	-667
75	-668
提出	-669
还有	-670
任务	-671
离开	-672
安全	-673
广播	-674
32	-675
区的	-676
2005	-677
。199	-678
大量	-679
学习	-680
包含	-681
玩家	-682
ec	-683
一次	-684
死亡	-685
纽约	-686
▁d	-687
形式	-688
锦标	-689
早期	-690
河南	-691
三个	-692
领导	-693
的女	-694
命名	-695
这是	-696
(16	-697
举办	-698
韩国	-699
设置	-700
西北	-701
▁该	-702
甚至	-703
模式	-704
并于	-705
一种	-706
专业	-707
五年	-708
必须	-709
行动	-710
共有	-711
▁地	-712
调查	-713
不能	-714
希腊	-715
西部	-716
平均	-717
距离	-718
毫米	-719
78	-720
播出	-721
轨道	-722
斯坦	-723
分类	-724
od	-725
州市	-726
55	-727
记载	-728
二年	-729
ie	-730
化学	-731
教堂	-732
投资	-733
▁St	-734
oc	-735
青年	-736
▁天	-737
基础	-738
歌手	-739
商业	-740
相当	-741
唯一	-742
2.	-743
ill	-744
地下	-745
居民	-746
理论	-747
加拿大	-748
文物	-749
飞行	-750
四川	-751
2004	-752
广场	-753
被称为	-754
连续	-755
时的	-756
一样	-757
英格兰	-758
隶属于	-759
分钟	-760
帮助	-761
兄弟	-762
ou	-763
关于	-764
描述	-765
)(	-766
▁饰演	-767
ap	-768
其后	-769
▁中	-770
飞机	-771
多数	-772
第一次	-773
显示	-774
数据	-775
方向	-776
超级	-777
▁马	-778
名字	-779
▁王	-780
之间的	-781
南京	-782
,000	-783
两人	-784
部长	-785
能够	-786
ard	-787
建造	-788
49	-789
:《	-790
执行	-791
葡萄	-792
连接	-793
而且	-794
2022	-795
单曲	-796
行为	-797
190	-798
剧情	-799
风格	-800
战役	-801
av	-802
男子	-803
设施	-804
发布	-805
规划	-806
训练	-807
作曲	-808
漫画	-809
太阳	-810
主任	-811
实际	-812
我们	-813
▁高	-814
一世	-815
各种	-816
▁,	-817
产品	-818
65	-819
希望	-820
”(	-821
▁3	-822
基督	-823
全球	-824
▁中国	-825
二世	-826
事务	-827
ers	-828
公开	-829
皇帝	-830
功能	-831
大战	-832
不是	-833
原因	-834
主演	-835
议会	-836
空间	-837
发表	-838
选手	-839
东部	-840
六年	-841
明朝	-842
媒体	-843
不久	-844
ell	-845
地铁	-846
ak	-847
2003	-848
ov	-849
作家	-850
月台	-851
境内	-852
学名	-853
治疗	-854
全部	-855
排名	-856
自治	-857
相同	-858
蒙古	-859
他们的	-860
以来	-861
贝尔	-862
赢得	-863
▁小	-864
社区	-865
伦敦	-866
仍然	-867
基本	-868
很多	-869
定的	-870
II	-871
计算	-872
教练	-873
在此	-874
民族	-875
铁道	-876
斯科	-877
演唱	-878
又称	-879
一名	-880
球会	-881
▁s	-882
。18	-883
地球	-884
达到	-885
44	-886
不同的	-887
英语	-888
建于	-889
统治	-890
▁de	-891
The	-892
为主	-893
综合	-894
ab	-895
马来	-896
荣誉	-897
继承	-898
出生于	-899
。」	-900
ist	-901
克兰	-902
尽管	-903
▁m	-904
妻子	-905
处理	-906
的第	-907
76	-908
年后	-909
▁2	-910
▁张	-911
然后	-912
速度	-913
属的	-914
信息	-915
街道	-916
学位	-917
▁金	-918
但在	-919
改编	-920
开放	-921
ine	-922
等人	-923
少年	-924
评价	-925
变化	-926
最早	-927
使得	-928
业务	-929
公共	-930
上映	-931
简称	-932
物理	-933
▁与	-934
巴黎	-935
经营	-936
经常	-937
威廉	-938
。198	-939
回到	-940
背景	-941
0.	-942
阶段	-943
资料	-944
▁Ch	-945
68	-946
福建	-947
最大	-948
民主	-949
TC	-950
群岛	-951
▁4	-952
的小	-953
逝世	-954
办公	-955
▁2016	-956
ce	-957
严重	-958
恢复	-959
天津	-960
出了	-961
比亚	-962
公尺	-963
王国	-964
2002	-965
运营	-966
图书	-967
频道	-968
St	-969
部门	-970
表演	-971
广州	-972
的新	-973
美洲	-974
国民	-975
左右	-976
发动	-977
荷兰	-978
行政区	-979
56	-980
▁c	-981
尔德	-982
者的	-983
▁2018	-984
▁2010	-985
锦标赛	-986
基地	-987
▁2017	-988
整个	-989
▁p	-990
▁西	-991
规模	-992
▁1	-993
Ch	-994
官方	-995
目标	-996
色的	-997
流行	-998
议员	-999
将其	-1000
▁陈	-1001
▁「	-1002
这样	-1003
身份	-1004
皇家	-1005
);	-1006
等地	-1007
01	-1008
塞尔	-1009
▁U	-1010
中国大陆	-1011
▁三	-1012
长的	-1013
子的	-1014
年起	-1015
或者	-1016
科技	-1017
教区	-1018
▁2014	-1019
法律	-1020
逐渐	-1021
列表	-1022
最大的	-1023
土地	-1024
▁2013	-1025
公主	-1026
79	-1027
编码	-1028
朝鲜	-1029
学者	-1030
大部分	-1031
运行	-1032
澳门	-1033
▁2015	-1034
经历	-1035
阿拉	-1036
车辆	-1037
中文	-1038
政治人物	-1039
球场	-1040
居住	-1041
第二次	-1042
汽车	-1043
的高	-1044
分析	-1045
病毒	-1046
则是	-1047
的主要	-1048
杂志	-1049
过去	-1050
▁2019	-1051
」、	-1052
64	-1053
以上	-1054
比较	-1055
网络	-1056
部份	-1057
og	-1058
蛋白	-1059
效力	-1060
(17	-1061
任命	-1062
all	-1063
女性	-1064
生于	-1065
▁2012	-1066
被认为	-1067
持续	-1068
多的	-1069
记录	-1070
不会	-1071
▁the	-1072
斯的	-1073
体的	-1074
进攻	-1075
第五	-1076
2001	-1077
分布于	-1078
应用	-1079
奖项	-1080
先后	-1081
交易	-1082
改制	-1083
尚书	-1084
祖父	-1085
无线	-1086
协助	-1087
革命	-1088
获得了	-1089
大约	-1090
运输	-1091
型的	-1092
队的	-1093
江苏	-1094
反对	-1095
唱片	-1096
art	-1097
加坡	-1098
陆军	-1099
评论	-1100
武器	-1101
▁东	-1102
▁南	-1103
报告	-1104
ber	-1105
德里	-1106
法院	-1107
,“	-1108
ang	-1109
维尔	-1110
明治	-1111
儿童	-1112
建成	-1113
解放	-1114
奥运	-1115
ph	-1116
大道	-1117
ne	-1118
人们	-1119
42	-1120
研究所	-1121
▁2011	-1122
还是	-1123
机会	-1124
▁2020	-1125
年轻	-1126
作战	-1127
奥斯	-1128
设备	-1129
▁f	-1130
出任	-1131
82	-1132
台北	-1133
宗教	-1134
普通	-1135
3.	-1136
来源	-1137
66	-1138
同样	-1139
加盟	-1140
农业	-1141
的前	-1142
原本	-1143
材料	-1144
结婚	-1145
影片	-1146
▁车站	-1147
大臣	-1148
保持	-1149
初期	-1150
著作	-1151
ant	-1152
中部	-1153
77	-1154
路易	-1155
资格	-1156
牠们	-1157
司令	-1158
司马	-1159
团体	-1160
地区的	-1161
条件	-1162
▁9	-1163
est	-1164
公布	-1165
喜欢	-1166
。(	-1167
朋友	-1168
贸易	-1169
一位	-1170
教会	-1171
,199	-1172
发射	-1173
湖南	-1174
引起	-1175
王朝	-1176
59	-1177
状态	-1178
IN	-1179
城区	-1180
参赛	-1181
有的	-1182
身体	-1183
年被	-1184
▁安	-1185
七年	-1186
所在	-1187
小学	-1188
-1	-1189
卡尔	-1190
有时	-1191
推出	-1192
天主教	-1193
名单	-1194
UTC	-1195
高等	-1196
▁2009	-1197
旅游	-1198
交流	-1199
自动	-1200
的一种	-1201
ich	-1202
酒店	-1203
机械	-1204
几乎	-1205
收录	-1206
领域	-1207
比赛中	-1208
观众	-1209
▁其他	-1210
电力	-1211
遗址	-1212
改变	-1213
69	-1214
平方米	-1215
曾在	-1216
大会	-1217
▁5	-1218
澳大	-1219
一年	-1220
好的	-1221
森林	-1222
英雄	-1223
它的	-1224
取代	-1225
九年	-1226
组合	-1227
政策	-1228
云南	-1229
▁刘	-1230
此后	-1231
英文	-1232
41	-1233
热带	-1234
43	-1235
67	-1236
简介	-1237
资源	-1238
太平洋	-1239
ub	-1240
,19	-1241
御史	-1242
化石	-1243
建议	-1244
是中国	-1245
ip	-1246
乌克兰	-1247
平台	-1248
山西	-1249
八年	-1250
。《	-1251
面的	-1252
ian	-1253
夫人	-1254
省份	-1255
TV	-1256
维亚	-1257
多次	-1258
内部	-1259
都会	-1260
路线	-1261
陕西	-1262
威尔	-1263
法兰	-1264
快速	-1265
▁香港	-1266
至今	-1267
斯基	-1268
公元	-1269
▁2008	-1270
并入	-1271
62	-1272
越南	-1273
了一个	-1274
平方公里	-1275
十分	-1276
维奇	-1277
入口	-1278
」、「	-1279
重要的	-1280
国家队	-1281
的一部分	-1282
500	-1283
澳大利亚	-1284
减少	-1285
传说	-1286
准备	-1287
美术	-1288
▁2021	-1289
常见	-1290
医学	-1291
氧化	-1292
57	-1293
重点	-1294
娱乐	-1295
而在	-1296
乔治	-1297
编剧	-1298
ran	-1299
▁。	-1300
的主	-1301
特殊	-1302
更名为	-1303
爆发	-1304
为一	-1305
每年	-1306
99	-1307
区为	-1308
是指	-1309
54	-1310
刺史	-1311
大型	-1312
广泛	-1313
巴西	-1314
东西	-1315
登场	-1316
伯特	-1317
新加坡	-1318
书记	-1319
的时候	-1320
国的	-1321
乐团	-1322
88	-1323
精神	-1324
▁由于	-1325
名的	-1326
马来西亚	-1327
深圳	-1328
星期	-1329
州的	-1330
基金	-1331
%,	-1332
瓦尔	-1333
十三	-1334
波兰	-1335
透过	-1336
分子	-1337
定义	-1338
高速公路	-1339
多个	-1340
物质	-1341
年号	-1342
%。	-1343
知道	-1344
ess	-1345
情况下	-1346
股份	-1347
指出	-1348
尼斯	-1349
当中	-1350
个月	-1351
出战	-1352
彼得	-1353
亚历	-1354
图书馆	-1355
接壤	-1356
▁主要	-1357
江西	-1358
61	-1359
价值	-1360
-0	-1361
对手	-1362
au	-1363
ens	-1364
▁年	-1365
空军	-1366
相对	-1367
52	-1368
改制为	-1369
▁北	-1370
里的	-1371
出身	-1372
编码为	-1373
变成	-1374
会在	-1375
世界杯	-1376
实施	-1377
舰队	-1378
▁黄	-1379
移动	-1380
之外	-1381
未能	-1382
重建	-1383
伊斯	-1384
长期	-1385
72	-1386
及其	-1387
63	-1388
53	-1389
高级	-1390
ev	-1391
当选	-1392
▁的	-1393
之子	-1394
白色	-1395
遭到	-1396
力量	-1397
乾隆	-1398
到达	-1399
十年	-1400
红色	-1401
入选	-1402
▁曾	-1403
NA	-1404
▁圣	-1405
不可	-1406
制度	-1407
在这	-1408
ry	-1409
昭和	-1410
天文	-1411
太子	-1412
先生	-1413
(199	-1414
方的	-1415
球季	-1416
加上	-1417
姆斯	-1418
以后	-1419
规定	-1420
外交	-1421
的首	-1422
高中	-1423
出版社	-1424
▁参	-1425
接近	-1426
89	-1427
▁2007	-1428
线的	-1429
返回	-1430
确定	-1431
结合	-1432
▁10	-1433
▁b	-1434
▁2022	-1435
行星	-1436
明显	-1437
ge	-1438
批准	-1439
拒绝	-1440
一同	-1441
皇后	-1442
监督	-1443
胜利	-1444
瑞典	-1445
一步	-1446
改革	-1447
ue	-1448
非洲	-1449
进行了	-1450
51	-1451
每个	-1452
各地	-1453
日至	-1454
未来	-1455
董事	-1456
因而	-1457
夺得	-1458
io	-1459
可能是	-1460
起来	-1461
总部	-1462
孩子	-1463
用来	-1464
73	-1465
感染	-1466
河北	-1467
▁In	-1468
兴建	-1469
校长	-1470
概念	-1471
02	-1472
▁/	-1473
▁2006	-1474
▁地理	-1475
战后	-1476
展开	-1477
有些	-1478
日起	-1479
官员	-1480
An	-1481
统计	-1482
▁根据	-1483
ong	-1484
并没有	-1485
厘米	-1486
金属	-1487
实现	-1488
有效	-1489
边界	-1490
年开始	-1491
警察	-1492
世界大战	-1493
不少	-1494
产业	-1495
合物	-1496
出演	-1497
oh	-1498
第一个	-1499
的地方	-1500
占领	-1501
74	-1502
大楼	-1503
启用	-1504
ik	-1505
2,	-1506
学科	-1507
提名	-1508
尔的	-1509
站台	-1510
出口	-1511
布鲁	-1512
▁制作	-1513
州刺史	-1514
编号	-1515
表面	-1516
的影响	-1517
基因	-1518
都有	-1519
71	-1520
大致	-1521
)-	-1522
▁l	-1523
他是	-1524
玛丽	-1525
清朝	-1526
克拉	-1527
▁于	-1528
不断	-1529
执导	-1530
课程	-1531
从事	-1532
if	-1533
出场	-1534
广告	-1535
▁此	-1536
失去	-1537
只是	-1538
优秀	-1539
是一名	-1540
生命	-1541
up	-1542
运动会	-1543
尔兰	-1544
食物	-1545
收入	-1546
年前	-1547
南北	-1548
药物	-1549
、“	-1550
十六	-1551
市的	-1552
女儿	-1553
视为	-1554
第六	-1555
破坏	-1556
统一	-1557
在美国	-1558
▁原	-1559
98	-1560
相似	-1561
墨西	-1562
颁奖	-1563
ob	-1564
国内	-1565
亨利	-1566
旅客	-1567
ok	-1568
万历	-1569
正在	-1570
海岸	-1571
创立	-1572
质量	-1573
▁Y	-1574
ah	-1575
重庆	-1576
少女	-1577
随着	-1578
ain	-1579
隧道	-1580
保留	-1581
构成	-1582
直至	-1583
周边	-1584
成为了	-1585
开通	-1586
曾任	-1587
半岛	-1588
委会	-1589
动力	-1590
的研究	-1591
事业	-1592
▁日本	-1593
神经	-1594
亚历山	-1595
▁6	-1596
文物保护	-1597
基于	-1598
骑士	-1599
▁长	-1600
或是	-1601
羽毛	-1602
卫生	-1603
著名的	-1604
特的	-1605
医生	-1606
看到	-1607
之战	-1608
可前往	-1609
苏格兰	-1610
疾病	-1611
化的	-1612
BA	-1613
高的	-1614
......	-1615
夏季	-1616
投票	-1617
地震	-1618
都市	-1619
欢迎	-1620
走向	-1621
▁伊	-1622
,18	-1623
澳洲	-1624
而成	-1625
用的	-1626
犹太	-1627
墨西哥	-1628
▁最佳	-1629
和平	-1630
邀请	-1631
殖民	-1632
亲王	-1633
电台	-1634
过程中	-1635
嘉靖	-1636
▁and	-1637
士兵	-1638
工厂	-1639
人在	-1640
长约	-1641
解释	-1642
大赛	-1643
职棒	-1644
观察	-1645
▁v	-1646
公爵	-1647
投入	-1648
爱尔兰	-1649
摄影	-1650
销售	-1651
集中	-1652
挑战	-1653
记者	-1654
尔特	-1655
大区	-1656
客运	-1657
学会	-1658
uc	-1659
争议	-1660
葡萄牙	-1661
杀死	-1662
作者	-1663
埃及	-1664
生长	-1665
SE	-1666
解决	-1667
宇宙	-1668
卫星	-1669
亚军	-1670
人士	-1671
气候	-1672
300	-1673
大桥	-1674
随著	-1675
▁2005	-1676
只能	-1677
协议	-1678
古代	-1679
不再	-1680
此时	-1681
万人	-1682
议院	-1683
天皇	-1684
使用的	-1685
证明	-1686
水平	-1687
试图	-1688
度的	-1689
总督	-1690
规则	-1691
ity	-1692
文物保护单位	-1693
双方	-1694
再度	-1695
目的	-1696
合并为	-1697
介绍	-1698
最后一	-1699
十字	-1700
东方	-1701
1990	-1702
的第一	-1703
团队	-1704
来到	-1705
十五	-1706
.8	-1707
步兵	-1708
知县	-1709
健康	-1710
举人	-1711
列为	-1712
▁一	-1713
地利	-1714
▁这	-1715
退役	-1716
佛教	-1717
▁8	-1718
管辖	-1719
力的	-1720
元素	-1721
马克	-1722
95	-1723
保罗	-1724
网站	-1725
Al	-1726
ud	-1727
下辖	-1728
四个	-1729
创办	-1730
动作	-1731
停止	-1732
限制	-1733
秘书	-1734
ort	-1735
是美国	-1736
两种	-1737
聚落	-1738
就读	-1739
收购	-1740
失败	-1741
品牌	-1742
,198	-1743
毕业于	-1744
上阵	-1745
收视	-1746
从而	-1747
首都	-1748
勋章	-1749
调整	-1750
eg	-1751
方案	-1752
ey	-1753
测试	-1754
里亚	-1755
总理	-1756
小组	-1757
1999	-1758
金融	-1759
以前	-1760
心理	-1761
安徽	-1762
翻译	-1763
(14	-1764
是日本	-1765
台中	-1766
▁罗	-1767
有一个	-1768
进一步	-1769
父母	-1770
入侵	-1771
拉丁	-1772
同一	-1773
尤其	-1774
海拔	-1775
的故事	-1776
man	-1777
大多数	-1778
本站	-1779
事故	-1780
广西	-1781
共产	-1782
现象	-1783
作词	-1784
十四	-1785
▁美国	-1786
成立于	-1787
是法国	-1788
率领	-1789
其它	-1790
栖息	-1791
”、“	-1792
奥林	-1793
邮政	-1794
▁前	-1795
而被	-1796
黑色	-1797
太空	-1798
如此	-1799
▁7	-1800
装置	-1801
市区	-1802
出现在	-1803
不得	-1804
阿拉伯	-1805
湖北	-1806
-2	-1807
是位于	-1808
比利	-1809
▁“	-1810
布拉	-1811
戏剧	-1812
教学	-1813
创造	-1814
截至	-1815
学术	-1816
医疗	-1817
大奖	-1818
水库	-1819
是否	-1820
奥地利	-1821
是一位	-1822
延伸	-1823
三世	-1824
家的	-1825
▁第一	-1826
瑞士	-1827
日的	-1828
河流	-1829
改造	-1830
宣传	-1831
▁演员	-1832
历任	-1833
▁剧情	-1834
办公室	-1835
剧本	-1836
中间	-1837
教师	-1838
的原	-1839
十八	-1840
历史上	-1841
指导	-1842
提高	-1843
斯克	-1844
▁第二	-1845
来说	-1846
BS	-1847
米尔	-1848
路口	-1849
1998	-1850
说法	-1851
省级	-1852
地位	-1853
安德	-1854
通车	-1855
以外	-1856
应该	-1857
大使	-1858
信号	-1859
斯塔	-1860
政权	-1861
仪式	-1862
命名为	-1863
高度	-1864
播放	-1865
当时的	-1866
▁海	-1867
取消	-1868
一带	-1869
▁概	-1870
同意	-1871
ast	-1872
小的	-1873
也会	-1874
处于	-1875
被认为是	-1876
又名	-1877
其余	-1878
▁人口	-1879
的外	-1880
至少	-1881
山脉	-1882
容易	-1883
稳定	-1884
丹麦	-1885
那里	-1886
的特	-1887
现时	-1888
县人	-1889
批评	-1890
柴油	-1891
奥林匹	-1892
武汉	-1893
授予	-1894
,8	-1895
96	-1896
一家	-1897
亿元	-1898
注意	-1899
是以	-1900
数学	-1901
维持	-1902
三角	-1903
▁电影	-1904
死后	-1905
后期	-1906
火箭	-1907
发售	-1908
IS	-1909
月升	-1910
大厦	-1911
▁12	-1912
票房	-1913
知名	-1914
出来	-1915
也被	-1916
的一座	-1917
BC	-1918
有人	-1919
龙的	-1920
岁的	-1921
安排	-1922
侍郎	-1923
本地区	-1924
▁和	-1925
接触	-1926
ep	-1927
年由	-1928
our	-1929
火山	-1930
装甲	-1931
09	-1932
的意	-1933
莫斯科	-1934
海道	-1935
自行	-1936
讲述	-1937
花园	-1938
解放军	-1939
▁『	-1940
第七	-1941
金曲	-1942
命令	-1943
(1	-1944
科学院	-1945
▁2004	-1946
土耳	-1947
效果	-1948
完整	-1949
岁时	-1950
数字	-1951
早年	-1952
人和	-1953
编曲	-1954
克里斯	-1955
土耳其	-1956
人数	-1957
得以	-1958
ew	-1959
▁–	-1960
种子	-1961
1997	-1962
如下	-1963
某些	-1964
王子	-1965
舞台	-1966
袭击	-1967
ark	-1968
放弃	-1969
国会	-1970
模型	-1971
igh	-1972
-3	-1973
地的	-1974
临时	-1975
什么	-1976
城堡	-1977
柏林	-1978
贡献	-1979
十二年	-1980
公司的	-1981
类型	-1982
标志	-1983
月至	-1984
省道	-1985
(9	-1986
面对	-1987
国防	-1988
受伤	-1989
男性	-1990
允许	-1991
感到	-1992
次年	-1993
剧场	-1994
现场	-1995
遗产	-1996
▁家族	-1997
混合	-1998
四十	-1999
拉夫	-2000
后者	-2001
考虑	-2002
北京市	-2003
人民政府	-2004
▁白	-2005
,「	-2006
恒星	-2007
son	-2008
军的	-2009
驱逐	-2010
-19	-2011
症状	-2012
保存	-2013
该庄	-2014
一度	-2015
队伍	-2016
国务	-2017
少数	-2018
形态	-2019
状况	-2020
合成	-2021
源于	-2022
乡试	-2023
经典	-2024
▁林	-2025
短期	-2026
试验	-2027
节度	-2028
食品	-2029
泰国	-2030
之中	-2031
(19	-2032
1980	-2033
避免	-2034
-4	-2035
颜色	-2036
意为	-2037
的海	-2038
打击	-2039
康熙	-2040
ric	-2041
报道	-2042
财政	-2043
85	-2044
而是	-2045
oun	-2046
大夫	-2047
思想	-2048
▁卡	-2049
结束后	-2050
骑兵	-2051
国立	-2052
萨克	-2053
▁从	-2054
标本	-2055
之下	-2056
竞争	-2057
现任	-2058
坦克	-2059
基督教	-2060
公分	-2061
ai	-2062
.2	-2063
剧院	-2064
周围	-2065
装备	-2066
长度	-2067
日治	-2068
西洋	-2069
典礼	-2070
多种	-2071
明星	-2072
哈尔	-2073
地点	-2074
不足	-2075
色列	-2076
一条	-2077
埃尔	-2078
丈夫	-2079
程度	-2080
武帝	-2081
吸引	-2082
原名	-2083
▁他	-2084
抵达	-2085
牵引	-2086
▁自	-2087
普遍	-2088
和其他	-2089
亚历山大	-2090
.6	-2091
ack	-2092
也可以	-2093
寻找	-2094
新增	-2095
亦有	-2096
弟弟	-2097
由此	-2098
ont	-2099
才能	-2100
AT	-2101
▁巴	-2102
▁政治	-2103
换乘	-2104
条约	-2105
▁in	-2106
全长	-2107
芬兰	-2108
本身	-2109
2023	-2110
奥林匹克	-2111
哲学	-2112
150	-2113
并非	-2114
太郎	-2115
的三	-2116
In	-2117
二人	-2118
温度	-2119
ord	-2120
级联赛	-2121
ass	-2122
展示	-2123
专家	-2124
形象	-2125
万元	-2126
杰克	-2127
校区	-2128
知识	-2129
硕士	-2130
申请	-2131
察院	-2132
十月	-2133
带领	-2134
专门	-2135
核心	-2136
中山	-2137
得知	-2138
通道	-2139
一座	-2140
武装	-2141
的方式	-2142
拉克	-2143
菲律	-2144
表明	-2145
华盛	-2146
朝廷	-2147
也在	-2148
菲律宾	-2149
另一个	-2150
提升	-2151
学士	-2152
电气	-2153
防御	-2154
青岛	-2155
1996	-2156
▁水	-2157
经理	-2158
止于	-2159
▁山	-2160
.3	-2161
德华	-2162
找到	-2163
的作品	-2164
覆盖	-2165
转会	-2166
.9	-2167
乐队	-2168
爱情	-2169
很快	-2170
机关	-2171
编辑	-2172
出入口	-2173
▁简介	-2174
华盛顿	-2175
他被	-2176
缺乏	-2177
AR	-2178
》:	-2179
理事	-2180
qu	-2181
是一部	-2182
患者	-2183
按照	-2184
实验室	-2185
.7	-2186
住宅	-2187
地面	-2188
定为	-2189
注册	-2190
上海市	-2191
篮球	-2192
旗下	-2193
剧集	-2194
万美元	-2195
以色列	-2196
▁上	-2197
她在	-2198
主题曲	-2199
扮演	-2200
哥伦	-2201
马尔	-2202
估计	-2203
唐朝	-2204
性质	-2205
机器	-2206
克里	-2207
1970	-2208
黄色	-2209
中有	-2210
改名为	-2211
将会	-2212
助理	-2213
所属的	-2214
1994	-2215
km	-2216
贵族	-2217
▁交通	-2218
承认	-2219
发电	-2220
实际上	-2221
年龄	-2222
并未	-2223
伊斯兰	-2224
ER	-2225
克莱	-2226
主场	-2227
突然	-2228
台南	-2229
的事	-2230
内阁	-2231
地带	-2232
海洋	-2233
绿色	-2234
奥尔	-2235
黄金	-2236
az	-2237
院长	-2238
信仰	-2239
队长	-2240
千米	-2241
部的	-2242
师范	-2243
用作	-2244
日军	-2245
附近的	-2246
下来	-2247
晋级	-2248
行政区划	-2249
用途	-2250
会的	-2251
▁有	-2252
合约	-2253
演奏	-2254
生的	-2255
证券	-2256
当年	-2257
开设	-2258
州府	-2259
arl	-2260
.4	-2261
1995	-2262
97	-2263
降低	-2264
▁台湾	-2265
aw	-2266
给予	-2267
如何	-2268
移民	-2269
达成	-2270
冲突	-2271
1000	-2272
▁2003	-2273
▁音乐	-2274
艺人	-2275
会长	-2276
.1	-2277
公交	-2278
秘密	-2279
光绪	-2280
最近	-2281
加利	-2282
(8	-2283
的重要	-2284
在其	-2285
终于	-2286
购买	-2287
访问	-2288
足球运动员	-2289
▁杨	-2290
威胁	-2291
部尚书	-2292
中国人民	-2293
驾驶	-2294
淘汰	-2295
oy	-2296
人口数量	-2297
举行的	-2298
安装	-2299
▁周	-2300
两次	-2301
请求	-2302
象征	-2303
布莱	-2304
成都	-2305
正月	-2306
并将	-2307
上有	-2308
联系	-2309
ate	-2310
观测	-2311
ton	-2312
表达	-2313
迅速	-2314
的同	-2315
影视	-2316
传播	-2317
地理	-2318
压力	-2319
社会主义	-2320
86	-2321
sh	-2322
复杂	-2323
全线	-2324
羽毛球	-2325
声音	-2326
大师	-2327
地质	-2328
大字	-2329
▁二	-2330
圆形	-2331
马拉	-2332
伯爵	-2333
文字	-2334
▁当	-2335
节度使	-2336
展览	-2337
萨斯	-2338
广东省	-2339
在中国	-2340
生态	-2341
能量	-2342
场比赛	-2343
南方	-2344
山区	-2345
ina	-2346
装饰	-2347
几个	-2348
意义	-2349
我的	-2350
较为	-2351
就会	-2352
的水	-2353
讨论	-2354
时任	-2355
1960	-2356
旅行	-2357
退休	-2358
他与	-2359
在该	-2360
职业生涯	-2361
在一	-2362
上市	-2363
联合国	-2364
简单	-2365
te	-2366
程序	-2367
城镇	-2368
空气	-2369
经验	-2370
引擎	-2371
卡拉	-2372
十大	-2373
十一年	-2374
营运	-2375
变得	-2376
ib	-2377
鸟类	-2378
(10	-2379
(198	-2380
洛克	-2381
1992	-2382
棒球	-2383
附属	-2384
针对	-2385
加州	-2386
五月	-2387
考古	-2388
占地	-2389
无线电视	-2390
,9	-2391
(6	-2392
国道	-2393
一级	-2394
因素	-2395
第八	-2396
喜剧	-2397
正常	-2398
的儿子	-2399
在大	-2400
发现了	-2401
关注	-2402
日期	-2403
400	-2404
下午	-2405
操作	-2406
文献	-2407
间的	-2408
ug	-2409
消息	-2410
▁An	-2411
真正	-2412
列入	-2413
特色	-2414
▁行政	-2415
律师	-2416
给了	-2417
▁亚	-2418
多年	-2419
洛杉	-2420
参加了	-2421
(12	-2422
部落	-2423
为止	-2424
-21	-2425
发动机	-2426
对抗	-2427
其实	-2428
制的	-2429
小型	-2430
挪威	-2431
前的	-2432
顾问	-2433
候选	-2434
1993	-2435
可能会	-2436
麦克	-2437
价格	-2438
领袖	-2439
▁2000	-2440
恐龙	-2441
波斯	-2442
神话	-2443
明朝政治人物	-2444
洛杉矶	-2445
▁古	-2446
引发	-2447
辽宁	-2448
史上	-2449
转移	-2450
关闭	-2451
特里	-2452
4。	-2453
end	-2454
意识	-2455
组建	-2456
西方	-2457
欧元	-2458
固定	-2459
贵州	-2460
组成的	-2461
加拉	-2462
ind	-2463
▁17	-2464
省道台	-2465
责任	-2466
▁是	-2467
与其他	-2468
乘客	-2469
地图	-2470
战士	-2471
年底	-2472
延长	-2473
最多	-2474
四月	-2475
转向	-2476
对方	-2477
这次	-2478
政党	-2479
(5	-2480
外国	-2481
ary	-2482
05	-2483
...	-2484
沿革	-2485
两侧	-2486
相比	-2487
IC	-2488
分离	-2489
人口数量为	-2490
ohn	-2491
义大利	-2492
资产	-2493
身为	-2494
修建	-2495
牙利	-2496
省的一个	-2497
ust	-2498
匈牙利	-2499
1991	-2500
eb	-2501
可达	-2502
的中	-2503
确认	-2504
丰富	-2505
08	-2506
爵士	-2507
终点	-2508
演唱会	-2509
冬季	-2510
生存	-2511
的女儿	-2512
等等	-2513
战队	-2514
投降	-2515
兴趣	-2516
年时	-2517
隶属	-2518
真实	-2519
受欢迎	-2520
ff	-2521
平原	-2522
职务	-2523
的后	-2524
魔法	-2525
位于法国	-2526
支援	-2527
▁吴	-2528
意外	-2529
任命为	-2530
布尔	-2531
-18	-2532
更加	-2533
▁为	-2534
国务院	-2535
更多	-2536
文章	-2537
尼亚州	-2538
民间	-2539
收藏	-2540
构造	-2541
公民	-2542
长子	-2543
火星	-2544
ath	-2545
战略	-2546
并以	-2547
弗朗	-2548
有所	-2549
自杀	-2550
十九	-2551
蓝色	-2552
首先	-2553
私人	-2554
詹姆斯	-2555
尼尔	-2556
证据	-2557
大阪	-2558
曲目	-2559
发明	-2560
▁Al	-2561
▁2002	-2562
与其	-2563
领土	-2564
告诉	-2565
下降	-2566
录音	-2567
以为	-2568
亦是	-2569
测量	-2570
▁11	-2571
官至	-2572
签约	-2573
科学家	-2574
普查	-2575
金牌	-2576
一段	-2577
对象	-2578
制片	-2579
即使	-2580
八月	-2581
年到	-2582
四川省	-2583
相互	-2584
斯顿	-2585
相信	-2586
主持人	-2587
周年	-2588
耶稣	-2589
二月	-2590
卫视	-2591
克罗	-2592
君主	-2593
军团	-2594
比例	-2595
第二次世界大战	-2596
87	-2597
AC	-2598
▁个人	-2599
94	-2600
短期大学	-2601
北方	-2602
03	-2603
禁止	-2604
(13	-2605
省和	-2606
创建	-2607
哥伦比亚	-2608
利斯	-2609
老师	-2610
▁荣誉	-2611
需求	-2612
开工	-2613
字母	-2614
约为	-2615
ect	-2616
现在的	-2617
今日	-2618
ach	-2619
教宗	-2620
玻璃	-2621
签署	-2622
六月	-2623
体育场	-2624
乡道	-2625
七月	-2626
认识	-2627
了解	-2628
留下	-2629
三月	-2630
,6	-2631
92	-2632
天的	-2633
十二月	-2634
差异	-2635
整体	-2636
公斤	-2637
工人	-2638
07	-2639
HK	-2640
得名	-2641
促进	-2642
发出	-2643
▁后	-2644
83	-2645
它是	-2646
强烈	-2647
之女	-2648
书籍	-2649
的道路	-2650
资金	-2651
阳市	-2652
首播	-2653
04	-2654
公众	-2655
ann	-2656
升为	-2657
撤销	-2658
▁日	-2659
中被	-2660
任职	-2661
自治区	-2662
的两	-2663
不敌	-2664
查理	-2665
,3	-2666
工具	-2667
投手	-2668
国际机场	-2669
他于	-2670
▁石	-2671
旧市镇	-2672
辖区	-2673
-10	-2674
方言	-2675
道光	-2676
画家	-2677
苏丹	-2678
93	-2679
电脑	-2680
的关系	-2681
晚上	-2682
一定	-2683
但由于	-2684
退出	-2685
▁故事	-2686
计算机	-2687
路段	-2688
优势	-2689
ier	-2690
名义	-2691
甘肃	-2692
运用	-2693
世界上	-2694
电力机车	-2695
ct	-2696
。2010	-2697
服役	-2698
06	-2699
▁Sh	-2700
84	-2701
▁相关	-2702
的工作	-2703
▁吉	-2704
ond	-2705
天下	-2706
障碍	-2707
公元前	-2708
事实	-2709
对外	-2710
的市镇	-2711
亿美元	-2712
粤语	-2713
带有	-2714
奥运会	-2715
毕业后	-2716
施工	-2717
并止于	-2718
爆炸	-2719
民主党	-2720
餐厅	-2721
天然	-2722
家人	-2723
(7	-2724
风险	-2725
▁以下	-2726
河南省	-2727
以北	-2728
1945	-2729
达尔	-2730
为人	-2731
称号	-2732
导弹	-2733
参谋	-2734
离子	-2735
文件	-2736
西安	-2737
化合物	-2738
浙江省	-2739
▁2001	-2740
维埃	-2741
▁g	-2742
配合	-2743
势力	-2744
年初	-2745
的历史	-2746
演化	-2747
软件	-2748
根廷	-2749
波罗	-2750
夏令	-2751
郎中	-2752
,5	-2753
尼克	-2754
SEE	-2755
为法国	-2756
AM	-2757
单元	-2758
涉及	-2759
三国	-2760
ational	-2761
即位	-2762
▁爱	-2763
Ar	-2764
十七	-2765
▁全	-2766
ive	-2767
印尼	-2768
▁Ar	-2769
网球	-2770
巡回	-2771
安东	-2772
观点	-2773
585	-2774
宪法	-2775
杭州	-2776
部电影	-2777
JR	-2778
北魏	-2779
引入	-2780
劳动	-2781
九月	-2782
首个	-2783
形状	-2784
iz	-2785
山县	-2786
大多	-2787
推进	-2788
危机	-2789
派遣	-2790
立法	-2791
名人	-2792
检查	-2793
大联盟	-2794
用户	-2795
的情况下	-2796
边缘	-2797
长江	-2798
提到	-2799
AS	-2800
现今	-2801
这里	-2802
共产党	-2803
消失	-2804
龙科	-2805
▁分类	-2806
的时间	-2807
江苏省	-2808
跟随	-2809
(4	-2810
25)	-2811
西兰	-2812
论文	-2813
▁奥	-2814
打算	-2815
累计	-2816
的成员	-2817
适合	-2818
▁艾	-2819
原子	-2820
分配	-2821
▁德	-2822
不仅	-2823
INSEE	-2824
会员	-2825
马斯	-2826
天堂	-2827
手术	-2828
蒙特	-2829
食用	-2830
萨尔	-2831
线路口	-2832
CD	-2833
▁"	-2834
艺术家	-2835
石油	-2836
主事	-2837
德的	-2838
尚未	-2839
改善	-2840
权力	-2841
那些	-2842
▁n	-2843
释放	-2844
▁家庭	-2845
区间	-2846
确诊	-2847
游泳	-2848
钢琴	-2849
增长	-2850
不明	-2851
京都	-2852
维斯	-2853
的电影	-2854
▁郑	-2855
大卫	-2856
留在	-2857
主要是	-2858
股份有限公司	-2859
古典	-2860
均为	-2861
91	-2862
佛罗	-2863
被迫	-2864
阵容	-2865
大学的	-2866
体系	-2867
将领	-2868
时期的	-2869
,4	-2870
北海道	-2871
带来	-2872
九龙	-2873
积极	-2874
案件	-2875
(11	-2876
升级	-2877
直径	-2878
首席	-2879
士顿	-2880
年和	-2881
比利时	-2882
海外	-2883
咖啡	-2884
而言	-2885
1989	-2886
:00、	-2887
西斯	-2888
市长	-2889
成就	-2890
对应	-2891
员工	-2892
重量	-2893
▁Sch	-2894
的发展	-2895
慕容	-2896
▁16	-2897
实行	-2898
废除	-2899
等级	-2900
胜出	-2901
领地	-2902
损失	-2903
杀害	-2904
科夫	-2905
▁The	-2906
不到	-2907
满足	-2908
1988	-2909
入球	-2910
分别为	-2911
代理	-2912
更为	-2913
德尔	-2914
特拉	-2915
犯罪	-2916
选为	-2917
书院	-2918
复兴	-2919
原始	-2920
邻近	-2921
1082	-2922
是香港	-2923
ish	-2924
太守	-2925
称作	-2926
的设计	-2927
婚姻	-2928
:00(	-2929
ore	-2930
定居	-2931
无人	-2932
弗里	-2933
设定	-2934
局长	-2935
建筑物	-2936
中共	-2937
签订	-2938
扩大	-2939
出售	-2940
46,	-2941
尝试	-2942
缅甸	-2943
邮政编码为	-2944
岛屿	-2945
类的	-2946
已被	-2947
120	-2948
上下	-2949
海峡	-2950
预计	-2951
食性	-2952
,7	-2953
足协	-2954
▁神	-2955
卡斯	-2956
47。	-2957
山东省	-2958
▁元	-2959
公开赛	-2960
卢瓦尔	-2961
已有	-2962
雷斯	-2963
布政	-2964
特兰	-2965
克尔	-2966
少将	-2967
对阵	-2968
Mar	-2969
办事	-2970
含有	-2971
是个	-2972
克的	-2973
敌人	-2974
背鳍	-2975
依然	-2976
西侧	-2977
在日本	-2978
分支	-2979
女王	-2980
恐怖	-2981
函数	-2982
德拉	-2983
BN	-2984
发起	-2985
▁Com	-2986
81	-2987
AN	-2988
令人	-2989
情报	-2990
季后	-2991
解散	-2992
意志	-2993
女主角	-2994
源自	-2995
Sh	-2996
房屋	-2997
文艺	-2998
mer	-2999
周期	-3000
则为	-3001
ies	-3002
ith	-3003
兼任	-3004
监制	-3005
妹妹	-3006
▁本鱼	-3007
采取	-3008
轰炸	-3009
▁游戏	-3010
尔夫	-3011
相邻	-3012
所有的	-3013
危险	-3014
也不	-3015
接壤的市镇	-3016
排行	-3017
VD	-3018
阻止	-3019
(3	-3020
符合	-3021
传媒	-3022
繁殖	-3023
褐色	-3024
循环	-3025
工程师	-3026
的父亲	-3027
位于中国	-3028
▁拉	-3029
大街	-3030
风暴	-3031
夏令时	-3032
北美	-3033
舞蹈	-3034
东侧	-3035
说明	-3036
宁波	-3037
中期	-3038
能源	-3039
ee	-3040
ON	-3041
bert	-3042
-6	-3043
-5	-3044
平面	-3045
登陆	-3046
种植	-3047
ly	-3048
时段	-3049
进球	-3050
▁Un	-3051
成本	-3052
可以在	-3053
▁永	-3054
并与	-3055
西北部	-3056
家中	-3057
比如	-3058
都督	-3059
▁第三	-3060
培养	-3061
成的	-3062
ox	-3063
上了	-3064
按察	-3065
密度	-3066
困难	-3067
大小	-3068
▁下	-3069
控股	-3070
享年	-3071
常见的	-3072
文明	-3073
美军	-3074
随即	-3075
停靠	-3076
港口	-3077
巡抚	-3078
成了	-3079
▁国际	-3080
的位置	-3081
▁黑	-3082
在于	-3083
塞纳	-3084
全面	-3085
选区	-3086
阿根廷	-3087
成年	-3088
马里	-3089
在一起	-3090
281,	-3091
的时区为	-3092
约瑟	-3093
625)	-3094
伊朗	-3095
在他	-3096
出道	-3097
市镇编码为	-3098
诺夫	-3099
ial	-3100
374。	-3101
报导	-3102
ung	-3103
时的人口数量为	-3104
电车	-3105
主要的	-3106
货物	-3107
格拉	-3108
而不	-3109
▁主	-3110
布朗	-3111
停车	-3112
县的	-3113
1986	-3114
▁h	-3115
获奖	-3116
冒险	-3117
:30	-3118
交换	-3119
县道	-3120
皮肤	-3121
通信	-3122
-17	-3123
▁Z	-3124
海域	-3125
芝加	-3126
回归	-3127
天使	-3128
富士	-3129
量的	-3130
他还	-3131
完工	-3132
芝加哥	-3133
▁由	-3134
主教练	-3135
》)	-3136
难以	-3137
照片	-3138
one	-3139
保险	-3140
动车	-3141
时候	-3142
2046,	-3143
本地	-3144
现实	-3145
拆除	-3146
+02	-3147
管理局	-3148
+01	-3149
颁发	-3150
米兰	-3151
人民币	-3152
+01:00、	-3153
+02:00(	-3154
创始	-3155
吉尔	-3156
持有	-3157
不满	-3158
往往	-3159
在香港	-3160
拿下	-3161
副使	-3162
岩石	-3163
per	-3164
院士	-3165
的第二	-3166
或旧市镇	-3167
巴尔	-3168
1987	-3169
1979	-3170
潜艇	-3171
修复	-3172
足球联赛	-3173
有著	-3174
足球队	-3175
大将军	-3176
收集	-3177
但他	-3178
重大	-3179
诗人	-3180
产生的	-3181
可见	-3182
直隶	-3183
ick	-3184
场景	-3185
加强	-3186
▁子	-3187
众多	-3188
途中	-3189
▁正	-3190
ae	-3191
努力	-3192
获胜	-3193
普鲁	-3194
司职	-3195
理工	-3196
商品	-3197
市民	-3198
选区为	-3199
太后	-3200
妇女	-3201
▁参考	-3202
成立的	-3203
ix	-3204
种族	-3205
建筑师	-3206
一切	-3207
米的	-3208
培训	-3209
所属的省级	-3210
分别是	-3211
所属的省级选区为	-3212
1978	-3213
机制	-3214
该省份	-3215
检测	-3216
land	-3217
,2	-3218
有机	-3219
ern	-3220
▁对	-3221
年美国	-3222
哥哥	-3223
滨海	-3224
ES	-3225
这座	-3226
。2012	-3227
ace	-3228
▁15	-3229
是一座	-3230
省的一个市镇	-3231
编入	-3232
华人	-3233
iss	-3234
博士学位	-3235
合同	-3236
配置	-3237
庄为	-3238
后被	-3239
山市	-3240
洛夫	-3241
知府	-3242
竞赛	-3243
末期	-3244
的神	-3245
AP	-3246
传教	-3247
本作	-3248
斯拉夫	-3249
古老	-3250
吸收	-3251
交界	-3252
河畔	-3253
▁曾祖	-3254
大西洋	-3255
rit	-3256
东北部	-3257
产地	-3258
作出	-3259
电话	-3260
中最	-3261
人工	-3262
1985	-3263
▁苏	-3264
und	-3265
足球俱乐部	-3266
ock	-3267
▁1999	-3268
检察院	-3269
att	-3270
气象	-3271
裁判	-3272
城的	-3273
成长	-3274
轨道交通	-3275
销量	-3276
▁四	-3277
自身	-3278
修道	-3279
▁学校	-3280
攻打	-3281
ss	-3282
五十	-3283
死于	-3284
职位	-3285
的国家	-3286
供应	-3287
日于	-3288
所属	-3289
的话	-3290
车道	-3291
mm	-3292
多尔	-3293
合唱	-3294
向南	-3295
颁奖典礼	-3296
▁月	-3297
爱德华	-3298
立即	-3299
建立了	-3300
维多	-3301
本土	-3302
安打	-3303
,195	-3304
同盟	-3305
运作	-3306
ood	-3307
的名字	-3308
北侧	-3309
性格	-3310
的情	-3311
空中	-3312
航天	-3313
现存	-3314
军官	-3315
aur	-3316
例子	-3317
特别是	-3318
遇到	-3319
分裂	-3320
四世	-3321
资讯	-3322
CO	-3323
呈现	-3324
十一月	-3325
牙齿	-3326
亲自	-3327
ure	-3328
春秋	-3329
圣经	-3330
弗雷	-3331
疫情	-3332
考试	-3333
长达	-3334
-12	-3335
江户	-3336
亚种	-3337
并由	-3338
该省份为法国	-3339
参考	-3340
校园	-3341
▁虽然	-3342
成熟	-3343
各自	-3344
辐射	-3345
,1	-3346
▁明	-3347
为其	-3348
的角色	-3349
两年	-3350
Cl	-3351
一场	-3352
码头	-3353
▁评价	-3354
ex	-3355
第九	-3356
以南	-3357
似乎	-3358
主力	-3359
站厅	-3360
从此	-3361
沿海	-3362
得到了	-3363
每天	-3364
已知	-3365
关键	-3366
杯冠军	-3367
安娜	-3368
加利福	-3369
射击	-3370
那么	-3371
总裁	-3372
▁经济	-3373
互相	-3374
修改	-3375
启动	-3376
下令	-3377
推荐	-3378
顺利	-3379
军区	-3380
人口普查	-3381
。2013	-3382
机的	-3383
▁最	-3384
双打	-3385
性能	-3386
活跃	-3387
开业	-3388
里克	-3389
▁以	-3390
总监	-3391
穆斯	-3392
尼西亚	-3393
城县	-3394
(2	-3395
制作人	-3396
也就是	-3397
副主席	-3398
新人	-3399
立方	-3400
old	-3401
发生在	-3402
意思	-3403
货运	-3404
。2011	-3405
▁唐	-3406
三人	-3407
赛中	-3408
龙江	-3409
乌斯	-3410
ous	-3411
政治家	-3412
▁赵	-3413
桃园	-3414
鱼类	-3415
五个	-3416
两者	-3417
声称	-3418
中国人民解放军	-3419
处的	-3420
起义	-3421
ice	-3422
苏维埃	-3423
语的	-3424
医学院	-3425
桥梁	-3426
至于	-3427
工作室	-3428
他为	-3429
行业	-3430
起源	-3431
本人	-3432
▁清	-3433
小姐	-3434
研发	-3435
▁孙	-3436
突破	-3437
证实	-3438
升任	-3439
南侧	-3440
效力于	-3441
Th	-3442
出发	-3443
Pl	-3444
品种	-3445
资本	-3446
其中包括	-3447
sk	-3448
是为	-3449
住在	-3450
阳县	-3451
东京都	-3452
错误	-3453
▁分布	-3454
两位	-3455
的一条	-3456
发现的	-3457
原来	-3458
▁电视剧	-3459
乐器	-3460
▁美	-3461
吉林	-3462
传奇	-3463
头部	-3464
本科	-3465
的手	-3466
,196	-3467
-15	-3468
战车	-3469
系统的	-3470
物种的	-3471
外的	-3472
战胜	-3473
▁特	-3474
两名	-3475
号的	-3476
所在地	-3477
有一些	-3478
ight	-3479
东南部	-3480
被视为	-3481
,194	-3482
俄国	-3483
发挥	-3484
▁1998	-3485
女孩	-3486
追溯	-3487
(196	-3488
长官	-3489
升格	-3490
猪笼	-3491
▁特征	-3492
▁&	-3493
▁w	-3494
当地的	-3495
商人	-3496
一致	-3497
这样的	-3498
加入了	-3499
中式	-3500
电动	-3501
1984	-3502
▁多	-3503
主张	-3504
猪笼草	-3505
。。	-3506
西里	-3507
。2016	-3508
临床	-3509
台风	-3510
战国	-3511
金山	-3512
▁Sp	-3513
高等学校	-3514
eam	-3515
日正式	-3516
是因为	-3517
▁概要	-3518
包围	-3519
抑制	-3520
▁外	-3521
对此	-3522
的音乐	-3523
。2014	-3524
出席	-3525
▁福	-3526
室内	-3527
视频	-3528
▁哈	-3529
感觉	-3530
场地	-3531
新竹	-3532
南非	-3533
的部分	-3534
法官	-3535
ory	-3536
SA	-3537
偶像	-3538
封为	-3539
』(	-3540
身上	-3541
女演员	-3542
监察	-3543
改称	-3544
的问题	-3545
-9	-3546
▁布	-3547
充满	-3548
靠近	-3549
撞击	-3550
精灵	-3551
法案	-3552
陷入	-3553
▁早年	-3554
▁朱	-3555
名进士	-3556
张专辑	-3557
是台湾	-3558
tern	-3559
闻名	-3560
波士顿	-3561
心脏	-3562
性别	-3563
▁)	-3564
年获	-3565
最高的	-3566
营业	-3567
法兰克	-3568
。2009	-3569
派出	-3570
上升	-3571
服装	-3572
探测	-3573
ire	-3574
大理	-3575
罗马尼亚	-3576
罗德	-3577
岛式	-3578
理查	-3579
辅助	-3580
巴基	-3581
ool	-3582
的最	-3583
她们	-3584
ment	-3585
星系	-3586
济南	-3587
而非	-3588
尔顿	-3589
▁华	-3590
体重	-3591
尤其是	-3592
向北	-3593
近年	-3594
救援	-3595
消费	-3596
1975	-3597
下一	-3598
高达	-3599
指定	-3600
式的	-3601
会试	-3602
好友	-3603
措施	-3604
嘉宾	-3605
大正	-3606
主体	-3607
北起	-3608
人民检察院	-3609
推动	-3610
提琴	-3611
每日	-3612
百万	-3613
▁米	-3614
▁武	-3615
行的	-3616
法兰西	-3617
一人	-3618
▁龙	-3619
抵抗	-3620
uk	-3621
▁科	-3622
学的	-3623
驱逐舰	-3624
。2018	-3625
enn	-3626
首位	-3627
变为	-3628
》《	-3629
特定	-3630
orm	-3631
路易斯	-3632
格尔	-3633
流浪	-3634
缩写	-3635
圣母	-3636
今天	-3637
很大	-3638
Un	-3639
研究院	-3640
▁其	-3641
相关的	-3642
yl	-3643
召开	-3644
江南	-3645
候选人	-3646
开展	-3647
连续剧	-3648
功率	-3649
▁目前	-3650
奥斯卡	-3651
主办	-3652
晚期	-3653
效应	-3654
综艺	-3655
地上	-3656
想要	-3657
奥林匹克运动会	-3658
市政	-3659
第一位	-3660
落成	-3661
格里	-3662
民众	-3663
田村	-3664
。2015	-3665
上述	-3666
曾于	-3667
的总	-3668
西南部	-3669
OS	-3670
免费	-3671
波尔	-3672
绘画	-3673
amp	-3674
湖南省	-3675
ED	-3676
克林	-3677
殖民地	-3678
工艺	-3679
交叉	-3680
生成	-3681
爱的	-3682
格雷	-3683
具体	-3684
编组	-3685
脱离	-3686
并被	-3687
办事处	-3688
扩展	-3689
体长	-3690
新建	-3691
▁加	-3692
河谷	-3693
1950	-3694
英里	-3695
长安	-3696
。2008	-3697
交响	-3698
国家的	-3699
中书	-3700
赫尔	-3701
▁Th	-3702
yn	-3703
内陆	-3704
ax	-3705
巨大	-3706
文库	-3707
该片	-3708
怀疑	-3709
ris	-3710
的原因	-3711
打破	-3712
得分	-3713
成分	-3714
下了	-3715
,10	-3716
现为	-3717
▁平	-3718
美丽	-3719
连载	-3720
该党	-3721
。2006	-3722
依据	-3723
短暂	-3724
使其	-3725
市中心	-3726
防止	-3727
员外	-3728
评估	-3729
1976	-3730
橄榄	-3731
灭绝	-3732
王位	-3733
放在	-3734
病例	-3735
)、《	-3736
的一些	-3737
深度	-3738
摧毁	-3739
更新	-3740
称呼	-3741
600	-3742
基金会	-3743
。2007	-3744
-7	-3745
他和	-3746
之为	-3747
流域	-3748
游客	-3749
▁Mar	-3750
福德	-3751
评为	-3752
orn	-3753
塞尔维亚	-3754
维多利亚	-3755
征服	-3756
-8	-3757
开幕	-3758
直播	-3759
弗拉	-3760
以上的	-3761
撰写	-3762
战场	-3763
翰林	-3764
胡同	-3765
罗马帝国	-3766
▁背景	-3767
▁内	-3768
都在	-3769
1973	-3770
只要	-3771
史密	-3772
气体	-3773
联络	-3774
届全国	-3775
山口	-3776
电影节	-3777
。2017	-3778
回合	-3779
奖章	-3780
1972	-3781
1974	-3782
所谓	-3783
▁En	-3784
各个	-3785
赞助	-3786
本线	-3787
为此	-3788
提供了	-3789
改建	-3790
act	-3791
方便	-3792
单打	-3793
英超	-3794
级别	-3795
1983	-3796
▁人	-3797
地产	-3798
织田	-3799
了他的	-3800
游戏的	-3801
ide	-3802
运河	-3803
种类	-3804
ica	-3805
MV	-3806
大众	-3807
通往	-3808
ame	-3809
公顷	-3810
崇祯	-3811
斯卡	-3812
pe	-3813
纤维	-3814
免疫	-3815
季后赛	-3816
迁至	-3817
本片	-3818
他也	-3819
推广	-3820
月的	-3821
二级	-3822
菲利	-3823
强调	-3824
业余	-3825
平衡	-3826
ost	-3827
尼古	-3828
层的	-3829
布雷	-3830
两国	-3831
会有	-3832
ов	-3833
建筑面积	-3834
age	-3835
John	-3836
查尔斯	-3837
▁1997	-3838
当局	-3839
其中一个	-3840
书中	-3841
车厢	-3842
重返	-3843
男主角	-3844
区内	-3845
▁汉	-3846
岛上	-3847
iel	-3848
幕府	-3849
新设	-3850
枢纽	-3851
燃料	-3852
▁Cl	-3853
马丁	-3854
AK	-3855
分布在	-3856
ons	-3857
高雄	-3858
联赛冠军	-3859
海上	-3860
洛阳	-3861
改名	-3862
洛斯	-3863
大选	-3864
足够	-3865
扩建	-3866
1982	-3867
-16	-3868
作曲家	-3869
修道院	-3870
制作的	-3871
支流	-3872
月在	-3873
交流道	-3874
场所	-3875
反映	-3876
他们在	-3877
斯洛	-3878
OR	-3879
描绘	-3880
二战	-3881
选秀	-3882
▁红	-3883
路站	-3884
首相	-3885
而不是	-3886
冠状	-3887
身分	-3888
陆续	-3889
年夏季	-3890
▁五	-3891
大公	-3892
岛的	-3893
上帝	-3894
西藏	-3895
这首	-3896
河北省	-3897
▁作品	-3898
紧急	-3899
▁1996	-3900
。2019	-3901
法语	-3902
的比赛	-3903
▁松	-3904
干线	-3905
(《	-3906
▁关	-3907
▁同	-3908
理想	-3909
保守	-3910
叙述	-3911
很少	-3912
边境	-3913
创新	-3914
农民	-3915
地域	-3916
1955	-3917
相当于	-3918
的长	-3919
无论	-3920
巴基斯坦	-3921
加尔	-3922
ley	-3923
都被	-3924
的成绩	-3925
会社	-3926
彰化	-3927
步枪	-3928
iam	-3929
柴油机车	-3930
边为	-3931
穆斯林	-3932
歌词	-3933
意见	-3934
污染	-3935
竞技	-3936
▁总	-3937
起点	-3938
转换	-3939
下半	-3940
嘉义	-3941
ames	-3942
ensis	-3943
时代的	-3944
上午	-3945
1977	-3946
▁2023	-3947
出土	-3948
头衔	-3949
格林	-3950
纳粹	-3951
▁14	-3952
户部	-3953
司法	-3954
幻想	-3955
雕塑	-3956
新城	-3957
曹操	-3958
原为	-3959
铃木	-3960
阿里	-3961
适应	-3962
年与	-3963
提及	-3964
▁X	-3965
斯托	-3966
权利	-3967
▁奖项	-3968
接替	-3969
代的	-3970
理解	-3971
嘉庆	-3972
大连	-3973
记忆	-3974
眼睛	-3975
遗传	-3976
的比赛中	-3977
商务	-3978
满洲	-3979
青少年	-3980
▁a	-3981
单独	-3982
以此	-3983
分校	-3984
的基础	-3985
▁+	-3986
之处	-3987
▁文	-3988
支付	-3989
会被	-3990
了他	-3991
呼吸	-3992
座堂	-3993
另有	-3994
中将	-3995
福建省	-3996
罗伯特	-3997
的方法	-3998
制定	-3999
市政府	-4000
夫妇	-4001
体型	-4002
凤凰	-4003
了一些	-4004
的形式	-4005
写作	-4006
排列	-4007
进步	-4008
率军	-4009
觉得	-4010
的美国	-4011
▁徐	-4012
大规模	-4013
卡罗	-4014
过的	-4015
史蒂	-4016
货币	-4017
are	-4018
战斗机	-4019
观音	-4020
一词	-4021
天后	-4022
该公司	-4023
直升	-4024
ivers	-4025
1971	-4026
格勒	-4027
沈阳	-4028
航班	-4029
长沙	-4030
防守	-4031
香港配音	-4032
代替	-4033
港元	-4034
其中一	-4035
站的	-4036
人大	-4037
科尔	-4038
青春	-4039
的支持	-4040
增强	-4041
讨伐	-4042
指挥官	-4043
斯蒂	-4044
▁宋	-4045
▁不	-4046
探索	-4047
守护	-4048
米亚	-4049
。12	-4050
国小	-4051
席位	-4052
出现了	-4053
平成	-4054
加速	-4055
常常	-4056
年他	-4057
九州	-4058
ver	-4059
▁据	-4060
一百	-4061
个体	-4062
神社	-4063
正面	-4064
事务所	-4065
视觉	-4066
NBA	-4067
的情况	-4068
任期	-4069
姊妹	-4070
频率	-4071
摇滚	-4072
特点	-4073
观光	-4074
详细	-4075
塔尔	-4076
蝙蝠	-4077
。17	-4078
即将	-4079
细菌	-4080
设于	-4081
该国	-4082
起初	-4083
的母亲	-4084
立陶	-4085
.0	-4086
完成了	-4087
蛋白质	-4088
ical	-4089
船只	-4090
人称	-4091
永久	-4092
相连	-4093
住民	-4094
3,	-4095
丽莎	-4096
巡洋	-4097
最低	-4098
PS	-4099
巨大的	-4100
发行的	-4101
▁Col	-4102
研究中心	-4103
领队	-4104
后卫	-4105
对其	-4106
交给	-4107
的圣	-4108
太原	-4109
流传	-4110
叛乱	-4111
副主任	-4112
超越	-4113
安徽省	-4114
有许多	-4115
叙利亚	-4116
交易所	-4117
经由	-4118
十三年	-4119
同时也	-4120
同名	-4121
▁13	-4122
雅典	-4123
前锋	-4124
德军	-4125
菩萨	-4126
立陶宛	-4127
▁Pro	-4128
镇区	-4129
定期	-4130
在新	-4131
Ph	-4132
接著	-4133
暂时	-4134
神秘	-4135
出赛	-4136
冠状病毒	-4137
火车	-4138
的天	-4139
突出	-4140
竣工	-4141
原先	-4142
国公	-4143
准决赛	-4144
布政使	-4145
指数	-4146
图案	-4147
让他	-4148
通讯	-4149
普鲁士	-4150
先进	-4151
如今	-4152
打败	-4153
造型	-4154
ite	-4155
Sp	-4156
▁1990	-4157
号为	-4158
巴拉	-4159
但因	-4160
则在	-4161
杰出	-4162
垒打	-4163
大气	-4164
著有	-4165
警方	-4166
▁1995	-4167
大幅	-4168
任天堂	-4169
向东	-4170
接收	-4171
保障	-4172
的上	-4173
DNA	-4174
庄为邻	-4175
意味	-4176
甲组	-4177
▁田	-4178
委托	-4179
支线	-4180
庆祝	-4181
附加	-4182
友谊	-4183
扩张	-4184
沿线	-4185
▁车站结构	-4186
协调	-4187
房间	-4188
最早的	-4189
已于	-4190
金刚	-4191
出自	-4192
后于	-4193
有三	-4194
约瑟夫	-4195
边的	-4196
设计的	-4197
撤退	-4198
队员	-4199
日开始	-4200
))	-4201
队友	-4202
改编自	-4203
研究生	-4204
阅读	-4205
之年号	-4206
长大	-4207
相同的	-4208
德斯	-4209
选出	-4210
辞职	-4211
▁k	-4212
余人	-4213
商店	-4214
▁沙	-4215
次子	-4216
行人	-4217
ld	-4218
领先	-4219
月球	-4220
慕尼	-4221
大量的	-4222
旅客铁道	-4223
更多的	-4224
城墙	-4225
慈善	-4226
巡洋舰	-4227
配音员	-4228
、《	-4229
比尔	-4230
英镑	-4231
越来	-4232
日后	-4233
曾是	-4234
明确	-4235
US	-4236
俗称	-4237
年获得	-4238
▁1994	-4239
自称	-4240
雕像	-4241
总会	-4242
模拟	-4243
,12	-4244
都御史	-4245
公会	-4246
科的	-4247
就在	-4248
成人	-4249
逮捕	-4250
评审	-4251
▁何	-4252
前后	-4253
维也	-4254
1958	-4255
维护	-4256
DVD	-4257
刑部	-4258
的日	-4259
1940	-4260
”)	-4261
▁简	-4262
专用	-4263
独立的	-4264
斯堡	-4265
eth	-4266
图像	-4267
法的	-4268
ook	-4269
打进	-4270
出局	-4271
坚持	-4272
▁无	-4273
▁花	-4274
沿岸	-4275
越来越	-4276
股权	-4277
情节	-4278
驱动	-4279
慕尼黑	-4280
设计师	-4281
专科	-4282
仅有	-4283
得奖	-4284
战术	-4285
举办的	-4286
将在	-4287
领事	-4288
男女	-4289
世纪的	-4290
始建于	-4291
大家	-4292
通用	-4293
奖最佳	-4294
祖先	-4295
1981	-4296
拓跋	-4297
改进	-4298
250	-4299
环球	-4300
国有	-4301
ien	-4302
五世	-4303
以西	-4304
尼奥	-4305
显著	-4306
现有	-4307
ка	-4308
温泉	-4309
龙类	-4310
存在的	-4311
理学	-4312
登上	-4313
积分	-4314
董事长	-4315
型电力机车	-4316
诊断	-4317
gh	-4318
百姓	-4319
确保	-4320
耶夫	-4321
迪士	-4322
ash	-4323
1956	-4324
做出	-4325
融合	-4326
aul	-4327
▁著作	-4328
多人	-4329
村庄	-4330
ans	-4331
ale	-4332
▁建筑	-4333
来自于	-4334
IV	-4335
此次	-4336
经济学	-4337
布里	-4338
会上	-4339
卫队	-4340
▁女	-4341
ium	-4342
的阿	-4343
手机	-4344
本书	-4345
方面的	-4346
维也纳	-4347
电视节目	-4348
被杀	-4349
ron	-4350
不详	-4351
旋转	-4352
的生活	-4353
一期	-4354
发掘	-4355
最为	-4356
名举人	-4357
迪士尼	-4358
诺曼	-4359
▁的时区为	-4360
▁与接壤的市镇	-4361
▁的邮政编码为	-4362
▁所属的省级选区为	-4363
昆虫	-4364
日报	-4365
监狱	-4366
苏州	-4367
黑暗	-4368
英军	-4369
▁Ro	-4370
农场	-4371
好评	-4372
维克	-4373
物的	-4374
配角	-4375
厦门	-4376
升格为	-4377
在那里	-4378
年任	-4379
印刷	-4380
透露	-4381
。2005	-4382
因其	-4383
子女	-4384
中海	-4385
使用了	-4386
内地	-4387
每周	-4388
预备	-4389
▁Le	-4390
授权	-4391
遭遇	-4392
各国	-4393
一职	-4394
世纪初	-4395
元帅	-4396
级的	-4397
较大	-4398
内有	-4399
天府	-4400
文帝	-4401
区别	-4402
oph	-4403
▁埃	-4404
替代	-4405
英尺	-4406
单一	-4407
集的	-4408
事中	-4409
臀鳍	-4410
地名	-4411
▁使用	-4412
同时也是	-4413
藤原	-4414
里达	-4415
乡村	-4416
射入	-4417
ara	-4418
明治三十	-4419
内战	-4420
▁胡	-4421
年世界杯	-4422
▁梁	-4423
▁历任	-4424
星的	-4425
营养	-4426
黑龙江	-4427
▁此外	-4428
▁演出	-4429
输入	-4430
不知	-4431
遗迹	-4432
奖金	-4433
▁若	-4434
ID	-4435
菲尔德	-4436
人生	-4437
耶律	-4438
▁约翰	-4439
me	-4440
回忆	-4441
司令部	-4442
上游	-4443
的分	-4444
咨询	-4445
银河	-4446
▁;	-4447
城际	-4448
保证	-4449
占据	-4450
纳德	-4451
传统的	-4452
。“	-4453
垂直	-4454
自我	-4455
以东	-4456
在中	-4457
竞选	-4458
领导人	-4459
德罗	-4460
担当	-4461
梦想	-4462
co	-4463
鼓励	-4464
萨拉	-4465
勒斯	-4466
川县	-4467
1.5	-4468
剧中	-4469
引进	-4470
800	-4471
于此	-4472
当天	-4473
湖广	-4474
唯一的	-4475
尸体	-4476
ma	-4477
景点	-4478
相应	-4479
野生	-4480
书店	-4481
感情	-4482
收费	-4483
。2020	-4484
南至	-4485
目的是	-4486
角度	-4487
各类	-4488
▁法	-4489
东亚	-4490
近代	-4491
十四年	-4492
se	-4493
形容	-4494
男孩	-4495
创始人	-4496
必要	-4497
在英国	-4498
收视率	-4499
老板	-4500
模特	-4501
沉积	-4502
疫苗	-4503
利的	-4504
约有	-4505
高校	-4506
年毕业于	-4507
台北市	-4508
rist	-4509
学园	-4510
总面积	-4511
海南	-4512
-14	-4513
当代	-4514
软条	-4515
-11	-4516
另一方面	-4517
容纳	-4518
拉尔	-4519
未有	-4520
相反	-4521
该校	-4522
也可	-4523
以便	-4524
地亚	-4525
报纸	-4526
次于	-4527
办理	-4528
南昌	-4529
审判	-4530
格鲁	-4531
是从	-4532
饮食	-4533
众议院	-4534
摩尔	-4535
两条	-4536
国语	-4537
-13	-4538
外围	-4539
捷克	-4540
强度	-4541
化为	-4542
:1	-4543
内蒙古	-4544
Le	-4545
严格	-4546
二层	-4547
农村	-4548
▁行政区划	-4549
刺激	-4550
战争中	-4551
德意志	-4552
暂停	-4553
交汇	-4554
客串	-4555
望远	-4556
航线	-4557
在内的	-4558
入围	-4559
制成	-4560
▁1993	-4561
欧盟	-4562
la	-4563
低于	-4564
擅长	-4565
财务	-4566
利益	-4567
希特	-4568
的马	-4569
超级联赛	-4570
▁八	-4571
公寓	-4572
的世界	-4573
改设	-4574
AL	-4575
加工	-4576
序列	-4577
德语	-4578
1954	-4579
后在	-4580
湖北省	-4581
ys	-4582
客车	-4583
一部	-4584
原创	-4585
科进士	-4586
前身	-4587
歌唱	-4588
加斯	-4589
分之一	-4590
铁路局	-4591
一郎	-4592
到的	-4593
中场	-4594
肌肉	-4595
火车站	-4596
的能力	-4597
泰勒	-4598
先发	-4599
实力	-4600
风景	-4601
参与了	-4602
拉德	-4603
中国的	-4604
血液	-4605
会议员	-4606
个性	-4607
蜘蛛	-4608
男人	-4609
采访	-4610
区分	-4611
器的	-4612
员外郎	-4613
兵部	-4614
女神	-4615
态度	-4616
正确	-4617
画面	-4618
居委会	-4619
ック	-4620
切尔	-4621
客户	-4622
联合会	-4623
山西省	-4624
伤害	-4625
真人	-4626
幸福	-4627
望远镜	-4628
沙漠	-4629
▁沿革	-4630
盆地	-4631
EN	-4632
这项	-4633
看见	-4634
的地区	-4635
物品	-4636
的不	-4637
资助	-4638
亚美	-4639
曾被	-4640
诞生	-4641
纪录片	-4642
探险	-4643
杀人	-4644
NHK	-4645
索恩	-4646
被并入	-4647
穿越	-4648
它们的	-4649
常务	-4650
重复	-4651
友好	-4652
同学	-4653
而来	-4654
res	-4655
▁1992	-4656
王后	-4657
直升机	-4658
、2	-4659
复活	-4660
灵魂	-4661
不要	-4662
考察	-4663
rin	-4664
年成为	-4665
照顾	-4666
居住在	-4667
▁1987	-4668
清水	-4669
相较	-4670
符号	-4671
▁第四	-4672
范围内	-4673
其为	-4674
主人	-4675
高架	-4676
▁法国	-4677
生活在	-4678
IT	-4679
维修	-4680
编制	-4681
题材	-4682
亚目	-4683
回应	-4684
法庭	-4685
美术馆	-4686
丁目	-4687
任教	-4688
位的	-4689
演艺	-4690
也没有	-4691
-20	-4692
模式产地	-4693
株式	-4694
消防	-4695
动车组	-4696
伙伴	-4697
町村	-4698
虚构	-4699
ata	-4700
德川	-4701
有着	-4702
补充	-4703
ett	-4704
教育部	-4705
美国的	-4706
正德	-4707
▁本站	-4708
东南亚	-4709
形成的	-4710
向西	-4711
贝克	-4712
斯和	-4713
株式会社	-4714
马恩	-4715
平定	-4716
▁江	-4717
ward	-4718
常规	-4719
异常	-4720
年出版	-4721
费用	-4722
姐妹	-4723
游击	-4724
面临	-4725
ram	-4726
玛丽亚	-4727
篇小说	-4728
亮相	-4729
国铁	-4730
der	-4731
的所有	-4732
陕西省	-4733
谋杀	-4734
ear	-4735
sp	-4736
了许多	-4737
争夺	-4738
荣获	-4739
CC	-4740
血管	-4741
、3	-4742
ii	-4743
下游	-4744
仍在	-4745
弟子	-4746
色彩	-4747
该物种的	-4748
并无	-4749
车体	-4750
夏天	-4751
财产	-4752
全垒打	-4753
下方	-4754
托马斯	-4755
土壤	-4756
集合	-4757
▁欧洲	-4758
东海	-4759
古屋	-4760
的四	-4761
被发现	-4762
。1950	-4763
波特	-4764
大使馆	-4765
商场	-4766
发育	-4767
翡翠	-4768
af	-4769
▁作词	-4770
加利亚	-4771
莱茵	-4772
oll	-4773
集体	-4774
强的	-4775
联军	-4776
。2004	-4777
大军	-4778
山的	-4779
布置	-4780
省的	-4781
▁导演	-4782
格拉斯	-4783
清楚	-4784
1959	-4785
其子	-4786
前进	-4787
道夫	-4788
主唱	-4789
这也是	-4790
排行榜	-4791
可是	-4792
▁另	-4793
神圣	-4794
消灭	-4795
首度	-4796
庄村	-4797
读者	-4798
给事中	-4799
一系列	-4800
。2021	-4801
如同	-4802
淡水	-4803
值得	-4804
股东	-4805
圣殿	-4806
完颜	-4807
脊椎	-4808
希尔	-4809
推测	-4810
展现	-4811
派的	-4812
认可	-4813
,11	-4814
ius	-4815
陨石	-4816
成立了	-4817
第一次世界大战	-4818
勇士	-4819
▁梅	-4820
为期	-4821
之乱	-4822
家乡	-4823
巨人	-4824
归类	-4825
译为	-4826
生物学	-4827
还在	-4828
增加了	-4829
▁for	-4830
▁青	-4831
一层	-4832
较低	-4833
围棋	-4834
首府	-4835
政府的	-4836
飞行员	-4837
▁世界	-4838
后来的	-4839
宰相	-4840
开办	-4841
染色	-4842
孟加拉	-4843
▁卢	-4844
职员	-4845
,17	-4846
ove	-4847
原则	-4848
工部	-4849
保护区	-4850
ited	-4851
回国	-4852
穿过	-4853
迁移	-4854
福音	-4855
年以	-4856
配备	-4857
在一个	-4858
1944	-4859
朝日	-4860
组长	-4861
上方	-4862
足总	-4863
顺治	-4864
体育馆	-4865
▁国家队	-4866
▁上海	-4867
上场	-4868
形的	-4869
离婚	-4870
二十厅	-4871
航空公司	-4872
UN	-4873
军人	-4874
伦多	-4875
村民	-4876
▁欧	-4877
克雷	-4878
内亚	-4879
恋爱	-4880
球迷	-4881
导师	-4882
炸弹	-4883
警告	-4884
主义者	-4885
名古屋	-4886
▁而	-4887
承担	-4888
歌剧	-4889
天文台	-4890
为食	-4891
从未	-4892
原型	-4893
影评	-4894
策略	-4895
是为了	-4896
リー	-4897
大同	-4898
中华职棒	-4899
进行的	-4900
指示	-4901
鲁斯	-4902
为中国	-4903
月起	-4904
国家公园	-4905
▁光	-4906
克劳	-4907
新区	-4908
重视	-4909
事实上	-4910
台中市	-4911
哈尔滨	-4912
在西	-4913
一支	-4914
星际	-4915
赢得了	-4916
日由	-4917
顺序	-4918
▁注	-4919
想法	-4920
不得不	-4921
。8	-4922
攻入	-4923
特烈	-4924
秘书长	-4925
▁声	-4926
初年	-4927
每次	-4928
对称	-4929
预算	-4930
原住民	-4931
ana	-4932
▁Q	-4933
eph	-4934
螺旋	-4935
ST	-4936
人为	-4937
广岛	-4938
的西	-4939
ork	-4940
1949	-4941
主动	-4942
大帝	-4943
流动	-4944
除此	-4945
造成的	-4946
季节	-4947
十五年	-4948
代表大会	-4949
印象	-4950
ald	-4951
腓特烈	-4952
my	-4953
主管	-4954
科会试	-4955
▁#	-4956
他曾	-4957
谈判	-4958
ail	-4959
的机会	-4960
机动	-4961
正义	-4962
。10	-4963
MA	-4964
片尾	-4965
型机车	-4966
东区	-4967
这场	-4968
沃尔	-4969
一只	-4970
棋子	-4971
送到	-4972
和他的	-4973
马德里	-4974
园区	-4975
翌年	-4976
伊拉克	-4977
eter	-4978
左翼	-4979
祭祀	-4980
第十	-4981
犹太人	-4982
共计	-4983
郡王	-4984
1957	-4985
灰色	-4986
出来的	-4987
一天	-4988
▁普	-4989
工商	-4990
▁成	-4991
之际	-4992
多样	-4993
师范大学	-4994
长春	-4995
围绕	-4996
保加利亚	-4997
年中	-4998
牧师	-4999
子公司	-5000
倾向	-5001
▁英国	-5002
游戏中	-5003
这时	-5004
早期的	-5005
司机	-5006
旧址	-5007
路上	-5008
年球季	-5009
2)	-5010
IP	-5011
不变	-5012
之名	-5013
出现的	-5014
威尼斯	-5015
1941	-5016
圣诞	-5017
执教	-5018
汤姆	-5019
登记	-5020
阶级	-5021
寻求	-5022
永远	-5023
天气	-5024
技巧	-5025
富汗	-5026
始于	-5027
重组	-5028
观看	-5029
狮子	-5030
有两个	-5031
赛马	-5032
播映	-5033
线上	-5034
▁初	-5035
天津市	-5036
年期间	-5037
节奏	-5038
克斯坦	-5039
委书记	-5040
绝对	-5041
衍生	-5042
费尔	-5043
▁0	-5044
史密斯	-5045
开始在	-5046
。9	-5047
特尔	-5048
是一家	-5049
ek	-5050
侦探	-5051
她是	-5052
东汉	-5053
分成	-5054
途径	-5055
1968	-5056
印第	-5057
可在	-5058
名誉	-5059
录制	-5060
赛的	-5061
ress	-5062
之地	-5063
手中	-5064
日本的	-5065
先锋	-5066
制品	-5067
十六年	-5068
奥斯曼	-5069
总教区	-5070
有两	-5071
啤酒	-5072
迪亚	-5073
110	-5074
甲级联赛	-5075
提议	-5076
质疑	-5077
鱼雷	-5078
伦斯	-5079
清代	-5080
录影	-5081
习惯	-5082
决赛中	-5083
性和	-5084
政协	-5085
日语	-5086
里昂	-5087
首领	-5088
▁截至	-5089
硕士学位	-5090
▁1991	-5091
总局	-5092
由该	-5093
传动	-5094
▁佐	-5095
ank	-5096
El	-5097
街庄	-5098
,16	-5099
▁凯	-5100
物理学	-5101
主教座堂	-5102
▁双	-5103
克利	-5104
继任	-5105
认证	-5106
列出	-5107
描写	-5108
更换	-5109
研制	-5110
伊利	-5111
再转	-5112
是英国	-5113
休息	-5114
▁雷	-5115
干部	-5116
许可	-5117
▁公	-5118
▁叶	-5119
私立	-5120
致力	-5121
称之为	-5122
假设	-5123
后方	-5124
添加	-5125
病逝	-5126
1920	-5127
凭借	-5128
师团	-5129
放送	-5130
▁万	-5131
▁建	-5132
。5	-5133
这部	-5134
乐园	-5135
▁st	-5136
云南省	-5137
场的	-5138
。16	-5139
ru	-5140
则有	-5141
印第安	-5142
州长	-5143
▁另外	-5144
一等	-5145
战中	-5146
理由	-5147
ein	-5148
▁夏	-5149
拜占	-5150
标题	-5151
1930	-5152
夺取	-5153
托尔	-5154
年上映	-5155
规范	-5156
▁Pl	-5157
名叫	-5158
声明	-5159
河道	-5160
时针	-5161
na	-5162
IR	-5163
依赖	-5164
收到	-5165
同性	-5166
草原	-5167
发生了	-5168
与此	-5169
但却	-5170
▁Bl	-5171
前来	-5172
屋顶	-5173
斯图	-5174
illiam	-5175
专区	-5176
信徒	-5177
四大	-5178
宽度	-5179
跑道	-5180
3000	-5181
III	-5182
及后	-5183
外观	-5184
彼此	-5185
将于	-5186
担心	-5187
数的	-5188
身亡	-5189
参谋长	-5190
lex	-5191
▁战后	-5192
企图	-5193
吏部	-5194
拿破	-5195
愿意	-5196
发现于	-5197
站房	-5198
东路	-5199
密切	-5200
成果	-5201
旨在	-5202
日发行	-5203
罕默	-5204
EC	-5205
执政	-5206
纳入	-5207
立方米	-5208
1952	-5209
com	-5210
年欧洲	-5211
信长	-5212
打开	-5213
智能	-5214
类似的	-5215
ount	-5216
PC	-5217
为新	-5218
太祖	-5219
结局	-5220
石头	-5221
选拔	-5222
▁波	-5223
冷却	-5224
委任	-5225
智利	-5226
1969	-5227
延续	-5228
用以	-5229
转投	-5230
就读于	-5231
广州市	-5232
▁国	-5233
宗室	-5234
矿物	-5235
翰林院	-5236
威夷	-5237
说是	-5238
连结	-5239
高原	-5240
亚当	-5241
年成立	-5242
组织的	-5243
1963	-5244
在位	-5245
将他	-5246
最有	-5247
马力	-5248
在他的	-5249
的地位	-5250
是中华人民共和国	-5251
关节	-5252
佛罗里达	-5253
)10	-5254
▁真	-5255
IG	-5256
仅次于	-5257
该物种的模式产地	-5258
拿破仑	-5259
采用了	-5260
喜爱	-5261
姐姐	-5262
数十	-5263
取得了	-5264
流量	-5265
路德	-5266
▁木	-5267
婚礼	-5268
年以来	-5269
的意思	-5270
失踪	-5271
铁路车站	-5272
影展	-5273
年电影	-5274
在南	-5275
参政	-5276
并有	-5277
诺贝尔	-5278
机组	-5279
1964	-5280
日常	-5281
继位	-5282
行驶	-5283
▁经历	-5284
的名称	-5285
同步	-5286
得主	-5287
肿瘤	-5288
日被	-5289
县知县	-5290
宣称	-5291
此事	-5292
纳斯	-5293
银牌	-5294
pl	-5295
学部	-5296
此剧	-5297
之后的	-5298
地中海	-5299
突击	-5300
机器人	-5301
观赏	-5302
哈利	-5303
次列车	-5304
1942	-5305
丁堡	-5306
曾为	-5307
晶体	-5308
点的	-5309
聚集	-5310
eor	-5311
光谱	-5312
停车场	-5313
穆罕默	-5314
浪漫	-5315
古老的	-5316
裔美国	-5317
上面	-5318
坐落	-5319
追求	-5320
▁阿尔	-5321
限定	-5322
▁谢	-5323
练习	-5324
分区	-5325
北宋	-5326
医药	-5327
根本	-5328
工作人员	-5329
▁乌	-5330
巴赫	-5331
租界	-5332
FC	-5333
争取	-5334
互动	-5335
兰州	-5336
妈妈	-5337
周刊	-5338
赛冠军	-5339
动工	-5340
咸丰	-5341
快乐	-5342
Pro	-5343
olog	-5344
修正	-5345
伐利亚	-5346
但不	-5347
族群	-5348
雄性	-5349
预测	-5350
携带	-5351
死去	-5352
续集	-5353
▁1980	-5354
它在	-5355
自此	-5356
移居	-5357
ase	-5358
Fran	-5359
全台	-5360
分解	-5361
海盗	-5362
的妻子	-5363
▁历	-5364
法令	-5365
较高	-5366
宿舍	-5367
)11	-5368
1965	-5369
多项	-5370
早在	-5371
十二厅	-5372
加以	-5373
招生	-5374
道德	-5375
▁1988	-5376
识别	-5377
——《	-5378
形目	-5379
1953	-5380
转为	-5381
ert	-5382
福州	-5383
明显的	-5384
1500	-5385
加勒	-5386
吉他	-5387
机枪	-5388
硬棘	-5389
和大	-5390
▁北京	-5391
创作的	-5392
军在	-5393
MS	-5394
影像	-5395
时刻	-5396
1943	-5397
攻占	-5398
现已	-5399
▁生态	-5400
认为是	-5401
南宋	-5402
年于	-5403
经纪	-5404
1946	-5405
代码	-5406
平安	-5407
幸存	-5408
遭受	-5409
独特的	-5410
昆明	-5411
▁作曲	-5412
▁郭	-5413
特性	-5414
百年	-5415
菲利普	-5416
▁俱乐部	-5417
出色	-5418
特区	-5419
ins	-5420
拜占庭	-5421
伐克	-5422
洋基	-5423
镜头	-5424
辽宁省	-5425
▁—	-5426
国中	-5427
郑州	-5428
里面	-5429
力学	-5430
县城	-5431
队在	-5432
加利福尼亚州	-5433
命运	-5434
姓氏	-5435
黄河	-5436
(?	-5437
布兰	-5438
总经理	-5439
日举行	-5440
存在于	-5441
奥古	-5442
▁人物	-5443
去世后	-5444
集团有限公司	-5445
奖牌	-5446
产生了	-5447
弗兰	-5448
物体	-5449
奴隶	-5450
琉球	-5451
型号	-5452
萨斯州	-5453
萨克森	-5454
拉的	-5455
转向架	-5456
。11	-5457
就任	-5458
eng	-5459
做为	-5460
ance	-5461
彻底	-5462
太宗	-5463
本名	-5464
▁发行	-5465
一部分	-5466
的国际	-5467
活性	-5468
混凝	-5469
亚美尼亚	-5470
次郎	-5471
灭亡	-5472
ott	-5473
sch	-5474
也因此	-5475
其顿	-5476
尺寸	-5477
int	-5478
的结果	-5479
ve	-5480
▁因	-5481
出品	-5482
分割	-5483
事情	-5484
众人	-5485
战绩	-5486
是不	-5487
▁除了	-5488
年度最佳	-5489
会计	-5490
通知	-5491
▁麦	-5492
北市	-5493
SP	-5494
三位	-5495
定位	-5496
放射	-5497
替补	-5498
粒子	-5499
调节	-5500
阿富汗	-5501
设在	-5502
完整的	-5503
伍德	-5504
播出的	-5505
栖息在	-5506
一至	-5507
▁萨	-5508
人气	-5509
And	-5510
等待	-5511
年轻的	-5512
电气化	-5513
婴儿	-5514
所需	-5515
饭店	-5516
强大的	-5517
1967	-5518
▁Mus	-5519
列宁	-5520
多为	-5521
粮食	-5522
钢铁	-5523
1966	-5524
具备	-5525
气旋	-5526
。2003	-5527
伯格	-5528
完美	-5529
诸葛	-5530
高于	-5531
玫瑰	-5532
枢机	-5533
首尔	-5534
黎明	-5535
▁每	-5536
三次	-5537
上半	-5538
Com	-5539
援助	-5540
利物	-5541
南路	-5542
战败	-5543
的山	-5544
自行车	-5545
。6	-5546
族自治	-5547
pt	-5548
宫殿	-5549
效率	-5550
首批	-5551
的学生	-5552
厄尔	-5553
诗歌	-5554
更是	-5555
▁1989	-5556
就有	-5557
租借	-5558
读书	-5559
本来	-5560
哺乳	-5561
或称	-5562
混凝土	-5563
ET	-5564
此地	-5565
直属	-5566
雷达	-5567
参议院	-5568
剧团	-5569
接任	-5570
费城	-5571
转任	-5572
配乐	-5573
几内亚	-5574
▁维	-5575
因子	-5576
站至	-5577
人民法院	-5578
委员会委员	-5579
手枪	-5580
洪水	-5581
提前	-5582
。1920	-5583
都不	-5584
Play	-5585
他对	-5586
河口	-5587
▁→	-5588
使者	-5589
改装	-5590
斯在	-5591
板块	-5592
▁史	-5593
购物	-5594
输出	-5595
里奥	-5596
供奉	-5597
像是	-5598
年加入	-5599
月底	-5600
为大	-5601
第二个	-5602
之上	-5603
之时	-5604
光禄	-5605
方形	-5606
▁莫	-5607
复仇	-5608
校舍	-5609
守备	-5610
世界的	-5611
▁贝	-5612
女人	-5613
景观	-5614
示范	-5615
房子	-5616
劲爆	-5617
联网	-5618
十七年	-5619
)》	-5620
档案	-5621
最后的	-5622
首映	-5623
ade	-5624
母舰	-5625
王室	-5626
面向	-5627
▁杜	-5628
六个	-5629
世纪末	-5630
搭档	-5631
原作	-5632
深入	-5633
电路	-5634
白垩	-5635
燃烧	-5636
总决赛	-5637
追溯到	-5638
以其	-5639
溶液	-5640
严重的	-5641
的家	-5642
相继	-5643
itt	-5644
▁国家	-5645
的第三	-5646
ef	-5647
暴力	-5648
雍正	-5649
通常是	-5650
体验	-5651
洛伊	-5652
利物浦	-5653
北美洲	-5654
村合并为	-5655
礼部	-5656
2》	-5657
音乐会	-5658
1947	-5659
Bl	-5660
。7	-5661
牛津	-5662
卢瓦尔省	-5663
地形	-5664
位于该	-5665
总人口	-5666
En	-5667
开启	-5668
拉多	-5669
断层	-5670
水域	-5671
汉语	-5672
腹部	-5673
重点文物保护单位	-5674
穆罕默德	-5675
▁现	-5676
在前	-5677
电池	-5678
anc	-5679
▁教育	-5680
早上	-5681
▁天主教	-5682
制动	-5683
掌握	-5684
迷你	-5685
那个	-5686
集团军	-5687
技能	-5688
own	-5689
击败了	-5690
在当时	-5691
良好	-5692
道的	-5693
部署	-5694
下来的	-5695
排名第	-5696
提出了	-5697
委员会主席	-5698
是大	-5699
罗夫	-5700
的建筑	-5701
该地区	-5702
1962	-5703
▁、	-5704
一开始	-5705
江西省	-5706
防空	-5707
生产的	-5708
美国海军	-5709
三大	-5710
癌症	-5711
要塞	-5712
铜牌	-5713
南海	-5714
渐渐	-5715
事记	-5716
公演	-5717
的对	-5718
真菌	-5719
最多的	-5720
水中	-5721
ren	-5722
可以指	-5723
伊斯兰教	-5724
无限	-5725
占地面积	-5726
天体	-5727
2.5	-5728
部部长	-5729
西路	-5730
身高	-5731
逐步	-5732
回答	-5733
夜间	-5734
为基础	-5735
学系	-5736
万平方米	-5737
上将	-5738
清华	-5739
远征	-5740
主播	-5741
但仍	-5742
期刊	-5743
的大型	-5744
▁School	-5745
审查	-5746
名词	-5747
射手	-5748
劲歌	-5749
德克	-5750
在这里	-5751
国家足球队	-5752
▁可	-5753
及其他	-5754
团长	-5755
尼泊	-5756
反射	-5757
、6	-5758
回来	-5759
物语	-5760
隔离	-5761
手段	-5762
周末	-5763
700	-5764
▁为了	-5765
。2000	-5766
剩余	-5767
回家	-5768
在内	-5769
局的	-5770
平行	-5771
参赛者	-5772
斯里	-5773
较少	-5774
oth	-5775
在第	-5776
夏威夷	-5777
-)	-5778
▁韩	-5779
苹果	-5780
六世	-5781
也称	-5782
尼古拉	-5783
的女性	-5784
CH	-5785
见到	-5786
写的	-5787
使他	-5788
俘虏	-5789
世界大赛	-5790
依照	-5791
蒸汽	-5792
类似于	-5793
三层	-5794
剑桥	-5795
弹劾	-5796
浓度	-5797
风云	-5798
按察使	-5799
可以通过	-5800
巴斯	-5801
中心的	-5802
战争期间	-5803
на	-5804
灵感	-5805
甲基	-5806
医师	-5807
壁画	-5808
▁Co	-5809
顺时针	-5810
诺斯	-5811
▁比赛	-5812
威尔斯	-5813
并成为	-5814
叫做	-5815
在法国	-5816
年担任	-5817
天文学家	-5818
.)	-5819
水的	-5820
病人	-5821
福尔	-5822
群体	-5823
EM	-5824
为该	-5825
激素	-5826
直流	-5827
当作	-5828
年才	-5829
来源于	-5830
cm	-5831
相较于	-5832
orld	-5833
带著	-5834
战舰	-5835
有线	-5836
制片人	-5837
ille	-5838
aj	-5839
的第一个	-5840
弘治	-5841
福特	-5842
总是	-5843
珊瑚	-5844
发生的	-5845
成功的	-5846
轰炸机	-5847
TA	-5848
大败	-5849
季军	-5850
影业	-5851
蒙德	-5852
增设	-5853
术语	-5854
生素	-5855
多伦多	-5856
始终	-5857
oci	-5858
扬州	-5859
树木	-5860
──	-5861
一路	-5862
抗日	-5863
▁1985	-5864
1948	-5865
两座	-5866
山顶	-5867
时报	-5868
电子游戏	-5869
一生	-5870
市立	-5871
见于	-5872
▁副	-5873
清真	-5874
▁电视	-5875
▁然而	-5876
威尔士	-5877
深圳市	-5878
纪念碑	-5879
▁Part	-5880
书法	-5881
后又	-5882
后因	-5883
中原	-5884
传教士	-5885
▁1986	-5886
Am	-5887
的前身	-5888
的日本	-5889
保安	-5890
的游戏	-5891
avid	-5892
金斯	-5893
高地	-5894
果实	-5895
水利	-5896
的老	-5897
。「	-5898
次数	-5899
中央电视台	-5900
产物	-5901
拯救	-5902
葬于	-5903
Ad	-5904
巴塞	-5905
独自	-5906
提出的	-5907
巴伐利亚	-5908
即可	-5909
对战	-5910
雅各	-5911
理事会	-5912
。3	-5913
利奥	-5914
降落	-5915
面包	-5916
综艺节目	-5917
Ro	-5918
原理	-5919
洪武	-5920
ст	-5921
▁开	-5922
变形	-5923
的开	-5924
子弹	-5925
年第	-5926
4,	-5927
DS	-5928
给他	-5929
、1	-5930
志愿	-5931
极为	-5932
鳍鱼	-5933
当日	-5934
罕见	-5935
二十年	-5936
赛事中	-5937
。2001	-5938
▁图	-5939
ler	-5940
的行为	-5941
除此之外	-5942
公约	-5943
指的是	-5944
被任命为	-5945
产量	-5946
西区	-5947
▁Sc	-5948
华语	-5949
马其顿	-5950
听到	-5951
氨酸	-5952
等的	-5953
▁IS	-5954
整合	-5955
明代	-5956
ild	-5957
党的	-5958
则由	-5959
型柴油机车	-5960
兵团	-5961
数百	-5962
湖泊	-5963
预防	-5964
其父	-5965
矛盾	-5966
神父	-5967
三种	-5968
代目	-5969
通行	-5970
▁登场	-5971
1)	-5972
ean	-5973
决议	-5974
利安	-5975
博览	-5976
涵盖	-5977
部曲	-5978
翡翠台	-5979
4.	-5980
ター	-5981
的其他	-5982
这两个	-5983
反而	-5984
雌性	-5985
绍兴	-5986
▁to	-5987
改任	-5988
时被	-5989
ech	-5990
其他的	-5991
▁单	-5992
伊尔	-5993
▁杰	-5994
首任	-5995
ner	-5996
月开始	-5997
侧式	-5998
南极	-5999
推出的	-6000
研究员	-6001
。2002	-6002
中国科学院	-6003
社交	-6004
写真	-6005
分组	-6006
编号为	-6007
科幻	-6008
▁作为	-6009
▁许	-6010
哈德	-6011
引用	-6012
ult	-6013
▁New	-6014
代表队	-6015
在台湾	-6016
ра	-6017
均有	-6018
德甲	-6019
接管	-6020
本剧	-6021
中世纪	-6022
与大	-6023
晋升	-6024
合肥	-6025
骨骼	-6026
哈拉	-6027
恶魔	-6028
TVB	-6029
▁II	-6030
在北京	-6031
旧金山	-6032
真正的	-6033
乐坛	-6034
阳光	-6035
▁参看	-6036
体内	-6037
磷酸	-6038
马匹	-6039
承诺	-6040
公子	-6041
冲击	-6042
打入	-6043
期的	-6044
造船	-6045
出境	-6046
千叶	-6047
年春	-6048
尼泊尔	-6049
La	-6050
BO	-6051
就被	-6052
体长可达	-6053
大将	-6054
端的	-6055
ise	-6056
形成了	-6057
▁太	-6058
瑞克	-6059
部下	-6060
混乱	-6061
候车	-6062
选举中	-6063
经过本地区	-6064
工作的	-6065
干燥	-6066
玛格	-6067
国家级	-6068
▁因为	-6069
族的	-6070
伯利亚	-6071
旗下的	-6072
军舰	-6073
宇文	-6074
▁978	-6075
为他	-6076
定于	-6077
屏东	-6078
开始了	-6079
是最	-6080
脂肪	-6081
▁赛	-6082
拉特	-6083
的表现	-6084
策划	-6085
总部位于	-6086
少卿	-6087
印度尼西亚	-6088
人才	-6089
凌晨	-6090
指控	-6091
的身份	-6092
在今	-6093
▁尽管	-6094
ral	-6095
ros	-6096
牺牲	-6097
。)	-6098
。4	-6099
亚科	-6100
aint	-6101
攻势	-6102
杀手	-6103
」)	-6104
的下	-6105
由该道路	-6106
fl	-6107
三级	-6108
公社	-6109
列斯	-6110
田中	-6111
过度	-6112
第一百	-6113
学士学位	-6114
一日	-6115
莉亚	-6116
一千	-6117
卑斯	-6118
。15	-6119
的城市	-6120
2:	-6121
停办	-6122
ael	-6123
大队	-6124
正是	-6125
科研	-6126
巴勒	-6127
站是	-6128
号种子	-6129
进军	-6130
量子	-6131
▁简历	-6132
社会主义共和国	-6133
天王	-6134
实践	-6135
战死	-6136
环绕	-6137
的双	-6138
透明	-6139
高宗	-6140
1951	-6141
Ed	-6142
ール	-6143
兵力	-6144
DC	-6145
借由	-6146
哈里	-6147
戈尔	-6148
▁格	-6149
交战	-6150
erv	-6151
公立	-6152
皆为	-6153
福利	-6154
终止	-6155
丽莎白	-6156
的内容	-6157
的官方	-6158
划归	-6159
高铁	-6160
iversity	-6161
加热	-6162
界的	-6163
运会	-6164
▁德国	-6165
典型的	-6166
另一种	-6167
ei	-6168
代谢	-6169
参观	-6170
师长	-6171
统治者	-6172
宜兰	-6173
布局	-6174
据说	-6175
电梯	-6176
rid	-6177
校友	-6178
包括了	-6179
克里斯蒂	-6180
此前	-6181
激烈	-6182
端点	-6183
世界各地	-6184
仅仅	-6185
EL	-6186
与他	-6187
作画	-6188
对他	-6189
封面	-6190
打造	-6191
院校	-6192
并不是	-6193
县立	-6194
屠杀	-6195
称赞	-6196
颁奖礼	-6197
Station	-6198
发达	-6199
帕尔	-6200
的花	-6201
而得名	-6202
RNA	-6203
▁角色	-6204
▁瓦	-6205
进口	-6206
1961	-6207
击出	-6208
万吨	-6209
侦察	-6210
的爱	-6211
阵亡	-6212
、4	-6213
区和	-6214
比分	-6215
纳尔	-6216
的中国	-6217
ISBN	-6218
苗栗	-6219
刑事	-6220
判断	-6221
随机	-6222
RA	-6223
发音	-6224
而死	-6225
容量	-6226
过于	-6227
▁1984	-6228
并且在	-6229
划分	-6230
武田	-6231
▁乡道	-6232
十八年	-6233
省接壤	-6234
电动机	-6235
复合	-6236
这段	-6237
原来的	-6238
之内	-6239
Met	-6240
体操	-6241
建有	-6242
理念	-6243
岁以下	-6244
参选	-6245
起飞	-6246
受损	-6247
南南	-6248
足联	-6249
出于	-6250
火灾	-6251
当选为	-6252
较大的	-6253
IM	-6254
斗争	-6255
谢尔	-6256
贝格	-6257
▁其中	-6258
▁文化	-6259
▁萧	-6260
ows	-6261
第三次	-6262
1939	-6263
▁泰	-6264
▁老	-6265
电流	-6266
年代初	-6267
但是在	-6268
张单曲	-6269
IF	-6270
模仿	-6271
丞相	-6272
助攻	-6273
多夫	-6274
短片	-6275
职责	-6276
的大部分	-6277
曲线	-6278
他将	-6279
兄长	-6280
注入	-6281
的头	-6282
SS	-6283
秀吉	-6284
选中	-6285
有可能	-6286
本部	-6287
社长	-6288
莱斯	-6289
行走	-6290
学院的	-6291
OK	-6292
处死	-6293
曼联	-6294
滑雪	-6295
类别	-6296
约克	-6297
准确	-6298
推理	-6299
实体	-6300
山村	-6301
东日本	-6302
朝阳	-6303
秘鲁	-6304
雕刻	-6305
之父	-6306
高桥	-6307
继承人	-6308
属名	-6309
手下	-6310
有了	-6311
股票	-6312
飓风	-6313
又在	-6314
福冈	-6315
全国重点文物保护单位	-6316
尾巴	-6317
口径	-6318
夺冠	-6319
追击	-6320
内陆省份	-6321
的全	-6322
尼日	-6323
过渡	-6324
EP	-6325
又被	-6326
宇航	-6327
出生在	-6328
模特儿	-6329
吉亚	-6330
的概念	-6331
1/	-6332
就可以	-6333
布罗	-6334
瓦兹	-6335
南斯拉夫	-6336
。2022	-6337
▁各	-6338
失去了	-6339
的球员	-6340
一旦	-6341
主打	-6342
佥事	-6343
反抗	-6344
和小	-6345
新疆	-6346
▁如果	-6347
心理学	-6348
该物种的模式产地在	-6349
物资	-6350
180	-6351
修订	-6352
总共	-6353
▁个人生活	-6354
境内的	-6355
但其	-6356
作业	-6357
公告	-6358
末年	-6359
版的	-6360
宣告	-6361
河内	-6362
不多	-6363
很大的	-6364
类型的	-6365
葡萄酒	-6366
即为	-6367
放置	-6368
石器	-6369
▁冠军	-6370
情绪	-6371
截止	-6372
护照	-6373
取自	-6374
ign	-6375
公国	-6376
团的	-6377
梅尔	-6378
rat	-6379
▁七	-6380
催化	-6381
旋律	-6382
横滨	-6383
搜索	-6384
清真寺	-6385
一号	-6386
品质	-6387
封闭	-6388
血统	-6389
歇尔	-6390
的金	-6391
的一次	-6392
并为	-6393
any	-6394
漫画家	-6395
搭载	-6396
时尚	-6397
的多	-6398
维拉	-6399
mi	-6400
光学	-6401
面前	-6402
:10	-6403
▁1901	-6404
天空	-6405
安妮	-6406
智慧	-6407
盟军	-6408
全书	-6409
悬挂	-6410
▁早期	-6411
阿尔卑斯	-6412
NG	-6413
ро	-6414
线是	-6415
野村	-6416
二等	-6417
吉斯	-6418
超人	-6419
跨越	-6420
因此在	-6421
后续	-6422
心的	-6423
、5	-6424
彗星	-6425
逻辑	-6426
row	-6427
,2006	-6428
卢瓦	-6429
大于	-6430
获取	-6431
之意	-6432
定理	-6433
月号	-6434
背部	-6435
致力于	-6436
重庆市	-6437
Sc	-6438
伤亡	-6439
重的	-6440
安县	-6441
海姆	-6442
但没有	-6443
台南市	-6444
护卫	-6445
ics	-6446
gl	-6447
仪器	-6448
分开	-6449
含量	-6450
的说法	-6451
撒冷	-6452
元朝	-6453
和阿	-6454
法师	-6455
ube	-6456
牠们的	-6457
rand	-6458
前者	-6459
命名的	-6460
负责人	-6461
ternational	-6462
零售	-6463
,2010	-6464
分数	-6465
过了	-6466
的代表	-6467
办法	-6468
古巴	-6469
月初	-6470
水量	-6471
过世	-6472
于香港	-6473
古希腊	-6474
射线	-6475
水上	-6476
▁1955	-6477
▁康	-6478
作的	-6479
时会	-6480
电压	-6481
该地	-6482
bur	-6483
他认为	-6484
未知	-6485
末端	-6486
几何	-6487
落败	-6488
高丽	-6489
▁〈	-6490
黑人	-6491
rop	-6492
辐鳍鱼	-6493
同治	-6494
违反	-6495
ict	-6496
轨电车	-6497
克鲁	-6498
关卡	-6499
蝙蝠侠	-6500
劲歌金曲	-6501
▁斯	-6502
写道	-6503
支撑	-6504
秋季	-6505
而闻名	-6506
OP	-6507
任内	-6508
非法	-6509
怀孕	-6510
-23	-6511
▁位于	-6512
监察御史	-6513
是对	-6514
ake	-6515
历史学家	-6516
▁方	-6517
普罗	-6518
▁al	-6519
▁它	-6520
防卫	-6521
的最高	-6522
航空母舰	-6523
平民	-6524
物业	-6525
的热	-6526
该剧	-6527
青海	-6528
楼梯	-6529
座位	-6530
lin	-6531
卡特	-6532
rom	-6533
耶路	-6534
象棋	-6535
战役中	-6536
CA	-6537
英寸	-6538
▁节目	-6539
的存在	-6540
适用于	-6541
ск	-6542
基辅	-6543
进而	-6544
隆庆	-6545
颁布	-6546
压缩	-6547
树林	-6548
前身为	-6549
宗座	-6550
南区	-6551
液体	-6552
▁女子	-6553
仍有	-6554
天地	-6555
片头	-6556
主导	-6557
三甲	-6558
团结	-6559
合法	-6560
标记	-6561
最重要的	-6562
传递	-6563
判决	-6564
总管	-6565
的内	-6566
马达	-6567
库尔	-6568
数个	-6569
霍尔	-6570
耶路撒冷	-6571
▁崔	-6572
分之	-6573
她与	-6574
很难	-6575
终身	-6576
一所	-6577
以往	-6578
西接	-6579
较小	-6580
开发区	-6581
顺时针与	-6582
不佳	-6583
旗帜	-6584
衣服	-6585
受到了	-6586
在欧洲	-6587
▁1983	-6588
人体	-6589
列传	-6590
时常	-6591
逃亡	-6592
年中国	-6593
基部	-6594
录影带	-6595
北路	-6596
唐代	-6597
更名	-6598
辐鳍鱼纲	-6599
red	-6600
新西兰	-6601
的作用	-6602
在北	-6603
州立	-6604
、8	-6605
族人	-6606
日记	-6607
的有	-6608
这位	-6609
que	-6610
ret	-6611
一共	-6612
的美	-6613
无线电	-6614
都没有	-6615
▁被	-6616
主编	-6617
礼拜	-6618
那样	-6619
▁Ph	-6620
▁丹	-6621
也能	-6622
▁相邻	-6623
埔寨	-6624
设立的	-6625
信任	-6626
出兵	-6627
匈奴	-6628
千瓦	-6629
围攻	-6630
。1999	-6631
千人	-6632
说服	-6633
挖掘	-6634
PlayStation	-6635
中国大陆的	-6636
也曾	-6637
田径	-6638
▁第五	-6639
柬埔寨	-6640
的计划	-6641
受体	-6642
宝石	-6643
索尼	-6644
若干	-6645
ouse	-6646
广播公司	-6647
▁韦	-6648
纺织	-6649
陆地	-6650
制备	-6651
快车	-6652
日耳	-6653
解除	-6654
的区域	-6655
三郎	-6656
预留	-6657
ony	-6658
四十二年	-6659
多名	-6660
ane	-6661
▁这个	-6662
格斯	-6663
认同	-6664
亦改制为	-6665
条纹	-6666
的心	-6667
5000	-6668
哈佛	-6669
酒吧	-6670
160	-6671
宋朝	-6672
最终在	-6673
的歌曲	-6674
其在	-6675
▁对于	-6676
第二轮	-6677
列颠	-6678
白人	-6679
饲养	-6680
▁星	-6681
他以	-6682
电站	-6683
沼泽	-6684
勃艮	-6685
互联网	-6686
俄亥	-6687
武士	-6688
名录	-6689
商标	-6690
斑点	-6691
克罗地亚	-6692
俄亥俄	-6693
位于日本	-6694
宾夕	-6695
法人	-6696
▁1.	-6697
▁达	-6698
乘坐	-6699
充分	-6700
典型	-6701
上校	-6702
菲尔	-6703
教科	-6704
▁另见	-6705
交会	-6706
外科	-6707
体积	-6708
祖母	-6709
粉丝	-6710
公里的	-6711
即是	-6712
哈特	-6713
年香港	-6714
创意	-6715
年为	-6716
栖息地	-6717
二次	-6718
和美国	-6719
补给	-6720
领衔	-6721
中学校	-6722
小提琴	-6723
参军	-6724
rad	-6725
way	-6726
▁我	-6727
参议员	-6728
处长	-6729
足球甲级联赛	-6730
依靠	-6731
又译	-6732
巴特	-6733
恐惧	-6734
▁男子	-6735
沿用	-6736
至此	-6737
起兵	-6738
帝国的	-6739
由来	-6740
▁逝世	-6741
纽约市	-6742
寿命	-6743
毁灭	-6744
罗讷	-6745
后来在	-6746
大部份	-6747
缓慢	-6748
金像	-6749
高峰	-6750
棕色	-6751
编写	-6752
毗邻	-6753
车型	-6754
一项	-6755
是有	-6756
基督徒	-6757
铁路的	-6758
指令	-6759
数目	-6760
起了	-6761
为由	-6762
同知	-6763
普林	-6764
任意	-6765
城门	-6766
崇拜	-6767
艾伦	-6768
论坛	-6769
起源于	-6770
东晋	-6771
原有	-6772
细节	-6773
▁Mc	-6774
共和党	-6775
女歌手	-6776
系列的	-6777
评论家	-6778
片段	-6779
保卫	-6780
蜿蜒	-6781
▁Be	-6782
德里克	-6783
ット	-6784
不如	-6785
主流	-6786
部位	-6787
天文学	-6788
AV	-6789
为名	-6790
百货	-6791
道具	-6792
率为	-6793
累积	-6794
局部	-6795
环保	-6796
青铜	-6797
最好的	-6798
还包括	-6799
马克思	-6800
没有任何	-6801
▁1950	-6802
二期	-6803
击退	-6804
▁He	-6805
世宗	-6806
这两	-6807
并获得	-6808
)4	-6809
--	-6810
网上	-6811
▁1945	-6812
初步	-6813
北站	-6814
对话	-6815
时空	-6816
,14	-6817
ilm	-6818
事后	-6819
助手	-6820
的一所	-6821
与此同时	-6822
护理	-6823
财经	-6824
全世界	-6825
片尾曲	-6826
第二季	-6827
分泌	-6828
颅骨	-6829
收录于	-6830
之路	-6831
佐藤	-6832
就像	-6833
二氧化	-6834
在这个	-6835
▁Car	-6836
,2013	-6837
政变	-6838
莱德	-6839
平方千米	-6840
俄罗斯联邦	-6841
良好的	-6842
总兵	-6843
炮兵	-6844
航行	-6845
130	-6846
勃艮第	-6847
纽西兰	-6848
别墅	-6849
强制	-6850
爵位	-6851
调任	-6852
oss	-6853
理查德	-6854
スト	-6855
协定	-6856
寺院	-6857
里奇	-6858
马场	-6859
▁新城	-6860
画作	-6861
誉为	-6862
▁出生	-6863
宾夕法	-6864
南投	-6865
埃德	-6866
奇幻	-6867
甘肃省	-6868
orth	-6869
大都会	-6870
日下午	-6871
的同时	-6872
▁ISBN	-6873
只好	-6874
普拉	-6875
红军	-6876
诉讼	-6877
气压	-6878
最受欢迎	-6879
OM	-6880
1937	-6881
夫妻	-6882
搭配	-6883
法尔	-6884
(2011	-6885
,2008	-6886
专利	-6887
古迹	-6888
▁但	-6889
宫廷	-6890
了该	-6891
农历	-6892
南朝	-6893
迫使	-6894
愤怒	-6895
流经	-6896
最终以	-6897
ий	-6898
和西	-6899
售票	-6900
多斯	-6901
摄政	-6902
火炮	-6903
、10	-6904
面积为	-6905
光明	-6906
爱好	-6907
隋朝	-6908
事迹	-6909
同为	-6910
外借	-6911
的生	-6912
亦为	-6913
忍者	-6914
隐藏	-6915
amb	-6916
大致以	-6917
建立的	-6918
改良	-6919
整理	-6920
杀了	-6921
镇压	-6922
(190	-6923
曾担任	-6924
▁蔡	-6925
大和	-6926
时间的	-6927
五百	-6928
相传	-6929
▁Is	-6930
监管	-6931
较早	-6932
▁Team	-6933
化工	-6934
迈克尔	-6935
亦可	-6936
嫁给	-6937
数为	-6938
河的	-6939
结论	-6940
驻扎	-6941
▁Gro	-6942
悉尼	-6943
年世界	-6944
捐赠	-6945
▁社会	-6946
主义的	-6947
大厅	-6948
逃离	-6949
)」	-6950
▁至	-6951
最初的	-6952
白垩纪	-6953
▁Fran	-6954
▁台	-6955
内务	-6956
小项	-6957
飞船	-6958
,2007	-6959
展出	-6960
▁今	-6961
▁帕	-6962
兰卡	-6963
看台	-6964
▁Ad	-6965
二百	-6966
家庄	-6967
搬到	-6968
料理	-6969
的一部	-6970
▁六	-6971
▁大事记	-6972
信用	-6973
器官	-6974
(2010	-6975
小镇	-6976
步行	-6977
ime	-6978
▁相邻车站	-6979
参演	-6980
河东	-6981
随之	-6982
颗粒	-6983
OD	-6984
地层	-6985
面上	-6986
哲学家	-6987
的土地	-6988
。1990	-6989
不良	-6990
大名	-6991
他的父亲	-6992
大学教授	-6993
,2011	-6994
真的	-6995
伊丽莎白	-6996
生物学家	-6997
初级	-6998
士坦	-6999
肯定	-7000
ha	-7001
▁博	-7002
▁广	-7003
便是	-7004
等于	-7005
客场	-7006
山地	-7007
怪物	-7008
阿姆	-7009
上演	-7010
▁土	-7011
推翻	-7012
湿地	-7013
这条	-7014
电影的	-7015
uct	-7016
支球队	-7017
王的	-7018
ings	-7019
ан	-7020
分行	-7021
男演员	-7022
被捕	-7023
Car	-7024
的过程	-7025
交付	-7026
正选	-7027
,2012	-7028
丽丝	-7029
斯拉	-7030
永乐	-7031
直辖	-7032
南美洲	-7033
不及	-7034
交往	-7035
参议	-7036
国旗	-7037
副部长	-7038
▁Man	-7039
企划	-7040
月份	-7041
正统	-7042
镇守	-7043
每一	-7044
老人	-7045
3)	-7046
工会	-7047
地狱	-7048
班机	-7049
系列赛	-7050
上一	-7051
线性	-7052
罗门	-7053
能在	-7054
江户时代	-7055
废弃	-7056
瀑布	-7057
玩具	-7058
者为	-7059
文化遗产	-7060
关联	-7061
而后	-7062
右侍郎	-7063
都察院	-7064
阿斯	-7065
意思是	-7066
ence	-7067
▁陆	-7068
冠状病毒病	-7069
说话	-7070
重修	-7071
传记	-7072
发生于	-7073
这首歌	-7074
。1998	-7075
冲绳	-7076
立刻	-7077
精英	-7078
近卫	-7079
indows	-7080
!」	-7081
▁卷	-7082
乐章	-7083
教徒	-7084
紧张	-7085
航海	-7086
▁富	-7087
在与	-7088
气温	-7089
留学	-7090
侍中	-7091
国子	-7092
飞弹	-7093
/10	-7094
最后一次	-7095
pp	-7096
南站	-7097
相近	-7098
▁球会	-7099
做法	-7100
去了	-7101
开发的	-7102
优先	-7103
(2009	-7104
们的	-7105
奖励	-7106
包含了	-7107
方程	-7108
贝拉	-7109
这类	-7110
下属	-7111
签证	-7112
和一个	-7113
不幸	-7114
先前	-7115
(2016	-7116
无锡	-7117
门将	-7118
弯曲	-7119
本届	-7120
迪南	-7121
ino	-7122
科学技术	-7123
东临	-7124
▁Con	-7125
旧称	-7126
后来被	-7127
▁鲁	-7128
权的	-7129
三名	-7130
俄语	-7131
入境	-7132
和华	-7133
yst	-7134
天启	-7135
头的	-7136
骑师	-7137
三角形	-7138
君士坦	-7139
曾有	-7140
戴维斯	-7141
音乐学院	-7142
为辐鳍鱼纲	-7143
?”	-7144
сь	-7145
洞穴	-7146
还原	-7147
ke	-7148
武术	-7149
注射	-7150
洛特	-7151
演讲	-7152
的北	-7153
诸侯	-7154
基尔	-7155
治愈	-7156
移植	-7157
身边	-7158
降级	-7159
顶部	-7160
▁**	-7161
第一部	-7162
BM	-7163
弹药	-7164
恩斯	-7165
次为	-7166
终结	-7167
毫无	-7168
清治	-7169
不受	-7170
▁出演	-7171
▁曹	-7172
司徒	-7173
汉堡	-7174
火力	-7175
神的	-7176
让人	-7177
运载	-7178
重伤	-7179
▁1970	-7180
富士电视台	-7181
收复	-7182
父子	-7183
为日本	-7184
的军队	-7185
作物	-7186
原址	-7187
ile	-7188
日耳曼	-7189
第一届	-7190
uper	-7191
(2008	-7192
加里	-7193
度假	-7194
贯通	-7195
▁ch	-7196
,2009	-7197
▁乔	-7198
▁名	-7199
,15	-7200
开播	-7201
日和	-7202
童军	-7203
工程学院	-7204
都统	-7205
城市的	-7206
物理学家	-7207
▁1982	-7208
东站	-7209
按察司	-7210
某种	-7211
认定	-7212
出现于	-7213
▁职业生涯	-7214
不在	-7215
寺庙	-7216
西元	-7217
连同	-7218
之星	-7219
宁夏	-7220
答应	-7221
berg	-7222
故障	-7223
晚间	-7224
uss	-7225
▁月台	-7226
固体	-7227
摩洛	-7228
不列颠	-7229
最终幻想	-7230
▁宝	-7231
前方	-7232
大埔	-7233
替换	-7234
贷款	-7235
迁徙	-7236
接受了	-7237
木材	-7238
绘制	-7239
在中国大陆	-7240
一线	-7241
幕后	-7242
基本上	-7243
条例	-7244
橡胶	-7245
尾鳍	-7246
白俄罗斯	-7247
5,	-7248
OL	-7249
体现	-7250
登堡	-7251
系的	-7252
三百	-7253
文的	-7254
钻石	-7255
家村	-7256
背面	-7257
▁1949	-7258
则会	-7259
ال	-7260
中等	-7261
六十	-7262
财富	-7263
乌拉	-7264
酸盐	-7265
龙属	-7266
时间为	-7267
全身	-7268
巴布	-7269
的弟弟	-7270
务段	-7271
来往	-7272
苏里	-7273
假面	-7274
卒于	-7275
哥特	-7276
四国	-7277
年因	-7278
沟通	-7279
ham	-7280
科大学	-7281
1938	-7282
一对	-7283
球的	-7284
集数	-7285
中路	-7286
▁1960	-7287
北区	-7288
实业	-7289
新生	-7290
首届	-7291
ute	-7292
De	-7293
双向	-7294
德兰	-7295
丰富的	-7296
公布为	-7297
行政中心	-7298
峡谷	-7299
生效	-7300
老虎	-7301
带来的	-7302
部分的	-7303
作客	-7304
满贯	-7305
皇室	-7306
国家杯	-7307
、7	-7308
明尼	-7309
楚国	-7310
自主	-7311
ng	-7312
一半	-7313
签下	-7314
预告	-7315
ull	-7316
一个人	-7317
从小	-7318
栽培	-7319
汉字	-7320
独特	-7321
碎片	-7322
不含	-7323
真相	-7324
CR	-7325
政务	-7326
基隆	-7327
目录	-7328
算法	-7329
限于	-7330
ka	-7331
卫冕	-7332
密西	-7333
ene	-7334
大学士	-7335
强大	-7336
安德烈	-7337
都可以	-7338
▁莱	-7339
运送	-7340
▁后来	-7341
体制	-7342
饮料	-7343
包装	-7344
加勒比	-7345
位于中华人民共和国	-7346
▁反	-7347
摩托	-7348
连任	-7349
这部电影	-7350
债务	-7351
时速	-7352
番茄	-7353
制造商	-7354
高速铁路	-7355
(2014	-7356
一间	-7357
北条	-7358
清军	-7359
里程	-7360
▁1956	-7361
又有	-7362
地处	-7363
患有	-7364
议席	-7365
沙尼亚	-7366
下辖的一个	-7367
ft	-7368
ux	-7369
专攻	-7370
巴达	-7371
动物的	-7372
日上映	-7373
人是	-7374
珍珠	-7375
质的	-7376
延伸至	-7377
的一家	-7378
告知	-7379
氏的	-7380
广播电台	-7381
久的	-7382
人与	-7383
西汉	-7384
发展的	-7385
可能性	-7386
的事情	-7387
▁Bar	-7388
泽尔	-7389
环节	-7390
职工	-7391
人死亡	-7392
分店	-7393
情感	-7394
万年前	-7395
董事会	-7396
晚年	-7397
一个月	-7398
▁东京	-7399
▁常	-7400
第一批	-7401
京师	-7402
但也	-7403
哥华	-7404
穿著	-7405
亚洲电视	-7406
Go	-7407
反击	-7408
▁一般	-7409
▁编曲	-7410
▁利	-7411
提交	-7412
立场	-7413
立面	-7414
重播	-7415
▁1958	-7416
温哥华	-7417
的环境	-7418
)/	-7419
强化	-7420
接驳	-7421
提督	-7422
▁九	-7423
出资	-7424
原料	-7425
奥利	-7426
-22	-7427
You	-7428
大学生	-7429
。1909	-7430
划入	-7431
吸血	-7432
▁1981	-7433
沙田	-7434
直路	-7435
是一款	-7436
第十一	-7437
后世	-7438
确实	-7439
家康	-7440
air	-7441
ari	-7442
奥多	-7443
干扰	-7444
之前的	-7445
乌尔	-7446
受害	-7447
德勒	-7448
置于	-7449
联队	-7450
柴油机	-7451
治理	-7452
温带	-7453
莱坞	-7454
但因为	-7455
晋升为	-7456
毛利	-7457
▁塔	-7458
途经	-7459
哈根	-7460
巨星	-7461
海关	-7462
警报	-7463
复制	-7464
建国	-7465
深刻	-7466
还要	-7467
的一位	-7468
科罗	-7469
郡的	-7470
▁形态	-7471
可惜	-7472
害怕	-7473
庄园	-7474
检察	-7475
西门	-7476
第一季	-7477
潜水	-7478
▁设计	-7479
一份	-7480
。14	-7481
为主题	-7482
次的	-7483
站在	-7484
操纵	-7485
原声	-7486
月中	-7487
疯狂	-7488
孙子	-7489
▁Re	-7490
▁专辑	-7491
大大	-7492
奏曲	-7493
纷纷	-7494
克拉克	-7495
(2012	-7496
(2013	-7497
SM	-7498
转变	-7499
个国家	-7500
该建筑	-7501
学校的	-7502
或其他	-7503
有限责任	-7504
5.	-7505
人文	-7506
原因是	-7507
成立后	-7508
关东	-7509
四人	-7510
垃圾	-7511
山上	-7512
年来	-7513
首发	-7514
▁塞	-7515
他人	-7516
内斯	-7517
长老	-7518
名称为	-7519
(2007	-7520
lor	-7521
赛车	-7522
Mich	-7523
云林	-7524
来看	-7525
突厥	-7526
语中	-7527
阵营	-7528
itch	-7529
OV	-7530
半径	-7531
来了	-7532
桂林	-7533
爸爸	-7534
版权	-7535
奈良	-7536
孙女	-7537
安达	-7538
▁Ex	-7539
供电	-7540
最具	-7541
的使用	-7542
第一名	-7543
▁Comp	-7544
。2	-7545
井上	-7546
入了	-7547
少量	-7548
立为	-7549
▁la	-7550
AD	-7551
世代	-7552
南端	-7553
城内	-7554
意识到	-7555
的车站	-7556
村落	-7557
法军	-7558
瓦拉	-7559
罗宾	-7560
艾尔	-7561
有关的	-7562
看起来	-7563
唱片公司	-7564
样本	-7565
氨基	-7566
精确	-7567
猎人	-7568
遗体	-7569
▁著名	-7570
)6	-7571
电机	-7572
管弦	-7573
进化	-7574
玛格丽	-7575
罗马天主教	-7576
专线	-7577
北部的	-7578
年在位	-7579
-21、	-7580
了两	-7581
直通	-7582
逆转	-7583
倾斜	-7584
斯特拉	-7585
摩根	-7586
组成部分	-7587
则以	-7588
▁内容	-7589
但最终	-7590
协商	-7591
历代	-7592
护士	-7593
酋长	-7594
设置的	-7595
▁区	-7596
中村	-7597
插曲	-7598
解体	-7599
有一条	-7600
大正九年	-7601
迁往	-7602
提供的	-7603
!”	-7604
人间	-7605
拜仁	-7606
波音	-7607
也称为	-7608
布斯	-7609
开封	-7610
神庙	-7611
为台湾	-7612
IL	-7613
之事	-7614
楼层	-7615
江湖	-7616
迪斯	-7617
额外	-7618
▁影响	-7619
〉、	-7620
教导	-7621
,2005	-7622
书写	-7623
某个	-7624
▁克	-7625
ショ	-7626
足以	-7627
▁所有	-7628
1936	-7629
香港电影	-7630
:2	-7631
ич	-7632
▁宫	-7633
西站	-7634
ike	-7635
研究人员	-7636
(2015	-7637
▁1954	-7638
中断	-7639
完结	-7640
榴弹	-7641
精选	-7642
人类的	-7643
动物园	-7644
外围赛	-7645
日上午	-7646
第一轮	-7647
舞台剧	-7648
为首	-7649
村改制为	-7650
(2006	-7651
)3	-7652
一张	-7653
分治	-7654
消耗	-7655
潜在	-7656
▁两	-7657
电磁	-7658
流放	-7659
小说家	-7660
与之	-7661
美的	-7662
更大的	-7663
水晶	-7664
道教	-7665
和新	-7666
神学	-7667
其范围	-7668
ен	-7669
堂区	-7670
攻陷	-7671
暴露	-7672
维希	-7673
高山	-7674
可分为	-7675
————《	-7676
红袜	-7677
app	-7678
▁组织	-7679
MP	-7680
偶尔	-7681
家臣	-7682
照明	-7683
安东尼	-7684
逢星期	-7685
热带气旋	-7686
西伯利亚	-7687
依旧	-7688
的变	-7689
iver	-7690
三千	-7691
不但	-7692
各项	-7693
成化	-7694
该市	-7695
▁发展	-7696
弗拉基	-7697
专注	-7698
合理	-7699
音乐家	-7700
▁父	-7701
下有	-7702
人所	-7703
休闲	-7704
于同年	-7705
reet	-7706
。1996	-7707
DD	-7708
位在	-7709
塞拜	-7710
大林	-7711
AKB	-7712
他成为	-7713
领事馆	-7714
堡垒	-7715
och	-7716
最高法院	-7717
助于	-7718
意味着	-7719
ital	-7720
。1997	-7721
”;	-7722
山路	-7723
outh	-7724
101	-7725
▁天津	-7726
ater	-7727
ower	-7728
oe	-7729
ya	-7730
改元	-7731
框架	-7732
离开了	-7733
领导的	-7734
位于本地区	-7735
▁比	-7736
指标	-7737
片中	-7738
采集	-7739
摩洛哥	-7740
填词	-7741
据点	-7742
眼镜	-7743
▁TV	-7744
影响力	-7745
理工学院	-7746
EF	-7747
住房	-7748
储存	-7749
参数	-7750
门的	-7751
▁一个	-7752
cl	-7753
带到	-7754
带着	-7755
意图	-7756
肺炎	-7757
▁本作	-7758
企业家	-7759
共产主义	-7760
客家	-7761
演绎	-7762
在上海	-7763
太常	-7764
星球	-7765
欣赏	-7766
毒性	-7767
万英镑	-7768
创业	-7769
干道	-7770
月刊	-7771
父亲的	-7772
ль	-7773
ディ	-7774
开行	-7775
氯化	-7776
▁秦	-7777
分享	-7778
前线	-7779
就能	-7780
幼儿	-7781
140	-7782
年出生	-7783
by	-7784
不敢	-7785
只在	-7786
北京大学	-7787
山城	-7788
常被	-7789
林业	-7790
剧场版	-7791
一角	-7792
王刘	-7793
痛苦	-7794
oon	-7795
-21)	-7796
索尔	-7797
范畴	-7798
远东	-7799
▁Or	-7800
官职	-7801
所著	-7802
难度	-7803
布莱恩	-7804
ts	-7805
后转	-7806
更改	-7807
河流域	-7808
第十二	-7809
。1994	-7810
后代	-7811
敏感	-7812
球衣	-7813
防护	-7814
年正式	-7815
▁1979	-7816
两岸	-7817
率先	-7818
管制	-7819
发表了	-7820
第一代	-7821
部作品	-7822
在阿	-7823
改由	-7824
森堡	-7825
ini	-7826
被列为	-7827
丘陵	-7828
阴谋	-7829
理工大学	-7830
鹦鹉	-7831
0.5	-7832
过后	-7833
韦尔	-7834
夫斯基	-7835
omas	-7836
William	-7837
废止	-7838
打出	-7839
▁1978	-7840
决于	-7841
南华	-7842
拉姆	-7843
▁Air	-7844
▁For	-7845
敲出	-7846
选民	-7847
剧组	-7848
府知府	-7849
但被	-7850
绑架	-7851
认知	-7852
这也	-7853
TBS	-7854
染色体	-7855
奉命	-7856
▁海军	-7857
进入了	-7858
足球超级联赛	-7859
南部的	-7860
同性恋	-7861
一说	-7862
走廊	-7863
▁Park	-7864
ング	-7865
祖籍	-7866
他又	-7867
努斯	-7868
半部	-7869
年末	-7870
执法	-7871
泰尔	-7872
探测器	-7873
一点	-7874
年仅	-7875
赛后	-7876
女友	-7877
架构	-7878
▁威廉	-7879
代表团	-7880
年左右	-7881
▁冯	-7882
分散	-7883
新型	-7884
下水	-7885
下诏	-7886
义务	-7887
保健	-7888
不一	-7889
策骑	-7890
BBC	-7891
天然气	-7892
总冠军	-7893
日发售	-7894
地区为一	-7895
损伤	-7896
民籍	-7897
行车	-7898
活动的	-7899
别名	-7900
转播	-7901
学研究	-7902
是德国	-7903
之称	-7904
召唤	-7905
摩斯	-7906
则被	-7907
百合	-7908
稳定的	-7909
ound	-7910
确诊病例	-7911
美国国家	-7912
CN	-7913
每小时	-7914
▁Colle	-7915
iu	-7916
中所	-7917
学金	-7918
致仕	-7919
数学家	-7920
▁y	-7921
保育	-7922
威斯	-7923
格的	-7924
顺位	-7925
2。	-7926
生日	-7927
纳西	-7928
Gre	-7929
明星赛	-7930
的传统	-7931
境内共有	-7932
明治三十四年	-7933
足利	-7934
一代	-7935
攻克	-7936
海底	-7937
美人	-7938
群的	-7939
鉴定	-7940
可靠	-7941
所长	-7942
敌军	-7943
烧毁	-7944
纳米	-7945
▁市	-7946
中队	-7947
总体	-7948
总额	-7949
狩猎	-7950
球队的	-7951
有利	-7952
近似	-7953
”,“	-7954
委员会的	-7955
,2014	-7956
民营	-7957
琳娜	-7958
Jos	-7959
史蒂芬	-7960
年进入	-7961
并止于省道台	-7962
却被	-7963
消化	-7964
其中的	-7965
工作者	-7966
▁主题曲	-7967
之旅	-7968
差距	-7969
摔角	-7970
较多	-7971
又称为	-7972
丧失	-7973
宦官	-7974
对比	-7975
怪兽	-7976
有一座	-7977
大地	-7978
伟大的	-7979
五代	-7980
花序	-7981
观念	-7982
▁曲目	-7983
对决	-7984
批复	-7985
山田	-7986
莉丝	-7987
英国的	-7988
小孩	-7989
珍妮	-7990
蝴蝶	-7991
简单的	-7992
一书	-7993
尼的	-7994
征召	-7995
▁Ed	-7996
音乐剧	-7997
有限责任公司	-7998
oo	-7999
▁r	-8000
」;	-8001
的东	-8002
膨胀	-8003
诺伊	-8004
购入	-8005
和社会	-8006
新北市	-8007
郡太守	-8008
特种	-8009
珠海	-8010
莲花	-8011
半决赛	-8012
录音室	-8013
终点站	-8014
三条	-8015
国土	-8016
川村	-8017
用了	-8018
ky	-8019
属下	-8020
应对	-8021
船舶	-8022
有很多	-8023
未来的	-8024
前任	-8025
北极	-8026
合资	-8027
轶事	-8028
▁关于	-8029
▁戴	-8030
底部	-8031
畅销	-8032
船员	-8033
角逐	-8034
攻下	-8035
预言	-8036
首歌曲	-8037
TE	-8038
前作	-8039
取决于	-8040
就已经	-8041
引起的	-8042
发的	-8043
大门	-8044
一群	-8045
击中	-8046
办学	-8047
子和	-8048
检验	-8049
赋予	-8050
邪恶	-8051
HE	-8052
回复	-8053
排球	-8054
琼斯	-8055
年首次	-8056
职业足球	-8057
两层	-8058
儿岛	-8059
并开始	-8060
改编为	-8061
,2016	-8062
情人	-8063
点是	-8064
足球锦标赛	-8065
已在	-8066
红旗	-8067
▁2.	-8068
。1995	-8069
主要由	-8070
椭圆形	-8071
获得第	-8072
法兰克福	-8073
David	-8074
AG	-8075
Be	-8076
三等	-8077
右侧	-8078
地表	-8079
流亡	-8080
男友	-8081
紧密	-8082
王朝的	-8083
普尔	-8084
演技	-8085
编成	-8086
▁吕	-8087
史料	-8088
小于	-8089
月被	-8090
海滩	-8091
生前	-8092
还会	-8093
1918	-8094
决策	-8095
奇迹	-8096
组的	-8097
缩短	-8098
言人	-8099
米特里	-8100
,2004	-8101
中以	-8102
新界	-8103
时为	-8104
玩法	-8105
词汇	-8106
最后一个	-8107
厚度	-8108
New	-8109
的一场	-8110
的结构	-8111
该庄隶属于	-8112
",	-8113
三藏	-8114
收获	-8115
投入使用	-8116
%)	-8117
传染	-8118
公务	-8119
女士	-8120
春季	-8121
此类	-8122
缺陷	-8123
闪电	-8124
好莱坞	-8125
彼得堡	-8126
人都	-8127
后裔	-8128
筹备	-8129
▁柳	-8130
车的	-8131
的人口	-8132
▁音	-8133
曾与	-8134
有多	-8135
泽西	-8136
破产	-8137
诸塞	-8138
化妆	-8139
总长	-8140
相机	-8141
▁历史沿革	-8142
季度	-8143
是他	-8144
但后来	-8145
1933	-8146
ield	-8147
上任	-8148
侵略	-8149
全体	-8150
药品	-8151
时间内	-8152
特定的	-8153
的不同	-8154
2-	-8155
▁特别	-8156
的基础上	-8157
宠物	-8158
巴哈	-8159
立交	-8160
比赛的	-8161
▁赤	-8162
上诉	-8163
前期	-8164
手法	-8165
配套	-8166
主要为	-8167
出色的	-8168
在当地	-8169
庙宇	-8170
武将	-8171
教室	-8172
生母	-8173
拉丁语	-8174
Game	-8175
ella	-8176
斯里兰卡	-8177
▁Me	-8178
近年来	-8179
风格的	-8180
裔美国人	-8181
eorge	-8182
大火	-8183
普及	-8184
ism	-8185
的两个	-8186
大字亦改制为	-8187
声优	-8188
魁北	-8189
▁Gre	-8190
一架	-8191
习俗	-8192
妖怪	-8193
棒队	-8194
留守	-8195
应当	-8196
碰撞	-8197
祈祷	-8198
(2017	-8199
▁University	-8200
享受	-8201
工党	-8202
男爵	-8203
ない	-8204
丽的	-8205
会馆	-8206
剩下	-8207
同日	-8208
职能	-8209
?)	-8210
大略	-8211
此处	-8212
纳州	-8213
法规	-8214
112	-8215
局局长	-8216
适当	-8217
间接	-8218
较高的	-8219
歌舞	-8220
▁配音	-8221
十九年	-8222
证券交易所	-8223
▁e	-8224
星云	-8225
水面	-8226
不可能	-8227
世界遗产	-8228
。1993	-8229
山站	-8230
ney	-8231
家族的	-8232
to	-8233
居于	-8234
暗杀	-8235
致命	-8236
有一种	-8237
会以	-8238
巴克	-8239
往来	-8240
总计	-8241
数码	-8242
小行星	-8243
父亲是	-8244
问题的	-8245
军节度使	-8246
做了	-8247
否则	-8248
▁歌曲	-8249
生存于	-8250
。1945	-8251
右翼	-8252
名列	-8253
消除	-8254
霍夫	-8255
附加赛	-8256
景区	-8257
七个	-8258
同事	-8259
墓地	-8260
疼痛	-8261
交响曲	-8262
。1991	-8263
伊万	-8264
共享	-8265
死者	-8266
▁中央	-8267
方向的	-8268
生活的	-8269
一时	-8270
变更	-8271
因应	-8272
张家	-8273
扩散	-8274
样的	-8275
王李	-8276
莱特	-8277
蜂鸟	-8278
评选	-8279
译本	-8280
ta	-8281
建造的	-8282
二十三年	-8283
▁英	-8284
该站	-8285
年代末	-8286
相对于	-8287
,2015	-8288
▁1941	-8289
尚有	-8290
徐州	-8291
考入	-8292
爱沙尼亚	-8293
决心	-8294
差别	-8295
而有	-8296
ubl	-8297
OW	-8298
中东	-8299
导体	-8300
相互作用	-8301
▁John	-8302
。1980	-8303
动员	-8304
州区	-8305
诸多	-8306
第十三	-8307
二甲	-8308
响应	-8309
而行	-8310
▁El	-8311
动态	-8312
明帝	-8313
罗曼	-8314
尼克斯	-8315
门下	-8316
ere	-8317
▁争议	-8318
▁Cor	-8319
Robert	-8320
原画	-8321
枢密	-8322
海湾	-8323
的亲	-8324
族自治区	-8325
▁京	-8326
中毒	-8327
传输	-8328
冰川	-8329
建制	-8330
泉州	-8331
率兵	-8332
uch	-8333
作品的	-8334
广泛的	-8335
加索	-8336
打点	-8337
翼龙	-8338
德国的	-8339
▁经济利用	-8340
巴马	-8341
预选	-8342
的一项	-8343
。1992	-8344
国外	-8345
也可能	-8346
叶片	-8347
山谷	-8348
▁re	-8349
影评人	-8350
希伯	-8351
故此	-8352
灾难	-8353
生殖	-8354
复杂的	-8355
推出了	-8356
6,	-8357
及时	-8358
李氏	-8359
汗国	-8360
连锁	-8361
降雨	-8362
▁生涯	-8363
▁洪	-8364
奥托	-8365
左侧	-8366
水手	-8367
过去的	-8368
ball	-8369
,2017	-8370
县级	-8371
行省	-8372
ole	-8373
为一个	-8374
ome	-8375
了一种	-8376
国防部	-8377
也被称为	-8378
北东	-8379
老挝	-8380
该书	-8381
1934	-8382
▁英格兰	-8383
、9	-8384
兵器	-8385
▁现代	-8386
应用于	-8387
转移到	-8388
美国总统	-8389
enter	-8390
ライ	-8391
日与	-8392
月任	-8393
残疾	-8394
ico	-8395
创办人	-8396
的地下	-8397
1935	-8398
文艺复兴	-8399
几年	-8400
排除	-8401
技术学院	-8402
▁温	-8403
欧阳	-8404
状的	-8405
的重	-8406
翻新	-8407
太保	-8408
并向	-8409
极限	-8410
也成为	-8411
萨诸塞	-8412
传承	-8413
先驱	-8414
神户	-8415
吉林省	-8416
是一所	-8417
人民代表大会	-8418
ュー	-8419
外部	-8420
怎么	-8421
等职	-8422
▁皮	-8423
司铎	-8424
大批	-8425
安定	-8426
频繁	-8427
导致了	-8428
战斗中	-8429
剪辑	-8430
后备	-8431
塔尼	-8432
资深	-8433
(2005	-8434
上线	-8435
迪克	-8436
门外	-8437
▁Gu	-8438
其中一种	-8439
aurus	-8440
兵库	-8441
les	-8442
发电机	-8443
他说	-8444
合金	-8445
概要	-8446
江市	-8447
酒精	-8448
▁亚洲	-8449
4000	-8450
ener	-8451
的一个传统	-8452
年从	-8453
怀特	-8454
询问	-8455
ena	-8456
▁De	-8457
奖学金	-8458
rich	-8459
▁千	-8460
墓葬	-8461
知名的	-8462
▁演员表	-8463
%;	-8464
BL	-8465
哈顿	-8466
遇见	-8467
oft	-8468
的技术	-8469
的要求	-8470
大纲	-8471
辽东	-8472
其中有	-8473
表现出	-8474
黑龙江省	-8475
集结	-8476
地图上	-8477
四强	-8478
深夜	-8479
下去	-8480
第一任	-8481
高尔夫	-8482
高级中学	-8483
。1949	-8484
沙特	-8485
的石	-8486
,2020	-8487
改组	-8488
故意	-8489
的光	-8490
亚特兰	-8491
▁近	-8492
巴比	-8493
水果	-8494
out	-8495
不利	-8496
中超	-8497
哈萨	-8498
的非	-8499
科学与	-8500
。1988	-8501
常侍	-8502
食邑	-8503
的消息	-8504
遇上	-8505
运动的	-8506
公益	-8507
知州	-8508
讲谈	-8509
万欧元	-8510
,190	-8511
ichard	-8512
卫斯	-8513
否认	-8514
的反	-8515
不久后	-8516
1932	-8517
一方	-8518
信托	-8519
兴起	-8520
动脉	-8521
罗杰	-8522
国会议员	-8523
华南	-8524
大胜	-8525
字子	-8526
里希	-8527
我们的	-8528
魁北克	-8529
▁蓝	-8530
多元	-8531
乒乓	-8532
日文	-8533
煤矿	-8534
che	-8535
▁之后	-8536
号路口	-8537
▁分	-8538
▁范	-8539
▁魏	-8540
中途	-8541
火焰	-8542
高温	-8543
前去	-8544
海战	-8545
魔戒	-8546
▁球员	-8547
兹别	-8548
巴嫩	-8549
平县	-8550
村的	-8551
语系	-8552
齐国	-8553
可供	-8554
叶子	-8555
当晚	-8556
漫威	-8557
绰号	-8558
落后	-8559
首轮	-8560
▁Wh	-8561
▁影视	-8562
用地	-8563
▁概述	-8564
你的	-8565
停留	-8566
外星	-8567
盖尔	-8568
假面骑士	-8569
全美	-8570
肉食性	-8571
巴勒斯坦	-8572
专员	-8573
习性	-8574
病的	-8575
的单	-8576
▁苏联	-8577
的一名	-8578
黎巴嫩	-8579
更高	-8580
渡边	-8581
花费	-8582
虚拟	-8583
文化的	-8584
电视广播	-8585
Charl	-8586
3.5	-8587
▁动画	-8588
沉没	-8589
房地产	-8590
▁将	-8591
即时	-8592
夫兰	-8593
汉朝	-8594
三十年	-8595
小林	-8596
是将	-8597
rag	-8598
巡回赛	-8599
尼日利亚	-8600
相遇	-8601
▁Lim	-8602
清华大学	-8603
牵引电动机	-8604
▁里	-8605
低音	-8606
南下	-8607
参见	-8608
在东	-8609
常用	-8610
海水	-8611
特鲁	-8612
迄今	-8613
金星	-8614
阿布	-8615
350	-8616
岛式站台	-8617
密码	-8618
电信	-8619
引起了	-8620
年人口普查	-8621
we	-8622
完善	-8623
山本	-8624
逃走	-8625
彻斯特	-8626
战争的	-8627
乙级联赛	-8628
位列	-8629
托夫	-8630
猎物	-8631
为香港	-8632
发源于	-8633
下列	-8634
书房	-8635
住户	-8636
寄生	-8637
文本	-8638
期望	-8639
赛会	-8640
送往	-8641
间隔	-8642
uel	-8643
1919	-8644
▁或	-8645
卡西	-8646
安人	-8647
欢乐	-8648
礼仪	-8649
之役	-8650
德利	-8651
ree	-8652
地域名称	-8653
成为一个	-8654
地区为一街庄	-8655
劳工	-8656
子孙	-8657
存活	-8658
审计	-8659
弗莱	-8660
故居	-8661
次日	-8662
erm	-8663
后不久	-8664
历史建筑	-8665
▁Street	-8666
后才	-8667
证书	-8668
定义为	-8669
了自己的	-8670
号在	-8671
所知	-8672
路径	-8673
▁风	-8674
杆菌	-8675
ement	-8676
▁车站周边	-8677
日治明治三十四年	-8678
写成	-8679
翻唱	-8680
阵地	-8681
领主	-8682
齿轮	-8683
▁结构	-8684
原有的	-8685
纽约州	-8686
1900	-8687
德州	-8688
思考	-8689
郊区	-8690
高清	-8691
可以用	-8692
八强	-8693
群众	-8694
西比	-8695
马赛	-8696
的活动	-8697
讲谈社	-8698
▁Award	-8699
▁俱乐部生涯	-8700
一边	-8701
处决	-8702
弗吉	-8703
灵顿	-8704
社团	-8705
被判	-8706
仓库	-8707
恶化	-8708
代号	-8709
金钱	-8710
马利	-8711
亚瑟	-8712
慢慢	-8713
是该	-8714
涉嫌	-8715
莉莎	-8716
魔术	-8717
为美国	-8718
总教练	-8719
乐曲	-8720
吉祥	-8721
语和	-8722
优异	-8723
的一个传统地域名称	-8724
派人	-8725
〉、〈	-8726
▁川	-8727
华纳	-8728
场上	-8729
紫色	-8730
马路	-8731
鳞片	-8732
▁沈	-8733
关西	-8734
各大	-8735
安置	-8736
年幼	-8737
西蒙	-8738
经费	-8739
▁其后	-8740
鹿儿岛	-8741
.,	-8742
极端	-8743
瑞拉	-8744
童年	-8745
蒂亚	-8746
基础上	-8747
年代的	-8748
明治四十二年	-8749
刚果	-8750
战事	-8751
接手	-8752
江县	-8753
港区	-8754
空袭	-8755
▁年度	-8756
变成了	-8757
街头	-8758
道奇	-8759
达到了	-8760
aris	-8761
,2003	-8762
▁车	-8763
▁邓	-8764
伦堡	-8765
萨摩	-8766
表彰	-8767
▁韩国	-8768
曼哈顿	-8769
目的地	-8770
各有	-8771
结盟	-8772
预期	-8773
撞击坑	-8774
Co	-8775
NH	-8776
下载	-8777
所杀	-8778
辞去	-8779
高层	-8780
irl	-8781
外交部	-8782
为中	-8783
奖的	-8784
旅馆	-8785
译名	-8786
党员	-8787
哥本	-8788
女优	-8789
藩主	-8790
追赠	-8791
为中心	-8792
年夏天	-8793
卡通	-8794
札幌	-8795
草地	-8796
莫尔	-8797
通常会	-8798
二千	-8799
型态	-8800
条款	-8801
流入	-8802
茨克	-8803
议长	-8804
加利福尼亚	-8805
为何	-8806
外界	-8807
纵向	-8808
线和	-8809
者和	-8810
不知道	-8811
不过在	-8812
年完成	-8813
往返	-8814
狙击	-8815
站位于	-8816
。1	-8817
冰岛	-8818
就业	-8819
舰艇	-8820
ker	-8821
▁她	-8822
世的	-8823
再生	-8824
孔子	-8825
损坏	-8826
放映	-8827
项目的	-8828
中国国家	-8829
▁玛	-8830
卡洛	-8831
损害	-8832
那时	-8833
да	-8834
之变	-8835
介于	-8836
光的	-8837
oot	-8838
▁霍	-8839
▁di	-8840
帮助下	-8841
所谓的	-8842
足总杯	-8843
公共交通	-8844
玛格丽特	-8845
今日行政区	-8846
权威	-8847
制造的	-8848
收录了	-8849
▁Ass	-8850
战争爆发	-8851
取景	-8852
布列	-8853
105	-8854
侧式月台	-8855
▁Love	-8856
北起顺时针与	-8857
晋国	-8858
▁国道	-8859
普森	-8860
box	-8861
1922	-8862
,2019	-8863
俄军	-8864
图形	-8865
想到	-8866
逃跑	-8867
人认为	-8868
哥本哈根	-8869
2(	-8870
▁野	-8871
出家	-8872
博览会	-8873
相较于今日行政区	-8874
占有	-8875
古城	-8876
塔基	-8877
屯门	-8878
斯德	-8879
死刑	-8880
温和	-8881
萨瓦	-8882
语音	-8883
ican	-8884
▁尼	-8885
▁校	-8886
候补	-8887
元璋	-8888
是被	-8889
ATP	-8890
年去世	-8891
诺维奇	-8892
脊椎动物	-8893
不等	-8894
属性	-8895
号班机	-8896
热带风暴	-8897
可以追溯到	-8898
东风	-8899
主权	-8900
大佐	-8901
托勒	-8902
新村	-8903
送给	-8904
长时间	-8905
年夏季奥林匹克运动会	-8906
复出	-8907
爱国	-8908
驻守	-8909
不同于	-8910
彰化县	-8911
广播电视	-8912
ij	-8913
临近	-8914
伯恩	-8915
熟悉	-8916
确立	-8917
▁同时	-8918
▁此剧	-8919
向东南	-8920
班次	-8921
橄榄球	-8922
版本的	-8923
的速度	-8924
ym	-8925
▁站	-8926
和圣	-8927
选票	-8928
gel	-8929
其范围大致	-8930
ティ	-8931
亮的	-8932
契丹	-8933
最小	-8934
煤炭	-8935
登录	-8936
自从	-8937
ife	-8938
诺曼底	-8939
,2018	-8940
散文	-8941
法定	-8942
赔偿	-8943
土著	-8944
场合	-8945
年份	-8946
微博	-8947
案例	-8948
河西	-8949
发布了	-8950
▁des	-8951
▁1959	-8952
丰臣	-8953
味道	-8954
山下	-8955
的球队	-8956
回收	-8957
存储	-8958
富有	-8959
师从	-8960
招募	-8961
rig	-8962
希特勒	-8963
▁俄罗斯	-8964
减轻	-8965
开采	-8966
过来	-8967
分别在	-8968
每一个	-8969
二十二年	-8970
PG	-8971
▁基	-8972
中正	-8973
把他	-8974
散骑	-8975
逃脱	-8976
粤语配音	-8977
一片	-8978
德堡	-8979
木村	-8980
生意	-8981
续约	-8982
继承了	-8983
IA	-8984
》;	-8985
时装	-8986
横跨	-8987
Con	-8988
年建成	-8989
stit	-8990
苏维埃社会主义共和国	-8991
一枚	-8992
出去	-8993
都能	-8994
争论	-8995
利桑	-8996
1-	-8997
▁费	-8998
彩色	-8999
暗示	-9000
法学	-9001
的力量	-9002
的目标	-9003
elle	-9004
さん	-9005
蜥脚	-9006
规格	-9007
▁1944	-9008
别人	-9009
天桥	-9010
灌木	-9011
三部曲	-9012
科技大学	-9013
讲师	-9014
代表作	-9015
清治末期	-9016
分辨	-9017
和南	-9018
埃塞	-9019
寺卿	-9020
流通	-9021
运转	-9022
900	-9023
cy	-9024
戏院	-9025
探讨	-9026
撤离	-9027
科隆	-9028
聚会	-9029
系统中	-9030
亦会	-9031
狭窄	-9032
▁th	-9033
总主教	-9034
局下	-9035
新星	-9036
列车的	-9037
及利亚	-9038
结束时	-9039
▁World	-9040
?」	-9041
混血	-9042
见面	-9043
的中心	-9044
英国皇家	-9045
凯特	-9046
守门	-9047
开国	-9048
很有	-9049
灌溉	-9050
之一的	-9051
特殊的	-9052
印地	-9053
国籍	-9054
帕克	-9055
武昌	-9056
用品	-9057
卫斯理	-9058
的价格	-9059
(2004	-9060
养子	-9061
和他	-9062
都城	-9063
Har	-9064
脱维亚	-9065
拍卖	-9066
一直在	-9067
之后在	-9068
亚热带	-9069
▁库	-9070
两端	-9071
个别	-9072
无关	-9073
趋势	-9074
ates	-9075
冠军联赛	-9076
▁Comm	-9077
▁非	-9078
不动	-9079
则于	-9080
力士	-9081
战时	-9082
推行	-9083
渔业	-9084
般的	-9085
创下	-9086
式为	-9087
追踪	-9088
长崎	-9089
工程系	-9090
后为	-9091
墨尔	-9092
幼年	-9093
铁路公司	-9094
ritic	-9095
克里斯蒂安	-9096
1:	-9097
便利	-9098
几种	-9099
土木	-9100
混淆	-9101
而已	-9102
仙奴	-9103
矩阵	-9104
丹尼尔	-9105
▁Group	-9106
开创	-9107
条目	-9108
游乐	-9109
贫困	-9110
贯穿	-9111
ces	-9112
▁on	-9113
中的一个	-9114
地下二层	-9115
年代中期	-9116
▁中华职棒	-9117
升班	-9118
报复	-9119
,13	-9120
不太	-9121
四周	-9122
接待	-9123
布鲁克	-9124
的政治	-9125
隶属于台中	-9126
日以	-9127
现金	-9128
白金	-9129
最著名的	-9130
▁贾	-9131
新鲜	-9132
最长	-9133
希腊语	-9134
青年队	-9135
。1985	-9136
公墓	-9137
图尔	-9138
结识	-9139
▁西班牙	-9140
▁1952	-9141
▁台湾清治末期	-9142
分的	-9143
引导	-9144
指责	-9145
林肯	-9146
睡眠	-9147
聘请	-9148
▁到	-9149
兵卫	-9150
土库	-9151
献给	-9152
著称	-9153
》:「	-9154
1200	-9155
▁Med	-9156
新秀	-9157
org	-9158
一年后	-9159
▁超	-9160
施行	-9161
为主的	-9162
摄影师	-9163
岛式月台	-9164
1,000	-9165
ition	-9166
华东	-9167
掌管	-9168
同一个	-9169
消费者	-9170
ology	-9171
▁家	-9172
利尔	-9173
帕拉	-9174
旁边	-9175
民用	-9176
管道	-9177
西尔	-9178
观政	-9179
较小的	-9180
▁香	-9181
事物	-9182
和歌	-9183
马的	-9184
TS	-9185
矿业	-9186
耶尔	-9187
遇难	-9188
作品中	-9189
不论	-9190
华德	-9191
培育	-9192
山庄	-9193
现代化	-9194
还可以	-9195
享有	-9196
夫勒	-9197
当初	-9198
纳的	-9199
▁美术	-9200
当然	-9201
显得	-9202
西晋	-9203
驻地	-9204
东西向	-9205
共演	-9206
卓越	-9207
物流	-9208
米勒	-9209
美联	-9210
组组长	-9211
领域的	-9212
向上	-9213
外线	-9214
本次	-9215
不需要	-9216
日治初期	-9217
DA	-9218
不愿	-9219
军长	-9220
纪元	-9221
预定	-9222
▁路线	-9223
资格赛	-9224
▁索	-9225
召集	-9226
启发	-9227
四位	-9228
进展	-9229
ala	-9230
年逝世	-9231
Ab	-9232
故乡	-9233
派往	-9234
滑冰	-9235
繁荣	-9236
远离	-9237
程度上	-9238
贵州省	-9239
。1986	-9240
EX	-9241
泰山	-9242
辩论	-9243
后成为	-9244
栖息于	-9245
之家	-9246
吉士	-9247
是其	-9248
蔬菜	-9249
远的	-9250
1.2	-9251
ese	-9252
与新	-9253
名将	-9254
度过	-9255
短途	-9256
结尾	-9257
阴阳	-9258
短篇小说	-9259
(2018	-9260
▁钟	-9261
逃到	-9262
模式种	-9263
反复	-9264
得票	-9265
短篇	-9266
的家庭	-9267
Wh	-9268
之孙	-9269
借此	-9270
坠毁	-9271
数千	-9272
而出	-9273
锦赛	-9274
the	-9275
朱元璋	-9276
细胞的	-9277
1929	-9278
Paul	-9279
二十一年	-9280
Or	-9281
▁丁	-9282
借用	-9283
军中	-9284
吉利	-9285
平等	-9286
蒂斯	-9287
镰仓	-9288
武汉市	-9289
耶维奇	-9290
▁潘	-9291
在对	-9292
肯尼	-9293
Col	-9294
重力	-9295
,20	-9296
ero	-9297
的军事	-9298
加冕	-9299
夺回	-9300
造成了	-9301
神圣罗马帝国	-9302
和第	-9303
急性	-9304
战机	-9305
旅程	-9306
礼物	-9307
为主要	-9308
年亚洲	-9309
,2000	-9310
,2002	-9311
两大	-9312
克洛	-9313
委内	-9314
并称	-9315
本质	-9316
英属	-9317
一体	-9318
宣言	-9319
糖尿	-9320
考证	-9321
吸血鬼	-9322
巴尼亚	-9323
灯塔	-9324
马上	-9325
德里希	-9326
上层	-9327
之歌	-9328
兰德	-9329
到来	-9330
北齐	-9331
ська	-9332
个出入口	-9333
医科大学	-9334
日治时期	-9335
James	-9336
实习	-9337
意甲	-9338
人口密度	-9339
交由	-9340
校尉	-9341
状腺	-9342
贞观	-9343
erg	-9344
rim	-9345
Re	-9346
改用	-9347
的古	-9348
监视	-9349
看法	-9350
重型	-9351
已经被	-9352
政治部	-9353
领衔主演	-9354
一周	-9355
县厅	-9356
特雷	-9357
藏书	-9358
负于	-9359
▁第六	-9360
发行了	-9361
遇到了	-9362
清洁	-9363
真理	-9364
的冠军	-9365
,0	-9366
▁岩	-9367
一台	-9368
三重	-9369
姓名	-9370
客机	-9371
田市	-9372
议题	-9373
诸如	-9374
可容纳	-9375
可用	-9376
后面	-9377
姿态	-9378
年及	-9379
了对	-9380
单车	-9381
名额	-9382
定律	-9383
最好	-9384
溶于	-9385
rum	-9386
国际赛	-9387
的过程中	-9388
的无	-9389
的机	-9390
节日	-9391
▁配音员	-9392
▁月台配置	-9393
仆射	-9394
全年	-9395
学员	-9396
安提	-9397
批判	-9398
牡丹	-9399
生理	-9400
转而	-9401
有轨电车	-9402
所得	-9403
才会	-9404
麦可	-9405
之用	-9406
学和	-9407
波德	-9408
的副	-9409
突变	-9410
轻松	-9411
的特征	-9412
za	-9413
刘备	-9414
取胜	-9415
皆有	-9416
ors	-9417
会合	-9418
园林	-9419
开元	-9420
深受	-9421
登基	-9422
酿酒	-9423
两年后	-9424
出身于	-9425
布拉格	-9426
车辆段	-9427
哈萨克斯坦	-9428
巡回演唱会	-9429
7.	-9430
亚马	-9431
卫门	-9432
量产	-9433
▁1969	-9434
。1989	-9435
四名	-9436
青山	-9437
后勤	-9438
巡逻	-9439
并对	-9440
弹性	-9441
生下	-9442
秩序	-9443
阿波罗	-9444
面积约	-9445
▁竹	-9446
之心	-9447
仁宗	-9448
孢子	-9449
总站	-9450
早已	-9451
横向	-9452
武功	-9453
福克	-9454
谥号	-9455
uro	-9456
▁印度	-9457
以及其他	-9458
)2	-9459
之人	-9460
濒危	-9461
特罗	-9462
编修	-9463
▁全国	-9464
▁研究	-9465
▁获奖	-9466
出版的	-9467
音乐节	-9468
足球协会	-9469
イン	-9470
人次	-9471
后人	-9472
死了	-9473
传统上	-9474
使用者	-9475
可用于	-9476
合唱团	-9477
的纪录	-9478
▁1940	-9479
奥斯曼帝国	-9480
巴拿	-9481
很高	-9482
普利	-9483
热门	-9484
铸造	-9485
高祖	-9486
rans	-9487
强迫	-9488
港澳	-9489
这么	-9490
ois	-9491
利桑那	-9492
描述为	-9493
由美国	-9494
陆战队	-9495
弗拉基米尔	-9496
不合	-9497
分手	-9498
初中	-9499
实用	-9500
灯光	-9501
另一位	-9502
模标本	-9503
OH	-9504
封锁	-9505
的经济	-9506
集中在	-9507
出血	-9508
长野	-9509
乌兹别	-9510
生长于	-9511
拳击	-9512
新兴	-9513
的大小	-9514
参赛资格	-9515
亦称	-9516
却是	-9517
塞拜疆	-9518
进士出身	-9519
圣地	-9520
外野	-9521
开辟	-9522
涡轮	-9523
毕业生	-9524
获得的	-9525
伊藤	-9526
佩斯	-9527
和高	-9528
服用	-9529
杂交	-9530
向西北	-9531
结束了	-9532
民政	-9533
背叛	-9534
治所在	-9535
一期工程	-9536
aster	-9537
之初	-9538
空调	-9539
行本	-9540
acritic	-9541
付费	-9542
促使	-9543
南宁	-9544
藏本	-9545
吉拉	-9546
不见	-9547
你们	-9548
市内	-9549
讽刺	-9550
会导致	-9551
希伯来	-9552
inal	-9553
佩尔	-9554
数次	-9555
美食	-9556
凶手	-9557
罗伯	-9558
釜山	-9559
凯尔特	-9560
号码	-9561
和中	-9562
玄宗	-9563
ave	-9564
oul	-9565
▁1961	-9566
人马	-9567
决战	-9568
明的	-9569
爬行	-9570
王氏	-9571
125	-9572
ars	-9573
▁马来	-9574
名人堂	-9575
地下铁	-9576
安德鲁	-9577
的一员	-9578
ander	-9579
ny	-9580
▁～	-9581
一颗	-9582
予以	-9583
党委	-9584
走了	-9585
陶瓷	-9586
▁名称	-9587
特别行政区	-9588
代牧	-9589
十余	-9590
卜杜	-9591
年纪	-9592
ps	-9593
喷发	-9594
晚会	-9595
苏军	-9596
街区	-9597
过敏	-9598
通勤	-9599
部件	-9600
是一条	-9601
局上	-9602
很好	-9603
陈列	-9604
亚伯	-9605
厚的	-9606
▁他在	-9607
小学校	-9608
青岛市	-9609
棋盘	-9610
监测	-9611
目击	-9612
▁Res	-9613
交响乐团	-9614
向前	-9615
推迟	-9616
淮南	-9617
诗集	-9618
赛区	-9619
间谍	-9620
240	-9621
以外的	-9622
阿姆斯特	-9623
▁1943	-9624
1、	-9625
八个	-9626
北周	-9627
大河	-9628
由中国	-9629
ba	-9630
北面	-9631
ura	-9632
▁1973	-9633
产于	-9634
处女	-9635
部和	-9636
▁收录	-9637
圣公会	-9638
拍摄的	-9639
▁1976	-9640
修斯	-9641
:1.	-9642
创造了	-9643
斯洛伐克	-9644
CS	-9645
在外	-9646
场馆	-9647
感谢	-9648
舰长	-9649
一直是	-9650
专科学校	-9651
▁朴	-9652
▁河	-9653
互通	-9654
素的	-9655
雅图	-9656
静冈	-9657
▁du	-9658
斯科特	-9659
甲状腺	-9660
接下来的	-9661
亿元人民币	-9662
布伦	-9663
焦点	-9664
通称	-9665
了一份	-9666
再加上	-9667
的高度	-9668
西部的	-9669
▁1953	-9670
保定	-9671
船长	-9672
▁他的	-9673
二十四	-9674
王国的	-9675
My	-9676
▁歌	-9677
三段	-9678
句丽	-9679
普顿	-9680
ink	-9681
向东北	-9682
总司令	-9683
的任务	-9684
ер	-9685
上杉	-9686
东与	-9687
之王	-9688
公平	-9689
合共	-9690
呼吁	-9691
特律	-9692
▁Am	-9693
总公司	-9694
找到了	-9695
▁机	-9696
南阳	-9697
标示	-9698
▁编剧	-9699
▁轶事	-9700
的标准	-9701
▁von	-9702
ystem	-9703
北欧	-9704
的信	-9705
第二天	-9706
▁玉	-9707
北与	-9708
off	-9709
冠军赛	-9710
皇太后	-9711
ision	-9712
ор	-9713
之神	-9714
爪哇	-9715
过往	-9716
在德国	-9717
哺乳动物	-9718
埼玉	-9719
时有	-9720
熊本	-9721
立体	-9722
还没有	-9723
亿港元	-9724
研究的	-9725
▁Har	-9726
科罗拉多	-9727
He	-9728
为每	-9729
宁县	-9730
正规	-9731
电器	-9732
韦斯	-9733
马林	-9734
(2003	-9735
▁1942	-9736
他从	-9737
加藤	-9738
动的	-9739
帽子	-9740
斗六	-9741
新庄	-9742
民航	-9743
阿密	-9744
的朋友	-9745
西日本	-9746
合并而成	-9747
。1946	-9748
▁约	-9749
亦被	-9750
多家	-9751
大王	-9752
电铁	-9753
▁冈	-9754
情形	-9755
明日	-9756
装有	-9757
见证	-9758
▁万历	-9759
号机车	-9760
▁Stud	-9761
冲锋	-9762
庶吉士	-9763
条件下	-9764
▁银	-9765
养殖	-9766
出入	-9767
和水	-9768
守门员	-9769
,2001	-9770
叛军	-9771
在线	-9772
豪华	-9773
静脉	-9774
公里处	-9775
副书记	-9776
后来成为	-9777
只得	-9778
圆柱	-9779
星等	-9780
被评为	-9781
该组织	-9782
塔斯	-9783
温暖	-9784
ual	-9785
归类于	-9786
考虑到	-9787
▁Music	-9788
CE	-9789
世家	-9790
升降	-9791
棋手	-9792
都尉	-9793
▁这些	-9794
和中国	-9795
1931	-9796
佛罗里达州	-9797
五千	-9798
归还	-9799
登山	-9800
所在的	-9801
足够的	-9802
东至	-9803
亚的	-9804
但这	-9805
图斯	-9806
所说	-9807
日对	-9808
解说	-9809
进修	-9810
理事长	-9811
族自治县	-9812
仅在	-9813
满意	-9814
芭蕾	-9815
ola	-9816
1928	-9817
▁1957	-9818
TR	-9819
▁除	-9820
一球	-9821
也将	-9822
华北	-9823
无效	-9824
万年	-9825
三司	-9826
东莞	-9827
军方	-9828
学派	-9829
届金	-9830
硬币	-9831
预赛	-9832
格鲁吉亚	-9833
因病	-9834
多瓦	-9835
成员国	-9836
的声音	-9837
与小	-9838
村和	-9839
Bar	-9840
▁乔治	-9841
墨尔本	-9842
联赛中	-9843
航空队	-9844
日在美国	-9845
路德维希	-9846
▁1951	-9847
▁1962	-9848
亦在	-9849
宫崎	-9850
路士	-9851
连胜	-9852
边界地带	-9853
7-	-9854
安省	-9855
日益	-9856
磁场	-9857
一直到	-9858
了一场	-9859
惩罚	-9860
星光	-9861
更有	-9862
犹他	-9863
环形	-9864
诺尔	-9865
贵的	-9866
近亲	-9867
▁同年	-9868
开工建设	-9869
▁1965	-9870
。1984	-9871
腓力	-9872
科维奇	-9873
西班牙语	-9874
一小	-9875
位居	-9876
皇子	-9877
神奈	-9878
西夏	-9879
保留了	-9880
注意到	-9881
纪念馆	-9882
拉脱维亚	-9883
二段	-9884
缺少	-9885
进程	-9886
骨头	-9887
外交官	-9888
帮助球队	-9889
▁1963	-9890
▁1975	-9891
北海	-9892
吉田	-9893
结晶	-9894
迎接	-9895
ven	-9896
可能的	-9897
▁施	-9898
优胜	-9899
叔叔	-9900
承受	-9901
水道	-9902
方面军	-9903
南面	-9904
台币	-9905
流体	-9906
CT	-9907
▁j	-9908
半球	-9909
牧场	-9910
oly	-9911
▁小说	-9912
佛罗伦	-9913
取代了	-9914
最长的	-9915
淘汰赛	-9916
安市	-9917
灾害	-9918
穆尔	-9919
纪年	-9920
乒乓球	-9921
人口为	-9922
较早的	-9923
ream	-9924
号线车站	-9925
▁春	-9926
▁齐	-9927
下设	-9928
捕捉	-9929
更大	-9930
每月	-9931
云林县	-9932
YouT	-9933
erry	-9934
织田信长	-9935
被俘	-9936
ani	-9937
第三甲	-9938
万张	-9939
是用	-9940
的二	-9941
迁到	-9942
雷诺	-9943
其他人	-9944
▁省道台	-9945
PP	-9946
一队	-9947
七世	-9948
叱咤	-9949
种种	-9950
聚合	-9951
苏达	-9952
追随	-9953
▁Se	-9954
宇航员	-9955
式建筑	-9956
。1970	-9957
肖像	-9958
舍人	-9959
多年的	-9960
▁1968	-9961
Metacritic	-9962
AA	-9963
中和	-9964
全日	-9965
将该	-9966
当前	-9967
振兴	-9968
海口	-9969
疗法	-9970
达斯	-9971
野战	-9972
指挥使	-9973
,1998	-9974
人均	-9975
幽灵	-9976
未被	-9977
顶端	-9978
以及在	-9979
▁森	-9980
低地	-9981
元首	-9982
刚刚	-9983
太极	-9984
并把	-9985
康复	-9986
的可	-9987
直线	-9988
的社会	-9989
▁登场人物	-9990
全数	-9991
失误	-9992
起诉	-9993
▁30	-9994
烂番茄	-9995
圣彼得堡	-9996
▁International	-9997
ма	-9998
太仆	-9999
米高	-10000
维特	-10001
进出	-10002
岛上的	-10003
▁1972	-10004
与阿	-10005
和其	-10006
片的	-10007
科特	-10008
简易	-10009
转型	-10010
南北朝	-10011
加的	-10012
生育	-10013
英冠	-10014
Sch	-10015
第二代	-10016
Gl	-10017
内外	-10018
含义	-10019
在上	-10020
最少	-10021
陀罗	-10022
迈阿密	-10023
ев	-10024
此书	-10025
演义	-10026
粗体	-10027
蜥蜴	-10028
”),	-10029
▁出版	-10030
道格拉斯	-10031
▁1977	-10032
▁变	-10033
冬天	-10034
分级	-10035
孙权	-10036
屏幕	-10037
主要以	-10038
联盟的	-10039
设立了	-10040
▁藤	-10041
仍是	-10042
定了	-10043
瑟琳	-10044
ira	-10045
的状态	-10046
一辆	-10047
做的	-10048
喷射	-10049
并列	-10050
昔日	-10051
是于	-10052
格罗	-10053
邻居	-10054
描述了	-10055
▁本地区	-10056
一段时间	-10057
▁1946	-10058
一块	-10059
刊登	-10060
延迟	-10061
迁入	-10062
隔年	-10063
高压	-10064
卡洛斯	-10065
陨石坑	-10066
艺术学院	-10067
乙组	-10068
入学	-10069
司空	-10070
同月	-10071
命中	-10072
州人	-10073
日内	-10074
王朱	-10075
译作	-10076
道中	-10077
日宣布	-10078
有效的	-10079
▁汤	-10080
作为一个	-10081
WE	-10082
民兵	-10083
线索	-10084
化学家	-10085
委内瑞拉	-10086
高等教育	-10087
:(	-10088
今属	-10089
渤海	-10090
打击率	-10091
的变化	-10092
被誉为	-10093
顺天府	-10094
4)	-10095
之妻	-10096
巡按	-10097
▁乾隆	-10098
的平均	-10099
城际铁路	-10100
同期	-10101
路斯	-10102
金额	-10103
了一座	-10104
ca	-10105
便会	-10106
动词	-10107
和马	-10108
政委	-10109
法国的	-10110
最古老的	-10111
▁国家队生涯	-10112
深水	-10113
青训	-10114
ション	-10115
教科文	-10116
最后在	-10117
。1958	-10118
奠基	-10119
汉族	-10120
状元	-10121
王府	-10122
世纪中	-10123
uz	-10124
段的	-10125
浦东	-10126
监禁	-10127
被人	-10128
襄阳	-10129
顶级	-10130
在一次	-10131
侵蚀	-10132
敌方	-10133
葬在	-10134
108	-10135
卢森堡	-10136
二十六年	-10137
安东尼奥	-10138
▁1948	-10139
五人	-10140
修筑	-10141
樱花	-10142
的功能	-10143
两项	-10144
实质	-10145
汉军	-10146
罗那	-10147
荆州	-10148
行性	-10149
inn	-10150
最终于	-10151
最近的	-10152
客运专线	-10153
地势	-10154
白云	-10155
▁一些	-10156
杭州市	-10157
1924	-10158
一组	-10159
俗名	-10160
夜晚	-10161
硫酸	-10162
茨基	-10163
ょう	-10164
方济	-10165
追封	-10166
部将	-10167
并将其	-10168
计划的	-10169
1923	-10170
。1960	-10171
五州	-10172
交配	-10173
制服	-10174
刻有	-10175
增至	-10176
彩虹	-10177
波利	-10178
翅膀	-10179
马拉松	-10180
塔克	-10181
天鹅	-10182
岭南	-10183
无缘	-10184
有意	-10185
负面	-10186
▁澳门	-10187
的妹妹	-10188
ちゃ	-10189
三振	-10190
讲述了	-10191
1917	-10192
EG	-10193
站点	-10194
(?—	-10195
的名义	-10196
▁And	-10197
纳粹德国	-10198
久保	-10199
二郎	-10200
图曼	-10201
的风	-10202
米拉	-10203
只有一	-10204
电影中	-10205
。1987	-10206
yd	-10207
健身	-10208
千代	-10209
史记	-10210
流星	-10211
首秀	-10212
三角洲	-10213
桃园市	-10214
缘关系	-10215
7,	-10216
ート	-10217
艺员	-10218
长史	-10219
ship	-10220
弗里德里希	-10221
▁兰	-10222
▁尤	-10223
▁百	-10224
天才	-10225
对付	-10226
清晰	-10227
荣耀	-10228
头发	-10229
派对	-10230
演变	-10231
向西南	-10232
▁1974	-10233
ck	-10234
与中国	-10235
1912	-10236
社会科学	-10237
八十	-10238
军委	-10239
历经	-10240
家里	-10241
ior	-10242
处罚	-10243
尊重	-10244
数值	-10245
格斗	-10246
水泥	-10247
阿基	-10248
aut	-10249
▁Road	-10250
巴德	-10251
民党	-10252
▁摄影	-10253
底特律	-10254
(2019	-10255
3-	-10256
▁沃	-10257
丹尼	-10258
年有	-10259
抓住	-10260
新世	-10261
那不	-10262
马哈	-10263
新干线	-10264
段时间	-10265
西西里	-10266
滨海塞纳	-10267
▁钱	-10268
一面	-10269
国联	-10270
地址	-10271
,2021	-10272
不错	-10273
五位	-10274
使命	-10275
善于	-10276
手指	-10277
格式	-10278
番台	-10279
交叉口	-10280
弗雷德	-10281
骑士团	-10282
国际电影节	-10283
Michael	-10284
军用	-10285
始祖	-10286
方索	-10287
▁Ag	-10288
举行了	-10289
为十二厅	-10290
流行音乐	-10291
二十厅为十二厅	-10292
▁Limited	-10293
6.	-10294
工资	-10295
日启用	-10296
第二名	-10297
州立大学	-10298
▁1971	-10299
管理委员会	-10300
li	-10301
mp	-10302
▁诺	-10303
して	-10304
初次	-10305
年又	-10306
氧气	-10307
甲板	-10308
魔鬼	-10309
▁发现	-10310
▁经过	-10311
与美国	-10312
出版了	-10313
计划在	-10314
▁1967	-10315
▁College	-10316
CP	-10317
Ne	-10318
战区	-10319
路的	-10320
传佛教	-10321
町村制	-10322
一万	-10323
钟楼	-10324
-),	-10325
era	-10326
国民党	-10327
该省份为法国北部	-10328
合并二十厅为十二厅	-10329
詹姆	-10330
ita	-10331
ype	-10332
分组赛	-10333
完成后	-10334
通过了	-10335
金像奖	-10336
erson	-10337
▁牛	-10338
吐蕃	-10339
和约	-10340
安那	-10341
延至	-10342
。13	-10343
捷克斯	-10344
是当时	-10345
1927	-10346
旗舰	-10347
泰因	-10348
输送	-10349
托勒密	-10350
Alex	-10351
3:	-10352
下旬	-10353
中也	-10354
困扰	-10355
威力	-10356
未婚	-10357
记述	-10358
边形	-10359
▁聚落	-10360
耶和华	-10361
Fl	-10362
▁※	-10363
两栖	-10364
伯明	-10365
宿主	-10366
支配	-10367
ora	-10368
的主题	-10369
EV	-10370
出租	-10371
就此	-10372
收缩	-10373
路与	-10374
转运	-10375
长者	-10376
大阪府	-10377
片头曲	-10378
足协杯	-10379
▁You	-10380
一艘	-10381
七十	-10382
科斯	-10383
终极	-10384
人口的	-10385
今河南省	-10386
不远	-10387
击落	-10388
帆船	-10389
验证	-10390
微生物	-10391
被列入	-10392
(2000	-10393
务局	-10394
北端	-10395
宋代	-10396
常委	-10397
权益	-10398
续作	-10399
贝利	-10400
斯大林	-10401
法学院	-10402
糖尿病	-10403
大兴	-10404
太尉	-10405
曾孙	-10406
科普	-10407
被指	-10408
释出	-10409
Don	-10410
第三名	-10411
1910	-10412
可以使用	-10413
运载火箭	-10414
▁本鱼分布于	-10415
件事	-10416
海的	-10417
118	-10418
会议上	-10419
地下一层	-10420
sc	-10421
会将	-10422
干旱	-10423
所生	-10424
万美元的	-10425
捷克斯洛	-10426
erman	-10427
▁1966	-10428
文斯	-10429
此举	-10430
溶解	-10431
阳性	-10432
放射性	-10433
龙是	-10434
寻常	-10435
州和	-10436
游记	-10437
皇宫	-10438
美子	-10439
藏于	-10440
负担	-10441
拿到	-10442
站为	-10443
索瓦	-10444
网友	-10445
ios	-10446
强烈的	-10447
ator	-10448
哈佛大学	-10449
。1983	-10450
▁热	-10451
事宜	-10452
五大	-10453
偶然	-10454
故宫	-10455
都要	-10456
"。	-10457
▁铁	-10458
ラン	-10459
对该	-10460
平坦	-10461
步骤	-10462
腾讯	-10463
ano	-10464
公司在	-10465
已成为	-10466
Br	-10467
外表	-10468
时在	-10469
评分	-10470
集成	-10471
首演	-10472
劳伦斯	-10473
寺少卿	-10474
▁云	-10475
努尔	-10476
卡普	-10477
原属	-10478
反派	-10479
尼基	-10480
年将	-10481
缩小	-10482
号线的	-10483
而成的	-10484
PL	-10485
一首	-10486
溶剂	-10487
觉罗	-10488
年日本	-10489
的数量	-10490
转会费	-10491
佛罗伦萨	-10492
▁重	-10493
篮板	-10494
遵守	-10495
分类法	-10496
因为他	-10497
兵部尚书	-10498
Gu	-10499
▁旧	-10500
▁飞	-10501
不用	-10502
吉隆	-10503
持节	-10504
脚本	-10505
联赛杯	-10506
ague	-10507
光禄大夫	-10508
SK	-10509
▁余	-10510
守卫	-10511
感受	-10512
林斯	-10513
的正	-10514
的车	-10515
的黑	-10516
转乘	-10517
过多	-10518
1921	-10519
▁秋	-10520
却在	-10521
密歇	-10522
早于	-10523
汇丰	-10524
溪流	-10525
统领	-10526
舞曲	-10527
▁Sm	-10528
协奏曲	-10529
波罗的海	-10530
▁嘉	-10531
发酵	-10532
姑娘	-10533
▁ال	-10534
市政厅	-10535
朝日电视台	-10536
三日	-10537
力和	-10538
孤儿	-10539
生子	-10540
通风	-10541
布里斯	-10542
心脏病	-10543
仪同	-10544
光年	-10545
外语	-10546
指南	-10547
掉了	-10548
激光	-10549
珠江	-10550
红雀	-10551
▁最后	-10552
通常在	-10553
侍卫	-10554
完毕	-10555
新宿	-10556
玉米	-10557
若望	-10558
不规则	-10559
密歇根	-10560
退役后	-10561
法兰西岛	-10562
从中	-10563
公署	-10564
华侨	-10565
和弦	-10566
松江	-10567
颈部	-10568
占领了	-10569
不想	-10570
双人	-10571
ray	-10572
▁原作	-10573
日凌晨	-10574
的记载	-10575
发行日期	-10576
松本	-10577
站间	-10578
副都御史	-10579
OT	-10580
公式	-10581
前田	-10582
口岸	-10583
所辖	-10584
有个	-10585
激活	-10586
umb	-10587
。20	-10588
郡新设	-10589
ла	-10590
洲际	-10591
祖国	-10592
转入	-10593
长城	-10594
半导体	-10595
有助于	-10596
的数据	-10597
▁雪	-10598
与李	-10599
四处	-10600
巴里	-10601
并发	-10602
最快	-10603
男单	-10604
迎战	-10605
餐饮	-10606
Sam	-10607
大奖赛	-10608
▁制作人	-10609
二氧化碳	-10610
▁1937	-10611
LL	-10612
▁乐	-10613
卵形	-10614
变换	-10615
叠纪	-10616
四郎	-10617
央视	-10618
批全国重点文物保护单位	-10619
和尚	-10620
幸运	-10621
文书	-10622
植被	-10623
电阻	-10624
的名	-10625
相接	-10626
4.5	-10627
▁卡尔	-10628
小组赛	-10629
atus	-10630
Qu	-10631
极大	-10632
葬礼	-10633
马尼	-10634
首次代表	-10635
戏曲	-10636
▁铁路	-10637
并担任	-10638
一处	-10639
全程	-10640
检校	-10641
炮台	-10642
广西壮	-10643
约翰逊	-10644
科给事中	-10645
▁纳	-10646
商会	-10647
省长	-10648
为什么	-10649
反应堆	-10650
科医生	-10651
高加索	-10652
▁100	-10653
二十九年	-10654
是世界上	-10655
ze	-10656
排放	-10657
接着	-10658
星座	-10659
脉冲	-10660
司令员	-10661
回到了	-10662
这使得	-10663
议会选举	-10664
入狱	-10665
大赏	-10666
夫的	-10667
挑选	-10668
的自	-10669
顾客	-10670
▁CD	-10671
哈萨克	-10672
巴洛克	-10673
不起	-10674
历程	-10675
收益	-10676
断裂	-10677
rav	-10678
杀死了	-10679
使徒	-10680
其间	-10681
勇者	-10682
逃往	-10683
拒绝了	-10684
接下来	-10685
年出生于	-10686
。1982	-10687
▁曼	-10688
人心	-10689
太监	-10690
小心	-10691
言论	-10692
爱丁堡	-10693
▁早年生活	-10694
现名	-10695
色情	-10696
让她	-10697
建筑群	-10698
的基本	-10699
散骑常侍	-10700
▁High	-10701
▁相	-10702
上书	-10703
刺杀	-10704
头骨	-10705
家和	-10706
崛起	-10707
波多	-10708
流程	-10709
空难	-10710
决定将	-10711
开始后	-10712
的一系列	-10713
▁剧情简介	-10714
▁赫	-10715
制药	-10716
胡安	-10717
金色	-10718
-30	-10719
决赛以	-10720
经历了	-10721
总统选举	-10722
之弟	-10723
军衔	-10724
1.8	-10725
下面	-10726
凯尔	-10727
密集	-10728
童话	-10729
感兴趣	-10730
1925	-10731
▁All	-10732
▁新城劲爆	-10733
ファ	-10734
子宫	-10735
崩溃	-10736
普雷	-10737
珠宝	-10738
里尔	-10739
雇佣	-10740
-24	-10741
母亲是	-10742
被称作	-10743
旅客列车	-10744
attle	-10745
二号	-10746
北伐	-10747
发作	-10748
叔父	-10749
收回	-10750
玄武	-10751
瞬间	-10752
者是	-10753
▁Qu	-10754
也开始	-10755
杰克逊	-10756
玛利亚	-10757
的同名	-10758
首次在	-10759
上疏	-10760
清理	-10761
秦国	-10762
日公布	-10763
的铁路	-10764
职棒大联盟	-10765
(“	-10766
▁希	-10767
分出	-10768
合适	-10769
城中	-10770
大概	-10771
娃娃	-10772
营地	-10773
▁气候	-10774
的人物	-10775
1914	-10776
▁1889	-10777
侵犯	-10778
坐标	-10779
此一	-10780
▁25	-10781
▁1964	-10782
仅存	-10783
始发	-10784
毒素	-10785
泰坦	-10786
飞往	-10787
马特	-10788
歌剧院	-10789
。1903	-10790
极其	-10791
▁当时	-10792
办公厅	-10793
安大略	-10794
结构的	-10795
。1941	-10796
华裔	-10797
带回	-10798
ery	-10799
▁描述	-10800
诸军事	-10801
(2002	-10802
▁1939	-10803
▁演员阵容	-10804
功臣	-10805
墓志	-10806
将被	-10807
琉璃	-10808
联手	-10809
除外	-10810
事件的	-10811
形式的	-10812
服务的	-10813
tain	-10814
。1979	-10815
Windows	-10816
库斯	-10817
支厅	-10818
是与	-10819
延长至	-10820
Xbox	-10821
天正	-10822
得出	-10823
服饰	-10824
玻利	-10825
盟友	-10826
节点	-10827
转到	-10828
进了	-10829
Net	-10830
两人的	-10831
是根据	-10832
稳定性	-10833
自由党	-10834
创刊	-10835
千户	-10836
已故	-10837
连串	-10838
阻碍	-10839
黄旗	-10840
基因组	-10841
的建议	-10842
精神病	-10843
Ac	-10844
▁丰	-10845
代数	-10846
保禄	-10847
公正	-10848
治安	-10849
熔岩	-10850
诺克	-10851
划分为	-10852
克里米亚	-10853
第二次世界大战期间	-10854
世祖	-10855
克力	-10856
在校	-10857
太太	-10858
笔记	-10859
背后	-10860
ING	-10861
世纪时	-10862
以纪念	-10863
分公司	-10864
ford	-10865
idae	-10866
阿尔巴尼亚	-10867
▁中华人民共和国	-10868
Tw	-10869
三间	-10870
了其	-10871
例外	-10872
再见	-10873
机上	-10874
武德	-10875
采纳	-10876
链接	-10877
等人的	-10878
铁道部	-10879
电视动画	-10880
公孙	-10881
塑料	-10882
天子	-10883
容器	-10884
斯达	-10885
霉素	-10886
uck	-10887
▁Ab	-10888
二十四年	-10889
元件	-10890
元朗	-10891
单人	-10892
恶劣	-10893
已有记载	-10894
仙人	-10895
听说	-10896
帮忙	-10897
提案	-10898
花岗	-10899
—18	-10900
发布的	-10901
改建为	-10902
三菱	-10903
主线	-10904
学业	-10905
石灰	-10906
而成为	-10907
1905	-10908
公示	-10909
六甲	-10910
勒姆	-10911
塔拉	-10912
成像	-10913
莎拉	-10914
弗兰克	-10915
▁姜	-10916
▁雅	-10917
字体	-10918
湾仔	-10919
痕迹	-10920
福斯	-10921
繁忙	-10922
头颅骨	-10923
网球公开赛	-10924
▁洛	-10925
中信	-10926
体色	-10927
开心	-10928
攻读	-10929
木星	-10930
采购	-10931
170	-10932
▁et	-10933
▁技术	-10934
十字军	-10935
太阳系	-10936
3。	-10937
塞拉	-10938
老年	-10939
解剖	-10940
小时候	-10941
选择了	-10942
拉丁美洲	-10943
!(	-10944
一套	-10945
全场	-10946
在了	-10947
外形	-10948
感应	-10949
省会	-10950
加州大学	-10951
兵马	-10952
抵御	-10953
拜访	-10954
被告	-10955
讲座	-10956
布鲁斯	-10957
常用的	-10958
广西壮族自治区	-10959
仍未	-10960
右手	-10961
图片	-10962
在水	-10963
跳跃	-10964
活跃于	-10965
ин	-10966
发性	-10967
移交	-10968
继母	-10969
西德	-10970
靠著	-10971
个月后	-10972
中发现	-10973
1926	-10974
亚利桑那	-10975
厨房	-10976
备受	-10977
扫描	-10978
胜寺	-10979
Tom	-10980
arm	-10981
▁Fl	-10982
南京市	-10983
奥尔良	-10984
棒球队	-10985
石器时代	-10986
日子	-10987
胜负	-10988
防线	-10989
阵线	-10990
阿德	-10991
是俄罗斯	-10992
ental	-10993
▁瑞	-10994
中南	-10995
之夜	-10996
北上	-10997
号和	-10998
创建于	-10999
君士坦丁堡	-11000
伯里	-11001
▁注释	-11002
DP	-11003
动漫	-11004
种群	-11005
首部	-11006
-40	-11007
俄比亚	-11008
1911	-11009
新几内亚	-11010
。1956	-11011
▁г	-11012
参战	-11013
在高	-11014
庇护	-11015
的好	-11016
观察到	-11017
阿拉斯	-11018
工业大学	-11019
牛津大学	-11020
上颌	-11021
与同	-11022
以致	-11023
抗战	-11024
攻破	-11025
朗德	-11026
耕地	-11027
补偿	-11028
加斯加	-11029
南南西	-11030
维生素	-11031
▁毛	-11032
仙台	-11033
体侧	-11034
利润	-11035
海伦	-11036
特和	-11037
聪明	-11038
营销	-11039
魔女	-11040
isc	-11041
有一定	-11042
流域面积	-11043
,1999	-11044
初始	-11045
慢性	-11046
正好	-11047
胸鳍	-11048
嘉义县	-11049
在日治	-11050
废县厅	-11051
改设二十厅	-11052
不了	-11053
假日	-11054
告示	-11055
她和	-11056
建康	-11057
所作	-11058
本种	-11059
▁21	-11060
其实是	-11061
印度洋	-11062
废县厅改设二十厅	-11063
可汗	-11064
当他	-11065
新一	-11066
有功	-11067
阿列	-11068
▁km	-11069
中获得	-11070
年参加	-11071
的人类	-11072
的一部份	-11073
▁1947	-11074
ジャ	-11075
中郎	-11076
市级	-11077
幽默	-11078
成名	-11079
诅咒	-11080
贩卖	-11081
ogle	-11082
他的儿子	-11083
吏部尚书	-11084
伊夫	-11085
冠名	-11086
小队	-11087
文中	-11088
阿克	-11089
当年的	-11090
鄂图曼	-11091
▁主要人物	-11092
发展较早的	-11093
Ex	-11094
储备	-11095
北至	-11096
北西	-11097
变速	-11098
放大	-11099
汉书	-11100
要素	-11101
》:“	-11102
保守党	-11103
男歌手	-11104
二十世纪	-11105
恋人	-11106
悲剧	-11107
田町	-11108
练马	-11109
50%	-11110
一般的	-11111
人受伤	-11112
所使用的	-11113
发展较早的聚落	-11114
伊莎	-11115
国军	-11116
安抚	-11117
毒品	-11118
老鼠	-11119
、21	-11120
单曲榜	-11121
埃里克	-11122
很容易	-11123
新竹县	-11124
集团的	-11125
ction	-11126
伊势	-11127
大力	-11128
整流	-11129
新教	-11130
更好	-11131
窗口	-11132
多年来	-11133
曾经是	-11134
学说	-11135
既有	-11136
木儿	-11137
福岛	-11138
而他	-11139
▁pro	-11140
中级	-11141
沿着	-11142
统筹	-11143
航运	-11144
船上	-11145
▁最终	-11146
相似的	-11147
OC	-11148
先行	-11149
内尔	-11150
纳省	-11151
、12	-11152
则认为	-11153
电影院	-11154
▁One	-11155
乃至	-11156
无力	-11157
水源	-11158
甲壳	-11159
赤道	-11160
高音	-11161
技术的	-11162
enry	-11163
在此期间	-11164
RE	-11165
▁仁	-11166
剂量	-11167
意指	-11168
可以被	-11169
支安打	-11170
位于香港	-11171
捕获	-11172
明清	-11173
的气	-11174
闽南	-11175
首周	-11176
的官方地图上	-11177
信义	-11178
单纯	-11179
四方	-11180
改正	-11181
斑纹	-11182
淋巴	-11183
首张	-11184
因为在	-11185
两度	-11186
沿途	-11187
缓解	-11188
缘故	-11189
104	-11190
▁高雄	-11191
程度的	-11192
的官方地图上已有记载	-11193
写了	-11194
告别	-11195
底层	-11196
社群	-11197
马季	-11198
-25	-11199
中文版	-11200
为人知	-11201
部分地区	-11202
联合国教科文	-11203
介入	-11204
会堂	-11205
兼职	-11206
叙事	-11207
接到	-11208
曹魏	-11209
森的	-11210
汇入	-11211
镇的	-11212
115	-11213
▁播出	-11214
三个月	-11215
年赛季	-11216
是通过	-11217
亚特兰大	-11218
作画监督	-11219
该庄改制为	-11220
▁彭	-11221
万里	-11222
侵入	-11223
多少	-11224
挂牌	-11225
满分	-11226
特在	-11227
:15	-11228
Mus	-11229
ada	-11230
高雄市	-11231
这个名字	-11232
东尼	-11233
两场	-11234
博尔	-11235
学堂	-11236
帝王	-11237
显然	-11238
炮塔	-11239
生平	-11240
ION	-11241
的版本	-11242
红色的	-11243
追溯至	-11244
二十五年	-11245
俄亥俄州	-11246
会战	-11247
北约	-11248
干涉	-11249
迪尔	-11250
All	-11251
主要有	-11252
女性的	-11253
演化支	-11254
由于其	-11255
的评价	-11256
▁Mag	-11257
自然科学	-11258
▁马来西亚	-11259
不大	-11260
代价	-11261
全新	-11262
共用	-11263
招收	-11264
没能	-11265
他担任	-11266
。1948	-11267
专栏	-11268
升上	-11269
只会	-11270
台东	-11271
救出	-11272
新华	-11273
终年	-11274
中部偏	-11275
主人公	-11276
的东西	-11277
的地点	-11278
。1952	-11279
▁台湾清治末期至	-11280
专题	-11281
中立	-11282
共识	-11283
向量	-11284
接纳	-11285
角川	-11286
▁亨利	-11287
原定	-11288
将来	-11289
并用	-11290
榜单	-11291
潮湿	-11292
贫穷	-11293
配属	-11294
队以	-11295
▁24	-11296
兵库县	-11297
坐落于	-11298
影响了	-11299
所罗门	-11300
ution	-11301
上是	-11302
局面	-11303
样子	-11304
足球赛	-11305
分化	-11306
四种	-11307
搭乘	-11308
政事	-11309
队史	-11310
▁用途	-11311
相应的	-11312
亚太	-11313
勇敢	-11314
操控	-11315
移除	-11316
索伦	-11317
维新	-11318
▁单曲	-11319
▁第七	-11320
女配角	-11321
期初期	-11322
肯塔基	-11323
基础设施	-11324
传入	-11325
兴奋	-11326
刊物	-11327
氟化	-11328
罗伊	-11329
自成	-11330
inc	-11331
亚马逊	-11332
感染者	-11333
不同的是	-11334
在日治期初期	-11335
岸的	-11336
米哈	-11337
越过	-11338
▁随着	-11339
曾经在	-11340
职人员	-11341
角色的	-11342
棒球选手	-11343
yr	-11344
业者	-11345
军营	-11346
神奇	-11347
106	-11348
▁不过	-11349
▁通过	-11350
受害者	-11351
月正式	-11352
节目中	-11353
密西西比	-11354
在日治期初期的官方地图上已有记载	-11355
但她	-11356
排水	-11357
掩护	-11358
败给	-11359
por	-11360
限定盘	-11361
ormation	-11362
UP	-11363
伴随	-11364
民俗	-11365
罪名	-11366
胞胎	-11367
莱尔	-11368
转化为	-11369
MB	-11370
卸任	-11371
暴风	-11372
超市	-11373
跳舞	-11374
▁事件	-11375
内务府	-11376
世界纪录	-11377
都察院右	-11378
入读	-11379
发送	-11380
引力	-11381
相隔	-11382
避难	-11383
109	-11384
的情形	-11385
交通大学	-11386
少数民族	-11387
人民解放军	-11388
氏族	-11389
olf	-11390
▁设施	-11391
斯塔夫	-11392
艺术品	-11393
动画电影	-11394
日本帝国	-11395
▁Cent	-11396
▁本地区发展较早的聚落	-11397
动机	-11398
教士	-11399
礼堂	-11400
铁矿	-11401
itz	-11402
密苏里	-11403
捷克斯洛伐克	-11404
:。	-11405
▁С	-11406
▁с	-11407
九段	-11408
击沉	-11409
之所以	-11410
▁War	-11411
第一书记	-11412
阿拉伯语	-11413
YouTube	-11414
!》	-11415
不够	-11416
协力	-11417
县和	-11418
和解	-11419
插入	-11420
进驻	-11421
霸王	-11422
东走向	-11423
白色的	-11424
自己是	-11425
)”	-11426
为界	-11427
合伙	-11428
奇异	-11429
拓展	-11430
换取	-11431
正教	-11432
特朗	-11433
里约	-11434
)——	-11435
rew	-11436
▁本片	-11437
将军澳	-11438
就开始	-11439
爱丽丝	-11440
,(	-11441
▁蒙	-11442
三星	-11443
囚禁	-11444
幼虫	-11445
边疆	-11446
▁开发	-11447
专注于	-11448
发表的	-11449
圣保罗	-11450
成都市	-11451
有时会	-11452
▁柯	-11453
外侧	-11454
征战	-11455
才是	-11456
日向	-11457
纠纷	-11458
植物的	-11459
喷泉	-11460
归属	-11461
摆脱	-11462
瓦夫	-11463
缺点	-11464
自愿	-11465
轻微	-11466
伯明翰	-11467
正式的	-11468
角色扮演	-11469
td	-11470
▁托	-11471
游玩	-11472
突袭	-11473
纵队	-11474
血型	-11475
阿卡	-11476
乌拉圭	-11477
电视网	-11478
国际象棋	-11479
宾夕法尼亚州	-11480
ML	-11481
日出生于	-11482
8,	-11483
全境	-11484
格达	-11485
沿著	-11486
神宗	-11487
约定	-11488
▁应用	-11489
左侍郎	-11490
数据库	-11491
被选为	-11492
高句丽	-11493
教育学院	-11494
新成立的	-11495
减弱	-11496
出使	-11497
字形	-11498
张氏	-11499
视野	-11500
280	-11501
▁薛	-11502
一族	-11503
巴登	-11504
投球	-11505
万人次	-11506
分别于	-11507
列斯联	-11508
改编成	-11509
一道	-11510
二厅	-11511
京城	-11512
小田	-11513
开花	-11514
ger	-11515
ird	-11516
▁亚种	-11517
▁朝鲜	-11518
▁出入口	-11519
(2001	-11520
两家	-11521
优化	-11522
会所	-11523
南边	-11524
嘉兴	-11525
境外	-11526
开拓	-11527
总结	-11528
日间	-11529
石刻	-11530
的最大	-11531
Peter	-11532
人事	-11533
北平	-11534
周日	-11535
莫里	-11536
赞扬	-11537
转让	-11538
阿仙奴	-11539
▁新加坡	-11540
之间的关系	-11541
世袭	-11542
伴侣	-11543
兵备	-11544
勋爵	-11545
瞄准	-11546
ose	-11547
随后的	-11548
▁Ind	-11549
奥斯卡最佳	-11550
加纳	-11551
州际	-11552
的王	-11553
而其	-11554
藏品	-11555
▁22	-11556
即位后	-11557
文学奖	-11558
的制作	-11559
的形象	-11560
Christ	-11561
)7	-11562
河水	-11563
转化	-11564
Par	-11565
司主事	-11566
友好城市	-11567
▁母	-11568
▁火	-11569
债券	-11570
垄断	-11571
多位	-11572
白天	-11573
难民	-11574
▁大学	-11575
大教堂	-11576
的年号	-11577
这是一个	-11578
Saint	-11579
▁1938	-11580
唐书	-11581
琉古	-11582
要在	-11583
rem	-11584
▁但是	-11585
原本的	-11586
发电厂	-11587
应天府	-11588
控制的	-11589
行政长官	-11590
部副部长	-11591
As	-11592
▁黎	-11593
业主	-11594
奇怪	-11595
有点	-11596
雨林	-11597
露出	-11598
的现象	-11599
诸葛亮	-11600
kg	-11601
川町	-11602
徽章	-11603
未经	-11604
营造	-11605
造像	-11606
ula	-11607
▁深度	-11608
男配角	-11609
。1978	-11610
两地	-11611
入场	-11612
山坡	-11613
年秋	-11614
.5%	-11615
merican	-11616
▁甘	-11617
一事	-11618
修理	-11619
和谐	-11620
▁决赛	-11621
在全球	-11622
那不勒斯	-11623
Is	-11624
删除	-11625
融入	-11626
金华	-11627
マン	-11628
低温	-11629
猩猩	-11630
站和	-11631
者在	-11632
诛杀	-11633
道歉	-11634
(21	-11635
▁历届	-11636
中饰演	-11637
乡道云	-11638
年轻人	-11639
五州二厅	-11640
2、	-11641
Sw	-11642
天水	-11643
岛津	-11644
精彩	-11645
给出	-11646
▁地名	-11647
年出任	-11648
总投资	-11649
管理的	-11650
该项目	-11651
废十二厅	-11652
改设五州二厅	-11653
以及中国大陆的	-11654
▁葛	-11655
▁辛	-11656
它被	-11657
师傅	-11658
延期	-11659
洋行	-11660
领军	-11661
103	-11662
▁le	-11663
▁生物	-11664
斐迪南	-11665
赛马会	-11666
亚斯	-11667
升至	-11668
岐阜	-11669
弹道	-11670
总数	-11671
最新	-11672
联合国教科文组织	-11673
▁出	-11674
▁桑	-11675
人群	-11676
修女	-11677
停播	-11678
城主	-11679
形势	-11680
老汇	-11681
角龙	-11682
大地震	-11683
拉丁文	-11684
Mark	-11685
port	-11686
George	-11687
废十二厅改设五州二厅	-11688
凯文	-11689
因在	-11690
学界	-11691
提取	-11692
机身	-11693
普通话	-11694
巴塞罗那	-11695
上部	-11696
县令	-11697
寒冷	-11698
耶鲁	-11699
霹雳	-11700
巴拿马	-11701
综合性	-11702
不安	-11703
买下	-11704
在那	-11705
宝贝	-11706
实录	-11707
小野	-11708
异性	-11709
弹簧	-11710
urn	-11711
机务段	-11712
的控制	-11713
Charles	-11714
▁任	-11715
▁胜	-11716
也许	-11717
圣人	-11718
对立	-11719
将此	-11720
爱乐	-11721
行李	-11722
转会至	-11723
中段	-11724
传送	-11725
原著	-11726
局势	-11727
德鲁	-11728
李克	-11729
水准	-11730
莱恩	-11731
钢筋	-11732
▁随著	-11733
年十二月	-11734
上奏	-11735
加特	-11736
失业	-11737
模糊	-11738
离去	-11739
落在	-11740
装修	-11741
▁代表	-11742
▁独立	-11743
率领的	-11744
造船厂	-11745
RT	-11746
oz	-11747
孔泰	-11748
海滨	-11749
澎湖	-11750
灵活	-11751
语法	-11752
▁On	-11753
他开始	-11754
大满贯	-11755
弗朗什	-11756
计划于	-11757
阿塞拜疆	-11758
AF	-11759
之助	-11760
斗士	-11761
建造了	-11762
的女人	-11763
当地居民	-11764
空军基地	-11765
(2021	-11766
ロー	-11767
不易	-11768
产权	-11769
四肢	-11770
小字	-11771
德雷	-11772
沙尔	-11773
较短	-11774
闭塞	-11775
制成的	-11776
rick	-11777
乘车	-11778
伯尔	-11779
史诗	-11780
固醇	-11781
天宝	-11782
最强	-11783
站名	-11784
自幼	-11785
长途	-11786
沉积物	-11787
被授予	-11788
战国时代	-11789
。1938	-11790
自然保护区	-11791
前夕	-11792
句话	-11793
就职	-11794
年内	-11795
推官	-11796
环线	-11797
由其	-11798
司郎中	-11799
这就是	-11800
野生动物	-11801
1。	-11802
▁次	-11803
牛奶	-11804
缺席	-11805
西至	-11806
轻型	-11807
下议院	-11808
年当选	-11809
环境中	-11810
皇太子	-11811
布鲁塞尔	-11812
有趣	-11813
的口	-11814
编纂	-11815
外国语	-11816
是来自	-11817
石家庄	-11818
社会党	-11819
able	-11820
周年纪念	-11821
乡镇	-11822
兽脚	-11823
在本	-11824
尔摩	-11825
心灵	-11826
筹建	-11827
衰落	-11828
转北	-11829
ble	-11830
▁Ac	-11831
的选手	-11832
的风险	-11833
GB	-11834
tt	-11835
变动	-11836
后再	-11837
的五	-11838
须贺	-11839
凯瑟琳	-11840
的小说	-11841
侧面	-11842
村上	-11843
注重	-11844
▁麻	-11845
事项	-11846
宫中	-11847
广义	-11848
科西	-11849
谋反	-11850
公务员	-11851
文化和	-11852
第二百	-11853
埃塞俄比亚	-11854
▁鲍	-11855
凸出	-11856
善良	-11857
宗旨	-11858
当主	-11859
沙滩	-11860
理会	-11861
美式	-11862
花莲	-11863
fer	-11864
的香港	-11865
1908	-11866
。1944	-11867
▁通	-11868
东起	-11869
军籍	-11870
iro	-11871
1907	-11872
。1947	-11873
be	-11874
也很	-11875
国营	-11876
天国	-11877
春天	-11878
的旧	-11879
诱导	-11880
的生产	-11881
的行动	-11882
竞争对手	-11883
与前	-11884
为三	-11885
假说	-11886
总值	-11887
用在	-11888
红白	-11889
赞赏	-11890
赶到	-11891
鳄鱼	-11892
▁艺术	-11893
卫将军	-11894
皮埃尔	-11895
弗雷德里克	-11896
大怒	-11897
他也是	-11898
是一颗	-11899
的唯一	-11900
国民小学	-11901
场比赛中	-11902
。1955	-11903
党组	-11904
扩充	-11905
接连	-11906
的卡	-11907
ipp	-11908
但也有	-11909
球队在	-11910
▁°	-11911
って	-11912
佳氏	-11913
海因	-11914
离职	-11915
重叠	-11916
吉隆坡	-11917
更好的	-11918
鲈形目	-11919
仪同三司	-11920
两台	-11921
之母	-11922
姿势	-11923
密的	-11924
揭幕	-11925
无意	-11926
月亮	-11927
比斯	-11928
罗斯福	-11929
这本书	-11930
(2020	-11931
CV	-11932
可由	-11933
在她	-11934
文集	-11935
百科	-11936
顺天	-11937
SH	-11938
史称	-11939
年版	-11940
庆典	-11941
抗原	-11942
摩擦	-11943
时光	-11944
桃花	-11945
系数	-11946
、11	-11947
所需的	-11948
布鲁克林	-11949
联邦政府	-11950
▁亚历山大	-11951
▁■	-11952
▁袁	-11953
勇气	-11954
复原	-11955
归入	-11956
的白	-11957
▁现在	-11958
爱好者	-11959
共设	-11960
内心	-11961
抚养	-11962
抛弃	-11963
概率	-11964
破裂	-11965
贵妃	-11966
1.6	-11967
是由于	-11968
端点位于本地区	-11969
он	-11970
▁绿	-11971
为单	-11972
人对	-11973
新任	-11974
制造厂	-11975
海岸线	-11976
第二大	-11977
9,	-11978
暗中	-11979
曼谷	-11980
楼高	-11981
量为	-11982
面具	-11983
交汇处	-11984
第三季	-11985
德米特里	-11986
开府	-11987
异母	-11988
正线	-11989
称帝	-11990
行道	-11991
、18	-11992
支持者	-11993
▁妻	-11994
切断	-11995
均匀	-11996
墙壁	-11997
将近	-11998
并从	-11999
抗体	-12000
隐居	-12001
▁父亲	-12002
及香港	-12003
古罗马	-12004
成功地	-12005
第十四	-12006
蛋白酶	-12007
位于美国	-12008
亦于	-12009
初回	-12010
北非	-12011
危害	-12012
塞特	-12013
太多	-12014
横山	-12015
永安	-12016
皮尔	-12017
谴责	-12018
alk	-12019
改变了	-12020
第一座	-12021
ject	-12022
一哩	-12023
下行	-12024
干预	-12025
新罗	-12026
明末	-12027
补助	-12028
跟踪	-12029
饮用	-12030
年正月	-12031
ли	-12032
一件	-12033
十万	-12034
平时	-12035
武侠	-12036
视角	-12037
一级赛	-12038
背鳍硬棘	-12039
FM	-12040
但未	-12041
各级	-12042
和东	-12043
宪宗	-12044
征讨	-12045
的电	-12046
:18	-12047
十字架	-12048
斯巴达	-12049
而来的	-12050
金曲奖	-12051
ason	-12052
不被	-12053
住所	-12054
光滑	-12055
反叛	-12056
和三	-12057
太傅	-12058
山峰	-12059
某一	-12060
。1940	-12061
街道办事处	-12062
下颌	-12063
关心	-12064
就以	-12065
捕食	-12066
日圆	-12067
约束	-12068
▁嘉靖	-12069
中出现	-12070
杰克森	-12071
line	-12072
开通运营	-12073
集团公司	-12074
,1997	-12075
重点实验室	-12076
AB	-12077
人力	-12078
停运	-12079
包裹	-12080
影集	-12081
斩首	-12082
油画	-12083
港铁	-12084
陶器	-12085
▁水深	-12086
多样性	-12087
游击队	-12088
西雅图	-12089
阿卜杜	-12090
随后在	-12091
了一系列	-12092
绝大多数	-12093
▁Company	-12094
全台废县厅改设二十厅	-12095
丧生	-12096
巫师	-12097
年级	-12098
聚居	-12099
魅力	-12100
▁学术	-12101
年推出	-12102
棒球场	-12103
位于台湾	-12104
法兰西岛大区	-12105
:3	-12106
亦曾	-12107
全军	-12108
分歧	-12109
教友	-12110
流派	-12111
离队	-12112
开始于	-12113
恩斯特	-12114
的女孩	-12115
让他们	-12116
Thomas	-12117
几次	-12118
出为	-12119
创伤	-12120
场面	-12121
拦截	-12122
的效果	-12123
的最后	-12124
uction	-12125
光线	-12126
双重	-12127
国人	-12128
失望	-12129
拉省	-12130
纸币	-12131
行程	-12132
顺德	-12133
Man	-12134
con	-12135
▁下辖	-12136
因为它	-12137
有三个	-12138
第二任	-12139
这一点	-12140
阿尔及利亚	-12141
iy	-12142
中岛	-12143
多达	-12144
尾部	-12145
平章	-12146
葫芦	-12147
规律	-12148
讨厌	-12149
比利亚	-12150
明尼苏达	-12151
马达加斯加	-12152
ations	-12153
亲属	-12154
太和	-12155
潮州	-12156
王公	-12157
艺名	-12158
ush	-12159
年之后	-12160
中国古代	-12161
▁House	-12162
▁佩	-12163
失利	-12164
婆罗	-12165
战列	-12166
有大	-12167
的遗	-12168
致使	-12169
速率	-12170
阳郡	-12171
托尔金	-12172
百老汇	-12173
研究者	-12174
▁中国大陆	-12175
▁义	-12176
加油	-12177
在三	-12178
山南	-12179
诠释	-12180
趁机	-12181
除非	-12182
ama	-12183
aud	-12184
剧情片	-12185
南北向	-12186
宁波市	-12187
小联盟	-12188
无症状	-12189
德克萨斯州	-12190
yp	-12191
▁x	-12192
合计	-12193
乔治亚	-12194
博物院	-12195
的居民	-12196
▁Hall	-12197
人造	-12198
派台	-12199
盛行	-12200
eum	-12201
交界处	-12202
系主任	-12203
长度为	-12204
。1943	-12205
堆积	-12206
巨型	-12207
”)。	-12208
▁23	-12209
因此被	-12210
然而在	-12211
的日子	-12212
第三个	-12213
四十四年	-12214
票价	-12215
等同	-12216
美金	-12217
荷马	-12218
金朝	-12219
iet	-12220
河谷省	-12221
聚合物	-12222
On	-12223
伴奏	-12224
向他	-12225
外籍	-12226
沙门	-12227
混双	-12228
的音	-12229
▁提名	-12230
投资者	-12231
Em	-12232
GM	-12233
在任	-12234
守军	-12235
豪斯	-12236
450	-12237
alt	-12238
商学院	-12239
塞琉古	-12240
尔的摩	-12241
广胜寺	-12242
的节目	-12243
政治委员	-12244
大脑	-12245
移至	-12246
▁这种	-12247
共中央	-12248
。1981	-12249
アン	-12250
两队	-12251
位素	-12252
家园	-12253
期为	-12254
血压	-12255
Bill	-12256
▁甲	-12257
产卵	-12258
先知	-12259
分镜	-12260
夏侯	-12261
德温	-12262
戴维	-12263
手持	-12264
新娘	-12265
昆士	-12266
柔佛	-12267
额外的	-12268
十大中文	-12269
世子	-12270
历时	-12271
我是	-12272
拓扑	-12273
的发	-12274
辞典	-12275
▁起源	-12276
香港政府	-12277
优点	-12278
化身	-12279
在地	-12280
摄氏	-12281
斩杀	-12282
病患	-12283
融资	-12284
追杀	-12285
遵循	-12286
但最后	-12287
宣布将	-12288
变种	-12289
文森	-12290
吸引了	-12291
当地人	-12292
植物园	-12293
的定义	-12294
的战斗	-12295
第一家	-12296
▁(18	-12297
最高苏维埃	-12298
不应	-12299
伊达	-12300
司长	-12301
文凭	-12302
期待	-12303
放弃了	-12304
第二届	-12305
英国人	-12306
Richard	-12307
大为	-12308
女皇	-12309
昭宗	-12310
月到	-12311
王建	-12312
赛驹	-12313
输给	-12314
马可	-12315
107	-12316
▁县道	-12317
建筑的	-12318
他的名字	-12319
▁1920	-12320
古生物学家	-12321
▁保	-12322
准则	-12323
变身	-12324
塔特	-12325
茨堡	-12326
里尼	-12327
合作的	-12328
岁以上	-12329
帖木儿	-12330
步兵第	-12331
的反应	-12332
ried	-12333
之声	-12334
天花	-12335
时所	-12336
落入	-12337
这对	-12338
院系	-12339
2500	-12340
▁加拿大	-12341
大部分的	-12342
孔泰大区	-12343
テレ	-12344
削弱	-12345
户外	-12346
主要在	-12347
年发行	-12348
步兵团	-12349
的理论	-12350
商业银行	-12351
から	-12352
人之	-12353
初代	-12354
歧视	-12355
设法	-12356
102	-12357
▁体育	-12358
乾隆帝	-12359
分打点	-12360
广胜寺本	-12361
藏广胜寺本	-12362
中型	-12363
号称	-12364
家长	-12365
富裕	-12366
履行	-12367
巩固	-12368
格纳	-12369
活塞	-12370
黑森	-12371
龙山	-12372
缩写为	-12373
主要用于	-12374
加拿大的	-12375
福田	-12376
菲亚	-12377
副校长	-12378
教义	-12379
烈士	-12380
笔名	-12381
该区	-12382
身材	-12383
创立了	-12384
利比亚	-12385
月中旬	-12386
”“	-12387
▁〜	-12388
修士	-12389
倒塌	-12390
合称	-12391
后便	-12392
在马	-12393
左岸	-12394
年华	-12395
想像	-12396
星团	-12397
组别	-12398
身长	-12399
Ben	-12400
举办了	-12401
历史的	-12402
在一些	-12403
带来了	-12404
县人民检察院	-12405
上尉	-12406
丝绸	-12407
列夫	-12408
愿望	-12409
约旦	-12410
至元	-12411
衰竭	-12412
辖下	-12413
挑战赛	-12414
的称号	-12415
1906	-12416
经济学家	-12417
▁National	-12418
▁如	-12419
名胜	-12420
放入	-12421
欧亚	-12422
河川	-12423
标志着	-12424
爱知县	-12425
等海域	-12426
1600	-12427
中共中央	-12428
写为	-12429
奥兰	-12430
山水	-12431
提倡	-12432
特曼	-12433
贝勒	-12434
面体	-12435
ats	-12436
人民党	-12437
创作了	-12438
可能在	-12439
的一处	-12440
6000	-12441
Super	-12442
五郎	-12443
优惠	-12444
子嗣	-12445
eck	-12446
▁——	-12447
尔斯克	-12448
的意义	-12449
莉莎白	-12450
西边为	-12451
ouis	-12452
亿立方米	-12453
宣宗	-12454
应力	-12455
情的	-12456
手的	-12457
王妃	-12458
进食	-12459
都以	-12460
仍然是	-12461
美少女	-12462
二十八年	-12463
历史上的	-12464
州际公路	-12465
也为	-12466
协同	-12467
将之	-12468
西湖	-12469
话题	-12470
更高的	-12471
布列塔尼	-12472
玛斯	-12473
考官	-12474
行军	-12475
发展出	-12476
太阳能	-12477
世界冠军	-12478
国民政府	-12479
▁1930	-12480
bl	-12481
修缮	-12482
川市	-12483
普里	-12484
碳酸	-12485
租赁	-12486
网民	-12487
年之前	-12488
第三代	-12489
▁Ser	-12490
中医	-12491
之位	-12492
戴尔	-12493
扁平	-12494
音速	-12495
MVP	-12496
不存在	-12497
以来的	-12498
变更为	-12499
屏东县	-12500
常委会	-12501
必须在	-12502
第二位	-12503
地方政府	-12504
教区主教	-12505
中尉	-12506
但于	-12507
德宗	-12508
时年	-12509
2-1	-12510
burg	-12511
▁十	-12512
▁已	-12513
具庆	-12514
出击	-12515
女生	-12516
岩浆	-12517
风琴	-12518
可以是	-12519
执行官	-12520
有机会	-12521
的语言	-12522
ific	-12523
urch	-12524
。1954	-12525
▁电	-12526
企鹅	-12527
哈布	-12528
招标	-12529
显微	-12530
野外	-12531
ras	-12532
日晚上	-12533
联赛的	-12534
▁民	-12535
信奉	-12536
围城	-12537
外传	-12538
改成	-12539
无敌	-12540
比锡	-12541
现役	-12542
窗户	-12543
黑帮	-12544
▁未来	-12545
年之间	-12546
羽毛球锦标赛	-12547
人被	-12548
切割	-12549
忠诚	-12550
的那	-12551
菩提	-12552
韦伯	-12553
首歌	-12554
▁彼得	-12555
1915	-12556
位于四川省	-12557
侄子	-12558
后任	-12559
战功	-12560
抢劫	-12561
烟台	-12562
门市	-12563
▁祖父	-12564
与日本	-12565
原本是	-12566
年国际	-12567
曾多次	-12568
echn	-12569
▁Boy	-12570
,1990	-12571
▁穆	-12572
全家	-12573
可乐	-12574
坐在	-12575
异名	-12576
张国	-12577
点球	-12578
细小	-12579
起于	-12580
具庆下	-12581
堪萨斯州	-12582
bo	-12583
中区	-12584
事发	-12585
嫌疑	-12586
客人	-12587
布什	-12588
的南	-12589
统帅	-12590
▁许多	-12591
两个月	-12592
地球的	-12593
巧克力	-12594
年毕业	-12595
抗生素	-12596
东山	-12597
去除	-12598
得多	-12599
文昌	-12600
日因	-12601
赏识	-12602
ily	-12603
▁特殊	-12604
世锦赛	-12605
步兵师	-12606
电力动车组	-12607
海尔	-12608
湾区	-12609
立花	-12610
简化	-12611
获准	-12612
▁0.	-12613
▁影片	-12614
会会长	-12615
但他们	-12616
关系的	-12617
后来又	-12618
在这些	-12619
▁King	-12620
专属	-12621
华沙	-12622
城邦	-12623
德森	-12624
日晚	-12625
池田	-12626
环状	-12627
约在	-12628
Mic	-12629
军队的	-12630
日出战	-12631
是目前	-12632
剑桥大学	-12633
大字亦改制为村	-12634
丛林	-12635
抽签	-12636
斯汀	-12637
院的	-12638
ays	-12639
▁40	-12640
的一支	-12641
1913	-12642
湖南卫视	-12643
▁复	-12644
县治	-12645
墓园	-12646
旁白	-12647
360	-12648
▁流行	-12649
完成的	-12650
月下旬	-12651
留下的	-12652
格拉斯哥	-12653
沙皇	-12654
▁现时	-12655
瓦兹省	-12656
No	-12657
东面	-12658
中子	-12659
后会	-12660
美浓	-12661
路面	-12662
车祸	-12663
首场	-12664
可能有	-12665
太阳的	-12666
的公司	-12667
社会的	-12668
新增确诊	-12669
Jo	-12670
供给	-12671
修行	-12672
假期	-12673
周六	-12674
斋藤	-12675
沃克	-12676
躲避	-12677
沃尔夫	-12678
飞行器	-12679
▁Kong	-12680
日本电视台	-12681
▁半	-12682
▁班	-12683
声母	-12684
感动	-12685
欧文	-12686
的安	-12687
胎儿	-12688
铭文	-12689
天神	-12690
我爱	-12691
127	-12692
的特点	-12693
(1999	-12694
LC	-12695
之城	-12696
内侧	-12697
厂商	-12698
天台	-12699
金陵	-12700
陷阱	-12701
顿的	-12702
▁),	-12703
▁漫画	-12704
展示了	-12705
山口组	-12706
侯爵	-12707
劳斯	-12708
契约	-12709
差点	-12710
敌对	-12711
着陆	-12712
胸部	-12713
话剧	-12714
周围的	-12715
在伦敦	-12716
球队以	-12717
者之一	-12718
。1930	-12719
シャ	-12720
官吏	-12721
导航	-12722
巴利	-12723
▁My	-12724
▁剧本	-12725
和文化	-12726
在国际	-12727
布莱克	-12728
学者认为	-12729
▁演出作品	-12730
广播电视台	-12731
MO	-12732
▁伯	-12733
▁谭	-12734
听从	-12735
少林	-12736
山脚	-12737
巡演	-12738
报名	-12739
比起	-12740
永恒	-12741
港台	-12742
迈克	-12743
陵县	-12744
霍普	-12745
的一切	-12746
的决定	-12747
▁(1955	-12748
和声	-12749
索引	-12750
莱昂	-12751
说出	-12752
诺威	-12753
els	-12754
二十五	-12755
导致的	-12756
党委书记	-12757
对外开放	-12758
小子	-12759
布达	-12760
忽略	-12761
攻城	-12762
流的	-12763
浮雕	-12764
锯齿	-12765
的人们	-12766
总建筑面积	-12767
回去	-12768
在被	-12769
增援	-12770
特斯	-12771
疏散	-12772
解雇	-12773
uth	-12774
年以前	-12775
二十七年	-12776
师范学校	-12777
EE	-12778
吉姆	-12779
大洋	-12780
拼音	-12781
棕榈	-12782
橙色	-12783
演习	-12784
种加	-12785
▁公司	-12786
▁商业	-12787
rown	-12788
▁收视率	-12789
是意大利	-12790
ao	-12791
中位	-12792
会面	-12793
卡的	-12794
构想	-12795
清除	-12796
纯粹	-12797
革命军	-12798
。1953	-12799
伪装	-12800
八世	-12801
幅画	-12802
待遇	-12803
月间	-12804
的书	-12805
石川	-12806
饱和	-12807
1.3	-12808
▁子女	-12809
生长在	-12810
的物种	-12811
充当	-12812
无需	-12813
桥站	-12814
此站	-12815
特急	-12816
都很	-12817
▁浙江	-12818
先后在	-12819
单行本	-12820
庄改制为	-12821
ington	-12822
PR	-12823
▁个	-12824
▁只	-12825
った	-12826
乙烯	-12827
唱歌	-12828
水县	-12829
温州	-12830
血清	-12831
钥匙	-12832
1.4	-12833
▁马克	-12834
得名于	-12835
科学研究	-12836
妈祖	-12837
家具	-12838
射程	-12839
英宗	-12840
鉴于	-12841
卡罗来	-12842
地铁站	-12843
的个人	-12844
flix	-12845
纽约时报	-12846
人队	-12847
刺客	-12848
小麦	-12849
林区	-12850
汉中	-12851
米至	-12852
编为	-12853
该年	-12854
跳水	-12855
▁旅游	-12856
奖得主	-12857
新台币	-12858
的规定	-12859
联络线	-12860
,2022	-12861
艺术博物馆	-12862
▁晋	-12863
▁曲	-12864
▁迪	-12865
刘氏	-12866
山镇	-12867
捐款	-12868
此种	-12869
激发	-12870
这款	-12871
阶层	-12872
UND	-12873
了一次	-12874
玩家可以	-12875
▁微	-12876
争执	-12877
空降	-12878
▁50	-12879
一世的	-12880
和国际	-12881
为辐鳍鱼纲鲈形目	-12882
佐木	-12883
推举	-12884
柯南	-12885
样式	-12886
渗透	-12887
现址	-12888
边防	-12889
uan	-12890
与他的	-12891
威尔逊	-12892
的开发	-12893
赫尔辛	-12894
ар	-12895
士官	-12896
录像	-12897
推断	-12898
比特	-12899
皇甫	-12900
东印度	-12901
东部的	-12902
右参政	-12903
的颜色	-12904
交界地带	-12905
超级英雄	-12906
下层	-12907
中止	-12908
国安	-12909
托斯	-12910
芜湖	-12911
迁居	-12912
镇江	-12913
rac	-12914
今天的	-12915
曾参与	-12916
玻利维亚	-12917
,1996	-12918
▁向	-12919
一班	-12920
世俗	-12921
亚尔	-12922
北纬	-12923
大海	-12924
大调	-12925
家属	-12926
帕特	-12927
开往	-12928
汉口	-12929
画廊	-12930
百强	-12931
祭司	-12932
蒂尔	-12933
ety	-12934
四十年	-12935
第四名	-12936
自动化	-12937
1916	-12938
ular	-12939
▁Associ	-12940
也以	-12941
元音	-12942
案的	-12943
西的	-12944
贵阳	-12945
陵墓	-12946
ais	-12947
▁本剧	-12948
哥尔摩	-12949
很快就	-12950
是韩国	-12951
车路士	-12952
。1937	-12953
冠状病毒病疫情	-12954
华丽	-12955
子弟	-12956
小熊	-12957
抽象	-12958
中使用	-12959
年至今	-12960
摩托车	-12961
。1959	-12962
出产	-12963
威士	-12964
干事	-12965
核酸	-12966
河中	-12967
混音	-12968
理性	-12969
转录	-12970
馆长	-12971
Dan	-12972
斯蒂芬	-12973
vent	-12974
▁Per	-12975
控股有限公司	-12976
亮度	-12977
侧线	-12978
右岸	-12979
售卖	-12980
天龙	-12981
役所	-12982
桥本	-12983
票选	-12984
鸦片	-12985
▁因此	-12986
动力学	-12987
由香港	-12988
1800	-12989
改隶属于	-12990
丑闻	-12991
他就	-12992
全能	-12993
宫的	-12994
征收	-12995
总署	-12996
拉萨	-12997
洛林	-12998
环路	-12999
追捕	-13000
奥克兰	-13001
esis	-13002
,1995	-13003
。1942	-13004
短期大学部	-13005
Google	-13006
一卷	-13007
克特	-13008
天竺	-13009
录取	-13010
招待	-13011
有过	-13012
极度	-13013
格利	-13014
病原	-13015
同样的	-13016
在同一	-13017
康斯坦	-13018
瓦尔德	-13019
1909	-13020
ridge	-13021
夫特	-13022
巡视	-13023
排序	-13024
收养	-13025
明白	-13026
汕头	-13027
并设有	-13028
开始时	-13029
是当地	-13030
▁USA	-13031
▁意大利	-13032
的最后一	-13033
压器	-13034
普斯	-13035
有四	-13036
货车	-13037
领兵	-13038
额定	-13039
指挥部	-13040
社会学	-13041
霍华德	-13042
Jack	-13043
▁Rec	-13044
正式成立	-13045
(1998	-13046
按察司副使	-13047
SC	-13048
TP	-13049
与王	-13050
应急	-13051
手臂	-13052
早晨	-13053
盛典	-13054
▁通常	-13055
低气压	-13056
前身是	-13057
和国家	-13058
的秘密	-13059
科多尔	-13060
预选赛	-13061
▁Bro	-13062
Ag	-13063
佛山	-13064
卷入	-13065
姊姊	-13066
家督	-13067
无双	-13068
有毒	-13069
杀青	-13070
烹饪	-13071
街的	-13072
Sir	-13073
arg	-13074
不清楚	-13075
的事件	-13076
目标是	-13077
1904	-13078
raph	-13079
▁Enter	-13080
▁用	-13081
▁道	-13082
イト	-13083
加装	-13084
归于	-13085
标识	-13086
释迦	-13087
降为	-13088
练马师	-13089
还有一	-13090
▁车站构造	-13091
▁Count	-13092
ua	-13093
一本	-13094
他所	-13095
分部	-13096
山姆	-13097
庠生	-13098
梦幻	-13099
爱上	-13100
达的	-13101
▁大卫	-13102
极大的	-13103
表面的	-13104
rain	-13105
师范学院	-13106
中西	-13107
公馆	-13108
各式	-13109
徒刑	-13110
悠久	-13111
正当	-13112
盐水	-13113
觅食	-13114
▁最高	-13115
副作用	-13116
残疾人	-13117
的攻击	-13118
太平洋区	-13119
SO	-13120
密特	-13121
尺度	-13122
源头	-13123
裁定	-13124
西魏	-13125
氧化物	-13126
神话中	-13127
签署了	-13128
被用于	-13129
阿姆斯特丹	-13130
ет	-13131
上行	-13132
南山	-13133
工事	-13134
目睹	-13135
结为	-13136
阿曼	-13137
its	-13138
副教授	-13139
加勒比海	-13140
BE	-13141
判官	-13142
加快	-13143
吴国	-13144
学历	-13145
瓦斯	-13146
种名	-13147
车队	-13148
▁紫	-13149
分隔	-13150
告终	-13151
找出	-13152
护航	-13153
日元	-13154
美女	-13155
西域	-13156
西边	-13157
警备	-13158
适用	-13159
州知州	-13160
▁勒	-13161
▁延	-13162
プロ	-13163
大殿	-13164
太师	-13165
奥德	-13166
投出	-13167
报仇	-13168
草本	-13169
落的	-13170
零件	-13171
年冬季	-13172
有时候	-13173
Jean	-13174
ange	-13175
购物中心	-13176
▁受	-13177
之久	-13178
传闻	-13179
使之	-13180
史克	-13181
唐纳	-13182
大成	-13183
座椅	-13184
虐待	-13185
220	-13186
》,《	-13187
▁是一部	-13188
一战	-13189
其次	-13190
利欧	-13191
厄瓜	-13192
商船	-13193
年所	-13194
机体	-13195
死的	-13196
真空	-13197
鸟取	-13198
龙门	-13199
不超过	-13200
京都府	-13201
年生于	-13202
新技术	-13203
美国陆军	-13204
▁魔	-13205
口腔	-13206
后与	-13207
最先	-13208
清河	-13209
激进	-13210
电源	-13211
西面	-13212
135	-13213
两部分	-13214
对应的	-13215
平方呎	-13216
列宁格勒	-13217
电影导演	-13218
va	-13219
不像	-13220
中亚	-13221
佐治	-13222
内燃	-13223
千里	-13224
卫国	-13225
和黑	-13226
囚犯	-13227
材质	-13228
症候	-13229
的国	-13230
获选	-13231
近期	-13232
鱼的	-13233
▁It	-13234
奥古斯特	-13235
中日	-13236
北朝	-13237
川崎	-13238
拥立	-13239
琵琶	-13240
过滤	-13241
大学和	-13242
日通车	-13243
ones	-13244
萨诸塞州	-13245
这是因为	-13246
建的	-13247
志明	-13248
搞笑	-13249
辅导	-13250
这颗	-13251
▁Gl	-13252
希望能	-13253
种加词	-13254
cess	-13255
ters	-13256
▁以下是	-13257
ional	-13258
8.	-13259
Se	-13260
也与	-13261
取名	-13262
搜查	-13263
梅斯	-13264
棉花	-13265
法拉	-13266
确切	-13267
算是	-13268
陆上	-13269
▁保罗	-13270
星期六	-13271
臀鳍硬棘	-13272
3》	-13273
▁z	-13274
〉,	-13275
升高	-13276
城南	-13277
巴巴	-13278
湿润	-13279
aya	-13280
为纪念	-13281
南边为	-13282
安德森	-13283
工学院	-13284
佥都御史	-13285
最佳球员	-13286
又以	-13287
塔利	-13288
威特	-13289
曝光	-13290
维吉	-13291
罪行	-13292
茅斯	-13293
获颁	-13294
西甲	-13295
铜锣	-13296
Mag	-13297
▁sp	-13298
年以后	-13299
打破了	-13300
詹姆士	-13301
apan	-13302
▁Val	-13303
三十二年	-13304
爬行动物	-13305
特别是在	-13306
录音室专辑	-13307
」:	-13308
奉天	-13309
常住	-13310
露天	-13311
▁明治	-13312
三十六	-13313
剩下的	-13314
神学院	-13315
香港的	-13316
▁com	-13317
僵尸	-13318
在海	-13319
它与	-13320
法属	-13321
的表	-13322
税务	-13323
精通	-13324
郑国	-13325
副总统	-13326
布政司	-13327
右布政使	-13328
神奈川县	-13329
背鳍软条	-13330
artin	-13331
▁Girl	-13332
十大中文金曲	-13333
▁庄	-13334
代之	-13335
元和	-13336
南美	-13337
字样	-13338
孵化	-13339
安庆	-13340
牌照	-13341
白石	-13342
中担任	-13343
的相关	-13344
政协委员	-13345
大明	-13346
渡过	-13347
炮弹	-13348
百户	-13349
福克斯	-13350
东吴	-13351
到底	-13352
带走	-13353
开除	-13354
球菌	-13355
男双	-13356
结业	-13357
罹患	-13358
遍布	-13359
)12	-13360
会产生	-13361
在某些	-13362
日本人	-13363
的一段	-13364
的艺术	-13365
视星等	-13366
▁NBA	-13367
英国伦敦	-13368
▁景	-13369
华特	-13370
测定	-13371
罗兰	-13372
里士	-13373
全新的	-13374
并通过	-13375
显示出	-13376
足球会	-13377
cher	-13378
买卖	-13379
以至	-13380
广大	-13381
弗洛	-13382
首支	-13383
(40	-13384
260	-13385
▁La	-13386
的动物	-13387
臀鳍软条	-13388
▁主要演员	-13389
但该	-13390
坟墓	-13391
或许	-13392
牙买	-13393
的红	-13394
Mac	-13395
▁Sw	-13396
▁Club	-13397
4-	-13398
Me	-13399
二垒	-13400
从来	-13401
航站	-13402
萨姆	-13403
道尔	-13404
黑白	-13405
巴比伦	-13406
方济各	-13407
竞技场	-13408
管理学院	-13409
▁【	-13410
三座	-13411
住了	-13412
发放	-13413
四次	-13414
多处	-13415
就要	-13416
接力	-13417
敦煌	-13418
晋身	-13419
梅花	-13420
渴望	-13421
直立	-13422
章节	-13423
西米	-13424
败于	-13425
min	-13426
亚运会	-13427
会出现	-13428
其主要	-13429
大师赛	-13430
服务中心	-13431
交互	-13432
仅为	-13433
全民	-13434
到发	-13435
安区	-13436
插画	-13437
men	-13438
万港元	-13439
副院长	-13440
克里斯托	-13441
经济发展	-13442
民主共和国	-13443
之作	-13444
投靠	-13445
贩售	-13446
(20	-13447
个人的	-13448
是世界	-13449
▁Ltd	-13450
National	-13451
不肯	-13452
对照	-13453
胰岛	-13454
▁广告	-13455
少棒队	-13456
目前的	-13457
而无法	-13458
illa	-13459
中文大学	-13460
▁音乐作品	-13461
对待	-13462
电讯	-13463
离世	-13464
▁资料	-13465
发出的	-13466
年大选	-13467
日期间	-13468
的后裔	-13469
亚拉	-13470
塔楼	-13471
开朗	-13472
德文	-13473
贝斯	-13474
黄蜂	-13475
苗栗县	-13476
▁以下为	-13477
尽管如此	-13478
▁台湾清治末期至日治初期	-13479
▁孔	-13480
临海	-13481
佐助	-13482
季选	-13483
宣帝	-13484
层次	-13485
邦联	-13486
陵兰	-13487
包括在	-13488
委任为	-13489
这个词	-13490
礼部尚书	-13491
中兴	-13492
外来	-13493
开枪	-13494
此曲	-13495
韦恩	-13496
▁广州	-13497
全日制	-13498
设计了	-13499
森林公园	-13500
争霸	-13501
分局	-13502
头痛	-13503
封顶	-13504
Per	-13505
ili	-13506
▁主演	-13507
新人奖	-13508
正确的	-13509
的地铁	-13510
的身体	-13511
的食物	-13512
音乐厅	-13513
常务委员会	-13514
三峡	-13515
交替	-13516
仙女	-13517
千岁	-13518
奉行	-13519
急行	-13520
竟然	-13521
ady	-13522
在全国	-13523
是他的	-13524
的电视剧	-13525
大堂	-13526
字塔	-13527
孤立	-13528
▁III	-13529
只有一个	-13530
合并为新	-13531
被命名为	-13532
三分	-13533
▁	-13534
,	-13535
的	-13536
。	-13537
1	-13538
0	-13539
年	-13540
2	-13541
、	-13542
)	-13543
(	-13544
*	-13545
9	-13546
在	-13547
一	-13548
为	-13549
中	-13550
e	-13551
是	-13552
国	-13553
a	-13554
大	-13555
人	-13556
于	-13557
有	-13558
i	-13559
月	-13560
5	-13561
3	-13562
8	-13563
和	-13564
n	-13565
o	-13566
日	-13567
4	-13568
r	-13569
6	-13570
:	-13571
7	-13572
后	-13573
学	-13574
以	-13575
了	-13576
时	-13577
t	-13578
成	-13579
地	-13580
斯	-13581
上	-13582
出	-13583
会	-13584
他	-13585
s	-13586
l	-13587
生	-13588
个	-13589
部	-13590
》	-13591
《	-13592
·	-13593
不	-13594
与	-13595
作	-13596
之	-13597
第	-13598
-	-13599
名	-13600
公	-13601
尔	-13602
行	-13603
主	-13604
家	-13605
区	-13606
西	-13607
其	-13608
分	-13609
发	-13610
子	-13611
本	-13612
军	-13613
用	-13614
到	-13615
被	-13616
并	-13617
南	-13618
而	-13619
长	-13620
下	-13621
特	-13622
u	-13623
及	-13624
由	-13625
市	-13626
位	-13627
三	-13628
.	-13629
东	-13630
来	-13631
赛	-13632
德	-13633
最	-13634
克	-13635
同	-13636
法	-13637
北	-13638
里	-13639
开	-13640
方	-13641
可	-13642
道	-13643
多	-13644
高	-13645
新	-13646
电	-13647
物	-13648
亚	-13649
前	-13650
这	-13651
自	-13652
二	-13653
h	-13654
员	-13655
球	-13656
c	-13657
加	-13658
文	-13659
对	-13660
动	-13661
任	-13662
路	-13663
d	-13664
利	-13665
车	-13666
世	-13667
山	-13668
m	-13669
建	-13670
得	-13671
美	-13672
至	-13673
十	-13674
海	-13675
所	-13676
S	-13677
小	-13678
现	-13679
代	-13680
因	-13681
事	-13682
马	-13683
机	-13684
战	-13685
间	-13686
拉	-13687
入	-13688
进	-13689
内	-13690
队	-13691
也	-13692
经	-13693
过	-13694
」	-13695
「	-13696
C	-13697
教	-13698
A	-13699
天	-13700
场	-13701
将	-13702
“	-13703
此	-13704
”	-13705
要	-13706
合	-13707
等	-13708
政	-13709
台	-13710
工	-13711
线	-13712
平	-13713
体	-13714
州	-13715
期	-13716
王	-13717
能	-13718
理	-13719
制	-13720
站	-13721
业	-13722
通	-13723
次	-13724
设	-13725
立	-13726
演	-13727
当	-13728
外	-13729
科	-13730
民	-13731
度	-13732
化	-13733
罗	-13734
但	-13735
布	-13736
种	-13737
面	-13738
使	-13739
安	-13740
号	-13741
联	-13742
者	-13743
定	-13744
全	-13745
称	-13746
;	-13747
原	-13748
比	-13749
城	-13750
院	-13751
表	-13752
重	-13753
该	-13754
性	-13755
g	-13756
金	-13757
两	-13758
司	-13759
都	-13760
士	-13761
P	-13762
县	-13763
力	-13764
M	-13765
T	-13766
四	-13767
明	-13768
女	-13769
相	-13770
省	-13771
水	-13772
格	-13773
式	-13774
影	-13775
史	-13776
B	-13777
基	-13778
系	-13779
y	-13780
兰	-13781
正	-13782
尼	-13783
米	-13784
约	-13785
阿	-13786
目	-13787
元	-13788
组	-13789
英	-13790
达	-13791
乐	-13792
数	-13793
色	-13794
运	-13795
p	-13796
列	-13797
治	-13798
关	-13799
起	-13800
首	-13801
选	-13802
或	-13803
总	-13804
改	-13805
林	-13806
们	-13807
计	-13808
手	-13809
共	-13810
口	-13811
历	-13812
属	-13813
从	-13814
心	-13815
I	-13816
港	-13817
常	-13818
D	-13819
视	-13820
向	-13821
村	-13822
河	-13823
无	-13824
产	-13825
音	-13826
剧	-13827
E	-13828
书	-13829
巴	-13830
华	-13831
如	-13832
交	-13833
接	-13834
统	-13835
结	-13836
提	-13837
集	-13838
级	-13839
界	-13840
品	-13841
门	-13842
广	-13843
型	-13844
太	-13845
然	-13846
R	-13847
语	-13848
获	-13849
曲	-13850
保	-13851
类	-13852
卡	-13853
星	-13854
夫	-13855
量	-13856
N	-13857
参	-13858
五	-13859
曾	-13860
说	-13861
形	-13862
维	-13863
铁	-13864
实	-13865
校	-13866
直	-13867
务	-13868
k	-13869
龙	-13870
包	-13871
府	-13872
始	-13873
意	-13874
香	-13875
团	-13876
就	-13877
传	-13878
神	-13879
江	-13880
流	-13881
L	-13882
师	-13883
万	-13884
身	-13885
古	-13886
岛	-13887
受	-13888
单	-13889
程	-13890
导	-13891
b	-13892
石	-13893
义	-13894
回	-13895
G	-13896
纪	-13897
空	-13898
奥	-13899
点	-13900
则	-13901
游	-13902
管	-13903
已	-13904
术	-13905
饰	-13906
情	-13907
奖	-13908
H	-13909
处	-13910
领	-13911
著	-13912
议	-13913
节	-13914
社	-13915
朝	-13916
官	-13917
指	-13918
造	-13919
田	-13920
京	-13921
光	-13922
应	-13923
角	-13924
白	-13925
击	-13926
片	-13927
张	-13928
镇	-13929
展	-13930
f	-13931
纳	-13932
—	-13933
少	-13934
她	-13935
更	-13936
头	-13937
别	-13938
F	-13939
字	-13940
些	-13941
v	-13942
苏	-13943
武	-13944
洲	-13945
研	-13946
O	-13947
编	-13948
季	-13949
伊	-13950
认	-13951
还	-13952
变	-13953
信	-13954
李	-13955
活	-13956
职	-13957
波	-13958
转	-13959
只	-13960
命	-13961
版	-13962
近	-13963
资	-13964
局	-13965
持	-13966
兵	-13967
带	-13968
歌	-13969
六	-13970
取	-13971
打	-13972
周	-13973
普	-13974
足	-13975
图	-13976
风	-13977
爱	-13978
连	-13979
各	-13980
际	-13981
收	-13982
/	-13983
知	-13984
它	-13985
举	-13986
去	-13987
专	-13988
记	-13989
又	-13990
没	-13991
族	-13992
初	-13993
圣	-13994
清	-13995
段	-13996
K	-13997
据	-13998
支	-13999
亲	-14000
委	-14001
标	-14002
帝	-14003
先	-14004
究	-14005
福	-14006
V	-14007
气	-14008
决	-14009
非	-14010
花	-14011
阳	-14012
条	-14013
括	-14014
宗	-14015
反	-14016
座	-14017
解	-14018
放	-14019
园	-14020
创	-14021
商	-14022
往	-14023
再	-14024
今	-14025
死	-14026
八	-14027
离	-14028
根	-14029
儿	-14030
构	-14031
未	-14032
果	-14033
复	-14034
父	-14035
完	-14036
戏	-14037
馆	-14038
川	-14039
播	-14040
画	-14041
黄	-14042
吉	-14043
塔	-14044
母	-14045
卫	-14046
洛	-14047
冠	-14048
装	-14049
威	-14050
器	-14051
论	-14052
划	-14053
即	-14054
欧	-14055
报	-14056
录	-14057
置	-14058
博	-14059
育	-14060
观	-14061
终	-14062
营	-14063
土	-14064
湾	-14065
好	-14066
雷	-14067
示	-14068
超	-14069
质	-14070
见	-14071
速	-14072
萨	-14073
强	-14074
项	-14075
伯	-14076
故	-14077
汉	-14078
升	-14079
每	-14080
居	-14081
随	-14082
边	-14083
皇	-14084
青	-14085
哈	-14086
瓦	-14087
希	-14088
修	-14089
件	-14090
给	-14091
续	-14092
令	-14093
调	-14094
火	-14095
投	-14096
病	-14097
功	-14098
较	-14099
七	-14100
艺	-14101
源	-14102
木	-14103
陆	-14104
伦	-14105
w	-14106
九	-14107
存	-14108
助	-14109
男	-14110
攻	-14111
亦	-14112
氏	-14113
办	-14114
具	-14115
权	-14116
医	-14117
客	-14118
岁	-14119
筑	-14120
服	-14121
且	-14122
引	-14123
护	-14124
W	-14125
党	-14126
飞	-14127
争	-14128
例	-14129
许	-14130
很	-14131
J	-14132
胜	-14133
己	-14134
配	-14135
题	-14136
除	-14137
室	-14138
塞	-14139
航	-14140
鲁	-14141
勒	-14142
担	-14143
志	-14144
堂	-14145
派	-14146
份	-14147
真	-14148
U	-14149
红	-14150
甲	-14151
森	-14152
诺	-14153
协	-14154
早	-14155
兴	-14156
技	-14157
湖	-14158
老	-14159
食	-14160
杀	-14161
桥	-14162
庄	-14163
环	-14164
沙	-14165
黑	-14166
陈	-14167
奇	-14168
我	-14169
评	-14170
街	-14171
备	-14172
班	-14173
规	-14174
率	-14175
郡	-14176
那	-14177
致	-14178
莱	-14179
百	-14180
双	-14181
状	-14182
层	-14183
查	-14184
%	-14185
托	-14186
另	-14187
落	-14188
域	-14189
境	-14190
积	-14191
乡	-14192
刘	-14193
试	-14194
样	-14195
围	-14196
宣	-14197
言	-14198
容	-14199
继	-14200
易	-14201
印	-14202
盟	-14203
推	-14204
失	-14205
哥	-14206
恩	-14207
准	-14208
景	-14209
限	-14210
济	-14211
射	-14212
增	-14213
深	-14214
曼	-14215
野	-14216
姆	-14217
密	-14218
供	-14219
感	-14220
半	-14221
登	-14222
贝	-14223
模	-14224
顿	-14225
宫	-14226
排	-14227
施	-14228
声	-14229
群	-14230
副	-14231
问	-14232
云	-14233
败	-14234
整	-14235
网	-14236
均	-14237
考	-14238
众	-14239
佳	-14240
独	-14241
千	-14242
祖	-14243
求	-14244
友	-14245
埃	-14246
像	-14247
迪	-14248
越	-14249
响	-14250
楼	-14251
康	-14252
泰	-14253
住	-14254
俄	-14255
宁	-14256
征	-14257
侧	-14258
防	-14259
鱼	-14260
守	-14261
典	-14262
房	-14263
夏	-14264
想	-14265
告	-14266
库	-14267
步	-14268
证	-14269
热	-14270
让	-14271
丽	-14272
索	-14273
何	-14274
届	-14275
察	-14276
授	-14277
象	-14278
留	-14279
采	-14280
才	-14281
洋	-14282
料	-14283
写	-14284
止	-14285
舰	-14286
效	-14287
费	-14288
牙	-14289
唱	-14290
瑞	-14291
范	-14292
席	-14293
银	-14294
温	-14295
需	-14296
素	-14297
看	-14298
织	-14299
占	-14300
着	-14301
章	-14302
郎	-14303
简	-14304
便	-14305
左	-14306
监	-14307
案	-14308
细	-14309
嘉	-14310
弟	-14311
极	-14312
町	-14313
丁	-14314
佛	-14315
宝	-14316
降	-14317
封	-14318
堡	-14319
叶	-14320
附	-14321
户	-14322
话	-14323
松	-14324
承	-14325
永	-14326
蒙	-14327
仍	-14328
牌	-14329
丹	-14330
督	-14331
乌	-14332
唐	-14333
干	-14334
厅	-14335
词	-14336
远	-14337
载	-14338
富	-14339
几	-14340
测	-14341
低	-14342
右	-14343
仅	-14344
述	-14345
精	-14346
礼	-14347
价	-14348
余	-14349
负	-14350
船	-14351
杯	-14352
态	-14353
移	-14354
店	-14355
把	-14356
念	-14357
隆	-14358
寺	-14359
注	-14360
拿	-14361
律	-14362
退	-14363
酒	-14364
藏	-14365
停	-14366
z	-14367
显	-14368
旅	-14369
确	-14370
满	-14371
底	-14372
莫	-14373
春	-14374
农	-14375
庆	-14376
久	-14377
思	-14378
弗	-14379
杰	-14380
练	-14381
控	-14382
票	-14383
弹	-14384
坦	-14385
斗	-14386
走	-14387
望	-14388
雄	-14389
蒂	-14390
轮	-14391
责	-14392
预	-14393
梅	-14394
辑	-14395
优	-14396
皮	-14397
秀	-14398
旧	-14399
执	-14400
消	-14401
遗	-14402
候	-14403
快	-14404
短	-14405
却	-14406
尾	-14407
验	-14408
尚	-14409
草	-14410
延	-14411
艾	-14412
破	-14413
灵	-14414
药	-14415
荣	-14416
批	-14417
澳	-14418
麦	-14419
孙	-14420
谷	-14421
役	-14422
似	-14423
血	-14424
树	-14425
玛	-14426
照	-14427
油	-14428
央	-14429
含	-14430
临	-14431
杨	-14432
晋	-14433
背	-14434
朗	-14435
警	-14436
顺	-14437
况	-14438
端	-14439
归	-14440
阵	-14441
做	-14442
请	-14443
雅	-14444
邦	-14445
断	-14446
伤	-14447
突	-14448
耶	-14449
亡	-14450
依	-14451
息	-14452
喜	-14453
摩	-14454
津	-14455
植	-14456
股	-14457
菲	-14458
异	-14459
摄	-14460
庭	-14461
难	-14462
宋	-14463
卢	-14464
闻	-14465
虽	-14466
拥	-14467
x	-14468
算	-14469
韩	-14470
厂	-14471
末	-14472
吴	-14473
切	-14474
势	-14475
・	-14476
ー	-14477
读	-14478
般	-14479
架	-14480
压	-14481
良	-14482
顶	-14483
介	-14484
辖	-14485
毛	-14486
习	-14487
换	-14488
沿	-14489
の	-14490
赫	-14491
骨	-14492
革	-14493
钟	-14494
丰	-14495
婚	-14496
诗	-14497
臣	-14498
若	-14499
养	-14500
岸	-14501
轻	-14502
鸟	-14503
贵	-14504
岩	-14505
售	-14506
识	-14507
必	-14508
朱	-14509
追	-14510
板	-14511
梁	-14512
毕	-14513
毒	-14514
晚	-14515
佐	-14516
绝	-14517
值	-14518
译	-14519
送	-14520
帕	-14521
纽	-14522
爵	-14523
映	-14524
启	-14525
拍	-14526
齐	-14527
盖	-14528
屋	-14529
抗	-14530
隶	-14531
兹	-14532
御	-14533
核	-14534
井	-14535
骑	-14536
兼	-14537
束	-14538
舞	-14539
善	-14540
娜	-14541
乘	-14542
旗	-14543
酸	-14544
胡	-14545
泽	-14546
卷	-14547
玉	-14548
凯	-14549
冲	-14550
魔	-14551
仁	-14552
Y	-14553
码	-14554
君	-14555
迁	-14556
杂	-14557
微	-14558
略	-14559
玩	-14560
训	-14561
逐	-14562
散	-14563
–	-14564
翰	-14565
黎	-14566
严	-14567
轨	-14568
昌	-14569
宾	-14570
须	-14571
判	-14572
妻	-14573
夺	-14574
牛	-14575
"	-14576
智	-14577
尽	-14578
亿	-14579
锦	-14580
刺	-14581
X	-14582
沃	-14583
兄	-14584
夜	-14585
杜	-14586
乔	-14587
涯	-14588
ン	-14589
补	-14590
宇	-14591
什	-14592
签	-14593
籍	-14594
劳	-14595
胞	-14596
聚	-14597
材	-14598
敌	-14599
救	-14600
输	-14601
阶	-14602
枪	-14603
圆	-14604
仪	-14605
险	-14606
莉	-14607
溪	-14608
距	-14609
欢	-14610
企	-14611
检	-14612
巨	-14613
频	-14614
遭	-14615
魏	-14616
拜	-14617
郑	-14618
策	-14619
免	-14620
盛	-14621
眼	-14622
差	-14623
丝	-14624
童	-14625
销	-14626
藤	-14627
按	-14628
疗	-14629
购	-14630
绩	-14631
挥	-14632
驻	-14633
财	-14634
廷	-14635
谢	-14636
赵	-14637
序	-14638
雪	-14639
予	-14640
探	-14641
烈	-14642
途	-14643
蓝	-14644
!	-14645
诸	-14646
巡	-14647
货	-14648
爆	-14649
荷	-14650
假	-14651
竹	-14652
+	-14653
宽	-14654
址	-14655
混	-14656
害	-14657
忠	-14658
减	-14659
署	-14660
概	-14661
讲	-14662
冈	-14663
刻	-14664
你	-14665
秘	-14666
遇	-14667
休	-14668
峰	-14669
释	-14670
款	-14671
奏	-14672
殿	-14673
废	-14674
邻	-14675
漫	-14676
霍	-14677
跟	-14678
а	-14679
描	-14680
泉	-14681
侯	-14682
帮	-14683
秋	-14684
互	-14685
韦	-14686
甚	-14687
健	-14688
棒	-14689
敦	-14690
觉	-14691
绿	-14692
献	-14693
坡	-14694
症	-14695
羽	-14696
穆	-14697
吸	-14698
替	-14699
露	-14700
尺	-14701
竞	-14702
找	-14703
横	-14704
琴	-14705
适	-14706
佩	-14707
孩	-14708
庙	-14709
俱	-14710
誉	-14711
奈	-14712
妹	-14713
充	-14714
辆	-14715
逃	-14716
染	-14717
昭	-14718
幕	-14719
篇	-14720
径	-14721
梦	-14722
审	-14723
穿	-14724
盘	-14725
徐	-14726
脚	-14727
渐	-14728
炮	-14729
透	-14730
剑	-14731
陵	-14732
固	-14733
耳	-14734
棋	-14735
借	-14736
额	-14737
芬	-14738
徒	-14739
怀	-14740
冰	-14741
罪	-14742
鲜	-14743
扩	-14744
柏	-14745
惠	-14746
呈	-14747
奉	-14748
洪	-14749
翼	-14750
茨	-14751
钱	-14752
乱	-14753
灭	-14754
够	-14755
墓	-14756
援	-14757
刚	-14758
'	-14759
戴	-14760
激	-14761
唯	-14762
辛	-14763
靠	-14764
私	-14765
媒	-14766
某	-14767
毫	-14768
亮	-14769
择	-14770
暴	-14771
缘	-14772
?	-14773
缺	-14774
衣	-14775
袭	-14776
返	-14777
』	-14778
『	-14779
镜	-14780
侍	-14781
池	-14782
块	-14783
浙	-14784
乙	-14785
益	-14786
赞	-14787
孔	-14788
皆	-14789
雨	-14790
仙	-14791
尤	-14792
脱	-14793
舍	-14794
о	-14795
秦	-14796
虎	-14797
肉	-14798
恶	-14799
乎	-14800
榜	-14801
腊	-14802
听	-14803
矿	-14804
滨	-14805
曹	-14806
震	-14807
姓	-14808
赏	-14809
讨	-14810
蛋	-14811
洞	-14812
顾	-14813
禁	-14814
菌	-14815
谋	-14816
甘	-14817
融	-14818
捕	-14819
桑	-14820
墨	-14821
肯	-14822
操	-14823
寿	-14824
钢	-14825
翻	-14826
毁	-14827
绍	-14828
浦	-14829
急	-14830
待	-14831
戈	-14832
刊	-14833
迹	-14834
j	-14835
综	-14836
访	-14837
廉	-14838
冷	-14839
颁	-14840
币	-14841
～	-14842
Z	-14843
虫	-14844
课	-14845
幸	-14846
招	-14847
逝	-14848
齿	-14849
彩	-14850
暗	-14851
麻	-14852
珠	-14853
汇	-14854
味	-14855
旋	-14856
汽	-14857
培	-14858
莎	-14859
申	-14860
凤	-14861
努	-14862
阴	-14863
坚	-14864
侵	-14865
寻	-14866
迎	-14867
殖	-14868
液	-14869
辅	-14870
剂	-14871
络	-14872
默	-14873
恐	-14874
渡	-14875
ス	-14876
瑟	-14877
隔	-14878
患	-14879
刑	-14880
拔	-14881
抵	-14882
扬	-14883
匹	-14884
鳍	-14885
撤	-14886
恒	-14887
迷	-14888
赢	-14889
危	-14890
冬	-14891
и	-14892
幼	-14893
董	-14894
静	-14895
午	-14896
楚	-14897
损	-14898
呼	-14899
宜	-14900
氧	-14901
犯	-14902
葡	-14903
么	-14904
潜	-14905
彼	-14906
贡	-14907
崇	-14908
脉	-14909
炸	-14910
买	-14911
符	-14912
扎	-14913
愿	-14914
姐	-14915
滑	-14916
亨	-14917
伍	-14918
绘	-14919
辽	-14920
哲	-14921
い	-14922
册	-14923
豪	-14924
勇	-14925
召	-14926
铜	-14927
叫	-14928
徽	-14929
孝	-14930
勋	-14931
伟	-14932
吕	-14933
崎	-14934
软	-14935
缩	-14936
脑	-14937
柱	-14938
盐	-14939
弃	-14940
汤	-14941
截	-14942
避	-14943
糖	-14944
牧	-14945
敏	-14946
菜	-14947
针	-14948
础	-14949
浪	-14950
订	-14951
谈	-14952
萧	-14953
颜	-14954
疑	-14955
牠	-14956
恋	-14957
枚	-14958
妇	-14959
邮	-14960
陶	-14961
圈	-14962
坏	-14963
雕	-14964
贤	-14965
妮	-14966
墙	-14967
〉	-14968
否	-14969
误	-14970
套	-14971
〈	-14972
尊	-14973
阻	-14974
郭	-14975
坐	-14976
锡	-14977
鬼	-14978
ル	-14979
裁	-14980
贺	-14981
仔	-14982
イ	-14983
潮	-14984
卖	-14985
仓	-14986
掌	-14987
伐	-14988
桃	-14989
诉	-14990
暂	-14991
付	-14992
宿	-14993
闭	-14994
赤	-14995
驱	-14996
紧	-14997
陷	-14998
享	-14999
е	-15000
沉	-15001
迫	-15002
泛	-15003
析	-15004
裂	-15005
讯	-15006
萄	-15007
幻	-15008
丘	-15009
繁	-15010
灰	-15011
乃	-15012
跨	-15013
倒	-15014
阁	-15015
笔	-15016
俗	-15017
宪	-15018
昆	-15019
燕	-15020
沈	-15021
н	-15022
靖	-15023
振	-15024
坑	-15025
触	-15026
昂	-15027
紫	-15028
赖	-15029
跑	-15030
祭	-15031
壤	-15032
裔	-15033
熙	-15034
怪	-15035
柴	-15036
偏	-15037
疫	-15038
贸	-15039
疾	-15040
敬	-15041
颗	-15042
纹	-15043
租	-15044
逊	-15045
兽	-15046
锋	-15047
纯	-15048
辞	-15049
纸	-15050
鹿	-15051
葬	-15052
餐	-15053
累	-15054
琳	-15055
珍	-15056
壁	-15057
柯	-15058
硬	-15059
粉	-15060
伸	-15061
伴	-15062
跳	-15063
俊	-15064
弘	-15065
р	-15066
览	-15067
猎	-15068
孟	-15069
朋	-15070
炎	-15071
障	-15072
犹	-15073
烧	-15074
赠	-15075
栖	-15076
辉	-15077
Q	-15078
贾	-15079
с	-15080
恢	-15081
厚	-15082
械	-15083
伏	-15084
刀	-15085
茶	-15086
偶	-15087
隐	-15088
蛇	-15089
迈	-15090
晶	-15091
é	-15092
旁	-15093
龄	-15094
熊	-15095
困	-15096
稳	-15097
鼓	-15098
残	-15099
捷	-15100
谱	-15101
埔	-15102
错	-15103
殊	-15104
灯	-15105
葛	-15106
宅	-15107
慕	-15108
莲	-15109
番	-15110
箭	-15111
し	-15112
档	-15113
柳	-15114
厦	-15115
乳	-15116
轴	-15117
玄	-15118
燃	-15119
估	-15120
折	-15121
吃	-15122
ト	-15123
陕	-15124
杉	-15125
挑	-15126
猪	-15127
涉	-15128
纵	-15129
抚	-15130
篮	-15131
撒	-15132
汗	-15133
垒	-15134
碑	-15135
零	-15136
奴	-15137
凡	-15138
猫	-15139
涅	-15140
禄	-15141
苗	-15142
ラ	-15143
艇	-15144
冯	-15145
q	-15146
邀	-15147
岭	-15148
狱	-15149
卿	-15150
慈	-15151
拆	-15152
绪	-15153
叛	-15154
叙	-15155
答	-15156
咸	-15157
腹	-15158
尖	-15159
诊	-15160
羊	-15161
衔	-15162
藩	-15163
虚	-15164
沟	-15165
衡	-15166
潘	-15167
贯	-15168
慢	-15169
艘	-15170
祥	-15171
饮	-15172
灾	-15173
拒	-15174
弱	-15175
允	-15176
尉	-15177
幅	-15178
桂	-15179
蔡	-15180
盗	-15181
リ	-15182
圳	-15183
斑	-15184
ク	-15185
熟	-15186
坛	-15187
贞	-15188
搭	-15189
绕	-15190
か	-15191
厘	-15192
ア	-15193
叔	-15194
惊	-15195
痛	-15196
な	-15197
驶	-15198
税	-15199
芝	-15200
纲	-15201
詹	-15202
撞	-15203
粒	-15204
娱	-15205
烟	-15206
к	-15207
遣	-15208
诚	-15209
储	-15210
ん	-15211
梯	-15212
苦	-15213
ッ	-15214
乾	-15215
と	-15216
遂	-15217
驾	-15218
芳	-15219
た	-15220
句	-15221
浮	-15222
淡	-15223
茂	-15224
坊	-15225
笑	-15226
掉	-15227
覆	-15228
倍	-15229
峡	-15230
彦	-15231
赐	-15232
牵	-15233
遍	-15234
床	-15235
浩	-15236
胶	-15237
浅	-15238
鸡	-15239
崔	-15240
促	-15241
邓	-15242
键	-15243
彭	-15244
侠	-15245
拓	-15246
岳	-15247
妃	-15248
罕	-15249
枢	-15250
诞	-15251
塘	-15252
仲	-15253
拟	-15254
厄	-15255
в	-15256
亭	-15257
勤	-15258
り	-15259
狮	-15260
瓜	-15261
勃	-15262
膜	-15263
趣	-15264
杭	-15265
鹰	-15266
磁	-15267
卒	-15268
卓	-15269
详	-15270
彰	-15271
欲	-15272
宏	-15273
挂	-15274
秒	-15275
泥	-15276
→	-15277
°	-15278
仰	-15279
浓	-15280
券	-15281
泳	-15282
宙	-15283
晓	-15284
坎	-15285
溶	-15286
鉴	-15287
虑	-15288
塑	-15289
丈	-15290
慧	-15291
肃	-15292
阪	-15293
吨	-15294
洗	-15295
裕	-15296
筹	-15297
屯	-15298
う	-15299
硕	-15300
л	-15301
粤	-15302
枝	-15303
隧	-15304
匈	-15305
弥	-15306
т	-15307
る	-15308
屏	-15309
霸	-15310
喷	-15311
魂	-15312
插	-15313
疏	-15314
ま	-15315
鼠	-15316
箱	-15317
缓	-15318
巧	-15319
笼	-15320
丧	-15321
欣	-15322
锁	-15323
肥	-15324
湿	-15325
胸	-15326
劲	-15327
迅	-15328
淮	-15329
饭	-15330
豆	-15331
妈	-15332
谓	-15333
凭	-15334
犬	-15335
舒	-15336
泊	-15337
娘	-15338
碳	-15339
帅	-15340
柔	-15341
丙	-15342
砲	-15343
拳	-15344
尸	-15345
吏	-15346
酶	-15347
仑	-15348
悬	-15349
撰	-15350
鸣	-15351
荒	-15352
洁	-15353
坂	-15354
袁	-15355
扮	-15356
龟	-15357
函	-15358
忆	-15359
狂	-15360
倾	-15361
壮	-15362
斜	-15363
跃	-15364
讷	-15365
婆	-15366
搬	-15367
郊	-15368
垂	-15369
&	-15370
玻	-15371
卵	-15372
狼	-15373
戒	-15374
雀	-15375
轰	-15376
铃	-15377
晨	-15378
阅	-15379
嫁	-15380
割	-15381
辰	-15382
丸	-15383
祝	-15384
怒	-15385
鲍	-15386
冒	-15387
孤	-15388
逆	-15389
串	-15390
凉	-15391
凌	-15392
彻	-15393
珊	-15394
に	-15395
姬	-15396
嗣	-15397
旦	-15398
赴	-15399
狄	-15400
忍	-15401
雌	-15402
レ	-15403
焦	-15404
み	-15405
夷	-15406
乏	-15407
シ	-15408
诏	-15409
循	-15410
傅	-15411
润	-15412
マ	-15413
粮	-15414
励	-15415
娃	-15416
岗	-15417
株	-15418
壳	-15419
狗	-15420
さ	-15421
嘴	-15422
衍	-15423
窗	-15424
杆	-15425
耀	-15426
搜	-15427
鸿	-15428
僧	-15429
链	-15430
旺	-15431
契	-15432
寒	-15433
ロ	-15434
脊	-15435
甸	-15436
翁	-15437
陀	-15438
弦	-15439
碎	-15440
叉	-15441
き	-15442
碍	-15443
胎	-15444
脏	-15445
侦	-15446
肌	-15447
仿	-15448
脂	-15449
伙	-15450
ら	-15451
罚	-15452
填	-15453
翠	-15454
矶	-15455
滩	-15456
剩	-15457
奶	-15458
タ	-15459
卜	-15460
鼻	-15461
盾	-15462
ジ	-15463
缅	-15464
既	-15465
曰	-15466
踪	-15467
煤	-15468
腾	-15469
粗	-15470
廊	-15471
淘	-15472
喀	-15473
胁	-15474
厝	-15475
蜂	-15476
癌	-15477
寄	-15478
旨	-15479
鹤	-15480
姊	-15481
薛	-15482
凝	-15483
氢	-15484
衰	-15485
渔	-15486
璃	-15487
疆	-15488
钦	-15489
潭	-15490
ド	-15491
仇	-15492
貌	-15493
净	-15494
寮	-15495
偷	-15496
椎	-15497
滚	-15498
お	-15499
违	-15500
ち	-15501
屿	-15502
朴	-15503
赶	-15504
坝	-15505
荐	-15506
蕾	-15507
─	-15508
辐	-15509
姚	-15510
袖	-15511
捐	-15512
灌	-15513
摇	-15514
铺	-15515
丞	-15516
污	-15517
蜜	-15518
磨	-15519
页	-15520
扰	-15521
カ	-15522
抽	-15523
姜	-15524
薄	-15525
邑	-15526
く	-15527
幽	-15528
吐	-15529
愈	-15530
尝	-15531
夕	-15532
掘	-15533
丑	-15534
贫	-15535
迟	-15536
樱	-15537
隋	-15538
斤	-15539
恭	-15540
抑	-15541
庞	-15542
抢	-15543
苑	-15544
螺	-15545
琉	-15546
腺	-15547
奔	-15548
稿	-15549
儒	-15550
肠	-15551
挪	-15552
祀	-15553
闪	-15554
汰	-15555
褐	-15556
纷	-15557
俘	-15558
妙	-15559
は	-15560
奎	-15561
翔	-15562
逢	-15563
棘	-15564
悉	-15565
堆	-15566
询	-15567
て	-15568
兆	-15569
盆	-15570
蒸	-15571
湘	-15572
坪	-15573
阔	-15574
仕	-15575
琼	-15576
仆	-15577
叠	-15578
吾	-15579
~	-15580
韵	-15581
巢	-15582
斋	-15583
揭	-15584
擎	-15585
弯	-15586
寸	-15587
猛	-15588
颈	-15589
歇	-15590
醒	-15591
あ	-15592
砂	-15593
汝	-15594
卑	-15595
尹	-15596
寨	-15597
铭	-15598
赋	-15599
д	-15600
斩	-15601
肺	-15602
递	-15603
汀	-15604
襄	-15605
贴	-15606
丛	-15607
鳞	-15608
鳄	-15609
耗	-15610
栗	-15611
硫	-15612
聘	-15613
谭	-15614
添	-15615
醇	-15616
栏	-15617
梨	-15618
稍	-15619
蜥	-15620
が	-15621
刷	-15622
斐	-15623
劝	-15624
祠	-15625
堪	-15626
姻	-15627
圭	-15628
妖	-15629
劫	-15630
畔	-15631
こ	-15632
鸭	-15633
碧	-15634
蒋	-15635
巫	-15636
惟	-15637
芒	-15638
氨	-15639
瓶	-15640
宰	-15641
扶	-15642
悲	-15643
泡	-15644
荆	-15645
咖	-15646
厢	-15647
涂	-15648
肢	-15649
肤	-15650
渊	-15651
フ	-15652
м	-15653
债	-15654
耐	-15655
措	-15656
冢	-15657
伪	-15658
穴	-15659
キ	-15660
棕	-15661
纤	-15662
栋	-15663
珀	-15664
谦	-15665
玲	-15666
禅	-15667
雇	-15668
袋	-15669
雍	-15670
テ	-15671
迦	-15672
腔	-15673
稻	-15674
麟	-15675
姑	-15676
肖	-15677
虹	-15678
敢	-15679
挖	-15680
屈	-15681
邪	-15682
剪	-15683
吹	-15684
稣	-15685
氯	-15686
诱	-15687
砖	-15688
腿	-15689
甜	-15690
伽	-15691
抱	-15692
闲	-15693
吞	-15694
吧	-15695
忧	-15696
#	-15697
オ	-15698
睡	-15699
エ	-15700
尿	-15701
爷	-15702
聪	-15703
囊	-15704
肿	-15705
弓	-15706
贼	-15707
遵	-15708
コ	-15709
寓	-15710
汪	-15711
握	-15712
舟	-15713
怕	-15714
擅	-15715
腓	-15716
蜀	-15717
啡	-15718
扫	-15719
祐	-15720
甫	-15721
钻	-15722
ا	-15723
谥	-15724
れ	-15725
矢	-15726
粹	-15727
炼	-15728
鄂	-15729
桓	-15730
涵	-15731
埋	-15732
拱	-15733
薇	-15734
屠	-15735
摆	-15736
琪	-15737
辩	-15738
雾	-15739
颇	-15740
抓	-15741
蝶	-15742
肝	-15743
逸	-15744
闸	-15745
胆	-15746
×	-15747
谊	-15748
逼	-15749
瘤	-15750
魁	-15751
绳	-15752
й	-15753
プ	-15754
α	-15755
帆	-15756
ナ	-15757
鼎	-15758
遥	-15759
沼	-15760
忘	-15761
纬	-15762
宛	-15763
で	-15764
怖	-15765
惯	-15766
祯	-15767
蹈	-15768
狭	-15769
跋	-15770
ь	-15771
翌	-15772
溯	-15773
札	-15774
爪	-15775
婴	-15776
濑	-15777
舱	-15778
辨	-15779
漠	-15780
毅	-15781
晴	-15782
胺	-15783
ィ	-15784
铎	-15785
夹	-15786
宠	-15787
拖	-15788
淑	-15789
苯	-15790
っ	-15791
茅	-15792
孕	-15793
吻	-15794
郁	-15795
披	-15796
を	-15797
携	-15798
翅	-15799
阮	-15800
デ	-15801
庶	-15802
〜	-15803
崩	-15804
凶	-15805
腐	-15806
菊	-15807
顷	-15808
磷	-15809
ム	-15810
罢	-15811
も	-15812
霞	-15813
渠	-15814
竟	-15815
饼	-15816
姿	-15817
拼	-15818
鲸	-15819
臂	-15820
炉	-15821
淳	-15822
忽	-15823
チ	-15824
桐	-15825
榄	-15826
恰	-15827
怡	-15828
娶	-15829
冕	-15830
菩	-15831
堤	-15832
奋	-15833
脸	-15834
巷	-15835
‧	-15836
藻	-15837
暖	-15838
邵	-15839
臀	-15840
豫	-15841
す	-15842
朵	-15843
慎	-15844
稀	-15845
у	-15846
滕	-15847
偿	-15848
悦	-15849
豹	-15850
铸	-15851
轩	-15852
押	-15853
闽	-15854
宴	-15855
芦	-15856
鹅	-15857
帽	-15858
忙	-15859
茵	-15860
谁	-15861
芙	-15862
惜	-15863
蒲	-15864
礁	-15865
锐	-15866
ャ	-15867
碟	-15868
坠	-15869
茎	-15870
梵	-15871
柄	-15872
蝠	-15873
耕	-15874
眠	-15875
旬	-15876
扁	-15877
爸	-15878
澄	-15879
碰	-15880
矮	-15881
扑	-15882
碱	-15883
贩	-15884
崖	-15885
筒	-15886
颌	-15887
á	-15888
矩	-15889
穷	-15890
涌	-15891
浆	-15892
忌	-15893
腰	-15894
芭	-15895
掠	-15896
咨	-15897
厨	-15898
狐	-15899
瓷	-15900
つ	-15901
摧	-15902
催	-15903
赌	-15904
鹏	-15905
萝	-15906
ミ	-15907
肩	-15908
惨	-15909
踢	-15910
寇	-15911
烷	-15912
茄	-15913
辟	-15914
侨	-15915
驳	-15916
陨	-15917
バ	-15918
蛙	-15919
骏	-15920
娅	-15921
尘	-15922
募	-15923
グ	-15924
颖	-15925
酷	-15926
ズ	-15927
卧	-15928
哀	-15929
爬	-15930
棉	-15931
猴	-15932
ビ	-15933
岐	-15934
溃	-15935
嫌	-15936
サ	-15937
悠	-15938
亩	-15939
踏	-15940
削	-15941
趋	-15942
逻	-15943
蛛	-15944
亥	-15945
邱	-15946
г	-15947
陪	-15948
旭	-15949
殷	-15950
畅	-15951
敲	-15952
弄	-15953
恨	-15954
镑	-15955
橄	-15956
ニ	-15957
舌	-15958
绵	-15959
眉	-15960
逮	-15961
喙	-15962
矛	-15963
毗	-15964
颂	-15965
メ	-15966
惧	-15967
橡	-15968
穗	-15969
庚	-15970
パ	-15971
驹	-15972
虏	-15973
’	-15974
肾	-15975
蚀	-15976
绑	-15977
凰	-15978
虾	-15979
侣	-15980
ブ	-15981
咏	-15982
廖	-15983
吊	-15984
烯	-15985
抄	-15986
挡	-15987
勘	-15988
兔	-15989
愤	-15990
睛	-15991
窄	-15992
竣	-15993
暨	-15994
鞋	-15995
烂	-15996
佑	-15997
酿	-15998
漏	-15999
唤	-16000
戊	-16001
荡	-16002
沪	-16003
帐	-16004
醉	-16005
捉	-16006
卸	-16007
窝	-16008
炭	-16009
盈	-16010
ウ	-16011
酮	-16012
氟	-16013
や	-16014
ダ	-16015
黛	-16016
苍	-16017
だ	-16018
祈	-16019
抛	-16020
ュ	-16021
咒	-16022
裴	-16023
漂	-16024
蓄	-16025
ü	-16026
辈	-16027
蓬	-16028
骗	-16029
昏	-16030
昔	-16031
摔	-16032
颅	-16033
掩	-16034
佥	-16035
哪	-16036
垣	-16037
蝙	-16038
锅	-16039
乞	-16040
ɛ	-16041
涛	-16042
鸦	-16043
冻	-16044
攀	-16045
】	-16046
戌	-16047
疯	-16048
【	-16049
я	-16050
桌	-16051
缝	-16052
奸	-16053
汶	-16054
誓	-16055
ʁ	-16056
庸	-16057
芽	-16058
拨	-16059
祸	-16060
阜	-16061
椅	-16062
じ	-16063
悟	-16064
贷	-16065
扇	-16066
厌	-16067
饲	-16068
扣	-16069
擢	-16070
趁	-16071
斥	-16072
庵	-16073
贬	-16074
颠	-16075
框	-16076
滋	-16077
艳	-16078
帖	-16079
葵	-16080
劾	-16081
ل	-16082
熔	-16083
濒	-16084
泄	-16085
凸	-16086
杏	-16087
棱	-16088
浸	-16089
奠	-16090
呎	-16091
喝	-16092
牲	-16093
ハ	-16094
胃	-16095
嫩	-16096
虞	-16097
斌	-16098
窦	-16099
袜	-16100
囚	-16101
钠	-16102
猜	-16103
喉	-16104
履	-16105
け	-16106
枫	-16107
纺	-16108
遮	-16109
痕	-16110
ā	-16111
よ	-16112
镰	-16113
慰	-16114
薪	-16115
倡	-16116
镶	-16117
菱	-16118
哭	-16119
匠	-16120
窑	-16121
屡	-16122
饶	-16123
歧	-16124
鲨	-16125
驰	-16126
ひ	-16127
槽	-16128
瑰	-16129
堀	-16130
蕃	-16131
谐	-16132
玫	-16133
侄	-16134
淀	-16135
璋	-16136
え	-16137
橙	-16138
蜘	-16139
楠	-16140
凹	-16141
冀	-16142
旱	-16143
锥	-16144
怨	-16145
泪	-16146
唇	-16147
尧	-16148
惑	-16149
笃	-16150
汁	-16151
坤	-16152
坞	-16153
翡	-16154
‘	-16155
糕	-16156
禧	-16157
韶	-16158
壬	-16159
庇	-16160
ガ	-16161
懿	-16162
わ	-16163
氮	-16164
猿	-16165
徙	-16166
笛	-16167
啤	-16168
涡	-16169
怎	-16170
敷	-16171
坟	-16172
浴	-16173
纠	-16174
酋	-16175
肇	-16176
劣	-16177
牟	-16178
ч	-16179
酯	-16180
祷	-16181
伞	-16182
撑	-16183
戚	-16184
欠	-16185
躲	-16186
扭	-16187
め	-16188
榴	-16189
裸	-16190
闯	-16191
跌	-16192
泌	-16193
畜	-16194
辣	-16195
纱	-16196
棚	-16197
缴	-16198
铝	-16199
黏	-16200
í	-16201
擦	-16202
践	-16203
ョ	-16204
嫡	-16205
骚	-16206
挺	-16207
苹	-16208
狩	-16209
С	-16210
浑	-16211
瑶	-16212
酱	-16213
啦	-16214
贪	-16215
丢	-16216
寅	-16217
酰	-16218
哺	-16219
栽	-16220
朔	-16221
勾	-16222
欺	-16223
煌	-16224
筋	-16225
盒	-16226
炳	-16227
ö	-16228
奕	-16229
漆	-16230
塌	-16231
і	-16232
蛮	-16233
梓	-16234
喻	-16235
庐	-16236
萌	-16237
ο	-16238
彗	-16239
胀	-16240
柜	-16241
诛	-16242
拯	-16243
雁	-16244
癸	-16245
瑜	-16246
廿	-16247
焰	-16248
缔	-16249
谨	-16250
夸	-16251
锯	-16252
椭	-16253
湛	-16254
̃	-16255
橘	-16256
谕	-16257
β	-16258
绥	-16259
彬	-16260
瑚	-16261
婷	-16262
燥	-16263
瓣	-16264
厉	-16265
ゆ	-16266
垩	-16267
冥	-16268
妆	-16269
弧	-16270
粘	-16271
竖	-16272
烦	-16273
剌	-16274
盲	-16275
谣	-16276
※	-16277
ノ	-16278
б	-16279
绰	-16280
ы	-16281
纂	-16282
ó	-16283
删	-16284
吗	-16285
ろ	-16286
佣	-16287
滤	-16288
缸	-16289
罩	-16290
笠	-16291
п	-16292
荫	-16293
秩	-16294
喇	-16295
赔	-16296
摘	-16297
哩	-16298
搞	-16299
秉	-16300
埠	-16301
簧	-16302
邨	-16303
墩	-16304
邸	-16305
雯	-16306
蟹	-16307
钩	-16308
赣	-16309
狸	-16310
讼	-16311
モ	-16312
妾	-16313
谏	-16314
闹	-16315
麓	-16316
宦	-16317
漳	-16318
稽	-16319
逾	-16320
淋	-16321
猩	-16322
孢	-16323
墅	-16324
禾	-16325
陇	-16326
ä	-16327
畏	-16328
霉	-16329
趾	-16330
谜	-16331
煮	-16332
爽	-16333
鲈	-16334
沧	-16335
膀	-16336
莺	-16337
饥	-16338
厥	-16339
硅	-16340
蓉	-16341
磅	-16342
セ	-16343
桶	-16344
棍	-16345
卯	-16346
禹	-16347
咬	-16348
滴	-16349
冶	-16350
钙	-16351
饱	-16352
拘	-16353
擒	-16354
è	-16355
剥	-16356
僚	-16357
酵	-16358
糊	-16359
惩	-16360
蚁	-16361
ワ	-16362
艮	-16363
鞍	-16364
嵩	-16365
傲	-16366
釜	-16367
柬	-16368
讽	-16369
拾	-16370
挤	-16371
铅	-16372
骼	-16373
绎	-16374
萍	-16375
牺	-16376
骸	-16377
嵌	-16378
禽	-16379
帜	-16380
牢	-16381
戦	-16382
窃	-16383
檀	-16384
舅	-16385
肪	-16386
窟	-16387
椒	-16388
寡	-16389
弼	-16390
蜡	-16391
畴	-16392
鲤	-16393
绅	-16394
瀑	-16395
闵	-16396
з	-16397
缪	-16398
岚	-16399
叹	-16400
歼	-16401
噶	-16402
辱	-16403
隙	-16404
霖	-16405
烤	-16406
せ	-16407
壶	-16408
钧	-16409
罐	-16410
飓	-16411
舆	-16412
妥	-16413
巩	-16414
掷	-16415
轶	-16416
芯	-16417
虐	-16418
酉	-16419
魅	-16420
戎	-16421
焚	-16422
$	-16423
梭	-16424
鞭	-16425
滥	-16426
ェ	-16427
诈	-16428
苷	-16429
疼	-16430
ケ	-16431
娄	-16432
睿	-16433
沛	-16434
竭	-16435
硝	-16436
缠	-16437
匡	-16438
堵	-16439
幌	-16440
勉	-16441
霜	-16442
艰	-16443
拦	-16444
噪	-16445
仗	-16446
瑙	-16447
鹦	-16448
骆	-16449
邹	-16450
剖	-16451
聂	-16452
畿	-16453
舜	-16454
孚	-16455
髓	-16456
膨	-16457
噬	-16458
褒	-16459
蜒	-16460
乒	-16461
ي	-16462
渗	-16463
吓	-16464
幢	-16465
绣	-16466
寂	-16467
ς	-16468
杖	-16469
棠	-16470
蜿	-16471
ن	-16472
胤	-16473
犀	-16474
م	-16475
媛	-16476
汕	-16477
ツ	-16478
峻	-16479
渝	-16480
阎	-16481
绒	-16482
咲	-16483
ゃ	-16484
绫	-16485
晃	-16486
ر	-16487
滞	-16488
碗	-16489
莹	-16490
岑	-16491
ν	-16492
妓	-16493
А	-16494
垦	-16495
悔	-16496
藔	-16497
婉	-16498
钓	-16499
垫	-16500
•	-16501
莞	-16502
榆	-16503
淹	-16504
谍	-16505
ネ	-16506
梗	-16507
晖	-16508
К	-16509
僵	-16510
烹	-16511
砍	-16512
菁	-16513
堕	-16514
臭	-16515
μ	-16516
匪	-16517
浊	-16518
矣	-16519
ι	-16520
凑	-16521
曜	-16522
蔚	-16523
雏	-16524
琦	-16525
嫔	-16526
砌	-16527
皓	-16528
刃	-16529
哉	-16530
埼	-16531
盔	-16532
阀	-16533
懂	-16534
ɔ	-16535
樊	-16536
檐	-16537
氛	-16538
瞬	-16539
ボ	-16540
羌	-16541
贿	-16542
赦	-16543
钥	-16544
巳	-16545
巾	-16546
骤	-16547
邢	-16548
ポ	-16549
咪	-16550
诵	-16551
迄	-16552
В	-16553
簿	-16554
芜	-16555
涨	-16556
茜	-16557
淫	-16558
舶	-16559
肚	-16560
祁	-16561
ょ	-16562
驼	-16563
М	-16564
啸	-16565
殉	-16566
倪	-16567
兖	-16568
侏	-16569
泷	-16570
悼	-16571
膏	-16572
飘	-16573
耿	-16574
疲	-16575
锤	-16576
ず	-16577
垃	-16578
羚	-16579
赎	-16580
ど	-16581
愚	-16582
枕	-16583
〕	-16584
蔽	-16585
圾	-16586
俞	-16587
ə	-16588
沂	-16589
哇	-16590
〔	-16591
暑	-16592
磐	-16593
泾	-16594
鹉	-16595
牡	-16596
俯	-16597
槟	-16598
膝	-16599
聊	-16600
芸	-16601
ρ	-16602
彝	-16603
挝	-16604
钞	-16605
肆	-16606
钉	-16607
潟	-16608
蕉	-16609
豚	-16610
歉	-16611
蔬	-16612
匿	-16613
胚	-16614
ベ	-16615
渭	-16616
焕	-16617
茹	-16618
驿	-16619
犁	-16620
挽	-16621
梧	-16622
肋	-16623
ァ	-16624
呢	-16625
饿	-16626
哨	-16627
蕴	-16628
阐	-16629
愉	-16630
敕	-16631
薯	-16632
胰	-16633
炒	-16634
ば	-16635
蟾	-16636
棺	-16637
祇	-16638
幡	-16639
痴	-16640
缀	-16641
墟	-16642
洼	-16643
蝴	-16644
忒	-16645
沦	-16646
荃	-16647
账	-16648
骂	-16649
娇	-16650
婿	-16651
灿	-16652
谅	-16653
睦	-16654
钾	-16655
吟	-16656
樟	-16657
溢	-16658
蔓	-16659
罹	-16660
脆	-16661
茱	-16662
桦	-16663
酬	-16664
闰	-16665
冤	-16666
>	-16667
甄	-16668
黔	-16669
倭	-16670
苻	-16671
埤	-16672
竺	-16673
莽	-16674
嶋	-16675
狙	-16676
و	-16677
匙	-16678
П	-16679
缆	-16680
霄	-16681
嗜	-16682
咀	-16683
龚	-16684
浚	-16685
瀬	-16686
裤	-16687
そ	-16688
澜	-16689
吁	-16690
丕	-16691
乓	-16692
舖	-16693
赚	-16694
τ	-16695
叱	-16696
衙	-16697
́	-16698
廓	-16699
凿	-16700
渥	-16701
枯	-16702
藉	-16703
泼	-16704
娟	-16705
菇	-16706
裹	-16707
匀	-16708
汐	-16709
霆	-16710
袍	-16711
俩	-16712
鳃	-16713
喊	-16714
抹	-16715
诠	-16716
渤	-16717
摸	-16718
亏	-16719
汾	-16720
晏	-16721
菅	-16722
ε	-16723
虔	-16724
馨	-16725
匣	-16726
杠	-16727
咤	-16728
瑾	-16729
钝	-16730
−	-16731
裙	-16732
桨	-16733
渴	-16734
刹	-16735
胖	-16736
荔	-16737
ヤ	-16738
觅	-16739
孵	-16740
ふ	-16741
捞	-16742
蕊	-16743
恼	-16744
荀	-16745
Р	-16746
疹	-16747
寝	-16748
薰	-16749
堰	-16750
琅	-16751
鸠	-16752
奢	-16753
溉	-16754
涩	-16755
瑛	-16756
ピ	-16757
碘	-16758
岱	-16759
衷	-16760
峨	-16761
祚	-16762
腕	-16763
谟	-16764
梳	-16765
λ	-16766
粟	-16767
锣	-16768
х	-16769
啊	-16770
淆	-16771
抬	-16772
谎	-16773
垄	-16774
彪	-16775
倚	-16776
怜	-16777
―	-16778
诰	-16779
泗	-16780
缉	-16781
☆	-16782
ب	-16783
羞	-16784
筿	-16785
蝉	-16786
膳	-16787
ц	-16788
韧	-16789
岔	-16790
郝	-16791
澎	-16792
昊	-16793
惹	-16794
溴	-16795
绮	-16796
瞄	-16797
迭	-16798
敖	-16799
咽	-16800
沁	-16801
■	-16802
粪	-16803
衞	-16804
晰	-16805
ザ	-16806
à	-16807
桩	-16808
沢	-16809
躯	-16810
骄	-16811
栅	-16812
秃	-16813
酪	-16814
轿	-16815
屑	-16816
曝	-16817
娥	-16818
您	-16819
诬	-16820
瘦	-16821
宵	-16822
俭	-16823
蹄	-16824
镁	-16825
鹫	-16826
皋	-16827
妍	-16828
厕	-16829
泻	-16830
勿	-16831
戸	-16832
纶	-16833
耻	-16834
臼	-16835
兀	-16836
麒	-16837
鲷	-16838
泵	-16839
邺	-16840
瞳	-16841
ほ	-16842
ç	-16843
า	-16844
畑	-16845
靶	-16846
懋	-16847
钮	-16848
匾	-16849
滇	-16850
ソ	-16851
棵	-16852
楷	-16853
衬	-16854
γ	-16855
搏	-16856
磺	-16857
姨	-16858
倩	-16859
吡	-16860
锌	-16861
恪	-16862
潼	-16863
肽	-16864
阙	-16865
琛	-16866
绸	-16867
焉	-16868
萃	-16869
د	-16870
崛	-16871
玮	-16872
稠	-16873
醛	-16874
隼	-16875
ゴ	-16876
妄	-16877
曦	-16878
缮	-16879
沾	-16880
蜴	-16881
臧	-16882
颚	-16883
祂	-16884
毙	-16885
葱	-16886
ご	-16887
이	-16888
挫	-16889
淇	-16890
磊	-16891
羟	-16892
讳	-16893
晕	-16894
嘎	-16895
莓	-16896
σ	-16897
É	-16898
ギ	-16899
剿	-16900
孜	-16901
泣	-16902
鑫	-16903
翟	-16904
摊	-16905
ร	-16906
溥	-16907
顽	-16908
汴	-16909
熹	-16910
隅	-16911
渣	-16912
焊	-16913
κ	-16914
苔	-16915
鹭	-16916
佚	-16917
帛	-16918
孺	-16919
诅	-16920
睹	-16921
龛	-16922
曙	-16923
暹	-16924
ね	-16925
夭	-16926
璧	-16927
俸	-16928
敞	-16929
洽	-16930
靴	-16931
兑	-16932
彤	-16933
陡	-16934
栓	-16935
弊	-16936
诃	-16937
沫	-16938
萱	-16939
枣	-16940
卦	-16941
ぎ	-16942
Б	-16943
慌	-16944
黒	-16945
ゲ	-16946
溜	-16947
ホ	-16948
榕	-16949
吋	-16950
黜	-16951
搁	-16952
糟	-16953
壹	-16954
雳	-16955
谴	-16956
Д	-16957
舷	-16958
Н	-16959
戍	-16960
庠	-16961
颐	-16962
尻	-16963
锈	-16964
萼	-16965
裘	-16966
斧	-16967
傍	-16968
昼	-16969
兜	-16970
恕	-16971
玺	-16972
浏	-16973
谬	-16974
沸	-16975
漕	-16976
珂	-16977
歴	-16978
ô	-16979
苟	-16980
蓟	-16981
鸽	-16982
嘲	-16983
溺	-16984
Т	-16985
琵	-16986
僖	-16987
蝇	-16988
烃	-16989
衫	-16990
峙	-16991
浜	-16992
悍	-16993
椰	-16994
跖	-16995
ヒ	-16996
○	-16997
伶	-16998
缚	-16999
鞘	-17000
捧	-17001
筛	-17002
萤	-17003
毓	-17004
暮	-17005
娴	-17006
琶	-17007
酚	-17008
姫	-17009
镖	-17010
塾	-17011
淄	-17012
糙	-17013
铀	-17014
冉	-17015
ぶ	-17016
庾	-17017
沮	-17018
扳	-17019
麾	-17020
篡	-17021
撃	-17022
箕	-17023
む	-17024
棣	-17025
煎	-17026
徳	-17027
撕	-17028
锻	-17029
ɑ	-17030
卤	-17031
於	-17032
笨	-17033
霹	-17034
耆	-17035
侬	-17036
晤	-17037
皂	-17038
ペ	-17039
槐	-17040
绞	-17041
阱	-17042
晟	-17043
س	-17044
ú	-17045
恤	-17046
洒	-17047
瀛	-17048
瞻	-17049
馈	-17050
芮	-17051
褶	-17052
砾	-17053
′	-17054
ゅ	-17055
邯	-17056
驯	-17057
π	-17058
晒	-17059
ぐ	-17060
硼	-17061
芹	-17062
逗	-17063
骁	-17064
盎	-17065
锂	-17066
炽	-17067
皖	-17068
颍	-17069
篷	-17070
绶	-17071
巻	-17072
蚕	-17073
翊	-17074
敛	-17075
苞	-17076
饷	-17077
峭	-17078
葫	-17079
発	-17080
穹	-17081
蝎	-17082
羲	-17083
呆	-17084
灶	-17085
Г	-17086
関	-17087
ヴ	-17088
嘱	-17089
喂	-17090
昱	-17091
眷	-17092
赁	-17093
吵	-17094
揽	-17095
伝	-17096
歳	-17097
皱	-17098
茉	-17099
萎	-17100
甥	-17101
暱	-17102
â	-17103
鄞	-17104
ß	-17105
妒	-17106
η	-17107
矽	-17108
釉	-17109
□	-17110
稚	-17111
巅	-17112
脇	-17113
崁	-17114
瘟	-17115
乍	-17116
ˈ	-17117
骠	-17118
陌	-17119
攸	-17120
沐	-17121
醋	-17122
悚	-17123
芷	-17124
愁	-17125
沽	-17126
泸	-17127
杞	-17128
柠	-17129
蔗	-17130
莒	-17131
抒	-17132
榈	-17133
媚	-17134
憾	-17135
膛	-17136
岂	-17137
祺	-17138
昙	-17139
奚	-17140
濮	-17141
哆	-17142
苇	-17143
筠	-17144
铲	-17145
馏	-17146
楽	-17147
浇	-17148
煞	-17149
烛	-17150
挟	-17151
眶	-17152
蚌	-17153
饪	-17154
へ	-17155
洙	-17156
脾	-17157
潍	-17158
镍	-17159
陛	-17160
珪	-17161
蟒	-17162
О	-17163
烘	-17164
钵	-17165
褚	-17166
檬	-17167
δ	-17168
蚊	-17169
絮	-17170
颊	-17171
醚	-17172
寰	-17173
貂	-17174
佬	-17175
扔	-17176
炬	-17177
濠	-17178
ш	-17179
螈	-17180
栉	-17181
跗	-17182
ī	-17183
啶	-17184
薨	-17185
昕	-17186
沥	-17187
甬	-17188
雉	-17189
遁	-17190
芥	-17191
卉	-17192
栈	-17193
诡	-17194
ж	-17195
蛾	-17196
揆	-17197
莆	-17198
И	-17199
拐	-17200
炫	-17201
锰	-17202
鳗	-17203
び	-17204
恺	-17205
肛	-17206
慨	-17207
掳	-17208
浒	-17209
撮	-17210
隘	-17211
姪	-17212
炜	-17213
荧	-17214
躁	-17215
毯	-17216
衢	-17217
胥	-17218
蔷	-17219
朽	-17220
羡	-17221
椿	-17222
篆	-17223
鸥	-17224
胱	-17225
唑	-17226
恵	-17227
呕	-17228
禺	-17229
辜	-17230
璇	-17231
戟	-17232
贮	-17233
〇	-17234
ع	-17235
氰	-17236
翘	-17237
鹃	-17238
炀	-17239
郸	-17240
宸	-17241
懒	-17242
铠	-17243
実	-17244
侃	-17245
昧	-17246
夔	-17247
毘	-17248
俾	-17249
瀚	-17250
瘾	-17251
谒	-17252
镀	-17253
柑	-17254
韬	-17255
偕	-17256
媳	-17257
矫	-17258
腥	-17259
鞑	-17260
灼	-17261
畸	-17262
枋	-17263
咳	-17264
挣	-17265
堺	-17266
刮	-17267
坜	-17268
赂	-17269
靡	-17270
気	-17271
淤	-17272
悄	-17273
稷	-17274
傻	-17275
岬	-17276
県	-17277
弈	-17278
拌	-17279
驸	-17280
鸾	-17281
妊	-17282
瞒	-17283
踩	-17284
υ	-17285
绯	-17286
ی	-17287
桅	-17288
涧	-17289
琥	-17290
蕨	-17291
倦	-17292
殴	-17293
婢	-17294
嫉	-17295
帘	-17296
豁	-17297
钛	-17298
ة	-17299
蕙	-17300
衮	-17301
々	-17302
擂	-17303
汲	-17304
赈	-17305
斡	-17306
钰	-17307
驴	-17308
弩	-17309
陋	-17310
靼	-17311
ユ	-17312
‰	-17313
潞	-17314
ñ	-17315
吠	-17316
诫	-17317
瘫	-17318
傀	-17319
嘛	-17320
捆	-17321
娠	-17322
挚	-17323
š	-17324
戮	-17325
谯	-17326
湳	-17327
陂	-17328
沅	-17329
杵	-17330
น	-17331
贱	-17332
辗	-17333
י	-17334
闷	-17335
鳌	-17336
胪	-17337
俨	-17338
桢	-17339
儡	-17340
憩	-17341
ı	-17342
団	-17343
璟	-17344
峇	-17345
琮	-17346
疮	-17347
げ	-17348
圃	-17349
鼬	-17350
ί	-17351
壕	-17352
镐	-17353
捍	-17354
鉄	-17355
峪	-17356
旷	-17357
腻	-17358
鹈	-17359
仄	-17360
柿	-17361
柚	-17362
Л	-17363
墘	-17364
掀	-17365
绛	-17366
渚	-17367
匝	-17368
鹊	-17369
瑄	-17370
淞	-17371
琐	-17372
凛	-17373
哑	-17374
瓮	-17375
皈	-17376
挠	-17377
殡	-17378
妲	-17379
ت	-17380
妳	-17381
嘻	-17382
汞	-17383
嫂	-17384
馅	-17385
叡	-17386
绢	-17387
铬	-17388
郢	-17389
肴	-17390
ʃ	-17391
讶	-17392
魄	-17393
槛	-17394
诀	-17395
濬	-17396
蚂	-17397
朕	-17398
砷	-17399
跪	-17400
苳	-17401
蒜	-17402
筝	-17403
伎	-17404
笙	-17405
耍	-17406
铨	-17407
愧	-17408
砸	-17409
喘	-17410
桧	-17411
祉	-17412
楔	-17413
睐	-17414
逵	-17415
锚	-17416
搅	-17417
沌	-17418
燮	-17419
叮	-17420
盼	-17421
癫	-17422
洮	-17423
ë	-17424
掖	-17425
旻	-17426
埗	-17427
肘	-17428
鹛	-17429
邕	-17430
鸮	-17431
拷	-17432
钊	-17433
莪	-17434
簇	-17435
ː	-17436
●	-17437
璐	-17438
妨	-17439
寛	-17440
铉	-17441
粲	-17442
铵	-17443
弑	-17444
辕	-17445
跤	-17446
舵	-17447
萩	-17448
동	-17449
咎	-17450
颤	-17451
±	-17452
氦	-17453
胄	-17454
歩	-17455
涪	-17456
扯	-17457
糯	-17458
钏	-17459
隍	-17460
钹	-17461
趟	-17462
傣	-17463
蔵	-17464
ã	-17465
ŋ	-17466
弋	-17467
窥	-17468
糸	-17469
[	-17470
]	-17471
ø	-17472
悖	-17473
捣	-17474
銮	-17475
ा	-17476
狠	-17477
У	-17478
谛	-17479
羁	-17480
邝	-17481
丫	-17482
様	-17483
蛟	-17484
铂	-17485
靓	-17486
★	-17487
楞	-17488
樵	-17489
蝰	-17490
ォ	-17491
恳	-17492
蜗	-17493
脖	-17494
ح	-17495
瑠	-17496
猷	-17497
磡	-17498
腌	-17499
†	-17500
拢	-17501
栾	-17502
侈	-17503
槃	-17504
豊	-17505
贲	-17506
羧	-17507
苛	-17508
躺	-17509
刁	-17510
湄	-17511
्	-17512
觐	-17513
ぼ	-17514
丐	-17515
佟	-17516
滔	-17517
诹	-17518
荟	-17519
桜	-17520
螯	-17521
荥	-17522
穂	-17523
窖	-17524
捡	-17525
翎	-17526
ό	-17527
嗅	-17528
逍	-17529
忏	-17530
ê	-17531
ざ	-17532
べ	-17533
孀	-17534
烨	-17535
涟	-17536
専	-17537
腋	-17538
痪	-17539
剃	-17540
卞	-17541
譬	-17542
ه	-17543
煜	-17544
酥	-17545
痒	-17546
ū	-17547
་	-17548
栃	-17549
拇	-17550
蠕	-17551
吼	-17552
芋	-17553
痫	-17554
竿	-17555
籽	-17556
}	-17557
侮	-17558
崭	-17559
泓	-17560
김	-17561
谪	-17562
辻	-17563
ั	-17564
斛	-17565
桔	-17566
熏	-17567
리	-17568
θ	-17569
坍	-17570
澈	-17571
癣	-17572
膺	-17573
凋	-17574
劭	-17575
麝	-17576
耦	-17577
闾	-17578
苓	-17579
祜	-17580
胫	-17581
대	-17582
肱	-17583
ก	-17584
撼	-17585
우	-17586
»	-17587
佘	-17588
缙	-17589
畠	-17590
«	-17591
ม	-17592
総	-17593
辍	-17594
歙	-17595
拙	-17596
涤	-17597
蘑	-17598
←	-17599
涿	-17600
臻	-17601
ō	-17602
贻	-17603
=	-17604
ω	-17605
凳	-17606
拂	-17607
氹	-17608
遏	-17609
缎	-17610
ヨ	-17611
恬	-17612
ו	-17613
เ	-17614
毋	-17615
寞	-17616
醯	-17617
ゼ	-17618
缇	-17619
讹	-17620
宕	-17621
烽	-17622
瑕	-17623
鄙	-17624
笋	-17625
垮	-17626
挛	-17627
秽	-17628
阇	-17629
槌	-17630
瓯	-17631
踝	-17632
脓	-17633
鲀	-17634
昶	-17635
枭	-17636
浣	-17637
啄	-17638
殆	-17639
璜	-17640
飙	-17641
灏	-17642
ʒ	-17643
偃	-17644
帧	-17645
潇	-17646
轼	-17647
駅	-17648
咕	-17649
蓓	-17650
螂	-17651
巽	-17652
瞿	-17653
筵	-17654
ิ	-17655
奄	-17656
疡	-17657
姉	-17658
贰	-17659
ф	-17660
扈	-17661
昨	-17662
溧	-17663
粥	-17664
聆	-17665
荻	-17666
荼	-17667
사	-17668
辺	-17669
饵	-17670
俳	-17671
剔	-17672
樽	-17673
纥	-17674
匆	-17675
婺	-17676
弁	-17677
毎	-17678
沱	-17679
湍	-17680
蠢	-17681
鞠	-17682
亢	-17683
砚	-17684
의	-17685
ย	-17686
奘	-17687
抖	-17688
ง	-17689
蔑	-17690
侗	-17691
岷	-17692
昵	-17693
ά	-17694
僻	-17695
瞰	-17696
曳	-17697
ج	-17698
疟	-17699
忻	-17700
晔	-17701
榨	-17702
━	-17703
ق	-17704
鬣	-17705
정	-17706
瞩	-17707
禀	-17708
ł	-17709
劈	-17710
堑	-17711
迥	-17712
骧	-17713
睾	-17714
爹	-17715
耸	-17716
腱	-17717
舎	-17718
醍	-17719
経	-17720
滦	-17721
盏	-17722
広	-17723
瓒	-17724
鸫	-17725
酗	-17726
郷	-17727
呤	-17728
硒	-17729
篱	-17730
琨	-17731
璞	-17732
谤	-17733
疣	-17734
疱	-17735
辙	-17736
犍	-17737
裳	-17738
靳	-17739
颢	-17740
兮	-17741
晦	-17742
焘	-17743
玖	-17744
轧	-17745
稔	-17746
ա	-17747
髅	-17748
汛	-17749
蕈	-17750
阕	-17751
醐	-17752
鸳	-17753
暇	-17754
榔	-17755
笈	-17756
歪	-17757
郧	-17758
窜	-17759
叭	-17760
哮	-17761
芎	-17762
浔	-17763
琰	-17764
<	-17765
伺	-17766
지	-17767
炯	-17768
圩	-17769
聋	-17770
憎	-17771
渲	-17772
眺	-17773
荚	-17774
呀	-17775
燧	-17776
鸵	-17777
黯	-17778
်	-17779
蒿	-17780
冼	-17781
炔	-17782
莘	-17783
襟	-17784
č	-17785
ش	-17786
碉	-17787
姥	-17788
対	-17789
鸢	-17790
婕	-17791
璘	-17792
诣	-17793
叻	-17794
อ	-17795
乂	-17796
佃	-17797
廪	-17798
痉	-17799
锺	-17800
Ф	-17801
娩	-17802
원	-17803
濂	-17804
戛	-17805
睢	-17806
鼩	-17807
泮	-17808
孛	-17809
щ	-17810
惰	-17811
茫	-17812
蛤	-17813
र	-17814
ว	-17815
喃	-17816
嬉	-17817
愍	-17818
梶	-17819
鸯	-17820
凄	-17821
抨	-17822
祢	-17823
绊	-17824
谚	-17825
逅	-17826
铳	-17827
囱	-17828
邂	-17829
皿	-17830
亜	-17831
捏	-17832
澡	-17833
ɡ	-17834
巍	-17835
旌	-17836
鲑	-17837
宥	-17838
虱	-17839
ف	-17840
冗	-17841
嘌	-17842
耽	-17843
鲛	-17844
栎	-17845
葺	-17846
榉	-17847
漩	-17848
羯	-17849
缢	-17850
竜	-17851
鄱	-17852
簷	-17853
迺	-17854
骷	-17855
葆	-17856
З	-17857
氓	-17858
秤	-17859
邳	-17860
慷	-17861
熄	-17862
钳	-17863
甩	-17864
覃	-17865
玟	-17866
纮	-17867
郗	-17868
|	-17869
唾	-17870
懈	-17871
ю	-17872
筱	-17873
脐	-17874
跻	-17875
馀	-17876
亳	-17877
潢	-17878
诲	-17879
増	-17880
渍	-17881
焙	-17882
筷	-17883
迂	-17884
牒	-17885
绚	-17886
馥	-17887
ר	-17888
摹	-17889
隽	-17890
啮	-17891
歆	-17892
珑	-17893
痊	-17894
跆	-17895
锭	-17896
鳕	-17897
俏	-17898
勐	-17899
煦	-17900
祗	-17901
ה	-17902
忤	-17903
轭	-17904
镛	-17905
怯	-17906
炙	-17907
躬	-17908
変	-17909
廍	-17910
糜	-17911
姗	-17912
赃	-17913
営	-17914
幔	-17915
惇	-17916
咐	-17917
掺	-17918
峦	-17919
笹	-17920
颔	-17921
乖	-17922
咙	-17923
茧	-17924
𫚉	-17925
猕	-17926
昴	-17927
檄	-17928
遐	-17929
ć	-17930
尬	-17931
満	-17932
骞	-17933
ぱ	-17934
琢	-17935
癖	-17936
蛊	-17937
ぬ	-17938
钴	-17939
俣	-17940
揉	-17941
徘	-17942
灸	-17943
疤	-17944
腭	-17945
隈	-17946
崧	-17947
瓘	-17948
骥	-17949
鳖	-17950
鹟	-17951
づ	-17952
俺	-17953
哗	-17954
燊	-17955
梢	-17956
滁	-17957
骰	-17958
喵	-17959
悯	-17960
扼	-17961
镳	-17962
徊	-17963
闺	-17964
彧	-17965
珉	-17966
邾	-17967
铿	-17968
성	-17969
스	-17970
佗	-17971
羰	-17972
歹	-17973
俐	-17974
堇	-17975
怠	-17976
嬅	-17977
嬴	-17978
杲	-17979
э	-17980
嘧	-17981
讥	-17982
鳅	-17983
ē	-17984
琏	-17985
痰	-17986
勖	-17987
咯	-17988
埕	-17989
挨	-17990
橱	-17991
烫	-17992
沔	-17993
繇	-17994
込	-17995
한	-17996
榛	-17997
渎	-17998
烁	-17999
迩	-18000
凪	-18001
叩	-18002
ư	-18003
勺	-18004
岘	-18005
钺	-18006
鲹	-18007
鹘	-18008
수	-18009
ส	-18010
秧	-18011
㑩	-18012
樋	-18013
嗽	-18014
嚼	-18015
衅	-18016
尴	-18017
弛	-18018
蜻	-18019
赟	-18020
ล	-18021
狡	-18022
猬	-18023
觊	-18024
阡	-18025
収	-18026
珮	-18027
砺	-18028
蝗	-18029
인	-18030
喆	-18031
圻	-18032
恃	-18033
獭	-18034
蜍	-18035
钗	-18036
阉	-18037
ё	-18038
𫖮	-18039
钨	-18040
영	-18041
邬	-18042
霓	-18043
筏	-18044
讫	-18045
転	-18046
郴	-18047
æ	-18048
↔	-18049
孽	-18050
锄	-18051
呜	-18052
忱	-18053
晞	-18054
柘	-18055
楣	-18056
颓	-18057
Э	-18058
幂	-18059
揖	-18060
萘	-18061
髻	-18062
絵	-18063
ヌ	-18064
驭	-18065
熬	-18066
祎	-18067
邠	-18068
寥	-18069
虢	-18070
ヘ	-18071
吩	-18072
睑	-18073
蟠	-18074
続	-18075
匮	-18076
扒	-18077
溅	-18078
娑	-18079
洱	-18080
碓	-18081
骇	-18082
垅	-18083
辄	-18084
기	-18085
ท	-18086
藓	-18087
锜	-18088
捻	-18089
桁	-18090
橇	-18091
刈	-18092
奂	-18093
惶	-18094
瓢	-18095
蜓	-18096
ز	-18097
啰	-18098
啼	-18099
慑	-18100
琬	-18101
ş	-18102
毡	-18103
蕲	-18104
蹲	-18105
睽	-18106
瞎	-18107
蜕	-18108
蚤	-18109
饬	-18110
鬃	-18111
殁	-18112
糠	-18113
鹳	-18114
Α	-18115
剣	-18116
澧	-18117
遴	-18118
霰	-18119
Σ	-18120
瞭	-18121
钡	-18122
배	-18123
坳	-18124
売	-18125
涕	-18126
窒	-18127
缕	-18128
蠡	-18129
鲱	-18130
匕	-18131
惕	-18132
พ	-18133
嗓	-18134
孪	-18135
狒	-18136
钚	-18137
撇	-18138
Π	-18139
婶	-18140
悪	-18141
箔	-18142
牦	-18143
珙	-18144
薫	-18145
鳐	-18146
å	-18147
噜	-18148
ή	-18149
ك	-18150
叟	-18151
呐	-18152
骡	-18153
아	-18154
珈	-18155
珲	-18156
粱	-18157
鹕	-18158
疚	-18159
碾	-18160
嵯	-18161
螳	-18162
茸	-18163
국	-18164
亘	-18165
碁	-18166
诽	-18167
ל	-18168
栩	-18169
绀	-18170
羹	-18171
ぞ	-18172
殇	-18173
済	-18174
蛹	-18175
谧	-18176
ś	-18177
莿	-18178
Ч	-18179
懦	-18180
掾	-18181
화	-18182
焯	-18183
疝	-18184
赘	-18185
鄢	-18186
箫	-18187
έ	-18188
嫦	-18189
屎	-18190
晁	-18191
眩	-18192
绽	-18193
鹬	-18194
Е	-18195
倘	-18196
憧	-18197
掸	-18198
鎗	-18199
饺	-18200
주	-18201
俑	-18202
勗	-18203
憬	-18204
猝	-18205
玑	-18206
诘	-18207
颞	-18208
鲶	-18209
榎	-18210
澹	-18211
菠	-18212
郤	-18213
ต	-18214
珣	-18215
睁	-18216
碌	-18217
蝮	-18218
婪	-18219
槻	-18220
烬	-18221
辎	-18222
昀	-18223
戳	-18224
炖	-18225
锑	-18226
骈	-18227
骊	-18228
া	-18229
邛	-18230
镠	-18231
서	-18232
勲	-18233
峠	-18234
屁	-18235
崴	-18236
盂	-18237
悌	-18238
稲	-18239
蒴	-18240
ぽ	-18241
痹	-18242
踊	-18243
髦	-18244
신	-18245
呵	-18246
嫣	-18247
琊	-18248
ط	-18249
้	-18250
笺	-18251
顼	-18252
χ	-18253
亵	-18254
ี	-18255
妤	-18256
炅	-18257
ב	-18258
唔	-18259
腈	-18260
闫	-18261
阑	-18262
驮	-18263
珥	-18264
厩	-18265
恂	-18266
稼	-18267
钼	-18268
拣	-18269
驷	-18270
罔	-18271
荖	-18272
鹀	-18273
ゾ	-18274
恽	-18275
谌	-18276
噩	-18277
砦	-18278
呗	-18279
峤	-18280
滘	-18281
珏	-18282
痺	-18283
阯	-18284
鲲	-18285
砥	-18286
裨	-18287
ї	-18288
喧	-18289
洵	-18290
铰	-18291
φ	-18292
俟	-18293
睫	-18294
胭	-18295
ă	-18296
א	-18297
拮	-18298
蒨	-18299
铢	-18300
ุ	-18301
坻	-18302
権	-18303
瑭	-18304
痘	-18305
窘	-18306
부	-18307
仮	-18308
고	-18309
Х	-18310
抉	-18311
柩	-18312
榊	-18313
漪	-18314
诩	-18315
厮	-18316
菏	-18317
்	-18318
涣	-18319
阆	-18320
่	-18321
榭	-18322
薮	-18323
谿	-18324
מ	-18325
牍	-18326
枉	-18327
碇	-18328
가	-18329
ɲ	-18330
嚣	-18331
镕	-18332
ห	-18333
氙	-18334
硖	-18335
踞	-18336
佼	-18337
哔	-18338
磋	-18339
邈	-18340
円	-18341
岌	-18342
峒	-18343
漯	-18344
紊	-18345
郓	-18346
酌	-18347
霏	-18348
鲉	-18349
俪	-18350
卅	-18351
唆	-18352
捜	-18353
栢	-18354
烙	-18355
熵	-18356
阗	-18357
장	-18358
矗	-18359
羔	-18360
Κ	-18361
垢	-18362
夯	-18363
惮	-18364
濡	-18365
艏	-18366
螃	-18367
铯	-18368
ý	-18369
塭	-18370
茗	-18371
蚓	-18372
郦	-18373
扉	-18374
攘	-18375
谗	-18376
酐	-18377
鹗	-18378
鼐	-18379
ת	-18380
図	-18381
榷	-18382
î	-18383
珩	-18384
न	-18385
妞	-18386
崂	-18387
ύ	-18388
锆	-18389
도	-18390
산	-18391
惫	-18392
挞	-18393
觎	-18394
시	-18395
螨	-18396
្	-18397
缨	-18398
蒯	-18399
辇	-18400
骅	-18401
龈	-18402
暧	-18403
氐	-18404
箴	-18405
胛	-18406
铮	-18407
ð	-18408
ש	-18409
म	-18410
玠	-18411
痢	-18412
蔻	-18413
観	-18414
頼	-18415
佤	-18416
嶷	-18417
盯	-18418
綦	-18419
鞅	-18420
漓	-18421
皎	-18422
薙	-18423
辫	-18424
闘	-18425
구	-18426
嵇	-18427
楯	-18428
漱	-18429
麋	-18430
⁄	-18431
侑	-18432
喹	-18433
嵴	-18434
涝	-18435
학	-18436
𬀩	-18437
ờ	-18438
橹	-18439
谔	-18440
锢	-18441
ด	-18442
蚝	-18443
邃	-18444
鬬	-18445
상	-18446
ն	-18447
効	-18448
呋	-18449
苌	-18450
Đ	-18451
刍	-18452
攒	-18453
泚	-18454
璨	-18455
菈	-18456
豺	-18457
轸	-18458
疵	-18459
ž	-18460
汜	-18461
瑯	-18462
磘	-18463
镌	-18464
俚	-18465
榻	-18466
ぜ	-18467
膦	-18468
醴	-18469
隷	-18470
霁	-18471
鼹	-18472
จ	-18473
ช	-18474
燎	-18475
甾	-18476
蜈	-18477
鲇	-18478
勅	-18479
翩	-18480
일	-18481
瑁	-18482
◇	-18483
愫	-18484
澍	-18485
矾	-18486
豌	-18487
鹑	-18488
ะ	-18489
岖	-18490
庑	-18491
涸	-18492
박	-18493
^	-18494
Δ	-18495
珞	-18496
颙	-18497
أ	-18498
忿	-18499
獠	-18500
醮	-18501
镭	-18502
㭴	-18503
偈	-18504
洄	-18505
聿	-18506
鳟	-18507
민	-18508
Ö	-18509
์	-18510
敍	-18511
菓	-18512
蔼	-18513
교	-18514
佯	-18515
侥	-18516
帼	-18517
ò	-18518
َ	-18519
纣	-18520
蔺	-18521
ი	-18522
楹	-18523
⋯	-18524
涓	-18525
獾	-18526
僭	-18527
猾	-18528
瘠	-18529
ि	-18530
佰	-18531
蹦	-18532
塩	-18533
珐	-18534
苫	-18535
逞	-18536
자	-18537
ù	-18538
ɪ	-18539
柊	-18540
瘀	-18541
靛	-18542
마	-18543
연	-18544
ု	-18545
瑗	-18546
蛎	-18547
険	-18548
진	-18549
ა	-18550
栄	-18551
睪	-18552
娣	-18553
玥	-18554
舫	-18555
獣	-18556
韭	-18557
窍	-18558
読	-18559
钯	-18560
경	-18561
褂	-18562
褪	-18563
阖	-18564
乗	-18565
盱	-18566
藜	-18567
钜	-18568
Ш	-18569
匐	-18570
帚	-18571
杓	-18572
漾	-18573
惭	-18574
桀	-18575
ʔ	-18576
缤	-18577
舺	-18578
蚣	-18579
铣	-18580
ï	-18581
क	-18582
璠	-18583
호	-18584
纾	-18585
芍	-18586
宍	-18587
憨	-18588
掏	-18589
猗	-18590
脍	-18591
त	-18592
រ	-18593
岙	-18594
槎	-18595
艋	-18596
鱿	-18597
佺	-18598
帷	-18599
荞	-18600
匍	-18601
鲭	-18602
라	-18603
œ	-18604
哄	-18605
睇	-18606
繙	-18607
ぷ	-18608
屹	-18609
氷	-18610
淦	-18611
炊	-18612
玘	-18613
绷	-18614
馗	-18615
ě	-18616
彊	-18617
楫	-18618
翱	-18619
阈	-18620
嘘	-18621
茴	-18622
하	-18623
坯	-18624
昉	-18625
绾	-18626
罂	-18627
蟆	-18628
خ	-18629
婧	-18630
崽	-18631
疋	-18632
颧	-18633
현	-18634
Ε	-18635
吒	-18636
孖	-18637
孰	-18638
暠	-18639
毌	-18640
滝	-18641
谶	-18642
陟	-18643
髋	-18644
児	-18645
佶	-18646
傉	-18647
灞	-18648
赡	-18649
遽	-18650
簪	-18651
肄	-18652
蜢	-18653
赉	-18654
飒	-18655
ា	-18656
両	-18657
愔	-18658
郯	-18659
ค	-18660
筲	-18661
铍	-18662
锵	-18663
𬘭	-18664
נ	-18665
嵋	-18666
芈	-18667
藕	-18668
유	-18669
ì	-18670
မ	-18671
殓	-18672
涞	-18673
脲	-18674
蹼	-18675
雒	-18676
Μ	-18677
ص	-18678
翦	-18679
蝌	-18680
迳	-18681
锗	-18682
颛	-18683
전	-18684
ָ	-18685
ိ	-18686
း	-18687
♪	-18688
抜	-18689
淝	-18690
ζ	-18691
‐	-18692
缵	-18693
咄	-18694
娼	-18695
媲	-18696
猥	-18697
疽	-18698
蝾	-18699
恙	-18700
琚	-18701
苄	-18702
蛱	-18703
은	-18704
诙	-18705
선	-18706
検	-18707
碲	-18708
蚪	-18709
赓	-18710
镂	-18711
윤	-18712
ğ	-18713
ヶ	-18714
祟	-18715
蓼	-18716
蚵	-18717
赭	-18718
辂	-18719
郃	-18720
颉	-18721
Ω	-18722
澂	-18723
犸	-18724
眙	-18725
簸	-18726
鄜	-18727
다	-18728
û	-18729
स	-18730
咆	-18731
湮	-18732
纭	-18733
菀	-18734
鳝	-18735
문	-18736
Ц	-18737
埴	-18738
夙	-18739
斟	-18740
犊	-18741
璀	-18742
覧	-18743
𪸩	-18744
吝	-18745
哌	-18746
垛	-18747
娲	-18748
椋	-18749
毬	-18750
氪	-18751
腮	-18752
菟	-18753
葩	-18754
谙	-18755
蹇	-18756
나	-18757
Š	-18758
嵊	-18759
桡	-18760
畹	-18761
鄚	-18762
\	-18763
拚	-18764
辘	-18765
隗	-18766
ṭ	-18767
滂	-18768
罄	-18769
Á	-18770
ी	-18771
涎	-18772
郜	-18773
ɕ	-18774
ṣ	-18775
湟	-18776
牝	-18777
镗	-18778
조	-18779
庁	-18780
痔	-18781
芊	-18782
隣	-18783
霊	-18784
공	-18785
Å	-18786
ъ	-18787
ד	-18788
บ	-18789
ぴ	-18790
怂	-18791
椁	-18792
驒	-18793
嘶	-18794
朐	-18795
槙	-18796
煲	-18797
砵	-18798
琇	-18799
秆	-18800
酝	-18801
ल	-18802
亀	-18803
噻	-18804
旃	-18805
晗	-18806
枷	-18807
飨	-18808
儋	-18809
斉	-18810
보	-18811
ո	-18812
薬	-18813
鲟	-18814
ּ	-18815
恣	-18816
疸	-18817
蔴	-18818
ក	-18819
妫	-18820
恿	-18821
诋	-18822
镉	-18823
┃	-18824
旸	-18825
杷	-18826
蛭	-18827
袒	-18828
Č	-18829
Ν	-18830
鹮	-18831
ń	-18832
惺	-18833
강	-18834
로	-18835
­	-18836
恸	-18837
荨	-18838
贽	-18839
啬	-18840
壑	-18841
搓	-18842
拭	-18843
箍	-18844
萸	-18845
诟	-18846
천	-18847
ր	-18848
汨	-18849
淬	-18850
肼	-18851
荳	-18852
鲽	-18853
鳢	-18854
鸲	-18855
淅	-18856
瞪	-18857
胧	-18858
䜣	-18859
僮	-18860
螫	-18861
钍	-18862
鸬	-18863
奭	-18864
扛	-18865
瓌	-18866
轲	-18867
闼	-18868
麸	-18869
咱	-18870
斎	-18871
锶	-18872
미	-18873
貘	-18874
逛	-18875
铋	-18876
鼯	-18877
墉	-18878
醌	-18879
ک	-18880
刨	-18881
囤	-18882
耒	-18883
남	-18884
ゥ	-18885
埭	-18886
帰	-18887
恍	-18888
惣	-18889
洺	-18890
钤	-18891
馒	-18892
黍	-18893
摒	-18894
笏	-18895
縁	-18896
缑	-18897
缬	-18898
ṇ	-18899
啉	-18900
栱	-18901
淖	-18902
畲	-18903
矜	-18904
鹚	-18905
𫚥	-18906
ệ	-18907
嘟	-18908
蛰	-18909
蟑	-18910
व	-18911
冏	-18912
垭	-18913
応	-18914
洸	-18915
潦	-18916
诂	-18917
钒	-18918
铛	-18919
ာ	-18920
勰	-18921
岫	-18922
椽	-18923
缭	-18924
蹊	-18925
铆	-18926
隠	-18927
饕	-18928
髂	-18929
苋	-18930
ξ	-18931
Ж	-18932
冴	-18933
沭	-18934
鲳	-18935
鲵	-18936
ស	-18937
悫	-18938
膑	-18939
재	-18940
£	-18941
Ι	-18942
舂	-18943
鹄	-18944
오	-18945
제	-18946
®	-18947
镒	-18948
駄	-18949
魇	-18950
Ю	-18951
Я	-18952
ј	-18953
哒	-18954
砀	-18955
纫	-18956
訳	-18957
邙	-18958
闱	-18959
闳	-18960
ע	-18961
亟	-18962
剽	-18963
寔	-18964
桉	-18965
趴	-18966
ְ	-18967
प	-18968
晩	-18969
稗	-18970
耙	-18971
陉	-18972
験	-18973
囗	-18974
揣	-18975
淼	-18976
痞	-18977
蚯	-18978
阚	-18979
্	-18980
ぃ	-18981
丶	-18982
嬷	-18983
槺	-18984
汹	-18985
珅	-18986
𫚭	-18987
ˋ	-18988
ु	-18989
瑀	-18990
虬	-18991
雫	-18992
鲫	-18993
鹩	-18994
ป	-18995
ས	-18996
幺	-18997
辊	-18998
隰	-18999
雑	-19000
髪	-19001
玷	-19002
砧	-19003
荪	-19004
蚜	-19005
跷	-19006
鲣	-19007
麿	-19008
င	-19009
戾	-19010
渺	-19011
疃	-19012
소	-19013
𫛭	-19014
य	-19015
亶	-19016
佞	-19017
啃	-19018
嗪	-19019
徕	-19020
甑	-19021
蛉	-19022
谑	-19023
铐	-19024
द	-19025
栞	-19026
涙	-19027
양	-19028
呪	-19029
掣	-19030
罡	-19031
鄯	-19032
𪟝	-19033
単	-19034
怛	-19035
晾	-19036
枇	-19037
犒	-19038
玳	-19039
粽	-19040
菖	-19041
讣	-19042
陲	-19043
冨	-19044
堃	-19045
晷	-19046
粧	-19047
継	-19048
阏	-19049
년	-19050
역	-19051
ן	-19052
倻	-19053
傕	-19054
刎	-19055
喱	-19056
榫	-19057
胯	-19058
酆	-19059
안	-19060
န	-19061
刽	-19062
嬢	-19063
트	-19064
滢	-19065
猖	-19066
珽	-19067
瑱	-19068
蹴	-19069
郅	-19070
鹞	-19071
ɐ	-19072
Ο	-19073
嫖	-19074
徭	-19075
祛	-19076
葭	-19077
覚	-19078
骐	-19079
Θ	-19080
র	-19081
曷	-19082
曽	-19083
爰	-19084
翳	-19085
钿	-19086
희	-19087
ศ	-19088
ေ	-19089
圜	-19090
悸	-19091
璩	-19092
粿	-19093
艉	-19094
讧	-19095
해	-19096
ώ	-19097
伉	-19098
拗	-19099
焗	-19100
鎏	-19101
髑	-19102
俵	-19103
昺	-19104
秣	-19105
縻	-19106
缄	-19107
肮	-19108
ạ	-19109
倬	-19110
弾	-19111
燿	-19112
觞	-19113
蹬	-19114
遶	-19115
ㄧ	-19116
茑	-19117
菘	-19118
蜚	-19119
餮	-19120
鲗	-19121
ė	-19122
碶	-19123
膊	-19124
藁	-19125
͡	-19126
寐	-19127
淌	-19128
珰	-19129
瑊	-19130
羿	-19131
颏	-19132
어	-19133
▲	-19134
悝	-19135
挿	-19136
柝	-19137
蹂	-19138
鹪	-19139
여	-19140
종	-19141
ř	-19142
ִ	-19143
แ	-19144
戬	-19145
蟀	-19146
袤	-19147
镞	-19148
骘	-19149
최	-19150
俶	-19151
嚎	-19152
廆	-19153
氩	-19154
稹	-19155
萜	-19156
蚬	-19157
蟋	-19158
ṃ	-19159
渕	-19160
筊	-19161
蓑	-19162
ㄨ	-19163
伡	-19164
宓	-19165
舔	-19166
苕	-19167
苴	-19168
荏	-19169
鞮	-19170
க	-19171
乩	-19172
怿	-19173
枞	-19174
澶	-19175
褓	-19176
Λ	-19177
仞	-19178
棂	-19179
腑	-19180
豉	-19181
踵	-19182
骶	-19183
ʂ	-19184
ไ	-19185
囍	-19186
嵘	-19187
帑	-19188
苾	-19189
啜	-19190
従	-19191
樾	-19192
ի	-19193
凊	-19194
徇	-19195
碛	-19196
蚩	-19197
诒	-19198
豸	-19199
跛	-19200
雹	-19201
ɣ	-19202
қ	-19203
က	-19204
朦	-19205
枳	-19206
泞	-19207
箸	-19208
罟	-19209
鵙	-19210
鹋	-19211
ү	-19212
喔	-19213
殃	-19214
苣	-19215
赜	-19216
े	-19217
坨	-19218
墀	-19219
弭	-19220
梿	-19221
铈	-19222
镫	-19223
髯	-19224
Î	-19225
ɾ	-19226
ḥ	-19227
咁	-19228
嗟	-19229
泠	-19230
穰	-19231
笆	-19232
耘	-19233
讪	-19234
镯	-19235
雎	-19236
韫	-19237
鸨	-19238
송	-19239
태	-19240
𬤇	-19241
ོ	-19242
ុ	-19243
嘏	-19244
姒	-19245
燄	-19246
蓁	-19247
虻	-19248
麂	-19249
광	-19250
비	-19251
Β	-19252
ე	-19253
氘	-19254
湜	-19255
眨	-19256
莅	-19257
蜷	-19258
铫	-19259
ւ	-19260
♥	-19261
仝	-19262
棻	-19263
砜	-19264
簋	-19265
铱	-19266
骢	-19267
嚏	-19268
戯	-19269
杼	-19270
渋	-19271
瘴	-19272
蚺	-19273
躏	-19274
遹	-19275
铟	-19276
靺	-19277
울	-19278
ி	-19279
㹴	-19280
哦	-19281
喰	-19282
圹	-19283
挹	-19284
篙	-19285
籁	-19286
蘅	-19287
镝	-19288
鹎	-19289
İ	-19290
掐	-19291
敝	-19292
棨	-19293
瘙	-19294
袂	-19295
詧	-19296
诤	-19297
霭	-19298
鹂	-19299
ธ	-19300
䶮	-19301
咫	-19302
峥	-19303
惋	-19304
捶	-19305
浐	-19306
熠	-19307
瓠	-19308
畈	-19309
萦	-19310
钋	-19311
鞨	-19312
鸪	-19313
鹧	-19314
婵	-19315
痣	-19316
藐	-19317
镓	-19318
군	-19319
랑	-19320
כ	-19321
ِ	-19322
幪	-19323
褫	-19324
阂	-19325
霾	-19326
黟	-19327
드	-19328
ח	-19329
坵	-19330
撷	-19331
槲	-19332
煊	-19333
猞	-19334
筐	-19335
臆	-19336
谄	-19337
관	-19338
병	-19339
ե	-19340
ַ	-19341
ག	-19342
ြ	-19343
╱	-19344
卍	-19345
垓	-19346
壊	-19347
帯	-19348
沩	-19349
洹	-19350
狈	-19351
猁	-19352
粕	-19353
胍	-19354
脯	-19355
膈	-19356
苎	-19357
荘	-19358
袴	-19359
裟	-19360
铌	-19361
đ	-19362
བ	-19363
暄	-19364
濯	-19365
炤	-19366
窿	-19367
俦	-19368
兢	-19369
処	-19370
懊	-19371
拴	-19372
沓	-19373
豳	-19374
鄄	-19375
铧	-19376
锷	-19377
鳉	-19378
鸸	-19379
백	-19380
伕	-19381
梆	-19382
熨	-19383
璁	-19384
瞧	-19385
聡	-19386
莼	-19387
葳	-19388
蕤	-19389
袈	-19390
迤	-19391
邽	-19392
镧	-19393
鬓	-19394
鹌	-19395
Ś	-19396
ג	-19397
າ	-19398
რ	-19399
匏	-19400
喋	-19401
楂	-19402
殒	-19403
烩	-19404
焜	-19405
皙	-19406
舐	-19407
鏖	-19408
鮨	-19409
鲎	-19410
홍	-19411
회	-19412
咝	-19413
巯	-19414
楢	-19415
湃	-19416
眈	-19417
缜	-19418
鑛	-19419
¥	-19420
ʻ	-19421
ງ	-19422
抡	-19423
搐	-19424
柞	-19425
瘩	-19426
赝	-19427
颎	-19428
ं	-19429
ད	-19430
တ	-19431
冇	-19432
哼	-19433
嘅	-19434
嘢	-19435
姝	-19436
碚	-19437
芗	-19438
석	-19439
Ü	-19440
ם	-19441
䓬	-19442
凫	-19443
嗝	-19444
孳	-19445
浬	-19446
疙	-19447
碣	-19448
袱	-19449
غ	-19450
ى	-19451
ْ	-19452
俎	-19453
搪	-19454
槊	-19455
槿	-19456
獗	-19457
窓	-19458
螭	-19459
褥	-19460
轫	-19461
闿	-19462
髙	-19463
세	-19464
운	-19465
↑	-19466
吲	-19467
濉	-19468
笞	-19469
裒	-19470
锹	-19471
阊	-19472
에	-19473
‿	-19474
侪	-19475
僳	-19476
哚	-19477
唁	-19478
蚋	-19479
蝽	-19480
铄	-19481
鸱	-19482
鼱	-19483
侂	-19484
坌	-19485
峄	-19486
嶂	-19487
玹	-19488
脷	-19489
趸	-19490
방	-19491
Ρ	-19492
ћ	-19493
彷	-19494
蜃	-19495
는	-19496
յ	-19497
ग	-19498
ရ	-19499
♭	-19500
嘈	-19501
稙	-19502
蘸	-19503
蛀	-19504
覇	-19505
蹶	-19506
驩	-19507
髭	-19508
龢	-19509
용	-19510
ज	-19511
ộ	-19512
△	-19513
椴	-19514
瘿	-19515
皐	-19516
翀	-19517
Υ	-19518
پ	-19519
⇒	-19520
仡	-19521
噌	-19522
埙	-19523
捒	-19524
搔	-19525
沣	-19526
濞	-19527
犷	-19528
邰	-19529
飚	-19530
면	-19531
ณ	-19532
โ	-19533
傈	-19534
嗔	-19535
愕	-19536
縄	-19537
绦	-19538
诜	-19539
郏	-19540
駆	-19541
骜	-19542
Τ	-19543
פ	-19544
寳	-19545
尙	-19546
屐	-19547
爨	-19548
禛	-19549
趺	-19550
鲂	-19551
철	-19552
ק	-19553
Ἀ	-19554
怙	-19555
悰	-19556
拽	-19557
毂	-19558
汊	-19559
箓	-19560
胳	-19561
郫	-19562
鬟	-19563
`	-19564
Ç	-19565
Γ	-19566
埸	-19567
嵙	-19568
扦	-19569
捩	-19570
橿	-19571
溟	-19572
菰	-19573
酣	-19574
鋆	-19575
钕	-19576
鯓	-19577
鸻	-19578
ʊ	-19579
働	-19580
徴	-19581
茔	-19582
蜱	-19583
계	-19584
咭	-19585
囧	-19586
檩	-19587
澪	-19588
缗	-19589
차	-19590
ს	-19591
坷	-19592
斫	-19593
檗	-19594
溏	-19595
疥	-19596
礽	-19597
莳	-19598
鬲	-19599
명	-19600
왕	-19601
𫖳	-19602
€	-19603
偲	-19604
啾	-19605
塱	-19606
崆	-19607
擘	-19608
焖	-19609
秭	-19610
缰	-19611
誊	-19612
谠	-19613
锇	-19614
그	-19615
내	-19616
圉	-19617
鄠	-19618
승	-19619
터	-19620
Φ	-19621
暦	-19622
焱	-19623
牯	-19624
芃	-19625
茁	-19626
Χ	-19627
ס	-19628
ི	-19629
ង	-19630
渉	-19631
痈	-19632
皝	-19633
芾	-19634
霈	-19635
ơ	-19636
ນ	-19637
ອ	-19638
垠	-19639
屉	-19640
鞣	-19641
إ	-19642
仃	-19643
唢	-19644
噗	-19645
弢	-19646
暁	-19647
煨	-19648
翕	-19649
阄	-19650
І	-19651
ச	-19652
捺	-19653
枸	-19654
泯	-19655
痲	-19656
癞	-19657
磬	-19658
磴	-19659
蝓	-19660
讦	-19661
饯	-19662
임	-19663
준	-19664
哙	-19665
壅	-19666
惘	-19667
扪	-19668
旼	-19669
纨	-19670
钇	-19671
铊	-19672
锴	-19673
중	-19674
청	-19675
ị	-19676
廻	-19677
惚	-19678
煖	-19679
篝	-19680
蛞	-19681
鏊	-19682
钽	-19683
ө	-19684
ি	-19685
த	-19686
ர	-19687
嗨	-19688
廙	-19689
徨	-19690
怦	-19691
拏	-19692
湫	-19693
芡	-19694
蒽	-19695
蛸	-19696
鳔	-19697
순	-19698
乜	-19699
倣	-19700
儆	-19701
圏	-19702
埒	-19703
姶	-19704
崃	-19705
痂	-19706
瘰	-19707
糅	-19708
谘	-19709
단	-19710
õ	-19711
Ş	-19712
দ	-19713
ར	-19714
ន	-19715
∶	-19716
吱	-19717
塬	-19718
竑	-19719
舛	-19720
裱	-19721
黼	-19722
무	-19723
ব	-19724
姣	-19725
汧	-19726
淸	-19727
渑	-19728
窠	-19729
耨	-19730
荠	-19731
谡	-19732
迢	-19733
鹱	-19734
ę	-19735
ә	-19736
ู	-19737
∞	-19738
倶	-19739
枹	-19740
栀	-19741
溱	-19742
焼	-19743
眸	-19744
瞋	-19745
罘	-19746
耜	-19747
̯	-19748
ぁ	-19749
呦	-19750
咋	-19751
柁	-19752
楸	-19753
獒	-19754
笕	-19755
绂	-19756
跸	-19757
郾	-19758
鉏	-19759
骋	-19760
만	-19761
ئ	-19762
ন	-19763
ပ	-19764
ヲ	-19765
咩	-19766
嗡	-19767
囿	-19768
圮	-19769
抟	-19770
湣	-19771
箐	-19772
ह	-19773
ლ	-19774
ぺ	-19775
揪	-19776
睺	-19777
鲡	-19778
요	-19779
স	-19780
ུ	-19781
∧	-19782
倔	-19783
唛	-19784
帙	-19785
琯	-19786
瑷	-19787
磕	-19788
箧	-19789
罽	-19790
苅	-19791
茯	-19792
邗	-19793
飏	-19794
과	-19795
哟	-19796
嘿	-19797
尪	-19798
岀	-19799
戆	-19800
昐	-19801
楙	-19802
沆	-19803
泺	-19804
秸	-19805
窈	-19806
赀	-19807
軽	-19808
邴	-19809
魮	-19810
Ž	-19811
ّ	-19812
ข	-19813
ṛ	-19814
ễ	-19815
彅	-19816
戢	-19817
枱	-19818
炁	-19819
硐	-19820
繖	-19821
肟	-19822
衿	-19823
谳	-19824
逖	-19825
郿	-19826
鲢	-19827
ट	-19828
श	-19829
ল	-19830
ម	-19831
∨	-19832
叁	-19833
咚	-19834
尕	-19835
昪	-19836
汭	-19837
沄	-19838
琎	-19839
筮	-19840
蘧	-19841
蚶	-19842
蠹	-19843
酢	-19844
금	-19845
𫷷	-19846
𬭎	-19847
ო	-19848
䃅	-19849
伋	-19850
呛	-19851
嵬	-19852
炕	-19853
篦	-19854
籐	-19855
臾	-19856
豨	-19857
˧	-19858
ो	-19859
ம	-19860
ḍ	-19861
廨	-19862
滏	-19863
磔	-19864
逋	-19865
삼	-19866
ő	-19867
ǎ	-19868
ɨ	-19869
ត	-19870
値	-19871
剁	-19872
潴	-19873
焓	-19874
狎	-19875
黝	-19876
니	-19877
𫍯	-19878
կ	-19879
ா	-19880
偓	-19881
獐	-19882
砻	-19883
祔	-19884
환	-19885
ˊ	-19886
ء	-19887
ぇ	-19888
㐷	-19889
伫	-19890
匂	-19891
晸	-19892
浃	-19893
浍	-19894
珺	-19895
祆	-19896
祏	-19897
羗	-19898
莨	-19899
蚱	-19900
蜊	-19901
衹	-19902
觚	-19903
讃	-19904
铤	-19905
̍	-19906
့	-19907
咔	-19908
啖	-19909
埚	-19910
惔	-19911
拈	-19912
揹	-19913
洧	-19914
滹	-19915
犨	-19916
竦	-19917
蛔	-19918
螟	-19919
逯	-19920
𨱇	-19921
ֶ	-19922
ُ	-19923
འ	-19924
䱵	-19925
傩	-19926
呱	-19927
嚈	-19928
岢	-19929
氚	-19930
诧	-19931
铼	-19932
锽	-19933
鯙	-19934
𫊸	-19935
𫖯	-19936
劵	-19937
嗤	-19938
攫	-19939
玢	-19940
瘪	-19941
笳	-19942
缥	-19943
葶	-19944
Ä	-19945
ֹ	-19946
ז	-19947
ื	-19948
◎	-19949
唬	-19950
廸	-19951
暾	-19952
洎	-19953
痤	-19954
瞥	-19955
酞	-19956
颕	-19957
饴	-19958
당	-19959
식	-19960
ম	-19961
ན	-19962
吮	-19963
噱	-19964
囲	-19965
窰	-19966
鬻	-19967
레	-19968
Ø	-19969
ʿ	-19970
█	-19971
倧	-19972
偁	-19973
呻	-19974
粳	-19975
罴	-19976
薏	-19977
袄	-19978
谀	-19979
鄣	-19980
鬘	-19981
𬬮	-19982
Η	-19983
گ	-19984
ு	-19985
↓	-19986
≥	-19987
倜	-19988
労	-19989
唵	-19990
囝	-19991
垚	-19992
媾	-19993
崮	-19994
怅	-19995
憍	-19996
捅	-19997
纡	-19998
臬	-19999
荦	-20000
镨	-20001
𫫇	-20002
‡	-20003
吖	-20004
哎	-20005
啪	-20006
夤	-20007
悛	-20008
掲	-20009
揍	-20010
曩	-20011
楝	-20012
犂	-20013
狨	-20014
瘁	-20015
绌	-20016
莴	-20017
蛆	-20018
锟	-20019
馔	-20020
鳀	-20021
복	-20022
창	-20023
황	-20024
Ó	-20025
ą	-20026
ภ	-20027
悭	-20028
愆	-20029
犰	-20030
狳	-20031
玆	-20032
甪	-20033
畤	-20034
郇	-20035
锕	-20036
야	-20037
_	-20038
ญ	-20039
ษ	-20040
ả	-20041
剡	-20042
垸	-20043
栻	-20044
狛	-20045
狞	-20046
畋	-20047
腴	-20048
蜇	-20049
谞	-20050
赍	-20051
镬	-20052
거	-20053
덕	-20054
을	-20055
행	-20056
§	-20057
ມ	-20058
ប	-20059
傥	-20060
咧	-20061
埜	-20062
嬛	-20063
巿	-20064
恚	-20065
淯	-20066
煽	-20067
燐	-20068
篁	-20069
翥	-20070
聃	-20071
裆	-20072
谲	-20073
逑	-20074
闩	-20075
顕	-20076
颀	-20077
모	-20078
훈	-20079
ұ	-20080
ט	-20081
ํ	-20082
ầ	-20083
≤	-20084
俛	-20085
楮	-20086
爻	-20087
芫	-20088
赧	-20089
평	-20090
𤩽	-20091
𬭩	-20092
ʼ	-20093
ˌ	-20094
ث	-20095
ض	-20096
ক	-20097
♡	-20098
䌷	-20099
佾	-20100
坩	-20101
揄	-20102
榖	-20103
畷	-20104
荩	-20105
遛	-20106
馍	-20107
예	-20108
파	-20109
ɯ	-20110
̇	-20111
ப	-20112
མ	-20113
ခ	-20114
䓨	-20115
仟	-20116
傚	-20117
嬿	-20118
扆	-20119
烺	-20120
篾	-20121
粑	-20122
蘂	-20123
豢	-20124
铷	-20125
髁	-20126
鲆	-20127
鳚	-20128
래	-20129
바	-20130
포	-20131
﨑	-20132
埈	-20133
妪	-20134
扱	-20135
毖	-20136
瀞	-20137
砮	-20138
艶	-20139
遨	-20140
酔	-20141
騒	-20142
형	-20143
˩	-20144
Қ	-20145
ս	-20146
آ	-20147
ང	-20148
သ	-20149
撬	-20150
獴	-20151
瘸	-20152
盩	-20153
缯	-20154
肜	-20155
脳	-20156
茌	-20157
茛	-20158
谩	-20159
迸	-20160
铕	-20161
铖	-20162
건	-20163
치	-20164
տ	-20165
ब	-20166
┣	-20167
䓕	-20168
塙	-20169
揶	-20170
杳	-20171
盥	-20172
羸	-20173
舣	-20174
蓨	-20175
馁	-20176
驺	-20177
鸰	-20178
후	-20179
ׁ	-20180
ᠠ	-20181
ế	-20182
匄	-20183
卬	-20184
埵	-20185
妣	-20186
巂	-20187
戋	-20188
戡	-20189
拧	-20190
撩	-20191
朶	-20192
浄	-20193
潾	-20194
犄	-20195
畯	-20196
皞	-20197
睬	-20198
碴	-20199
祓	-20200
笮	-20201
粄	-20202
糍	-20203
蒺	-20204
蠲	-20205
襁	-20206
酩	-20207
鲮	-20208
노	-20209
려	-20210
ż	-20211
ɥ	-20212
ہ	-20213
अ	-20214
জ	-20215
ເ	-20216
ậ	-20217
䴕	-20218
亹	-20219
厔	-20220
娓	-20221
嫚	-20222
欤	-20223
涮	-20224
烊	-20225
玙	-20226
荤	-20227
蓥	-20228
蚡	-20229
蹋	-20230
錬	-20231
齢	-20232
두	-20233
들	-20234
𫇭	-20235
𬩽	-20236
ে	-20237
ῦ	-20238
㧑	-20239
呉	-20240
懵	-20241
擀	-20242
檎	-20243
沤	-20244
滉	-20245
禑	-20246
窕	-20247
胂	-20248
褔	-20249
譲	-20250
骝	-20251
黻	-20252
봉	-20253
ལ	-20254
ེ	-20255
ယ	-20256
ố	-20257
佢	-20258
劄	-20259
徵	-20260
烜	-20261
畬	-20262
籓	-20263
苡	-20264
魍	-20265
𬶨	-20266
მ	-20267
唧	-20268
垟	-20269
壆	-20270
搀	-20271
氖	-20272
罍	-20273
翚	-20274
胝	-20275
薗	-20276
郕	-20277
铑	-20278
锏	-20279
锛	-20280
鱵	-20281
녀	-20282
위	-20283
ᠨ	-20284
ἀ	-20285
ヅ	-20286
僊	-20287
擧	-20288
槭	-20289
沚	-20290
牂	-20291
璆	-20292
缈	-20293
雩	-20294
黙	-20295
ψ	-20296
є	-20297
প	-20298
ྱ	-20299
ნ	-20300
უ	-20301
叨	-20302
圪	-20303
孑	-20304
掴	-20305
濊	-20306
熜	-20307
皑	-20308
眜	-20309
苜	-20310
踹	-20311
鞆	-20312
黠	-20313
림	-20314
ˇ	-20315
ـ	-20316
ष	-20317
ະ	-20318
ვ	-20319
ọ	-20320
„	-20321
‬	-20322
嘹	-20323
噢	-20324
嚷	-20325
坭	-20326
垡	-20327
壱	-20328
媞	-20329
幷	-20330
拝	-20331
梼	-20332
棹	-20333
瑢	-20334
遒	-20335
钌	-20336
霎	-20337
भ	-20338
য	-20339
ু	-20340
ட	-20341
ㄅ	-20342
俅	-20343
倌	-20344
倓	-20345
叼	-20346
叽	-20347
呷	-20348
唠	-20349
巌	-20350
庹	-20351
柒	-20352
溆	-20353
炘	-20354
煚	-20355
硏	-20356
箩	-20357
萣	-20358
鸩	-20359
씨	-20360
צ	-20361
ㄇ	-20362
吽	-20363
挙	-20364
斓	-20365
柽	-20366
棐	-20367
檨	-20368
欉	-20369
泫	-20370
畧	-20371
芩	-20372
锝	-20373
隹	-20374
鲼	-20375
鹨	-20376
개	-20377
숙	-20378
𪨶	-20379
𫗧	-20380
ș	-20381
च	-20382
仵	-20383
廃	-20384
悧	-20385
暌	-20386
璎	-20387
眭	-20388
禤	-20389
蓿	-20390
虓	-20391
螅	-20392
螽	-20393
赳	-20394
鲅	-20395
더	-20396
ғ	-20397
ী	-20398
䝙	-20399
佉	-20400
啧	-20401
媵	-20402
嶝	-20403
廵	-20404
柾	-20405
浠	-20406
煴	-20407
獬	-20408
砟	-20409
缟	-20410
臯	-20411
蓣	-20412
蚴	-20413
裈	-20414
謇	-20415
貊	-20416
魉	-20417
鳎	-20418
규	-20419
열	-20420
혜	-20421
ɤ	-20422
ျ	-20423
თ	-20424
◆	-20425
♯	-20426
勔	-20427
哏	-20428
喳	-20429
榧	-20430
樗	-20431
浈	-20432
渌	-20433
簗	-20434
缦	-20435
菑	-20436
蓇	-20437
袪	-20438
豕	-20439
郞	-20440
韪	-20441
魋	-20442
鹜	-20443
ǐ	-20444
ใ	-20445
လ	-20446
≈	-20447
啥	-20448
囓	-20449
潺	-20450
瘘	-20451
瞽	-20452
砭	-20453
砰	-20454
訇	-20455
鄘	-20456
颥	-20457
옥	-20458
타	-20459
𬶮	-20460
ɬ	-20461
˥	-20462
ီ	-20463
ិ	-20464
ῖ	-20465
啯	-20466
囡	-20467
戕	-20468
畀	-20469
砣	-20470
稃	-20471
绉	-20472
翮	-20473
聩	-20474
葖	-20475
蟥	-20476
铙	-20477
陜	-20478
권	-20479
애	-20480
크	-20481
ʕ	-20482
ֵ	-20483
ன	-20484
䴓	-20485
伷	-20486
倮	-20487
凃	-20488
劢	-20489
埂	-20490
寤	-20491
峁	-20492
揾	-20493
摈	-20494
昰	-20495
槇	-20496
櫈	-20497
瓖	-20498
赊	-20499
郛	-20500
醺	-20501
雠	-20502
髀	-20503
鬪	-20504
鲴	-20505
손	-20506
𫚔	-20507
Ζ	-20508
়	-20509
ວ	-20510
ề	-20511
ㄚ	-20512
垵	-20513
姵	-20514
搾	-20515
晧	-20516
杌	-20517
玚	-20518
舢	-20519
觑	-20520
讴	-20521
遘	-20522
간	-20523
혁	-20524
ʨ	-20525
ី	-20526
佻	-20527
媪	-20528
岿	-20529
炆	-20530
燹	-20531
玕	-20532
痿	-20533
盅	-20534
藿	-20535
诔	-20536
賛	-20537
韮	-20538
馑	-20539
鳏	-20540
鼷	-20541
감	-20542
러	-20543
𬺈	-20544
Í	-20545
්	-20546
ំ	-20547
ồ	-20548
┓	-20549
娆	-20550
歯	-20551
濶	-20552
琤	-20553
璲	-20554
瞌	-20555
箨	-20556
篑	-20557
胴	-20558
腧	-20559
腩	-20560
葑	-20561
藨	-20562
诶	-20563
邉	-20564
酊	-20565
醂	-20566
髹	-20567
鳯	-20568
鸷	-20569
鹡	-20570
와	-20571
𫍽	-20572
ў	-20573
ல	-20574
ື	-20575
စ	-20576
ῶ	-20577
㓥	-20578
仏	-20579
厓	-20580
叅	-20581
垍	-20582
奨	-20583
彘	-20584
桷	-20585
猊	-20586
甙	-20587
痨	-20588
窣	-20589
辔	-20590
邡	-20591
镦	-20592
달	-20593
북	-20594
업	-20595
ũ	-20596
ų	-20597
մ	-20598
ण	-20599
ා	-20600
丼	-20601
喽	-20602
噏	-20603
塽	-20604
尅	-20605
幄	-20606
掟	-20607
瘢	-20608
砒	-20609
篓	-20610
羕	-20611
貤	-20612
趵	-20613
钐	-20614
镊	-20615
근	-20616
피	-20617
𫝭	-20618
𬙂	-20619
ţ	-20620
ʾ	-20621
ू	-20622
ྲ	-20623
ွ	-20624
咗	-20625
巣	-20626
弐	-20627
挈	-20628
旄	-20629
栲	-20630
梃	-20631
浯	-20632
渟	-20633
澁	-20634
砬	-20635
礴	-20636
笥	-20637
纛	-20638
腆	-20639
衎	-20640
譔	-20641
跞	-20642
鄀	-20643
鄫	-20644
鲻	-20645
게	-20646
길	-20647
독	-20648
별	-20649
생	-20650
충	-20651
프	-20652
𫓴	-20653
Ú	-20654
ң	-20655
Ա	-20656
ত	-20657
Ḥ	-20658
ἐ	-20659
䌹	-20660
婼	-20661
枥	-20662
栴	-20663
璹	-20664
矧	-20665
縠	-20666
缲	-20667
荑	-20668
菽	-20669
衪	-20670
逄	-20671
铡	-20672
陔	-20673
물	-20674
찬	-20675
𫛚	-20676
ɿ	-20677
ʦ	-20678
গ	-20679
ბ	-20680
⇔	-20681
┳	-20682
⟷	-20683
兎	-20684
凖	-20685
圀	-20686
憙	-20687
朏	-20688
桠	-20689
煅	-20690
芪	-20691
葰	-20692
衾	-20693
钲	-20694
魑	-20695
鲥	-20696
鹇	-20697
심	-20698
즈	-20699
흥	-20700
Þ	-20701
வ	-20702
ை	-20703
ซ	-20704
‍	-20705
䳍	-20706
呑	-20707
唷	-20708
峣	-20709
崤	-20710
徬	-20711
惆	-20712
揺	-20713
摭	-20714
晊	-20715
橐	-20716
珧	-20717
璪	-20718
膂	-20719
菫	-20720
躄	-20721
邲	-20722
醅	-20723
銭	-20724
鳊	-20725
매	-20726
범	-20727
ĩ	-20728
̚	-20729
چ	-20730
ड	-20731
ລ	-20732
အ	-20733
ṅ	-20734
ῆ	-20735
⇄	-20736
冽	-20737
呾	-20738
嘀	-20739
堞	-20740
庖	-20741
廼	-20742
弇	-20743
彖	-20744
悴	-20745
懃	-20746
搂	-20747
柟	-20748
樨	-20749
瀹	-20750
璥	-20751
缐	-20752
菪	-20753
貉	-20754
邋	-20755
閦	-20756
魃	-20757
þ	-20758
ظ	-20759
ជ	-20760
ぢ	-20761
哂	-20762
嫲	-20763
怆	-20764
暲	-20765
汚	-20766
胙	-20767
荽	-20768
褛	-20769
谆	-20770
遑	-20771
郈	-20772
陁	-20773
鵄	-20774
디	-20775
말	-20776
풍	-20777
Հ	-20778
ถ	-20779
็	-20780
េ	-20781
∙	-20782
│	-20783
偎	-20784
唉	-20785
寘	-20786
徼	-20787
悩	-20788
愎	-20789
拄	-20790
枧	-20791
柢	-20792
澥	-20793
燝	-20794
玦	-20795
珝	-20796
璮	-20797
畦	-20798
瘗	-20799
禔	-20800
绲	-20801
胼	-20802
舾	-20803
菡	-20804
虿	-20805
蠊	-20806
襞	-20807
蹙	-20808
辋	-20809
钸	-20810
镈	-20811
饫	-20812
黁	-20813
추	-20814
𬘘	-20815
ȵ	-20816
ʈ	-20817
ʐ	-20818
យ	-20819
♂	-20820
圧	-20821
嬖	-20822
廋	-20823
懑	-20824
抃	-20825
敩	-20826
椤	-20827
泱	-20828
淙	-20829
珦	-20830
瑆	-20831
癜	-20832
箬	-20833
篪	-20834
翙	-20835
舀	-20836
蜉	-20837
贶	-20838
跏	-20839
遢	-20840
酃	-20841
钖	-20842
锉	-20843
黥	-20844
루	-20845
버	-20846
술	-20847
집	-20848
통	-20849
협	-20850
վ	-20851
པ	-20852
ព	-20853
∕	-20854
∥	-20855
佖	-20856
咻	-20857
喾	-20858
妩	-20859
媺	-20860
彟	-20861
恫	-20862
柰	-20863
棫	-20864
槁	-20865
湌	-20866
玨	-20867
繋	-20868
袅	-20869
跚	-20870
逹	-20871
鑨	-20872
餽	-20873
ǔ	-20874
Ј	-20875
թ	-20876
ध	-20877
്	-20878
ສ	-20879
ớ	-20880
ㄥ	-20881
䗛	-20882
卣	-20883
厍	-20884
唃	-20885
孱	-20886
慵	-20887
戗	-20888
捎	-20889
栿	-20890
橼	-20891
滠	-20892
濙	-20893
粜	-20894
絜	-20895
膣	-20896
臊	-20897
苈	-20898
觌	-20899
诿	-20900
谵	-20901
赙	-20902
跩	-20903
陬	-20904
鲃	-20905
鲾	-20906
麇	-20907
실	-20908
𪻺	-20909
̩	-20910
ấ	-20911
ὐ	-20912
䴙	-20913
乭	-20914
儇	-20915
厳	-20916
圯	-20917
垌	-20918
峋	-20919
忡	-20920
恻	-20921
掰	-20922
揸	-20923
殚	-20924
熺	-20925
獏	-20926
眦	-20927
瞑	-20928
舸	-20929
蘖	-20930
觋	-20931
鞬	-20932
鲔	-20933
반	-20934
𠊎	-20935
𣸣	-20936
𪾔	-20937
ɦ	-20938
ʌ	-20939
ຊ	-20940
ხ	-20941
ទ	-20942
〝	-20943
ヂ	-20944
䴘	-20945
忐	-20946
怏	-20947
憔	-20948
懐	-20949
晙	-20950
梣	-20951
爌	-20952
瑑	-20953
籴	-20954
聴	-20955
讐	-20956
蹉	-20957
蹒	-20958
逌	-20959
镣	-20960
鱥	-20961
鼇	-20962
목	-20963
설	-20964
월	-20965
채	-20966
𩾌	-20967
ň	-20968
Ά	-20969
།	-20970
္	-20971
វ	-20972
⿰	-20973
劻	-20974
唹	-20975
啁	-20976
嗯	-20977
嚟	-20978
埧	-20979
娉	-20980
崠	-20981
忑	-20982
惪	-20983
慥	-20984
旉	-20985
昞	-20986
晄	-20987
暎	-20988
樘	-20989
燔	-20990
狰	-20991
砫	-20992
茭	-20993
萡	-20994
诳	-20995
貍	-20996
镃	-20997
镤	-20998
隄	-20999
람	-21000
욱	-21001
𠱞	-21002
𥙿	-21003
𪢠	-21004
𫓧	-21005
[...]
